##hafte	100
zeige_bearbeiter	100
tm_y	100
##=-="	100
##uti	100
vt_r	100
php4rc	100
ovrimo	100
swfgra	100
cin	100
lifetime	100
##errormsg	100
schrif	100
ebcdic_str	100
ungelesener	100
##legten	100
zugriffskoordination	100
anonyme	100
##clientencoding	100
pcntl_fork	100
bar2	100
123	100
ungetestet	100
##an	100
mussten	100
*)(	100
lie	100
verwendbarkeit	100
##spe	100
derzeit	100
bemerken	100
aufgerufenen	100
signalnummer	100
begleitende	100
vorne	100
ermit	100
portierbar	100
sicherstellen	100
variableninhalte	100
rüchgabewert	100
wofür	100
umsetzungs	100
##inguished	100
erfolgte	100
skriptverzeichnis	100
od	100
##geladen	100
mssql_fetch_rows	100
fom	100
sqldata	100
oe	100
beispiels	100
wrden	100
cles	100
allow_dcom	100
dba_op	100
marketing	100
einschließen	100
jeweili	100
viele	100
user_re_order	100
##sertion	100
)+$	100
##ohlen	100
ingres_query	100
spelld	100
ingres_field_nullable	100
##od	100
',$	100
##uls	100
tmp_name	100
unerlaub	100
##gert	100
cpdf_curveto	100
##cks	100
stuff	100
;}';	100
verweisen	100
##mo	100
dateirechte	100
mysql_fieldlen	100
oliver	100
displaying	100
##d_extension	100
##hem	100
potenzieren	100
##ribu	100
session_cache_limiter	100
entschlüssel	100
warten	100
elem	100
diale	100
595	100
guid	100
binaries	100
gehacked	100
##b	100
##_methoden	100
interaktivních	100
##etype	100
span	100
##ektiver	100
kleingesch	100
savefile	100
platzhal	100
11111111	100
php_self	100
tschech	100
mysc	100
hardlinks	100
##komponente	100
hiervon	100
ausloggen	100
stream	100
simples	100
dbx_cmp_asc	100
ausführungs	100
benn	100
##altet	100
surname	100
##hobene	100
##ting	100
objektebene	100
imap_utf7	100
##trä	100
läßt	100
associative	100
application	100
10000	100
e_no	100
umgebungs	100
verfolgt	100
cpdf_newpath	100
##ans	100
obiger	100
icons	100
##ove	100
ip2long	100
reduzieren	100
##ck_mode	100
got	100
dokument	100
nicht	100
drit	100
automatisches	100
##rkt	100
##sa	100
benannte	100
##tin	100
##png	100
printer_draw_text	100
ibase_free_result	100
##abhängige	100
fer	100
ignore_notice	100
##nieren	100
ausgestattet	100
virt	100
##ignore	100
")."	100
##.	100
##fc	100
aufwand	100
verschlüsselt	100
anzugebende	100
session_set_cookie_params	100
##kont	100
##_continu	100
cfg_file_path	100
."]	100
dateisperren	100
##mack	100
##beugen	100
errordocumen	100
##_p	100
##valid	100
##uint	100
##endertermine	100
zukünftigen	100
"],	100
##_filename	100
dämonen	100
pdf_close	100
##_suc	100
cnswww	100
##02	100
wert2	100
geänderte	100
imap_8bit	100
postfäch	100
oracle8	100
dreidimension	100
ran	100
##pthread	100
nibble	100
pcntl	100
##definition	100
##ator	100
cpdf_setlinecap	100
beizubehalten	100
außerdem	100
##org	100
mnogosearch	100
ingres_field_null	100
sew42ae	100
kinder	100
##pre	100
##oti	100
##_fill	100
gemein	100
ociparse	100
rdns	100
##sie	100
zeige	100
letz	100
iso646	100
matumoto	100
äqu	100
verbindungsparameter	100
speichernden	100
']++;}?	100
##path	100
$	100
komplettem	100
libmod	100
##enin	100
##ägt	100
"----------\	100
besuchers	100
kompati	100
bemerkungen	100
bindec	100
gehts	100
pdf_set_info_	100
´)	100
brute	100
inclu	100
":.	100
bedingung	100
##schub	100
f_unlck	100
gelangen	100
duch	100
##hift	100
verwei	100
##stelltem	100
##hek	100
eingeloggten	100
##hung	100
meist	100
sogenannte	100
zahlungsabwicklung	100
"))	100
##regendes	100
sequenz	100
exklusive	100
parse_url	100
m_e	100
find	100
vcvars	100
cur	100
freunde	100
myput	100
aufrechterhalten	100
ungül	100
geladen	100
grösse	100
deletes	100
kreiert	100
##fol	100
sablotron	100
symmet	100
holländisch	100
verifizieren	100
suchmasch	100
schlechte	100
$-	100
##abled	100
multipliziert	100
##duce	100
proxyserver	100
freetds	100
,"%	100
zulässigen	100
##tion	100
##kom	100
ircg_j	100
##rows	100
dürfen	100
##at	100
verwende	100
##styp	100
sess_file	100
post_max_size	100
##level	100
result_type	100
ursprungsvarial	100
skripte	100
wurde	100
##bat	100
*(	100
gh	100
##va	100
includes	100
zuweis	100
angen	100
newsrc	100
();}}	100
manuellen	100
formatierte	100
ftp_quit	100
versichern	100
checkdnsrr	100
tempnam	100
##cursor	100
imap_close	100
##ieden	100
haupt	100
calendar	100
nummerisches	100
##telte	100
horchen	100
));}	100
ersten	100
aben	100
##dc	100
alerte	100
preisgeben	100
systemschwäch	100
anschließend	100
##_u	100
fbsql_lob	100
php_sablot	100
schlüsselwort	100
auslesen	100
unveränderte	100
skey	100
force	100
,':	100
stillschweigend	100
special	100
##lk	100
kennen	100
maps	100
x11	100
##{$	100
bogenmaß	100
arcuscosinus	100
aller	100
##or	100
is_read	100
exif	100
entpacken	100
serialisieren	100
aufgaben	100
sondern	100
##ehung	100
##tica	100
einlesen	100
gid	100
##scheinlich	100
variablendefine	100
##eilt	100
compilerschal	100
festzustellen	100
mysql_client_interactive	100
pdf_begin	100
getusage	100
eingesetzt	100
##r_class	100
fscanf	100
msql_fieldtype	100
bestandteile	100
multidimension	100
);??	100
mysql_fetch_array	100
)).	100
)$",$	100
bestmöglich	100
##mp3	100
dimensionen	100
##bezeich	100
bind	100
auto	100
unterscheidet	100
auflisten	100
auskommen	100
vorgesehen	100
zugiff	100
kn	100
verlieren	100
serialisierenden	100
##_get_option	100
binärer	100
exoti	100
##passwort	100
##ichten	100
##ktions	100
tausend	100
##ygon	100
##eiter	100
extensible	100
52	100
ent_comp	100
alex	100
mkey	100
[UNK]	100
##udio	100
anlässen	100
must	100
ikl	100
protokollhandler	100
##t_param	100
000000000000000000000000	100
1998	100
schnell	100
nachricht	100
##datum	100
array1	100
skalar	100
sesam_seek_relative	100
produktions	100
module_name	100
##acing	100
staroff	100
##ooort	100
schlüssel	100
complaing	100
##tity	100
encoded	100
architektur	100
##_post	100
ircg_join	100
##led	100
eingabewert	100
##eup	100
winrar	100
absol	100
gewissenhaft	100
sock_rd	100
ifx_text	100
bricht	100
##ularität	100
##_sub	100
##rev	100
openssl_seal	100
##9a2	100
pe	100
operationen	100
pspell_config_mode	100
##kunde	100
specify	100
pspell_	100
umgang	100
oc	100
cf	100
verpacken	100
*()	100
datumsangaben	100
##entlicht	100
resultierenden	100
hinzufügt	100
fbsql_create_blob	100
##wert	100
inkrementierenden	100
##uht	100
cpdf_set_word_spacing	100
verzeichnistiefe	100
##kontroll	100
##fetch_field	100
abstraktionsschicht	100
dritt	100
dreispaltiges	100
komma	100
auswahllisten	100
vergleichsalgorithmus	100
casc	100
uris	100
argv	100
##_e	100
##vchar	100
domdocument_create	100
typen	100
##sive	100
scanning	100
"?"	100
überflüssige	100
hin	100
stehende	100
##lient_	100
knoten	100
resourc	100
0200	100
hinzugefügt	100
numerischen	100
##dium	100
##31	100
naechstesjahr	100
vertra	100
topic	100
alias	100
_files	100
bug	100
##_runtime	100
php_m	100
##tation	100
strlen	100
),	100
openssl_csr_new	100
##_before	100
udm_param_page	100
treffer	100
php_manual_lang	100
aufgeführten	100
verge	100
kleingeschrieben	100
##lä	100
##5599	100
extends	100
x41	100
##mt	100
eingabefeld	100
output_encoding	100
heine	100
sachgemäße	100
allerbeste	100
deptno	100
similar_text	100
##war	100
1200	100
gespr	100
##adian	100
ferkel	100
macht	100
##mechanismus	100
##anter	100
ausdrück	100
##aß	100
set_magic_quotes_runtime	100
ldap_read	100
einschliesslich	100
%),	100
##tzeichen	100
grundbestand	100
bool	100
pdf_skew	100
/)	100
++-	100
druckaufträge	100
ursprüng	100
##tively	100
##prot	100
partners	100
cpdf_circle	100
##agement	100
sicheres	100
sage	100
##_er	100
();}?	100
somax	100
dateiuploads	100
sleepycat	100
array_filter	100
drink	100
errcol	100
##ov	100
montant	100
##gtk	100
##us	100
signieren	100
php4cgi	100
##unbind	100
analysierten	100
##redit	100
kommando	100
##statcache	100
77	100
string	100
erläut	100
imap_mime_header_decode	100
zugehö	100
__w	100
alerts	100
segfault	100
ora_fetch_into	100
öff	100
undec	100
geschwungenen	100
som	100
helfen	100
mindestens	100
fonts	100
arial	100
shm_open	100
peru	100
money1	100
0123	100
##ierungsfaktor	100
sortiertes	100
schwierigkeiten	100
großt	100
konkurriert	100
referenz	100
einzelner	100
##oad	100
vorschriften	100
sp2	100
##chenland	100
latin	100
pa	100
nutzt	100
=*"	100
codepage	100
benutzers	100
hkey	100
webdb	100
array_pop	100
warsteiner	100
('=',	100
##ferer	100
##etten	100
##_page	100
integrated	100
korrektur	100
ar1	100
uh	100
dateiliste	100
ausdr2	100
bestimmt	100
##_by_tagname	100
auflösungseffekt	100
scalare	100
032	100
sommer	100
cracker	100
datenbankgest	100
##lling	100
zugriffsberech	100
seed	100
##ro	100
##nicht	100
investition	100
##ösung	100
gestaffelte	100
imagesetstyle	100
sticky	100
binden	100
gefüllte	100
dir_handle	100
sensible	100
##overwrite	100
##our	100
termine	100
get_class_vars	100
profiler	100
argumentes	100
dokumentverzeichnis	100
##--	100
##weiten	100
gettime	100
pararm	100
sicherheitsmodell	100
datenbanktransaktionen	100
falsch	100
cpdf_scale	100
web	100
mach_joghurt	100
schließt	100
##site	100
direkte	100
beit	100
sa_uid	100
kommandozeile	100
ebnfalls	100
belieb	100
mydb	100
jp	100
unterversion	100
geschweiften	100
##ontent	100
197	100
($$	100
##peichert	100
onoff	100
##entries	100
##",$	100
..."	100
primaril	100
wiederholungsfaktor	100
mitarbeitername	100
freigegebene	100
gecos	100
sichten	100
sock_dgram	100
unbind	100
vnd	100
ot	100
verschiedene	100
konstante	100
##ia	100
##atibil	100
##strukturen	100
fopen_with_path	100
entropiequelle	100
gültiges	100
##_prefix_	100
++	100
basierten	100
shmop_delete	100
,",	100
upgrade	100
"\$	100
userstatus	100
##ossen	100
##ct	100
##page	100
o_rdwr	100
##utton	100
##gram	100
bzerr	100
##anis	100
apxs	100
voll	100
generieren	100
ocisavelobfile	100
##destot	100
schlüsselbasis	100
folglich	100
vergleichsrichtung	100
vorgerückt	100
##proto_info	100
msql_list_tables	100
hauptziel	100
unbrauch	100
inode	100
vervollständigt	100
##ark	100
ou	100
gettimeofday	100
schleife	100
gro	100
0600	100
udm_param_ispell_prefixes	100
domattribute_value	100
sqltype	100
zugänglich	100
user_settings	100
##berblick	100
wand	100
mib	100
##00000000	100
1pl	100
formatiert	100
vorzubeugen	100
compilieren	100
aufrufende	100
##v4	100
"])."	100
call_user_func	100
gerät	100
##eir	100
umzuschreiben	100
]@]	100
abkürzungen	100
zog	100
++)	100
may	100
fnmatch	100
3761	100
holzgra	100
formatter	100
konstane	100
quellen	100
cpdf_setlinejoin	100
ibase	100
erhöhen	100
stderr	100
sinne	100
march	100
##ständig	100
commander	100
suchwörter	100
http_cookie	100
##ren	100
bestätigungs	100
was	100
getmypid	100
##sfunktionen	100
dokuemnte	100
mittels	100
##_f	100
##rapper	100
betonen	100
erlaubten	100
zurückgegebenes	100
##tausen	100
pgsql_bad_	100
zusammenspiel	100
complex	100
dom	100
save_path	100
##iertere	100
##kken	100
root	100
##833	100
outbuff	100
##kern	100
sprintf	100
unbeantworteten	100
hinzuge	100
handelt	100
##arke	100
##escaped	100
zeichensätzen	100
dionysius	100
8859	100
s1	100
ldap_add	100
ignor	100
(-	100
printable	100
sa_all	100
meldungskatalog	100
unterverzeichnis	100
sscanf	100
kennwort	100
address_string	100
##_erste_sp	100
##sionellen	100
##lower	100
octal_string	100
authors	100
gedruckte	100
nav	100
backslashs	100
?)	100
6b	100
0x78	100
entdeckt	100
arsort	100
url	100
lau	100
td	100
outputgamma	100
stopword	100
sicherheitszertifikat	100
fbsql_lob_direct	100
gdbm	100
sortto	100
##dump	100
##handen	100
zweite	100
derivaten	100
betaversionen	100
pg_field_is	100
sicherheitseinstellungen	100
unzulässi	100
mysql_field_flags	100
##stein	100
interpolation	100
callbacks	100
ausgestat	100
##node	100
neue_cache_verfallszeit	100
spinat	100
science	100
ausgabesteuer	100
##parse	100
varchar	100
adobe	100
##licht	100
verbindet	100
gzip	100
!($	100
recipkey	100
homepage	100
##ategor	100
imap_popen	100
##cup	100
mb_convert_case	100
##d_files	100
(;;)	100
pg_get	100
abgelei	100
zerlegen	100
at	100
argumenten	100
##eink	100
fbsql_field_type	100
##names	100
systemverzeichnis	100
stream_register_wrapper	100
extrahieren	100
dateizeigers	100
ocicommit	100
posix_	100
180	100
)**	100
gl	100
.,	100
herauszubekommen	100
##ählten	100
oml	100
sinnlosen	100
)"))	100
phplib	100
mehfachen	100
eyes	100
original_php_script	100
##border	100
##nktion	100
low	100
ldap_deref_always	100
##ructor	100
zeichenvariablen	100
##tausend	100
##11111111	100
ocicollassignelem	100
dodbc	100
viert	100
##esc	100
hinweise	100
--	100
##faktor	100
substr_count	100
look	100
socket_get	100
##flow	100
chek	100
##***	100
einschalten	100
zuverlässiges	100
##quick_print	100
zend_function_entry	100
braucht	100
bestimmte	100
umgebungsvariable	100
haeber	100
##lis	100
php_stream_dirent	100
beschädigt	100
##???)	100
##html	100
verstanden	100
stehenden	100
benutzerkennung	100
##lobtofile	100
zend_hash_update	100
##_index	100
neuinstall	100
##_packet	100
remote_add	100
shmop	100
ftp_set_option	100
ablauf	100
##9035898	100
heißen	100
sorting	100
##botes	100
##verbind	100
wegzulassen	100
haben	100
unterschrift	100
uname	100
##illy	100
demos	100
urlencoded	100
##ely	100
simpledateformat	100
##_cookies	100
hinter	100
:]]+	100
textinhalt	100
unterbunden	100
eintippen	100
##oppt	100
unbegrenz	100
ifx_byteasvarchar	100
olivers	100
dobbs	100
##c_quotes	100
imap_rfc822	100
differ	100
##echsel	100
,'$	100
parentid	100
auszuwechsel	100
authentifizierungsmodell	100
andere	100
##imal	100
enkodieren	100
replace	100
aktionen	100
##etation	100
präprozessort	100
konstruktur	100
zufällig	100
abschicken	100
inputgamma	100
separate	100
##match	100
4rev1	100
result_dump	100
cl	100
mittelpunkt	100
##_once	100
hilfr	100
angepasst	100
debuggingtech	100
funktionsdeklar	100
umgehen	100
__line__	100
##extension	100
isn	100
fbsql_db_query	100
_session	100
legt	100
##kt	100
##abenbrä	100
verzeichniseintrages	100
endofline	100
origstream	100
digitale	100
use_only_cookies	100
dechex	100
empfehlen	100
willkürlichen	100
strukturinformationen	100
(/)	100
##tektur	100
##for	100
befehl	100
unified	100
sendedatum	100
629172	100
höchsten	100
vt_	100
angezei	100
pdf_set_horiz_scaling	100
nochmals	100
##ename	100
kr	100
internet	100
anfangsinformationen	100
yp_get_default	100
##_full	100
zweitens	100
break	100
corresponding	100
##2he	100
connection_aborted	100
##lele	100
ingres_field_type	100
dan	100
space	100
writeable	100
isolation_level	100
##getp	100
imagejpeg	100
##istrator	100
##langen	100
reg	100
pgsql_copy_to	100
udm_param_phrase_mode	100
##ndigten	100
##operationen	100
elementenliste	100
wddx_serialize_value	100
##x_time	100
##cate	100
abgesch	100
ociresult	100
aufgerufen	100
##aw	100
e_warning	100
caudium	100
mycert	100
##persistent	100
include_once	100
textverarbeit	100
your_username	100
##ways	100
tatsächtlich	100
echoit	100
pspell_config_runto	100
kennungen	100
##zugeben	100
zulässi	100
fdf_set_encoding	100
jacarta	100
komprimierungs	100
joe	100
wertzu	100
##nm	100
furch	100
##gnus	100
dekodieren	100
öffnende	100
##spür	100
autorisation	100
mypas	100
##heber	100
##dessen	100
tsr	100
domentity	100
##ils	100
dates	100
('',	100
aufge	100
version_compare	100
##ona	100
assiziativ	100
socket_listen	100
subtrahiert	100
borland	100
setuid	100
timeticks	100
allow_url_fopen	100
million	100
derzei	100
größtent	100
!\"	100
selektiert	100
hexadezim	100
."($	100
##okien	100
gekürz	100
%\	100
sam	100
##uche	100
##undenen	100
##ibind	100
##execution_time	100
php_os	100
gan	100
gefix	100
rc2	100
definerten	100
##fehler	100
842	100
perform	100
containers	100
##_first	100
datenbankname	100
##e_text	100
##_rewriter	100
unixodbc	100
ban	100
stattdessen	100
##akt	100
##tig	100
schaut	100
verfol	100
##pconnect	100
datensatzzähler	100
."-$	100
eingel	100
##lasses	100
##7777	100
cs	100
##einode	100
##achine	100
gnu_gettext	100
möch	100
:\\	100
thieso	100
scheiter	100
nähe	100
koch	100
farbwert	100
mb_preferred_mime_string	100
bench	100
##_seq	100
kein	100
y1	100
variablen	100
alph	100
##plikation	100
phoenix	100
##hren	100
hintergrund	100
##etri	100
krie	100
processing	100
xxx	100
modifizierungs	100
##ourcen	100
kraemer	100
##_php4	100
schrittweite	100
gregorian	100
php_mssql	100
linien	100
entnehmen	100
##umber	100
angabe	100
bekannter	100
)	100
home	100
##3333	100
expdate	100
konsultieren	100
##ness	100
kette	100
mysql_dropdb	100
prozesslevel	100
animal	100
##dform	100
unsubscribe	100
##männisches	100
betriebssystemebene	100
rückstriche	100
du	100
##1828	100
foobar	100
analyse	100
ort	100
beteiligten	100
more	100
##tup	100
kreditkartentransaktionen	100
mögen	100
##schau	100
##gphp	100
entwirft	100
1g	100
f1	100
##appt	100
deklarierten	100
meine_daten	100
feststellen	100
warning	100
fa	100
deserialisiert	100
##get_cip	100
within	100
'+'.	100
speicherfunktion	100
swf_ortho	100
_request	100
##_number	100
total	100
präfix	100
hexzeichen	100
diak	100
dir	100
malin	100
xw	100
letzte	100
konkurrierenden	100
##achten	100
flash	100
##lagen	100
mailinglisten	100
???	100
artikeln	100
diesem	100
skriptablauf	100
ermunter	100
array_reverse	100
##ators	100
phone	100
##_dgram	100
pdf_arc	100
pwd	100
datenbanktabelle	100
ass	100
##erade	100
pfeilt	100
ircg_register_format_messages	100
##arch	100
log_pid	100
##fetch_current_	100
ermuntern	100
");?.	100
betriebssystemes	100
dekomprimierung	100
dbconn	100
listener	100
95583	100
ausgelegt	100
##änderungen	100
nochmal	100
':	100
background	100
190833	100
ircg_register_format	100
##sseitge	100
##sajous	100
deutsch	100
dro	100
rest	100
##restr	100
##koordin	100
#%	100
ausdrucksorien	100
##zufahren	100
odbc_commit	100
dynamisches	100
earlier	100
##lösen	100
logfile	100
testfile	100
odbc_connect	100
gethostbynamel	100
unüb	100
explain	100
verstecktes	100
vorderen	100
##rück	100
##uble	100
pdf_set_font	100
deg2	100
compiler	100
##_clean	100
abfrageresult	100
montag	100
nat	100
winansi	100
##prevframe	100
serialisierung	100
pg_field_name	100
##inst	100
erste_gruppe	100
##mbole	100
msql	100
programmierbaren	100
str_pad_right	100
arbeitsverzeichnisses	100
##rtlen	100
die	100
cpdf_setrgbcolor_fill	100
komfort	100
esql	100
##was_anderes_an	100
werdende	100
rein	100
hilfsfunktion	100
effiziente	100
strip	100
betreiber	100
kompliziertere	100
ora_columnname	100
pgsql_nonfatal_error	100
originalstring	100
märz	100
definierten	100
pdf_place_image	100
wide	100
anklickt	100
0x0d	100
20	100
deckten	100
feldname_für_erste_spalte	100
##bere	100
##istory	100
php4rc1	100
alpha	100
dbase_record_number	100
ora_commit	100
entfernt	100
starkes	100
scrollen	100
ldap_opt_client_controls	100
xvf	100
include	100
drittanbietern	100
locale	100
klassifiziert	100
verteilten	100
##trans	100
commun	100
111111	100
max_rows	100
multimodus	100
##izieren	100
[...	100
datenbankob	100
ihnen	100
meine_tabelle	100
system32	100
##ürd	100
zuviel	100
;}?	100
julianische	100
einzufügen	100
clibpdf	100
sourceforge	100
##auer	100
alten	100
##fäch	100
valiant	100
'))	100
##index	100
4	100
handlern	100
##nklasse	100
printer_draw_pie	100
sicht	100
xml_local_namespace	100
"-=-=-=-=-=-=-=-=-=-="	100
übergeord	100
enum	100
dokumentiert	100
vorhandensein	100
dbmfirstkey	100
##dbutton	100
##nma	100
fseek	100
db	100
##last_error	100
gest	100
##ichtlich	100
seinen	100
früchte	100
:[	100
inserts	100
fbsql_stopping	100
sesam_query	100
debuggingtechniken	100
##reibt	100
##operator	100
tauch	100
ibase_free_query	100
startup	100
textverarbeitungen	100
##slungen	100
tabellenformat	100
search_array	100
programmierer	100
persistenter	100
unabhängige	100
##altenrdn	100
##ichteten	100
##zeuge	100
arrayelements	100
imagepng	100
##vollziehen	100
("$	100
[:	100
_system	100
mut	100
sicherheitspolitik	100
zwe	100
skriptsprache	100
numer	100
yet	100
##0000000	100
jener	100
prakti	100
dbase_create	100
{?	100
menschen	100
fehlenden	100
##kte	100
##_assoc	100
imageloadfont	100
##gra	100
25	100
##lungs	100
geheim	100
bedaure	100
geplant	100
termin	100
bzerrstr	100
schwäch	100
jade	100
transaktionsparameter	100
zurückl	100
mehrerer	100
val	100
expunge	100
##ary	100
inkludierten	100
datenbankunterstützung	100
initialization	100
ermiitelt	100
db2inst1	100
vergleichsausdrücke	100
'^	100
cp_utf	100
##freefont	100
ldap_opt_restart	100
erklärung	100
##ou	100
sort_numeric	100
##s0x	100
collection	100
##tection	100
wiederholen	100
literatur	100
nichtcod	100
ga	100
dananch	100
physisch	100
##gsatz	100
eindeu	100
einzufassen	100
fb	100
##ndigungsfunktion	100
udm_param_cache	100
betracht	100
##invalid	100
initiali	100
add_root	100
pakete	100
gruppe	100
##coded	100
populärer	100
foll	100
besondere	100
##nissen	100
##hundert	100
eingebundenen	100
defs	100
##urt	100
##eite	100
umgehend	100
vt_ui2	100
symmetrischen	100
##gegen	100
declared	100
mytable	100
libpdf2	100
datenbankab	100
##128	100
##peich	100
##_für	100
##ne_array	100
mai	100
abbildet	100
des	100
##onisiert	100
speichert	100
##ctory	100
extending	100
brauchbare	100
basic	100
geändert	100
bcsqrt	100
##ützt	100
sqlerrd1	100
cpdf_save	100
##low	100
gnu_get	100
proxys	100
objektbezeichner	100
geboten	100
odbc_num_fields	100
##laub	100
verstrichene	100
la	100
flavor	100
httpsdctl	100
##connectoption	100
odbc_field_type	100
mischt	100
##tents	100
[	100
passwort	100
definition	100
udm_param_stoptable	100
##umwand	100
se	100
pspell	100
'.'(	100
##chanis	100
übergangen	100
standrardmäßig	100
zut	100
only	100
since	100
bigint	100
verer	100
audi	100
strikt	100
##ing	100
bits	100
printer_draw_chord	100
alphaversionen	100
##anbieter	100
constants	100
##ke	100
personal	100
prozessgruppe	100
##leep	100
passwortüber	100
track_errors	100
trägt	100
configuration	100
"($	100
cp_maccp	100
anleitung	100
nd	100
##vs	100
##atbil	100
directiven	100
myscriplog	100
##ari	100
vorspringendes	100
").	100
##_inline	100
database3	100
terminalfenster	100
entries	100
##terns	100
pdf_setgray	100
entworfenen	100
##bstr	100
mod_charset	100
##ffekte	100
dbm	100
zip_read	100
verbindun	100
modify	100
##unde	100
migration	100
zugesen	100
##ompare	100
pdf_set_char_spacing	100
##_limit	100
##rukts	100
abgefragt	100
working	100
lph	100
gepack	100
##pack	100
eingeschaltet	100
aulbach	100
##set_quot	100
##ribut	100
##information	100
##iegen	100
rsa	100
fundstelle	100
magazinen	100
cookie_sp	100
83	100
##ute	100
fdf_set_target_frame	100
##ural	100
umlau	100
schaff	100
trauben	100
datenbankabfrage	100
inkompatibilitäten	100
startp	100
wiederkehr	100
descriptor	100
ergebnisrückgabe	100
light	100
cachespeicher	100
zufäll	100
mb_detect	100
##rating	100
count_cursor	100
##absichtlich	100
##sprobleme	100
##ished	100
authentifizierungscache	100
5	100
verschlüsselungs	100
bindung	100
='.$	100
installierenden	100
beschreibbar	100
code_retour	100
textver	100
##dass	100
##ktoren	100
9x	100
einwirken	100
##uten	100
golf	100
gzread	100
wegzuwerfen	100
fbsql_errno	100
##inode	100
"]."	100
ausgabedatensatz	100
cybermut_cre	100
linkinfo	100
geschlossen	100
versuch	100
wddx_serialize_	100
;')	100
aspekten	100
wddx_serial	100
blume	100
##gres	100
einschränk	100
##logoff	100
##t_cart	100
inetsrv	100
nvergleich	100
##utet	100
f_setlk	100
richtig	100
verfügbaren	100
dbase_num	100
inet	100
##plode	100
mssql_fetch_	100
msie	100
offiziell	100
charset	100
konkurrieren	100
getproperty	100
exponen	100
letze	100
mangelt	100
##mory	100
koordinatensystem	100
decodierte	100
##spalte	100
othervar	100
##leert	100
nicht_existierende	100
intial	100
\\\\	100
abschliessende	100
bes	100
quadra	100
letzten	100
french	100
again	100
liegende	100
##iewicz	100
vorab	100
leeren	100
upload_tmp_dir	100
##laden	100
größeren	100
raum	100
faults	100
compar	100
();	100
"."	100
gelingen	100
##gister	100
verbindungsfunktionen	100
cpdf_add_annotation	100
##leitung	100
protokollierung	100
bre	100
split	100
##algorithmus	100
behind	100
##alk	100
traditionellen	100
kollision	100
arr2	100
quelldateien	100
lesbarer	100
bereiches	100
field1	100
##set_agen	100
##tik	100
ergebnisbezeichner	100
großes	100
hinein	100
##monen	100
veranlaßt	100
priv	100
verfasstes	100
verkleinert	100
erhalten	100
hervorgehobener	100
is_int	100
zeitangaben	100
nachname	100
tnsname	100
unk	100
wiederum	100
bidirektion	100
##iere	100
angewandte	100
##_client_info	100
erzw	100
schwach	100
edi	100
einige	100
##esatz	100
##raph	100
amaya	100
dropped	100
##hlings	100
nützliches	100
installationsverzeichnis	100
##achige	100
##lt	100
cpdf_setgray_stroke	100
overloading	100
erfol	100
kommandozeeilen	100
verglichen	100
##ui	100
umschließt	100
nis	100
finger	100
printer_start_doc	100
auschalten	100
funktionsname	100
escapten	100
ocibindbypos	100
src_im	100
mulitiplikations	100
einzubindenden	100
socket_clear	100
xml_document_node	100
amnngegeben	100
unterbricht	100
no	100
eindimensionale	100
##anten	100
##ometri	100
base64	100
protokollieren	100
]($	100
namensraum	100
situ	100
versucht	100
2350001	100
rechts	100
##uf	100
spezialisierung	100
versprochen	100
curs	100
##numeric	100
ftp_login	100
##reade	100
##schneiden	100
doubles	100
doppelter	100
neuerrdn	100
##erfen	100
sqlany50	100
optimiert	100
##anbie	100
##_keywords	100
##2fs	100
anschei	100
begonnen	100
##masch	100
##ktiken	100
##neben	100
nachkom	100
man	100
wegzu	100
aktulisierenden	100
##men	100
zeiger	100
fill	100
##lassen	100
##_host	100
ascii2ebcdic	100
achte	100
segmentation	100
##eu	100
.\	100
pspell_s	100
##readed	100
##transition	100
##benennen	100
dateimanagement	100
pagecount	100
drittanbie	100
coffee	100
##utf	100
9999	100
zugleich	100
texts	100
##atibilitäten	100
th	100
##tione	100
scalar	100
##etch	100
##punk	100
kommunikations	100
andrei	100
fpassthru	100
closelog	100
##ül	100
dba_sy	100
##sert	100
##query	100
kommentarzeichen	100
authenfikation	100
indexed	100
'".$	100
##;')	100
kündigten	100
vererbungs	100
pdf_set_text_rise	100
kodiert	100
klartext	100
empfohlene	100
jederzeit	100
##rfc	100
##wei	100
commandline	100
declaration	100
fdf_get_value	100
##deli	100
##utzt	100
##if_exists	100
world	100
##fälligere	100
##alente	100
sys	100
letztendlich	100
pg_get_	100
beginnendes	100
##zim	100
environmentvariable	100
##ckay	100
welche_farbe	100
##t_element	100
angeforderte	100
search	100
##module_open	100
functions	100
().	100
,...)	100
sa	100
##haltung	100
nzeile	100
occur	100
darum	100
php_stream_statbuf	100
tempräre	100
##ieller	100
##agte	100
funktionsnamens	100
fat	100
installierte	100
##ppte	100
umschlag	100
*))	100
##uploade	100
realisieren	100
höheren	100
##0000	100
beizu	100
xv	100
##hes	100
umgesetzt	100
automatischen	100
feb	100
session_encode	100
angriffstaktik	100
resultsets	100
objektorien	100
kompatible	100
dbx_fbsql	100
erfassen	100
object	100
trifft	100
verseuchung	100
store	100
cybermut_creerformulairecm	100
abfrageergebnisse	100
seiten	100
benutzergruppe	100
verbessern	100
inkompatible	100
##stellungen	100
##ma	100
fin	100
php4isapi	100
adl	100
eindruck	100
geeigneter	100
##atalog	100
regel	100
angehängt	100
sparchkonstrukts	100
zumindest	100
122	100
##uft	100
dateigröße	100
vorgefertigter	100
durchgezogen	100
".";	100
beispielen	100
nov	100
magic_quotes_sybase	100
wiederholungen	100
rückgängig	100
##üsse	100
##mous	100
gesicherten	100
##mans	100
serversei	100
utimes	100
kommentaren	100
##lungen	100
16	100
arbeiten	100
operation	100
übertragungs	100
tm_year	100
variablendefines	100
parent	100
gregoriantojd	100
alphabetischer	100
function	100
feind	100
skalare	100
##ven	100
verbrauchte	100
passender	100
manual	100
eingebunden	100
##nr	100
egment	100
plug	100
0x80000000	100
irgendwelche	100
leerzeichen	100
cr	100
##rägen	100
##schläge	100
##initi	100
##setz	100
500000000	100
destination_file	100
##2long	100
##entfre	100
zcontext	100
session_register	100
schreibend	100
help	100
decompressed_file	100
meincookie	100
##meten	100
##_fetch_into	100
##8859	100
##jekte	100
natür	100
internationalisierung	100
##ffäh	100
##perty	100
checks	100
##führ	100
lambda_1	100
fbsql_stopped	100
gruppenzugehörigkeit	100
einsch	100
kommentar	100
tabellenname	100
((!$	100
unabhängig	100
zerstören	100
currentcontr	100
##entlich	100
zeilenorien	100
ocinew	100
ihres	100
##omain	100
plattformabhängigen	100
or	100
##sag	100
kalenderumrech	100
udm_param_cross_words	100
vt_decimal	100
fbsql_no	100
friday	100
int	100
generierung	100
whole	100
alt	100
big5	100
zeitdifferenz	100
##server_vars	100
##e3	100
##mun	100
openssl_get_privatekey	100
##chars_per_line	100
zeitdi	100
is_double	100
ctype_	100
berücksichtigt	100
##write	100
mhash_count	100
entwicklerdokumentation	100
flex	100
ausführe	100
##block_size	100
##yer	100
eingelagert	100
vorgestellte	100
udm_field_urlid	100
sync	100
frib	100
##test	100
##rächtigung	100
lc_coll	100
takes	100
php3	100
datenstrukturen	100
aufspür	100
gesendet	100
unvorhersag	100
!@\	100
0666	100
beschriftet	100
##gramm	100
##unden	100
##nbung	100
##gangen	100
##_variables	100
krei	100
tsrm	100
aufru	100
ursprüngliche	100
angriff	100
##me	100
##_lib	100
##rand	100
webseiten	100
gesagt	100
sa_unseen	100
täglich	100
("{	100
welcome	100
valid	100
##ion	100
logge	100
betroffene	100
bieten	100
decod	100
ldap_	100
prozeß	100
dbx_my	100
meiner	100
##elipse	100
orth	100
##heren	100
0x56	100
##amentalen	100
sur	100
lange	100
##_fork	100
odbc_binmode_convert	100
##ker	100
kapi	100
identification	100
formularwerten	100
maßsystems	100
typkon	100
()));	100
##seffe	100
verhalte	100
bereithält	100
erfolgreiche	100
zerlegt	100
hochleistungs	100
pspell_config_repl	100
##rawlist	100
abzuschalten	100
personen	100
gegenwärtig	100
bitte	100
##ierung	100
dringend	100
gemountet	100
varname	100
beseitigt	100
füge	100
anderwärtig	100
##kro	100
!).	100
##spielen	100
##achtet	100
allgem	100
zugegriffen	100
intern	100
subsystem	100
beschränkung	100
modifizieren	100
soa	100
##oem	100
textdaten	100
läuft	100
##_value	100
superglobal	100
geordnet	100
cmp_obj	100
produkt	100
symbolischer	100
ausmaß	100
deutsches	100
bearbeiten	100
nc	100
ngebrauch	100
sl	100
##säch	100
bereiche	100
con	100
##_seconds	100
"));?	100
"!!	100
indizierten	100
xtime	100
slant	100
häu	100
!");	100
##end_copy	100
horcht	100
expressions	100
"="	100
transaktions	100
##habt	100
collector	100
ander	100
ncart	100
defahltwert	100
globale	100
scheduler	100
##nam	100
zeilenum	100
##ibt	100
schnitt	100
##folgen	100
session_set_save_handler	100
zugelasssen	100
aufsplitten	100
erziel	100
array_unshift	100
ocicolum	100
##testen	100
unvollständigen	100
##t_	100
##t_c	100
"~	100
##deckt	100
flexiblere	100
##."	100
##quart	100
!@	100
'@'	100
dateipfad	100
tak	100
ebenen	100
wort	100
##izer	100
gpl	100
gruppenzugehö	100
gesamt	100
##bieren	100
übereinstimmungen	100
##tinu	100
pizza	100
allein	100
##ize	100
imagestring	100
##legung	100
konstrukte	100
referenzzähler	100
##opp	100
##_trun	100
interaktiven	100
gesende	100
##ssige	100
vorgegeben	100
jemandem	100
ermittelt	100
##verbrauch	100
##tablename	100
größere	100
##_gruppe	100
##)	100
##pplikationen	100
##lecular	100
vorgegebene	100
erfahreneren	100
arrayzeiger	100
erhöhten	100
melden	100
##iger	100
schriftarteigene	100
genannte	100
fil	100
datenverlust	100
urx	100
meisten	100
##tierbar	100
##urli	100
kategorienamen	100
programm	100
ordnung	100
binärsicher	100
h4	100
domdocument_	100
standardsor	100
ausricht	100
parsebaum	100
mischen	100
##po	100
gründe	100
java	100
*=	100
zeilenendezeichen	100
##ntax	100
php4b3	100
clients	100
##ertermine	100
assozierten	100
##file	100
##ypid	100
swf_ad	100
##_a	100
hauptgebiete	100
prestr	100
mäch	100
##change_user	100
##chars	100
spielraum	100
##gregation	100
scal	100
##kürz	100
oci_commit_on_success	100
cappucino	100
fru	100
gewinnt	100
slash	100
array_diff	100
quellcodes	100
xwp	100
ldap_count_entries	100
gesper	100
englisch	100
msql_dbname	100
channe	100
##du	100
.:	100
cache_limiter	100
8192	100
arrayelementen	100
vorge	100
abkürz	100
gegebenheiten	100
##frei	100
gethostbyname	100
##tiff	100
rel	100
##ing_in	100
##_freeresult	100
pg_put	100
##rimo	100
lä	100
technolog	100
unterstützenden	100
##ießt	100
verbindungskennzeichen	100
release_ts	100
folgende	100
##bad_	100
oci_d_lob	100
##()	100
sesam_commit	100
%",	100
##achter	100
phperr	100
2037	100
disaster	100
fbsql_field_table	100
##pas	100
##e_var	100
##itik	100
mächtiges	100
vermerk	100
##_pid	100
group	100
editor	100
prototyp	100
##type_	100
sqlany	100
mary	100
()):	100
##obe	100
selbsterk	100
abstrahierte	100
##strich	100
strrpos	100
voranstellen	100
wortende	100
?	100
springen	100
gefährdet	100
matching	100
##rennt	100
makeyogurt	100
auftritt	100
asn	100
##baum	100
dialekts	100
##urice	100
##vergabe	100
##eute	100
abschliesende	100
mohawksoft	100
loading	100
call_user	100
##lth	100
bevorzug	100
serialisierte	100
larry	100
writing	100
fasst	100
wahlweise	100
##altiges	100
##_statbu	100
produkt_wert	100
##eigene	100
nichtcodierte	100
mis	100
pdf_set_border_color	100
inkludierte	100
pg_field_size	100
übertragt	100
gleichzeitig	100
##gener	100
##haw	100
gezw	100
msql_data_seek	100
dollar	100
reference	100
##okollen	100
')");	100
ldap_search	100
##dings	100
einzige	100
##cle	100
sprachlimitationen	100
txt	100
##'),	100
##modell	100
september	100
##p_db	100
##dem	100
##stamp	100
übersetzungs	100
##rides	100
(.*	100
##_null	100
0x0a	100
steht	100
klausel	100
nichtgesch	100
##oooo	100
statement	100
temporärdatei	100
prozessor	100
##resse	100
codierten	100
symbole	100
meinanderes	100
gezei	100
iiapi_v	100
##kes	100
odbc_fetch_into	100
fehlerbehandlung	100
sichtbar	100
fdfnormal	100
kaufe	100
pdf_setrgbcolor	100
##gid	100
pclose	100
ldap_deref	100
##rement	100
swf_modify	100
##ringlinge	100
ls	100
##bindungs	100
##rent	100
denn	100
select	100
schnelle	100
andernfalls	100
##ls	100
javasc	100
##fetime	100
bezeichnet	100
swf_placeobject	100
hochzuladen	100
##_create_blob	100
##merkung	100
superuser	100
##riken	100
expat	100
auszuführende	100
udm_ispell_type_affix	100
arg1	100
konfigurationsprozesses	100
##bug	100
gensatz	100
kostenlose	100
:\	100
##elob	100
##e_	100
farbübergang	100
erweiterungen	100
pub	100
##tain	100
distribution	100
repräsen	100
##statt	100
##option	100
inklusive	100
wortlänge	100
kreditk	100
ausschliessen	100
?\	100
msql_query	100
anführunfszeichen	100
deutet	100
triggern	100
otherwise	100
seenbefore	100
##oun	100
##olset	100
##ponse	100
ethernetverbindungen	100
speicherproblemen	100
fließkomma	100
##card	100
variables	100
##fügte	100
relev	100
spaltenindizes	100
voice	100
dio_seek	100
transformationen	100
erwä	100
abgrenz	100
##lear_search	100
abfrage	100
isset	100
##begrenz	100
cat_list	100
gefährlich	100
##loadeten	100
bez	100
'%'	100
isoliert	100
mam	100
##platz	100
irgendet	100
möglichst	100
ü	100
dba_fetch	100
varianten	100
##gegnis	100
php3_	100
server	100
array_merge	100
unterschiede	100
hebräisch	100
ausführliches	100
erwar	100
##gründen	100
konfigurationsfehlern	100
komfortabel	100
##aster	100
schreibzugriff	100
(--	100
login	100
sesmod	100
summe	100
##alize	100
##stoch	100
elsei	100
##_rectangle	100
beschäd	100
##verlu	100
around	100
vö	100
cp_thread_acp	100
loadpng	100
originalbibliothek	100
##specialchars	100
##hnlichen	100
zugelassen	100
unangebrachten	100
verschiedener	100
sysconfdir	100
##sek	100
alternativer	100
##unds	100
hold	100
imagesx	100
++,	100
##wö	100
views	100
===	100
einsetzt	100
konfigurationsanweisungen	100
tom	100
nur_dieses	100
ingres_both	100
vorkommt	100
basis_dn	100
##s2	100
benutzende	100
bind_kennwort	100
yytname	100
tau	100
##ktor	100
##fikation	100
##icator	100
serial	100
leistung	100
lok	100
zugriffszeit	100
komische	100
1k	100
##=-=-	100
'".	100
stopwords	100
sjis	100
##held	100
kontext	100
wiedergabe	100
cpdf_set_font	100
deg2rad	100
pi3web	100
bash	100
"**	100
scott	100
##aktiv	100
pdf_get_parameter	100
reconnect	100
2096	100
##que	100
schwabenbrä	100
techniken	100
text_color	100
##setflag	100
synta	100
fdf_open_string	100
fund	100
verisign	100
size	100
versuchen	100
incl	100
leichten	100
sektionen	100
im	100
##örter	100
##tes	100
resultiert	100
##tension	100
verstär	100
identifizierer	100
anglican	100
umgelei	100
##ück	100
stored	100
chunk_split	100
neben	100
log_aut	100
kommandos	100
##informationen	100
##ay	100
hochverfügbarkeit	100
.';	100
grundlegenden	100
kompilierte	100
alternative	100
e	100
ltrim	100
ircg_register	100
unauthor	100
identifizieren	100
##ftigt	100
kom	100
##arm	100
##ickt	100
neumonds	100
enddatum	100
beinhaltet	100
weitest	100
lader	100
##_ver	100
##zeichen	100
tabellennamen	100
employees	100
searching	100
anonymer	100
classa	100
interessiert	100
signat	100
übermittelten	100
zi	100
überlick	100
##ation	100
basierendes	100
farb	100
##dio	100
pdflib	100
imap_utf7_decode	100
##sergebnis	100
formatierugs	100
tender	100
lauffähig	100
##iert	100
verschie	100
##iated	100
tbl	100
damit	100
ircg_n	100
macosx	100
diskussionen	100
;'));	100
sort_	100
sheep	100
zurückzugeben	100
means	100
funktionsaufruf	100
servlet	100
##beschreibungen	100
dbx_sy	100
ociwritelobtofile	100
mysql_client_ignore_space	100
ode	100
überträgt	100
clientauthentifizierung	100
{$	100
abfrages	100
##_ch	100
besucher	100
##ca	100
ereignissen	100
titelbl	100
ungesich	100
##_sp	100
ersetzung	100
ocicoll	100
llx	100
formati	100
##tigungen	100
psgql	100
absetzen	100
either	100
programmer	100
nsortieren	100
tres	100
import	100
php_	100
spaltenzahl	100
fehlsch	100
incoming	100
##title	100
benennen	100
##%	100
docbook	100
neustart	100
##_both	100
errechnet	100
erlauben	100
##ols	100
nutzungen	100
fast	100
ursprüglichen	100
##sock	100
dokumententeilen	100
datenbanksystems	100
prefixe	100
plus	100
anonymen	100
verbindungs	100
ausweitung	100
node_id	100
hypertext	100
filegroup	100
beeint	100
hkey_local_machine	100
##za	100
##_key	100
binary	100
entsprechende	100
ctrl1	100
einleitendes	100
odbc_do	100
sealed_data	100
##blitätsgründen	100
##_object	100
laufen	100
##ieferte	100
xp	100
frühe	100
)+	100
gemäß	100
##ungsvor	100
2	100
##fordert	100
flush	100
stauder	100
zurückstellt	100
sgml	100
immediate	100
erraten	100
privat	100
paul	100
##eich	100
ocisetp	100
##50577	100
gefü	100
##daten	100
##orted	100
tatsächlich	100
##strings	100
ursprungsvarialbe	100
##buchstabe	100
##_cn	100
##gegebenen	100
##echstes	100
callback	100
pfadname	100
darauffolgenden	100
msql_select_db	100
preis	100
##abhäng	100
richtungen	100
banane	100
zielarray	100
##au	100
großen	100
2038	100
##stammung	100
musste	100
##tipp	100
connid	100
redhat	100
pdf_set_transition	100
30110	100
##1738	100
gc_probabil	100
bildquelle	100
##il_var	100
##rillischen	100
gzclose	100
brechen	100
ergebnisarray	100
##applikation	100
standardbenutzer	100
##dformat	100
zeichenkonstanten	100
ähnlich	100
befolgt	100
##lossen	100
oci	100
win	100
später	100
de_de	100
gestalten	100
pres	100
##vorsch	100
kehren	100
scopings	100
kopie	100
##rat	100
generator	100
eigentum	100
fdf_next_	100
##ko	100
##unmarked	100
than	100
top	100
(($	100
bestimmen	100
})	100
übersetzten	100
versie	100
einleiten	100
##ocols	100
essbar	100
ungenügender	100
brasilianisches	100
vergleich	100
innerhalb	100
wddx_packet_end	100
baumstrukturen	100
kont	100
fbsql_stopp	100
d03cb659cbf9192dcd0662722	100
##senden	100
hex	100
##gie	100
##_module	100
oci_de	100
##tifikat	100
##ichtet	100
zeitfehler	100
gebräuchlicher	100
msql_free_result	100
##pub	100
##ßzeilen	100
##system	100
rahmen	100
notepad	100
##rar	100
##3e6ab	100
standrard	100
kommas	100
pspell_link	100
##basierten	100
suchesprache	100
discard	100
ora_logon	100
##192dc	100
grundeinstellung	100
überlappen	100
##pl	100
zerst	100
otto	100
unsichtbar	100
call_user_func_array	100
##_conn	100
print	100
mysql_store_result	100
webentwicklungen	100
");?	100
handle_later	100
##tree	100
planen	100
üblicherweise	100
ignore_user_abort	100
cpdf_set_keywords	100
verschlüsselungsp	100
##1282	100
sysdate	100
umreissen	100
anwendungszweck	100
cut	100
##ule	100
edit	100
standardmässig	100
kombiniert	100
##iste	100
anlegen	100
fixes	100
sqlset	100
populär	100
gültigkeitsbereiches	100
benutz	100
firstname	100
oftmals	100
specification	100
affected_rows	100
inaktiv	100
unbefrie	100
extr_	100
wertzuweisungen	100
center	100
nr	100
nir	100
"]	100
##_filter	100
([	100
überschwemmen	100
nob	100
odbc_num	100
prozent	100
globalref	100
multitask	100
##sichtigt	100
einfachen	100
##alenders	100
row_number	100
wertvoll	100
ema	100
intra	100
am	100
konverter	100
fehlerbehebungen	100
sekunden	100
außerhalb	100
modifiz	100
gegenschräg	100
neuinitialisierungen	100
strt	100
##stants	100
veggie	100
##kter	100
sockets	100
ze	100
echovalue	100
nützliche	100
vorangestellt	100
prozzess	100
falschen	100
##tives	100
trivial	100
streamfehler	100
##gefunden	100
passiven	100
kompatibilitätsfunktionen	100
communities	100
portabilität	100
einzukompilieren	100
##schreib	100
##ur	100
dezimalzahlen	100
mann	100
möchte	100
ganze	100
cdb	100
##ating	100
confuse	100
importiert	100
##näch	100
vielseitig	100
urheber	100
hard	100
##umot	100
pilz	100
pg_fieldname	100
monats	100
versch	100
hochladens	100
aspell_link	100
suchmaschine	100
fbsql_list	100
##bc	100
cancel	100
inch	100
zahlen	100
skriptes	100
##ändert	100
übergeben	100
nichtsdestotrotz	100
lokale	100
##ursor	100
dritter	100
teilanfrage	100
free	100
weltweiten	100
phrases	100
mule_internal	100
extras	100
paletten	100
##olv	100
##file_size	100
systemebene	100
teile	100
ordnet	100
jdmont	100
ignorieren	100
whitespaces	100
dbase	100
änderungen	100
crc32	100
mailboxen	100
nebeneffekte	100
##ulation	100
verg	100
dont	100
standardwerten	100
instantiierung	100
##klu	100
bedeuten	100
##["	100
hexdec	100
kopierende	100
##yles	100
aspell	100
##_closedict	100
##beschreibung	100
successfully	100
sorti	100
##_output	100
heb	100
##ocommit	100
ircg_get_	100
suchmustern	100
+:	100
nachfolgend	100
setzt	100
##urch	100
suchergebnissen	100
möglichen	100
;'),	100
$",	100
##alia	100
hex_string	100
usesysid	100
##ädlich	100
einkompiliert	100
aufzulösen	100
advance	100
uses	100
vende	100
##**	100
buf	100
##cosinus	100
ldap_scope_	100
virtuellen	100
href	100
*$	100
##viele	100
standardhost	100
##weight_factor	100
mysql_get_server_info	100
"?	100
preg	100
##lenn	100
##fizieren	100
beim	100
teilbil	100
prozessgruppenkennung	100
zimmernummer	100
##maßen	100
protokollversion	100
mysql	100
laufzeit	100
obje	100
750c78	100
0102	100
winnt	100
##cting	100
disconnect	100
'/.	100
cd	100
potentieller	100
zweidimensionalen	100
/*[@	100
angewendeten	100
dba	100
communicator	100
erstgeborenen	100
löschmark	100
ausd	100
##pg	100
##ap	100
korrektheit	100
##bleme	100
trouble	100
cygw	100
eindeutigen	100
ziel	100
snmpwalk	100
##cert	100
aussieht	100
animation	100
vermeidet	100
##qr	100
##nisch	100
##^[^	100
sesam	100
##my	100
quoted	100
##]).	100
attempt	100
bytea	100
zielbild	100
1997	100
ausgabesteuerungsfunktionen	100
##isiert	100
cp_sy	100
locales	100
httpsd	100
lehnen	100
sicherheitsprofis	100
bindlib_w32	100
nachrichten	100
vertraut	100
täglichen	100
ermöglicht	100
(-¶;	100
##atro	100
übernahmen	100
abfragesprache	100
delimit	100
schrieben	100
##hpriv	100
##loser	100
http_post_vars	100
##aries	100
shm_identifier	100
konfigurationsmöglichkeiten	100
der	100
julian	100
gregorianisch	100
validierungen	100
##se	100
setcookie	100
modifiziertes	100
##work	100
ibase_query	100
##222	100
psg	100
hoffentlich	100
##esch	100
see	100
##ient	100
##zellen	100
ludw	100
ewouldblock	100
##lich	100
##cond	100
##lus	100
mysql_create_db	100
##tf	100
##_rollback	100
funktionsweise	100
def	100
overloaded	100
par	100
woch	100
ocirowcounts	100
xslt_output_process	100
ist	100
browsers	100
aff	100
begrenzungsp	100
##ute_character	100
schickt	100
dbx_error	100
##48364	100
modus	100
containing	100
ocifetchinto	100
anzuerkennen	100
##sdaemon	100
##hy	100
##enungs	100
erhältliche	100
zeitstemp	100
##ahr	100
"(	100
10	100
ifx_fetch_row	100
##onen	100
mcal_fetch_event	100
fülle	100
module	100
suchbegriffe	100
punkt2d	100
spezifikation	100
laufende	100
"/"	100
sterling	100
empfang	100
##bcdic	100
imap_ren	100
konfigurationshin	100
langsam	100
zeigerposition	100
grupp	100
enden	100
kostenlos	100
stepwise	100
sonntag	100
administrativen	100
einer	100
odbc	100
beendet	100
##rr	100
codeblöcken	100
simpel	100
professionellen	100
/}	100
##agnostic	100
little	100
abbruch	100
##umcols	100
session_unset	100
##gespie	100
urlencode	100
money	100
##anzahl	100
codesequenz	100
kategor	100
code_str	100
##tice	100
bcd	100
aktuellste	100
##fferen	100
gem	100
dhtml	100
##schwert	100
##gendwo	100
sudo	100
##genommen	100
cpdflib	100
relative	100
merkmal	100
ldap_opt_match	100
aufeinanderfolgende	100
tue_was_	100
vt_r4	100
ign	100
verlässt	100
##ist	100
viebrock	100
mssql_next_result	100
verschlüssel	100
##press	100
identifikationsstring	100
umzu	100
##öff	100
##tlung	100
##=',	100
dbx_oci8	100
##zeigenschaften	100
hineinschreiben	100
##lagged	100
readgz	100
installationsanleitung	100
coordinates	100
webverzeichnisbaum	100
##_case	100
nüzlich	100
ingres_autocommit	100
fput	100
##itektur	100
##sstehende	100
integration	100
pdf_rotate	100
##_clip	100
schlüsseln	100
extended	100
##sehbaren	100
niemandem	100
##\)	100
##\	100
##ci	100
##_list	100
continu	100
aspell_new	100
mydbname	100
offenen	100
##sthr	100
pgsql_both	100
##finden	100
obj	100
##ther	100
udm_param_track_mode	100
##enverse	100
39	100
reiht	100
##ttf	100
einschluss	100
abort	100
/[	100
##5	100
mse	100
imagedestroy	100
mysql_field	100
##sgründen	100
y_size	100
tun	100
far	100
##_count_	100
##uldn	100
netscape	100
sealed	100
##net	100
##ody	100
korrespond	100
##ony	100
klassendefin	100
alphabetische	100
ifx_libdir	100
erzeugt	100
suppor	100
##_next	100
##d_s	100
worten	100
dialect	100
fau	100
##++	100
##mbol	100
eingeschränkt	100
diesp	100
schaf	100
interna	100
textarea	100
##olation	100
slashdot	100
vorzeichenbehafteten	100
verlässlicheren	100
##ältigen	100
zur	100
ow	100
imagepsbbox	100
##ustern	100
rfc2044	100
c	100
fehlerbehandlungsmethode	100
aufgebaut	100
array_reduce	100
abgeleitete	100
sew42	100
72	100
##c_get_	100
tochter	100
bezu	100
##demodul	100
modifizierte	100
26	100
mehrwert	100
limi	100
##25	100
##asy	100
##rechenden	100
##_val	100
vorteil	100
##mor	100
##igator	100
##isnull	100
vermutlich	100
##lär	100
revalid	100
##_set_option	100
machkaffee	100
##riss	100
compilierten	100
dba_next	100
1146	100
abwickeln	100
openssl_open	100
file	100
ausschließen	100
abcde	100
autog	100
decodiert	100
tm_is	100
##runto	100
sei	100
jdtojewis	100
cookiename	100
kalenderumrechnung	100
gegebene	100
jeweiligen	100
##enzen	100
verwendbare	100
imagefontwidth	100
suchmaschinen	100
untested	100
umfaßt	100
mysql_get_	100
sessionparameter	100
ordners	100
keines	100
sichergestellten	100
openssl_x509_read	100
large	100
vergangenen	100
sich	100
bfile	100
##hile	100
anspr	100
##auch	100
##180	100
mx	100
voreingestellte	100
komment	100
##dbm	100
sicherheitsangriffe	100
mcal	100
!")	100
dokumenten	100
clientsei	100
generell	100
('^[^.	100
verarbeiten	100
problemfälle	100
dio	100
##bindung	100
beliebig	100
zusätzlich	100
##14	100
benutzerabhängigen	100
befehles	100
imap_fetchstructure	100
diskutieren	100
sprachreferenz	100
erinnern	100
ftp_connect	100
original	100
umschreiben	100
datenbankkon	100
erhoehung	100
extension_dir	100
wurden	100
##fetch	100
##findlichen	100
ec	100
begrenz	100
installer	100
userfile_type	100
immer	100
schliessen	100
##sperr	100
aol	100
source_file	100
unlink	100
##ame	100
optimized	100
voraussichtlich	100
##off	100
lc	100
scrip	100
xli	100
gründet	100
verfallsdatum	100
automati	100
##ly	100
storage	100
gebrauch	100
##_key_case	100
##dflags	100
management	100
microseconds	100
fbsql_lob_handle	100
arnold	100
##ckern	100
dokumentenwertung	100
precision	100
##_options	100
ei	100
destination	100
fertig	100
##übersicht	100
verwechseln	100
methoden	100
##element	100
##such	100
blockgrösse	100
cnf	100
##sinform	100
drahei	100
##cal	100
##isches	100
bibliothekstypen	100
monaten	100
bie	100
deskriptor	100
arrayele	100
infrastrukturellen	100
irreführende	100
dauernd	100
pfpro_cleanup	100
##vier	100
##ngliche	100
pg_close	100
##wo	100
##store	100
##56	100
unten	100
funktionsnamen	100
##_tick	100
verschiedenes	100
fehlgeschlagener	100
listen	100
apache_ch	100
##alue_of	100
untere	100
prozessgrupp	100
fdf_next_field_name	100
17	100
komplexeres	100
cutime	100
fehlersuche	100
ergebnis	100
##mpilo	100
schützt	100
dc	100
alien	100
##fig	100
optionales	100
##_uid	100
##llt	100
enterprise	100
sprengt	100
##sifie	100
irgendwelcher	100
usern	100
kooperation	100
weglassen	100
manches	100
imap_getmailbox	100
##659	100
datenbankservern	100
func_num_args	100
auszug	100
039	100
gleichwertige	100
##leun	100
anfrage	100
nnn	100
##mand_ok	100
ignorierten	100
##ysid	100
lar	100
sets	100
verurs	100
##atte	100
##_prtlen	100
pdf_setrgbcolor_fill	100
unvorhersehbaren	100
?=	100
ldap_get_values	100
datei	100
währ	100
(?,	100
short_	100
fbsql_running	100
##dergabe	100
##cen	100
treibermanager	100
dbuser	100
neu	100
jahr	100
abschnitts	100
speicherblock	100
genauigkeit	100
suchanfragen	100
blocks	100
gelesenen	100
sprint	100
modulspezifische	100
##eilbaren	100
geschehen	100
mycgi	100
große	100
deprecated	100
##cated	100
might	100
kur	100
##wis	100
durchstr	100
there	100
wiederholten	100
deutschen	100
##lere	100
printer_draw_roundrect	100
inklud	100
##ight	100
##fun	100
geordnete	100
bessere	100
lcg	100
ifx_hol	100
##äftigt	100
money2	100
##sole	100
980219	100
unterhält	100
anfragen	100
x509certdata	100
##str	100
##sseite	100
uno	100
udm_limit_cat	100
unabsichtlich	100
alliance	100
##_leap_year	100
offensichtlich	100
aufregend	100
gewünschten	100
##list	100
##yw	100
##gehend	100
##ß	100
konstruktoren	100
strichpunkt	100
wörterbuchs	100
##keys	100
##ützte	100
oop	100
wiederkehrende	100
hätten	100
dingen	100
##abas	100
msql_fetch_object	100
##isch	100
hebt	100
dasrkt	100
asi	100
##gesch	100
##schräg	100
fdf_create	100
einführung	100
thread_id	100
pspell_normal	100
##multi	100
sogenannten	100
##ize_	100
anschliessend	100
##global	100
##ger	100
here	100
geläufigste	100
inetorgperson	100
(-¶	100
vollständigen	100
uncompressed	100
##ust	100
augenmerk	100
##lasse	100
desweiter	100
sele	100
##eilen	100
array_expression	100
installationsbeispiel	100
##sionen	100
##format	100
define_syslog_variables	100
stream_set_timeout	100
fbsql_tablename	100
fir	100
anony	100
##lentities	100
%'	100
##c_	100
padded	100
empfehlenswert	100
##_vars	100
notwend	100
zugreifenden	100
##okoll	100
##kit	100
darunterliegenden	100
o_nonblock	100
quelldokument	100
blobs	100
escaped	100
"\."	100
preg_split	100
texte	100
##ley	100
yyyy	100
##_mim	100
oci_commit_on_suc	100
d03cb659	100
leist	100
##herein	100
einkaufwagen	100
enf	100
festlegung	100
openssl_sign	100
##ncated	100
##gien	100
vebindung	100
erste	100
256	100
indizierung	100
hidden	100
bemerkbar	100
##seits	100
zutrifft	100
++;}	100
sg	100
zutreffenste	100
beschreib	100
abläufe	100
scriptende	100
)".	100
mysql_char	100
mcrypt_list_algorithms	100
:=	100
ldap_free_result	100
maximum	100
##fügung	100
versiegel	100
durchstöbert	100
doppelte	100
eingefaßt	100
geheiminformationen	100
ausmaße	100
english	100
füllzeichen	100
geltende	100
kodierte	100
funktionsebene	100
initialisierungs	100
##fügen	100
teilausdruck	100
handler	100
##pertencoding	100
##bei	100
##ools	100
##738	100
##ungsbegrenzung	100
printer_draw_line	100
geholte	100
ora_columntype	100
fal	100
unterkategor	100
bereitstellens	100
posix	100
ibase_num_fields	100
fdf_set_field	100
##sige	100
pre	100
##ptz	100
;	100
fix	100
bequeme	100
reason	100
gemuese	100
ftp_sy	100
vollkommen	100
zerofill	100
aufruf	100
##hoden	100
##bruchs	100
mysql_close	100
zymsys	100
behoben	100
msql_field	100
64	100
gelassen	100
enthaltener	100
beginnen	100
container	100
shell_exec	100
##tet	100
gd	100
übereinstimmen	100
##relevanter	100
schädlich	100
##th	100
header	100
versteckte	100
demonstrates	100
durchführung	100
herumspielen	100
##sätze	100
zurückesetzt	100
eventuelle	100
lerdorf	100
##biert	100
extensions	100
anwen	100
verlä	100
)'	100
schnittstlle	100
jdtojuli	100
oft	100
sondierungen	100
zweistellige	100
abgebrochen	100
num_emps	100
aktualisieren	100
zeitbereichs	100
payment	100
##ork	100
##stant	100
eod	100
dbinfo	100
##_notice	100
mcal_day_of_year	100
indizes	100
show	100
charact	100
mdt	100
bestellen	100
pg_lo_un	100
wichtiger	100
ndy	100
##ã	100
offlineformaten	100
auswertungsregeln	100
funktionsübersicht	100
inwieweit	100
turns	100
durchgehen	100
setsid	100
genutzter	100
beschreibungen	100
pspell_fast_bar	100
mode	100
90	100
kleinere	100
result_id	100
überspri	100
pspell_config_runtogether	100
##ali	100
##_pass	100
##dering	100
webserver	100
##_pre	100
gepackt	100
schleifenbeginn	100
##40	100
##ision	100
unbekannte	100
ldap_get_	100
key_exists	100
empfehlenswertes	100
prozesskontroll	100
abgelaufen	100
schwächen	100
gediegene	100
exists	100
7890	100
cpdf_show	100
ellipse	100
privile	100
op_halfopen	100
created	100
##zeu	100
##igung	100
accept	100
##ruchs	100
##in	100
warnmeldung	100
verwalter	100
auflist	100
x	100
##_of	100
##koid	100
verzeichniseintrag	100
getrunken	100
korre	100
bzdecompress	100
##ebcdic	100
rebo	100
##isierter	100
##eitet	100
cpdf_text	100
anweisungen	100
array_diff_assoc	100
##ster	100
##zeile	100
##bed	100
##_obj	100
dazukommt	100
umgebende	100
texteinfügung	100
erfolgreich	100
interpreters	100
darge	100
binärformat	100
decodierter	100
##üsselt	100
##bezeichnung	100
prior	100
resourcen	100
beschriebene	100
##usst	100
übermitteln	100
cookieth	100
west	100
wendet	100
authentifikation	100
##_key_id	100
schriftstils	100
dbx_query	100
verschiedenste	100
##_fetch	100
##azi	100
parts	100
doppelten	100
verbesserte	100
pgsql_connection_bad	100
benutzerverzeichnis	100
when	100
osx	100
assert_call	100
linksbü	100
##adresse	100
halcy	100
##üglich	100
##gefügten	100
##d_	100
schließ	100
gross	100
fse	100
st_uid	100
##fache	100
tns	100
sponge	100
currentpage	100
name2	100
##einfo	100
##u	100
treiber	100
af_un	100
phpcredit	100
verbindungsstrings	100
fbsql_fetch_object	100
sperrdatei	100
##grp	100
jahrhundert	100
wddx_deserialize	100
pkcs7_detached	100
##dur	100
gebrauchen	100
msql_fetch_	100
lissajous	100
lesbaren	100
72538	100
mysql_unbuffered_query	100
##grund	100
vi	100
persistenten	100
##acp	100
##referenz	100
verfügbares	100
mutter	100
##d_file	100
speicherbedarf	100
entschlüsselt	100
##]	100
##criptor	100
##_errors	100
##_week	100
##s32	100
becher	100
##sprogramm	100
bringt	100
instan	100
##lässiges	100
wurzelverzeichnis	100
177	100
optional	100
##99852	100
zugriffen	100
weißen	100
erleichtert	100
objektorientierte	100
siemens	100
umzusetzen	100
pdf_open_	100
-([	100
="	100
uri	100
sesam_field	100
"*...	100
gewarnt	100
##ush	100
versiegelte	100
safe_mode_allowed_env_vars	100
persistent	100
gezi	100
htmlentities	100
58	100
##lastoid	100
##_icon	100
is_executable	100
assignement	100
##first	100
'];	100
##grität	100
formularvorschub	100
##ingen	100
##licherweise	100
##_lob	100
pg_numfields	100
notiz	100
zwischenzeit	100
##ore_replacement	100
einleitung	100
##_ali	100
weiteres	100
pfadangabe	100
ocidefinebyname	100
aktualisiert	100
##encoding	100
##ift	100
verschlüsselung	100
german	100
socket_create_listen	100
##yps	100
##orial	100
machines	100
mcal_week_of_year	100
repositories	100
##elten	100
kompatibel	100
##stes	100
##quivalent	100
array_p	100
##übergabe	100
{["	100
angelangt	100
browser	100
##args	100
bind_inout	100
offensichtlichen	100
datenbankzugriff	100
open	100
##lies	100
##linet	100
udm_param_first	100
leon	100
##nahmen	100
fdf_set_submit_form_action	100
ihre	100
ftp_fput	100
notes	100
max_aquire	100
##pgid	100
aufrech	100
logindaten	100
ora_error	100
datenbankschnittstellen	100
assert_callback	100
rotateto	100
/).	100
klingende	100
064	100
##gespeich	100
polynomische	100
richtigkeit	100
##spfad	100
umzubenennen	100
online	100
##r	100
allgemeinere	100
anklick	100
##geinf	100
unvor	100
implementierungen	100
riesi	100
ds	100
socket_write	100
swf_addcolor	100
##pc	100
zeilennummern	100
legte	100
unkompliz	100
massen	100
mathematische	100
##uch	100
darüber	100
ifx_query	100
pkey	100
/'	100
imap_lasterror	100
pspell_config_create	100
##lungsmethode	100
stuttgarter	100
skriptausführung	100
auffind	100
voreingestellten	100
point	100
imap_get_quot	100
konstruktion	100
wiederauffinden	100
##etra	100
##ockets	100
durchführen	100
homeverzeichnisses	100
organ	100
offensichtliche	100
##riplog	100
user_dir	100
systemress	100
##ficationen	100
geschrump	100
numeriert	100
##er	100
unerwarteten	100
("\	100
##vision	100
##php4	100
99	100
php3_configuration_option	100
##gelt	100
unvertrauenswürd	100
viermal	100
##fferenz	100
irgendwelchen	100
##wi	100
var_dump	100
veranschaulichen	100
interner	100
oben	100
##_num_args	100
##ross_words	100
gültigkeit	100
snmp_set_	100
vorbereiteten	100
voraussetzungen	100
##mut	100
langwier	100
that	100
linkage	100
af_inet	100
keinesfalls	100
##kb	100
entpackt	100
very	100
array2	100
.";}}	100
eink	100
gleichzeitiges	100
##d0	100
udm_mode_bool	100
rep	100
##_ex	100
bislang	100
##nuep	100
lokalen	100
pg_connection	100
after	100
beständig	100
##ahll	100
##n	100
##umn	100
udm_field_content	100
]:	100
##führende	100
aufzählungen	100
hierhin	100
angemeldeten	100
##sserver	100
##ammer	100
##_di	100
7000	100
##setzung	100
##_version	100
suc	100
datenabnk	100
textuelle	100
handhab	100
wirkungsdauer	100
##edomain	100
";}}	100
##atiert	100
seitig	100
martin	100
umsetzungen	100
stets	100
lief	100
bezeichner	100
unterschieden	100
.")	100
ulx	100
##entsor	100
create_table	100
deserialisieren	100
datenzeilen	100
gelichzeitig	100
##192dcd0662722	100
!');	100
margin	100
ordner	100
lu	100
".(	100
##gw	100
##ected	100
ganzzahl	100
##ut	100
##_ung	100
verkl	100
##sieren	100
wind	100
automatisch	100
diesbezüglichen	100
tue	100
wdd	100
ircg_ignore_del	100
##_tagname	100
unzählige	100
gesam	100
##ho	100
pdf_setflat	100
looks	100
##_api_no	100
##xt	100
cpdf_begin_text	100
gewö	100
konsisten	100
ket	100
##abhängigen	100
stor	100
pl	100
gregorianische	100
kenn	100
array_splice	100
aktivität	100
farr	100
work	100
##fine	100
!--	100
##cl	100
auszudruck	100
ist_gekocht	100
("/	100
cookie	100
befehle	100
330	100
libxml2	100
überwacht	100
entschied	100
##emarke	100
strftime	100
allowable_tags	100
##bau	100
herrscht	100
libphp3	100
unterklasse	100
zurückzusetzen	100
kontrollpunkte	100
##5898	100
##wältigen	100
zuweisungs	100
basierter	100
fp	100
/".	100
beiste	100
entpacker	100
##fläche	100
##igten	100
hoch	100
31	100
protocol	100
##zeichnen	100
strcoll	100
sollte	100
variablenn	100
frühlings	100
symboltabelle	100
statusmöglichkeiten	100
wiederhol	100
spezielles	100
##dri	100
##uerten	100
ungleich	100
ist_essbar	100
##uc	100
icap	100
##wave	100
##nitte	100
javaapp	100
##rift	100
ifx_errormsg	100
aufgebauten	100
##_do	100
gewal	100
rechenin	100
wis	100
cygnus	100
winansiencoding	100
sieehe	100
standarport	100
editieren	100
hochladen	100
##eig	100
##sensitive	100
swf_ort	100
##next	100
##zeichnet	100
gailly	100
##37	100
##sbw	100
##igen	100
kleine_zahlen	100
##asen	100
##table	100
visi	100
christian	100
##plify	100
populärsten	100
dbx_cmp_number	100
könnten	100
##einf	100
stick	100
1792	100
losen	100
##..	100
##formaten	100
##hel	100
dateizugriffsmethoden	100
ausgeführt	100
verbracht	100
effektive	100
unseren	100
unbedeuten	100
verschlimmern	100
gif89	100
pfa	100
##chslungen	100
##aled	100
imageinterlace	100
auswertung	100
##ues	100
betrachten	100
pg_errormessage	100
##wich	100
fdf_set_flags	100
une	100
argument	100
##behandlung	100
ausschliesslich	100
fakeentry	100
udm_ispell_type_spell	100
populäre	100
lokalspezifische	100
08	100
##_coll	100
execute	100
speicherplatzes	100
domdocument_create_processing_instruction	100
zak	100
artige	100
gangbarer	100
mysql_error	100
spell	100
namensraumregeln	100
##remente	100
ghosh	100
überladen	100
##get	100
sesam_diagnostic	100
libmodphp4	100
differieren	100
platzhalter	100
erfolgreicher	100
##getsqlca	100
lesezugriff	100
endian	100
anzuschalten	100
redund	100
##hre	100
gesamtanzahl	100
andersw	100
cpdf_save_	100
phrase	100
##auf	100
msql_db_query	100
schum	100
##ent_class	100
test	100
skalierung	100
aktiver	100
##ozi	100
##rechner	100
wegdefin	100
##nftige	100
lin	100
##te_type	100
##ufahren	100
indic	100
##gruppe	100
##ografischen	100
versionsnummer	100
##ff	100
##sword	100
mei	100
ans	100
\"	100
side	100
macromanencoding	100
beiden	100
ausgeführte	100
gebraucht	100
##issen	100
sprachunterstützung	100
##schlag	100
identische	100
eingeklammerten	100
unterlä	100
dezimalpunkt	100
angezeigt	100
##kenn	100
##itch	100
##stehenden	100
veschlüssel	100
##ommen	100
de	100
exiguus	100
dbmnextkey	100
")))	100
##sender	100
pgsql_non	100
##1807	100
unser	100
dbmopen	100
vorangestelltem	100
:)	100
##ßer	100
##unter	100
(	100
tätigen	100
weitergenutzt	100
bezahlen	100
zwecke	100
untadelige	100
maske	100
dgettext	100
einz	100
target_frame	100
wizards	100
pipen	100
bcsq	100
maskiert	100
bearbei	100
##ase	100
##rise	100
zeev	100
abc	100
mypassphrase	100
systemresource	100
dauerhaft	100
udm_field_text	100
##annte	100
fdf_set_	100
verknüpfte	100
##00	100
frontbase	100
##ced	100
tupels	100
##ussiert	100
postfachs	100
##fte	100
##conv	100
##stellbaren	100
##ortiert	100
standardeinstellungen	100
##timeout	100
##forderung	100
nl	100
hmac	100
##der	100
variant	100
biblitohek	100
##fdf	100
##_limits	100
arbeitspl	100
vorzunehmen	100
nt	100
zentimeter	100
classes	100
described	100
##beu	100
##gewicht	100
kommerzielle	100
stellt	100
aulb	100
kontrollieren	100
teilzeichenkette	100
##tical	100
sammlung	100
priv_key_id	100
ifx_lib	100
wiederauff	100
reboot	100
##isten	100
mysql_num_rows	100
errors	100
pg_escap	100
tmpblob	100
unique_	100
ftp_f	100
sinus	100
voraussetzen	100
authentifizierungs	100
##raucht	100
{{	100
einsatzmöglichkeit	100
##pochen	100
moorhu	100
##prü	100
register	100
pg_lo_close	100
##;}?	100
leiden	100
:##	100
vollständie	100
##dengen	100
enthü	100
##sionell	100
verrie	100
mäng	100
risiko	100
orientiert	100
##gon	100
veranschaulicht	100
bekannte	100
verblei	100
wieviele	100
##ffe	100
microsoft	100
zertifikate	100
pg_copy_to	100
gehashdes	100
mysql_list	100
quell	100
column_type	100
dbx_result_assoc	100
strto	100
unauf	100
##8681	100
creditmut	100
1234567890	100
erfasst	100
ebenso	100
zero	100
angriffstak	100
anführungs	100
array_m	100
pguser	100
myvar	100
logger	100
array_merge_recursive	100
übersicht	100
su	100
schlimmsten	100
formulard	100
ergebnisdatensatzes	100
##reffen	100
berücksichtig	100
pg_lo_import	100
vorsichtig	100
überschreitung	100
##dd	100
##_date	100
##sizel	100
##_width	100
ldap_explode_dn	100
ergebniskennung	100
##of	100
mt_	100
##gettext	100
##ierungs	100
megab	100
##eile	100
ircg_nickname_unescape	100
normung	100
val1	100
##aten	100
gebildeten	100
ldapport	100
gekicked	100
mysql_createdb	100
ferr	100
##_getmouse	100
13	100
verschlüsselten	100
##272	100
##_co	100
rasmus	100
interaktionen	100
##_sec	100
reag	100
##lichen	100
src	100
standardmäßigen	100
crypt_ext_des	100
##sw	100
get_par	100
##nter	100
systemfunktionen	100
verzeichnissen	100
odbc_execute	100
aufzeichnet	100
sqlsetstnt	100
designmultimedia	100
aussagekräftige	100
leerren	100
overhead	100
druck	100
##wechsel	100
radi	100
udm_limit_date	100
beziehung	100
cachen	100
##szeichen	100
erstellt	100
korrekte	100
note_name	100
formularvariablen	100
cytpe	100
query	100
"]).	100
fdf_save	100
shellcgi	100
unmöglichkeit	100
wochentagsname	100
fä	100
hereinkommende	100
arten	100
zusätlich	100
##_doc	100
skalierungsfaktor	100
##esetzt	100
##oten	100
do	100
berichtet	100
brasili	100
abhängen	100
##hängig	100
wddx_packet_start	100
y2	100
##lor	100
schluß	100
benutzervariablen	100
floating	100
sqlerr	100
g2	100
msql_field_seek	100
hä	100
ausgabesatz	100
suggest	100
##tuples	100
gelben	100
weiterhelfen	100
ldap_list	100
rückgabewert	100
##ennt	100
welchem	100
##racht	100
##_start	100
tiger	100
clib	100
überblick	100
bindtextdomain	100
##*******************************	100
ldap_get_attribut	100
##\'	100
esc	100
anführungsstrichen	100
ibase_timefmt	100
persönlichere	100
imap_fetch	100
uuuuuu	100
php4ts	100
aufsteigende	100
passieren	100
wobei	100
austausch	100
##ndel	100
activexcontr	100
##_register	100
now	100
ircg_is	100
fehlerstacks	100
##boxen	100
fdf_dokumen	100
##encode	100
herstellen	100
angemel	100
antialiasing	100
##eisung	100
hone	100
ldapext	100
##538	100
my	100
extrahiert	100
##ow_xy	100
array_merge_recur	100
##_suggest	100
##rieb	100
versiegelnden	100
stärkstens	100
drucken	100
hunderttausenden	100
reelle	100
ldap_opt_timelimit	100
angeboten	100
ef	100
##cessing_instru	100
werkzeu	100
##zufalls	100
zeichnungen	100
jones	100
]]	100
readline_add_history	100
synonym	100
##grgid	100
geachtet	100
##täres	100
angewandt	100
vorgang	100
##umgeb	100
somaxconn	100
[]	100
umdefin	100
vorgefer	100
sort_asc	100
erschei	100
gew	100
löscht	100
nextpage	100
guidance	100
art	100
criteria	100
ftp_delete	100
vererbte	100
aufgedeckt	100
mich	100
##nutz	100
byteasvarchar	100
4site	100
palmpilot	100
existen	100
byteweise	100
intelligenter	100
´	100
ctype_xdigit	100
##v_handler	100
pfpro	100
pcntl_signal	100
udm_param_ispell	100
##teln	100
hamb	100
gc	100
cpdfllib	100
##ächerten	100
remote_user	100
"}	100
gra	100
kommerzielles	100
##ref	100
##app	100
##riffe	100
##uting	100
wirklich	100
imap_mail_move	100
sqlerrd	100
zustandswerte	100
brauchen	100
##two	100
funktionsaufrufes	100
ausgabedaten	100
speichersegment	100
##escape	100
pdf_get_imageheight	100
##gical_fontheight	100
folgte	100
spalteninhalte	100
inter_type	100
basi	100
filemtime	100
sql_autocommit_on	100
impliziten	100
benutzern	100
t1	100
mysql_character_set_name	100
imap_create	100
##43	100
double_value_of_var	100
fragliche	100
nu	100
tests	100
herstellungsdatums	100
##to	100
411111111	100
currency	100
marliesle	100
##ourc	100
tod	100
##ealog	100
##_empty_line	100
berufen	100
##_refs	100
quotemeta	100
akt	100
##res_field	100
boolsche	100
descriptions	100
org	100
!	100
automatischer	100
sort_string	100
300frf	100
1024	100
}-	100
implementierung	100
rekur	100
nachteil	100
pber	100
sub_y	100
sqlvchar	100
setup	100
benutzerab	100
(+)	100
geprüfte	100
session_destroy	100
##q	100
##meren	100
gezeigte	100
##xtype	100
sprachkern	100
erhaltene	100
##top	100
printer_set_option	100
http_response_code	100
risc	100
##bool	100
globalen	100
array_intersect	100
sesam_seek	100
##leger	100
##struktur	100
ausstehen	100
##stedf	100
rate	100
pg_field_len	100
plain	100
führender	100
quitting	100
enkodiert	100
schnittstelle	100
schriftarten	100
##quierten	100
##_decode	100
trapezoid	100
nebeneinander	100
mnrpqr	100
##rus	100
magaz	100
fields	100
quot	100
uhr	100
starten	100
##_status	100
teil1	100
dbase_numrecords	100
cas	100
##benutz	100
oracle_home	100
phttpd	100
##ories	100
werte	100
identifikation	100
interess	100
chunk	100
##utlichen	100
zählen	100
##steme	100
zugrundeliegen	100
##icht_vorhanden	100
dynamischen	100
perl	100
auspro	100
default_database	100
##hlende	100
constructor_cart	100
zusammenge	100
##eroutine	100
spezial	100
umleitung	100
##nend	100
##db738	100
fdf_set_opt	100
##dn	100
##utdown	100
kreisbogen	100
fehlerstack	100
binde	100
##ätzen	100
010201	100
##_open	100
##begrenzung	100
##eitge	100
diction	100
keinem	100
rückgabewerten	100
ansicht	100
endet	100
kompletten	100
##prozess	100
area	100
pri	100
##mont	100
dün	100
##sub	100
csv	100
pend	100
##man	100
übergibt	100
geleiten	100
##geb	100
translation	100
ip_address	100
returncodes	100
user_id	100
gemischter	100
udm_param_page_size	100
##aemon	100
##ungsdatum	100
auszuprobieren	100
##aski	100
##hoben	100
acct	100
mean	100
##räg	100
##ggeben	100
terminal_name	100
##stütz	100
square	100
sor	100
##iesisch	100
usr	100
##uchs	100
##dist	100
inspektion	100
ftell	100
tc	100
##pad	100
prim	100
bar3	100
works	100
prot	100
##zählt	100
teiltext	100
##gical	100
##zi	100
verwenden	100
##gerischen	100
##_class	100
""	100
##sstufe	100
##arbeitet	100
inc	100
erwartet	100
oci_b_blob	100
basierenden	100
##abt	100
ldap_scope_onelevel	100
untergeordneten	100
menschlich	100
verbinung	100
fbsql_starting	100
fehlerüber	100
verzichten	100
##steuert	100
pg_copy	100
##ures	100
bzw	100
geb	100
##zepte	100
rfc1738	100
benötigen	100
##ingund	100
entschloss	100
srand	100
chunks	100
hauptspeicher	100
##anweis	100
##iertel	100
##descriptor	100
##tz	100
##gist	100
pseudo	100
another	100
auszudenken	100
##ah	100
commonname	100
##_tags	100
##liegenden	100
pg_loimport	100
encoding	100
com_in	100
zugangsmodell	100
##art	100
bzopen	100
extension_loaded	100
zuvor	100
iso	100
##ých	100
authentifizierungsmethode	100
programmstart	100
"+	100
;}}}?	100
##lect	100
format	100
zwischenspeicher	100
ganzes	100
steuerung	100
warnungen	100
eindimension	100
ibase_free_	100
##ga	100
##tennummer	100
ramey	100
ergebnisses	100
typem	100
erniedri	100
problematisch	100
nummerische	100
##bereiche	100
knacktus	100
##_export	100
##olle	100
berechtigung	100
bop	100
behälter	100
##pt	100
hochverfüg	100
dokumentenbeschreibung	100
pdf_get_image_height	100
##nn	100
ausdrücken	100
##ber	100
entfern	100
##00010	100
##ruieren	100
developer	100
##walk	100
2war	100
sicherheitsprobleme	100
##decode	100
ircg_nickname_escape	100
extr_if_exists	100
tragisch	100
berechtigt	100
beispiel	100
##entlichen	100
interes	100
verstrichen	100
udm_add_search_limit	100
ursprunglichen	100
additional	100
fornma	100
##angabe	100
passwortfeldern	100
xor	100
##erk	100
folgendem	100
trigger	100
##ether	100
##bbox	100
##iefern	100
##servern	100
logik	100
unterschrieben	100
udm_free_agent	100
erhö	100
stati	100
schräg	100
abce	100
funktionsbeschreibungen	100
##ärdatei	100
konflikte	100
hilfe	100
##rücklauf	100
rfc2045	100
aufhebung	100
output_buffer	100
util	100
tree	100
##äche	100
ausführungszeit	100
"'$	100
##alu	100
##write_close	100
##tabelle	100
algorith	100
zei	100
gespeich	100
##lie	100
ungewö	100
installationsanweisungen	100
/	100
aufzur	100
schäd	100
wirkungs	100
ausführungsgeschwindigkeit	100
##ellenwert	100
versionings	100
##ex	100
crack_check	100
beschreibungs	100
ber_kennung	100
##_required	100
koordinaten	100
##bracht	100
php3test	100
ldapbind	100
erklärungstext	100
sgid	100
##minformationen	100
##_add_	100
direktive	100
##teger	100
##indaten	100
##hed	100
verlag	100
lesern	100
speicherbereiche	100
##tra	100
attrsonly	100
mssql_pconnect	100
114	100
enabled	100
##search_limit	100
furchterregendes	100
erler	100
verlassen	100
mn	100
beträgt	100
ozilla	100
pdf_open_image	100
!$	100
second	100
##zusetzen	100
##ofday	100
misserfolg	100
##speicher	100
historische	100
safe_mode_protected_env_vars	100
leitung_list_skript	100
verwendet	100
convmap	100
schätz	100
genutz	100
("^","	100
lstat	100
portug	100
##onfdir	100
foo_x	100
bilden	100
muttersprache	100
komplet	100
##illip	100
##five	100
]}	100
objektfunktion	100
ssleay32	100
42949672	100
##j	100
##res	100
tages	100
pg_lo_write	100
30pt	100
fclose	100
##_grep	100
erwünsch	100
##emnte	100
anweis	100
verantwortllich	100
##sultieren	100
horizontalen	100
##stär	100
##schal	100
w	100
##sup	100
##juli	100
##tiplikation	100
zip_close	100
##gängig	100
3e3	100
##action	100
ora_fetchinto_nulls_bar_	100
zuverlässigkeit	100
pw_di	100
fehlgeschlagenen	100
##_var	100
##ellen	100
pfsockopen	100
##sgruppe	100
genau	100
zeitzonen	100
##atische	100
##agt	100
nachlesen	100
ua	100
srm	100
##schlägen	100
ol	100
james	100
syncronisiert	100
mt_srand	100
ft_uid	100
sql_cur	100
##timelimit	100
zurückver	100
vt_empty	100
wiederholung	100
miterlebt	100
##li	100
usw	100
logging	100
vorherigen	100
##prev	100
database2	100
prefixen	100
cau	100
verdeutlichen	100
workshop	100
bereits	100
function_name	100
##2uf	100
flavors	100
##ungswinkel	100
serialize_	100
seitenaufru	100
##utdown_function	100
hierbei	100
##rl	100
mcal_delete_event	100
else	100
prinzip	100
links	100
open_base	100
abcd	100
link	100
msql_fetch_field	100
udm_param_found	100
zusatz	100
##stlle	100
##nken	100
##esen	100
##852	100
##wicht	100
testr	100
##nen	100
unterdrücken	100
installationsanweis	100
mächtigsten	100
snmpwalkoid	100
libcm	100
##_regcase	100
composer	100
133	100
array_change_key_case	100
deklararieren	100
ncurses_mousemask	100
levenshtein	100
ocinlogon	100
##ollen	100
##ange	100
mel	100
'[	100
meistbenutz	100
füll	100
konnten	100
angreifen	100
##meti	100
teilausd	100
##err	100
fd	100
rid	100
addcslashes	100
array_change	100
##gefahren	100
endlos	100
php3_max_	100
hpuxver	100
pk	100
build	100
imap_createmailbox	100
##mentell	100
gerundet	100
daneben	100
table2	100
sort_reg	100
umwandlungs	100
auswechsel	100
coun	100
directly	100
output_comp	100
aufräumen	100
stoppen	100
kompilierens	100
desweiteren	100
französi	100
vorgänger	100
angefangen	100
maschinen	100
ibase_field_info	100
##_free_	100
hal	100
zählfunktion	100
verbesserten	100
university	100
##ivalent	100
konvertierte	100
debugging	100
ldap	100
hät	100
steuer	100
ö	100
cpdf_setlinewidth	100
datenhand	100
schliesst	100
offen	100
##tencoding	100
##_field	100
##ierten	100
##agnost	100
selben	100
##utable	100
solid	100
jan	100
verantwortlich	100
pdf_ske	100
davor	100
##legt	100
##_replacement	100
bogen	100
dateis	100
externe	100
##_magic	100
juni	100
beider	100
##oprefetch	100
array_unique	100
multiple_key	100
##mpfunden	100
plötz	100
fähigkeiten	100
ungültiges	100
stabilitätsprobleme	100
ocicolumntyper	100
pspell_add_to	100
antwort	100
ungequotete	100
vorgabewert	100
bezahl	100
getmyuid	100
##859	100
##ora_fetch	100
verbindunk	100
items	100
übersetzungstabellen	100
head	100
udm_field_url	100
echoname	100
tm_isdst	100
##_spacing	100
##rib	100
regist	100
##ler	100
bezeichnen	100
##reitet	100
inv_write	100
##bte	100
lesbar	100
1970	100
andi	100
ansi	100
wichtige	100
reihe	100
##sendpunkt	100
##ötigten	100
rück	100
##nta	100
ldap_close	100
ergebniszeile	100
many	100
765	100
storage_classes	100
kurze	100
benutzerdefinierten	100
unbegrenzt	100
##distribution	100
tan	100
##buster	100
av	100
enfernt	100
grundlegen	100
briti	100
cookies	100
zeitangabe	100
##rif	100
spalte	100
ress	100
************************************************	100
case_insensitive	100
besitzers	100
##öcke	100
fribidi	100
verbleibt	100
##sr	100
##land	100
cainfo	100
garr	100
komplex	100
##twick	100
bin	100
##unterstütz	100
where	100
php_logo_g	100
jd	100
cach	100
anhänge	100
gemessen	100
ingres_ii	100
zeilenschal	100
pix	100
pdf_curveto	100
filesize	100
##rang	100
disable	100
restart	100
0203	100
##sehbares	100
##kü	100
];}?	100
sesam_execimm	100
unmöglich	100
einspeisung	100
vorlie	100
mytty	100
auszu	100
auswir	100
crl	100
imagecolorexact	100
##urday	100
objektinstanz	100
hexadecimal	100
trick	100
entwickeln	100
ausschlieslich	100
met	100
##_process	100
openldap	100
##fieldflags	100
gäng	100
##strftime	100
diesbezü	100
namen	100
implemen	100
profi	100
modif	100
umgangen	100
feldargumen	100
sprachcode	100
vergleichsfunktionen	100
baumstruktur	100
circle	100
sent	100
pathname	100
schreibgeschützt	100
##lter	100
##sft	100
##räisch	100
0b4	100
weiterentwickelt	100
thumbnails	100
heule	100
gesetzt	100
##ien	100
##brachten	100
##type_node	100
hug	100
explizit	100
versin	100
##gi	100
array_values	100
pdf_stringwidth	100
pg_cancel_query	100
sla	100
##...	100
(?	100
##toupper	100
##ogen	100
bedenken	100
##neten	100
familie	100
dbconn4	100
##ora_fetchinto_assoc	100
verschoben	100
dass	100
zeichensatzkodierungen	100
asort	100
barbaz	100
##räumen	100
einzuschließen	100
aufsplit	100
verschlüsselungspaket	100
müs	100
"\{$"	100
machine	100
zehntausenden	100
weggelassen	100
##files	100
erbt	100
##sage	100
ergibt	100
pow	100
herzustellen	100
##haf	100
##_field_test	100
speicherplatz	100
pspell_run	100
mitgeteilt	100
##ald	100
sparch	100
##alender	100
ocinewcollection	100
named_cart	100
##male	100
cpdf_restore	100
existenz	100
bilderzeugung	100
##codeupdate	100
bennutzt	100
beob	100
process_section	100
map_spanish	100
##34	100
schutz	100
erwägen	100
zip_entry	100
leisten	100
allocierter	100
prüfung	100
anfragetyp	100
!";}?	100
##z	100
p	100
bereitgestellt	100
##liger	100
geschmack	100
webobject	100
urls	100
sock_seqpacket	100
criter	100
##hrliche	100
unbedeutende	100
erfragten	100
implizierung	100
sprachkonstrukt	100
##undbar	100
designtes	100
,"+	100
funcname	100
plugin	100
pg_cancel	100
##reiten	100
aufgetreten	100
##sprechen	100
symbolischen	100
verzeichnisstruktur	100
##ärungen	100
cn	100
telnet	100
tra	100
##add_vars	100
##insert	100
##metiert	100
transparent	100
##dringlich	100
sate	100
feldnamens	100
zutreffen	100
field_name	100
divisions	100
fi	100
##sounds	100
##3147	100
##behafteten	100
##hname	100
gnu	100
umgebungen	100
mehrer	100
signing	100
##_pro	100
dio_write	100
verschlüsselungsalgorhy	100
verbindungsart	100
optimierungen	100
erstellung	100
verbidnung	100
merkwürd	100
##rypt_	100
produktes	100
gelb	100
konstannte	100
ides	100
kop	100
##getgrgid	100
anfrageergebnisses	100
fehlschlägt	100
##wiesen	100
gehörige	100
complete	100
dekodiert	100
gleichzei	100
##ehen	100
##its	100
exec	100
pg_loclose	100
isname	100
next	100
##inger	100
##ont	100
toch	100
merkmalen	100
##nterne	100
##anfrage	100
432	100
freien	100
onlinehandbuchs	100
gethost	100
satzschlüssel	100
design	100
]+$	100
executable	100
meld	100
extr_prefix_same	100
standardmäßige	100
##fen	100
endwhile	100
##set_cookie_params	100
findet	100
wrapper	100
##ree_result	100
##))	100
bewegt	100
##teste	100
job	100
wddx_groesse	100
können	100
gutmans	100
##55	100
nachstehenden	100
##_ssl	100
##_entry	100
pids	100
x7f	100
xal	100
db2	100
irgendwohin	100
mitglie	100
##_client	100
herumstoch	100
glib	100
##ing_table	100
basename	100
##headers	100
##br	100
radius	100
unregister	100
yp_order	100
))");	100
july	100
##rietäres	100
ldappass	100
##char	100
dekomprimierte	100
##onell	100
andere_dat	100
lademodul	100
leerem	100
darzustellen	100
method	100
elemente	100
errorcode	100
##roffen	100
https	100
hält	100
ecken	100
schaffen	100
connection	100
vorgehen	100
session_module_name	100
##sin	100
##aum	100
solcher	100
##swered	100
fruit	100
fordert	100
##emd128	100
##lease	100
..	100
##halt	100
##dec	100
##disp	100
##lear	100
##sperren	100
##last	100
socket_last_error	100
bloß	100
posix_getgrgid	100
ganzzahligen	100
cracklib	100
anzulegen	100
langes	100
versionen	100
fgetss	100
geläufig	100
##writer	100
ergebnisfeld	100
##b50	100
schnittellen	100
##tende	100
##artige	100
fon	100
oci_b_file	100
macros	100
crc	100
lesevorgang	100
instru	100
angeforderten	100
analog	100
ingres_i	100
expandiert	100
fehlen	100
##äres	100
prepare	100
sprachsyntax	100
ausgegebene	100
letter	100
parametter	100
zeichenvor	100
domcomment	100
##iges	100
pants	100
##pro	100
jemand	100
1995	100
serverseitigen	100
egmentes	100
scrollable	100
pdf_get_fontname	100
##orien	100
##öglich	100
##_b	100
renamed	100
testfdf	100
##winkel	100
rat	100
multi	100
returncode	100
##rukte	100
paare	100
geleistet	100
argh	100
zend_module	100
sowohl	100
put	100
unterschiedlichen	100
vorkompilierte	100
##ted	100
separator	100
ircg_ignore_add	100
##alen	100
array_chunk	100
verlangen	100
apis	100
##plicit	100
absteigende	100
revolutionskalenders	100
speicherprozedur	100
installationsbeschreibung	100
nützlicher	100
h3	100
##verse	100
ihn	100
##ßerfolg	100
rangfolgen	100
dateistreams	100
##orme	100
##ungs	100
##hängt	100
udm_get_	100
abgeschickt	100
gelt	100
fehlertext	100
##aroot	100
pdf_clock	100
##ctype	100
prev	100
laufwerk	100
verweise	100
is_array	100
_4	100
hour	100
db_conn	100
using	100
chiffre	100
not_	100
pg_lo_seek	100
dbf	100
stat	100
fdfnormalap	100
}?	100
822	100
wddx_shape	100
##values	100
cybermut_creerformula	100
##int	100
("").	100
kompaktes	100
enclosed	100
##bage	100
findest	100
##nnge	100
##t_action	100
##sierte	100
konfigurationsvorschriften	100
##hmen	100
anfänger	100
gegensatz	100
instanzen	100
standardverzeichnis	100
funktion	100
restriktiver	100
schreibrechte	100
define_sy	100
beschränkt	100
sesam_seek_ab	100
benutzereingaben	100
dring	100
betriebssysteme	100
unserer	100
müllsammler	100
##cgi	100
tschechisch	100
geparsed	100
gül	100
gewonnenen	100
php_auth_pw	100
##rator	100
##_fetch_error_msg	100
##ard	100
pdf_scale	100
multiply	100
gezwungen	100
jedes	100
##_col	100
horizontaler	100
xml_cdata_section_node	100
einfachere	100
##_arr	100
##entity	100
umgeleitete	100
##oggten	100
wo	100
ausgeliefert	100
auslösen	100
wahlfreien	100
##signe	100
lesenden	100
##ian	100
openssl_x509	100
unterverzeichnissen	100
##erst	100
##temeta	100
##anning	100
##zep	100
##_instru	100
sperre	100
##zwe	100
hostnamens	100
populärste	100
inhal	100
tabellenzelle	100
##mitglieder	100
roxen	100
pspell_add_	100
objektinstanzen	100
ins	100
stop	100
dateibasierten	100
bestä	100
##og	100
##wissen	100
fbsql_set_	100
nutzenden	100
durchlä	100
tfun	100
zen	100
inv_	100
",$	100
##word	100
,:	100
rückwärtskompatib	100
beginnende	100
ifx_blob	100
abk	100
sing	100
apaches	100
mysql_query	100
c2	100
ungeachtet	100
[$	100
##htype	100
stück	100
##vorgang	100
nextval	100
wiederbenutzt	100
message_type	100
schlug	100
organisationseinheiten	100
ehrliche	100
##spn	100
1gb	100
32	100
getrenn	100
zwingen	100
compiliere	100
veränder	100
q1	100
##einschränkungen	100
uu	100
]),	100
mysql_select_db	100
cron	100
modell	100
8601	100
hinweg	100
wiederkehren	100
structured	100
752	100
##uid	100
standardmässige	100
##_verify	100
##moldb	100
anfrageergebnis	100
##atoren	100
##funt	100
binärmodus	100
##_num	100
##v_vars	100
imap_rfc	100
pdf_set_leading	100
codebeispiel	100
##ng	100
gesendeter	100
deninhalt	100
##new	100
gute	100
pspell_config	100
ocin	100
##akeup	100
klick	100
##eturn	100
explizites	100
##error	100
##_req	100
angenommen	100
oooort	100
verschlüsselungsprozess	100
udm_phrase_disabled	100
zurückgegebenen	100
tick	100
##erweise	100
980	100
modifiziertem	100
##handle	100
rückübertragung	100
##reite	100
reiserfs	100
array_sum	100
speicherstelle	100
compilerschalter	100
defines	100
nachfolgen	100
nimmt	100
##error_msg	100
!";?	100
tastatur	100
franz	100
##78	100
pgdate	100
udm_field_c	100
cursor_type	100
##osh	100
##ned	100
##uelle	100
##ssig	100
##enix	100
schwäche	100
bezeichnung	100
##idnung	100
openssl_x	100
ursprungs	100
ircg	100
you	100
mhash_md5	100
jewis	100
aufeinanderfolgenden	100
dukumentenfeldernamen	100
32767	100
##end	100
##ister	100
fileowner	100
lc_time	100
##zugehen	100
resultieren	100
##faktoren	100
titelblatt	100
streams	100
##fung	100
mat	100
schlüssels	100
##tive_timeout	100
erleichtern	100
ind	100
völl	100
nachzuvollziehen	100
##fangen	100
show_	100
##rlist	100
won	100
deskriptoren	100
php_auth	100
meine_db	100
vieler	100
300	100
jüdische	100
indirekt	100
##atime	100
länge	100
zw	100
bison	100
fontfile	100
passw	100
##gben	100
weiterverteilbaren	100
##hread	100
##self	100
##eiht	100
werkzeuge	100
commit	100
angewen	100
##_att	100
__alien	100
]"	100
passwortüberprüfung	100
frühestens	100
##ationalen	100
##sern	100
##anu	100
gesich	100
hinzugefügte	100
sachgemäß	100
gleiches	100
unveränder	100
##fort	100
positioniert	100
##atible	100
meldet	100
##byport	100
description	100
überwiegen	100
.'.	100
on	100
##;)	100
makefoo	100
fehl	100
auswertungsart	100
##eta	100
zuweisen	100
voneinander	100
##ierdi	100
nutzlos	100
halten	100
ldap_deref_search	100
##fein	100
udm_set_agen	100
##unknown	100
erweiter	100
##anual	100
get_	100
##tium	100
##_detect	100
fomat	100
unteren	100
##3	100
interfa	100
##vol	100
argumente	100
verpack	100
hilfegesuche	100
simple	100
treibermoduls	100
westlich	100
##smethoden	100
hauptz	100
##urksen	100
swf_modifyobject	100
ressourcentypen	100
##tokolls	100
koi8	100
##ee	100
kostenloses	100
##ngreadlen	100
php_flag	100
pspell_st	100
gewissen	100
##eicht	100
operators	100
##ennamen	100
unterschei	100
##scher	100
page2	100
##jekt	100
##zähler	100
dateimodus	100
mysql_select	100
large_number	100
?"	100
flexibel	100
crypt_std_des	100
siebzehn	100
kern	100
vt_variant	100
swfgradient	100
paketen	100
default_user	100
##ice	100
critical	100
einem	100
##cols	100
eingebettete	100
ct	100
##typ	100
filepro_ret	100
##äts	100
sau	100
italien	100
##stmöglich	100
##werkzeuge	100
":".	100
##richt	100
##_finding	100
subpatterns	100
}[	100
ent	100
wor	100
nachzuschlagen	100
abgeleiteten	100
o_cre	100
show_version	100
##erlimit	100
##stanz	100
my_t	100
enable_dl	100
##anddatum	100
empfangende	100
z	100
momentanen	100
aufzuteilen	100
kategoriepfa	100
isnull	100
-=	100
##tell	100
##t_jis	100
##_identifier	100
ama	100
##ed_query	100
parserunabhängige	100
mhash_get_	100
##lebt	100
##hler	100
tatsache	100
unverändert	100
mime	100
material	100
remote_addr	100
ziehen	100
prioritäts	100
sä	100
abstrahieren	100
):	100
verweigert	100
unterstützten	100
##separ	100
##uname	100
zugriffsmethoden	100
unnötig	100
regelmäßig	100
:".	100
kreditkarte	100
domainname	100
pspell_new_config	100
##$	100
##ium	100
\"\	100
cpdf_global_set_document_limits	100
34343	100
##fre	100
zeilenn	100
segmente	100
unerheb	100
imagepstext	100
hochformat	100
kommerziell	100
aufspüren	100
##tely	100
zuzug	100
originalausdruck	100
selecting	100
dparameters	100
jahres	100
##rügerischen	100
dio_truncate	100
##igkeiten	100
carte	100
lightweight	100
##="	100
verb	100
##csv	100
wert	100
dateifunktionen	100
##drop	100
##_re_order	100
##stig	100
overview	100
##sichtigen	100
erzeugung	100
shm_delete	100
vermindert	100
besucht	100
bearbeitete	100
##iel	100
ifx_htmltbl_result	100
##te	100
vorspring	100
spezifikationen	100
img10	100
pgsql_tuples	100
instanti	100
##gorithmus	100
##riter	100
erforderlich	100
xml_attribute_node	100
komprimierung	100
##schein	100
##_magic_quotes	100
##beitet	100
beenden	100
mysql_field_len	100
##uper	100
##_error_string	100
unge	100
plattformen	100
seid	100
untrustedf	100
##olon	100
allen	100
ecke	100
cookie_secure	100
assertions	100
filegro	100
versehen	100
wozu	100
ocifreedescriptor	100
random	100
extrakt	100
dienstes	100
sapi	100
conference	100
teilstücken	100
domentityreference	100
effizi	100
##möglichen	100
cent	100
[...]	100
aufbaut	100
##rüfen	100
##variab	100
umesd	100
seiteninhalt	100
],	100
zeichnekette	100
.");	100
##document_limit	100
fehlerfall	100
##mehr	100
frü	100
gelockt	100
legendäre	100
suchrestritktionen	100
cpdf_setline	100
##_param	100
protokolle	100
unvertra	100
verfä	100
lc_messages	100
halber	100
beispielskript	100
anfangs	100
implemetiert	100
streamhandle	100
sizeof	100
##_wday	100
abzubrechen	100
bedeutend	100
komplette	100
moldb	100
cpdf_add_	100
teammitglieder	100
grü	100
verkauf	100
oftmaliges	100
##60	100
pg_lounlink	100
paiement	100
m	100
aufzubauen	100
##ucino	100
ba	100
trigger_error	100
##ners	100
dateizugriff	100
finanztransaktionen	100
weiterentwick	100
beab	100
umkod	100
strrchr	100
openlink	100
liegenden	100
platform	100
medlungen	100
##skalenders	100
fbsql_noexec	100
##smöglichkeiten	100
##aben	100
2e3	100
##_found	100
status	100
entfernte	100
bildman	100
nx	100
##liefert	100
erneute	100
überprü	100
arraykomponente	100
mehrereren	100
mcrypt_enc_get_algorithms_name	100
datenbankinstanz	100
eingeschränk	100
not_escaped	100
##_tmp_dir	100
##ner	100
korean	100
ausgeschaltet	100
ft_peek	100
zurückkonvertiert	100
korrespondierende	100
übernommen	100
rechtschreibprüfung	100
ff	100
erzeugten	100
##anged_s	100
##dschaften	100
udm	100
deseri	100
veröffentlichen	100
aktuelle	100
klarheit	100
bindestriche	100
eckige	100
abfrageergebnissen	100
vorrang	100
integrierten	100
##anfang	100
schwellenwert	100
anzubieten	100
leeres	100
"'.	100
multith	100
zurüc	100
tfunction	100
bitfeld	100
stadtardwerte	100
objektrelationalen	100
pad	100
ste	100
französischer	100
wurzel	100
pg_affected_rows	100
stapel	100
##ected_	100
pdf_set_border	100
udm_alloc_agent	100
env_key	100
##s	100
honeywell	100
maximale	100
irgendeines	100
ausschalten	100
eben	100
längsten	100
##ief	100
systemzeit	100
slashes	100
ausgabewinkel	100
fdf_set_tar	100
##ce	100
webverzeichnisbaums	100
x2	100
seek_set	100
opencon	100
magischen	100
##resized	100
genutzt	100
##_str	100
bereinigen	100
aufgetretenen	100
msql_listdbs	100
##etds	100
stand	100
title	100
##_call	100
##reis	100
##lingen	100
akzeptieren	100
##ablauf	100
##haut	100
click	100
geringeren	100
beispiele	100
yes	100
##mktion	100
hor	100
dateierweiter	100
##ür	100
##user_abort	100
maintainer	100
ups	100
##zuladen	100
nab	100
systemsteuerung	100
sortieren	100
iis	100
scroll	100
einzeiligen	100
dokumentationspro	100
msglist	100
mycatalog	100
annahme	100
gesetzter	100
richtigen	100
##steine	100
erbe	100
##api	100
zugehörige	100
ausführbar	100
##subtree	100
di	100
dcn	100
minutes	100
providern	100
multipl	100
strtotime	100
shm_put	100
compilierung	100
##ved	100
use_only	100
laut	100
letzen	100
konfigurationsoptionen	100
vorname	100
angest	100
datenbankfunktionen	100
sum	100
##umbnail	100
##defin	100
jahren	100
shift_jis	100
buffers	100
speicherbereich	100
except	100
diesbe	100
cpdf_set_subject	100
socket_getsockname	100
seitenwechsels	100
##mem	100
##num_fields	100
##message	100
##fu	100
kürzen	100
regul	100
meinung	100
na	100
applikationen	100
während	100
mb_encode_numericentity	100
gehalt	100
teilstücke	100
interaktiv	100
physikal	100
voreingstellt	100
uidnext	100
read_exif	100
angefügten	100
cursor_def	100
udm_field_urli	100
##ves	100
justthese	100
sucht	100
##_encrypt	100
somethings	100
new_t	100
##_ok	100
herauszufinden	100
localstate	100
norman	100
pg_last_error	100
f_setlkw	100
##bt	100
hauptfeld	100
spal	100
${	100
array_f	100
83333	100
dekomprimieren	100
##swww	100
##sam	100
nirgendwo	100
würden	100
fehlerbehand	100
##save	100
auszugebenden	100
verzeichnis	100
##ibli	100
+	100
##dpunkt	100
signifikanter	100
pspell_add_to_session	100
void	100
browscap	100
verzeichnisse	100
##mit_form_action	100
##llite	100
erstellen	100
verbindungsanforderungen	100
fileatime	100
sicherzugehen	100
auswert	100
posix_setuid	100
gebrauchsfertigen	100
);}}	100
odbc_exec	100
fptech	100
semikolon	100
sock	100
_en	100
pas	100
erfahr	100
patterns	100
##_system	100
versiegelt	100
schreiber	100
##qualität	100
kleinschreibung	100
konfigurations	100
welchen	100
##_decrypt	100
irgendwel	100
gefächerten	100
pap	100
antialia	100
geänder	100
##cial	100
alphanu	100
uhrzeit	100
einbet	100
implementierten	100
verbirgt	100
matched	100
##tpage	100
##suche	100
##event	100
today	100
kriter	100
länder	100
alternativen	100
einloggen	100
treibers	100
##ate_new	100
##erhalb	100
immed	100
extr_skip	100
w3svc	100
rfc821	100
session_is_registered	100
sales	100
##spell	100
ldap_unbind	100
leserech	100
bg	100
lokal	100
##tlich	100
pdf_get_image_width	100
,"\	100
sende	100
blo	100
mysql_fieldflags	100
öffne	100
errech	100
ocifreed	100
##anisches	100
##ral	100
beachten	100
kleinschrei	100
umsetzung	100
str_shuffle	100
##arisch	100
##feren	100
ora_parse	100
two	100
oreilly	100
##geschwindigkeit	100
missbrauch	100
längeren	100
##gesetzt	100
##mmern	100
dbmnext	100
##iziell	100
##lined	100
aware	100
eíntrag	100
subtraktion	100
latt_unmarked	100
##erve_	100
internen	100
untrustedfile	100
##erung	100
befürchtungen	100
network	100
anglic	100
bedürfnissen	100
:".$	100
gestellt	100
base64_encode	100
3	100
nütz	100
##malen	100
auszugeben	100
##byte	100
vertrauenswürdige	100
##ierbarer	100
uploads	100
angebotes	100
##86e310a5db738	100
##_save	100
niedrigste	100
##gang	100
##hnliche	100
sukzessive	100
##_print	100
lesemarke	100
##vard	100
;=	100
429496	100
lc_all	100
datenbanksserver	100
##voke	100
unterzeichners	100
timestamp	100
wir	100
##byname	100
formularfelds	100
augaberoutine	100
verifiziert	100
_get	100
##echselt	100
##ünsch	100
aussch	100
diakritisches	100
dateibasierte	100
chars	100
##_fetch_object	100
##sten	100
auffüllt	100
unbed	100
apachectl	100
ingres_field_name	100
accept_connect	100
signio	100
udm_param	100
##ream	100
imagetypes	100
##ge	100
upgeloaded	100
expliziten	100
##msg	100
ankommen	100
auflöst	100
webentwick	100
exchange	100
meint	100
##ave	100
sock_rdm	100
terminierte	100
gültig	100
rex	100
810331331	100
´");	100
##_referenz	100
fbsql_database	100
unterstützung	100
zeitwiedergabe	100
flo	100
+\$	100
ignoriert	100
ocifre	100
changes	100
auswirkungen	100
entropy	100
f3	100
1752	100
dreifach	100
tiefere	100
php4	100
tool	100
egal	100
ausprägungen	100
pake	100
udssr	100
##a_type	100
##heiten	100
gecache	100
sa_uidnext	100
sagt	100
##tname	100
mysql_escape_string	100
":"	100
face	100
novato	100
nachher	100
interpretiert	100
funktions	100
subtrahieren	100
temporary	100
##rägungen	100
##enter	100
formatierungen	100
rechnen	100
##zt	100
##export	100
##sax_handler	100
fehlschlä	100
##nefru	100
naechstes	100
beispielhafte	100
##senne	100
addierenden	100
contents	100
eingeklammerte	100
vorigen	100
weissen	100
entwicklung	100
';	100
gereiht	100
wechselnd	100
var_array	100
eindeutige	100
stammen	100
##_create_i	100
mysql_host	100
mengen	100
verhindern	100
settype	100
logs	100
erase_empty_line	100
declare	100
terminal	100
merkt	100
ausfü	100
##ales	100
##sinf	100
"]);}	100
##yy	100
##_endings	100
böcke	100
anzeigt	100
##orden	100
ihm	100
imagecolorsfor	100
übersetzung	100
basisobjekt	100
##***************	100
##inhalt	100
anführ	100
monatsname	100
##ög	100
pi	100
mask	100
ungelesen	100
cryp	100
##argumen	100
aufgeliste	100
statuszeile	100
##seur	100
##_is	100
ewo	100
##wier	100
physikalisches	100
##affected_rows	100
##uggest	100
'])	100
backgroundsounds	100
aufgerufenden	100
behandlung	100
les	100
##uffer	100
in_charset	100
north	100
myuser	100
prozesse	100
##='),	100
kategorien	100
kommaseparierte	100
"-=-=-	100
scope	100
##ire	100
katalogs	100
reply_toaddress	100
cnt	100
##nko	100
blieben	100
##add	100
##t_limit	100
##alwert	100
##1	100
##oming	100
sid	100
höch	100
installierer	100
fingerabdruck	100
künftigen	100
this	100
feldargument	100
plam	100
mysql_list_process	100
diversen	100
1000	100
tested	100
außerorden	100
zeitbegrenzung	100
datenverbindungen	100
gesamten	100
proced	100
auf	100
wddx_color	100
##uren	100
nl_nl	100
##sprachige	100
forms	100
getätigt	100
##_th	100
libread	100
abmess	100
offiziellen	100
##ost	100
##steten	100
##ahmen	100
##ufe	100
statuscodes	100
##fer	100
normalem	100
##ign	100
!",	100
erwähn	100
pdf_closepath	100
field	100
mit	100
deklarierte	100
[=	100
##stext	100
##basis	100
fuchs	100
betriebssystemdokumentation	100
udm_free_res	100
##rim	100
##reitung	100
datensa	100
yday	100
vt_uint	100
("([	100
ftp_put	100
unverfäl	100
verlei	100
festgelegt	100
*****************	100
##apsh	100
##link	100
gun	100
g200	100
##}}	100
geeig	100
cygwin	100
kontrollierten	100
webauftritt	100
##_ma	100
lo	100
sesam_fetch_array	100
##ierte	100
utah	100
##spath	100
vernetz	100
quadratwur	100
##hä	100
ora_col	100
fetcht	100
127	100
vornimmt	100
cdata	100
[~]).	100
kyrillischen	100
##avelob	100
socket_set_	100
##waltung	100
ausschlies	100
untermenge	100
trying	100
bot	100
##s0	100
wann	100
gesetzten	100
##ohek	100
oderr	100
langen	100
descweight	100
zeilenparameter	100
shmop_read	100
variablennamen	100
forum	100
gefundene	100
foreach	100
##_fields	100
regeln	100
structures	100
zeige_vars	100
unsortierten	100
##reiben	100
gestaltenden	100
suchbe	100
##_ag	100
299	100
##pped	100
verhinderte	100
libpdf	100
opened	100
sortierflag	100
umgebrochen	100
sont	100
cpdf_setgray	100
v3	100
!";}	100
ck	100
übergabe	100
soliden	100
resource	100
zeichenfarbe	100
signierten	100
verständ	100
ob_gzhandler	100
guido	100
tlewis	100
ora_close	100
mcrypt_get_block_size	100
##{	100
##hne	100
##ele	100
hervor	100
pgsql_connection	100
magazin	100
klassifizierung	100
elem1	100
internetových	100
fortzufahren	100
##erungen	100
##_init	100
##tsam	100
ausgewählten	100
##ok	100
absolute	100
##33	100
##2ascii	100
save_	100
englischen	100
##ischer	100
einträge	100
speichermanager	100
sesam_txisol_repeatable_read	100
vererben	100
phpses	100
tragen	100
detaill	100
strnatcmp	100
socketnamen	100
squ	100
##sphase	100
999	100
725381282	100
##bs	100
temporären	100
weniger	100
ungenügen	100
fdf_set_ap	100
freundlicherweise	100
browserfensters	100
php_stream_statbu	100
##_clock	100
typenkonver	100
pgid	100
##tier	100
0rel	100
betrachteten	100
parameternamen	100
kindproz	100
informative	100
body	100
##_any	100
stuffit	100
voreinge	100
preserve_	100
counting	100
##spezifische	100
mathem	100
aufzähl	100
jdtofrench	100
prom	100
nichtpersistente	100
##seert	100
gemischt	100
sd	100
stell	100
server_admin	100
##teile	100
,'',	100
anfordern	100
##llischen	100
htaccess	100
number_format	100
##_db	100
openssl_free_key	100
ungefähr	100
indizierte	100
weitesten	100
strigs	100
##_pspell	100
behafteten	100
realisiert	100
mechanismus	100
weisen	100
parallel	100
installationsarten	100
##\")	100
gecached	100
##enum	100
##ple	100
##gsquellen	100
größten	100
kommunikationsendpunkt	100
isolation	100
##limm	100
dezimalzahl	100
maxim	100
beers	100
addaction	100
provi	100
kalendergegen	100
sukzessiv	100
##gmenten	100
##onder	100
vergessen	100
jdtogregor	100
##entwick	100
aktualisierung	100
leichteren	100
##rit	100
schwarz	100
klassi	100
##cintosh	100
rich	100
kompatibilität	100
cols	100
##irst	100
unlink_node	100
,"	100
lukasiewicz	100
importierter	100
domains	100
snmp_get_	100
ungünstigsten	100
i5	100
bezugsquellen	100
##hase	100
##dung	100
positive	100
##ull	100
beobachten	100
lohnt	100
fest	100
domxslt	100
php_stream_make_seek	100
##shape	100
##server_info	100
äquivalente	100
sesam_txread	100
##nä	100
##ulator	100
##ypen	100
primitiven	100
kl	100
])),'	100
auswahll	100
egi	100
aufre	100
sal	100
##erugs	100
ausführungsmodus	100
##sy	100
sinn	100
optimal	100
uly	100
ecommerce	100
steuerzeichens	100
mult	100
egine	100
raw	100
tmp	100
konsor	100
openssl_x509_free	100
odbc_set	100
aufzu	100
)?	100
##4	100
pfpro_init	100
##a1	100
270	100
##eee	100
wei	100
session_is_register	100
lebensdauer	100
projekte	100
ocidefinebypos	100
mb_encode	100
"";	100
gethostbyaddr	100
##möglich	100
note	100
zeilenorientiert	100
##scale	100
papst	100
empfangen	100
##hn	100
##zweck	100
##_cross_words	100
##aut	100
safe_mode_exec_dir	100
snapshot	100
stark	100
extr_prefix_all	100
##fault	100
bereitgestellte	100
carroll	100
##around	100
jni	100
##able_read	100
##ocket	100
##ject	100
cpdf_open	100
;,	100
f_get	100
##_sign	100
htmlspecialchars	100
pdf_continue_text	100
konfigurationsvorschrift	100
zahllosen	100
range	100
##ulard	100
fbsql_field_name	100
kurzanleitung	100
arraynamen	100
##ername	100
einzusetzen	100
irgendw	100
ergänzt	100
liefet	100
fortgeschrittenes	100
php_normal_read	100
niedrigsten	100
late	100
sql_cur_use_odbc	100
arpa	100
##befehl	100
convertor	100
ergebnisspalte	100
robuster	100
mod_ssl	100
leven	100
decompressed	100
resoruc	100
schrägstrich	100
'.');	100
0re	100
dn	100
klassenvariablen	100
festge	100
ieee	100
dateisystems	100
##entliche	100
fron	100
heran	100
##_ct	100
unbedeutend	100
darauf	100
recode_file	100
orthographic	100
angebracht	100
neuer	100
##,	100
##afy	100
fdf_save_string	100
##tzufahren	100
skripts	100
betr	100
klasse	100
erlärung	100
vergleichs	100
ausgehen	100
komponente	100
entsprechender	100
gegenstück	100
wandert	100
##äch	100
folge	100
ende	100
hochlei	100
erwähnten	100
bekannt	100
öffnenden	100
serialisi	100
bancaire	100
##chern	100
##reader	100
auszur	100
share	100
tarball	100
scriptausführung	100
trennung_durch_doppelpunkt	100
list_array	100
hinters	100
cpdf_set_page_animation	100
##aly	100
dbport	100
##vi	100
zt	100
umgehung	100
##cent	100
##olen	100
quotient	100
zval	100
ausnahmen	100
schreiben	100
tschechischen	100
##anne	100
##derr	100
dialekt	100
##staben	100
aktivierter	100
daran	100
bugreports	100
auszuführen	100
iiapi	100
##round	100
gilt	100
conn_id	100
pspell_store_replacement	100
pdf_set_info_title	100
umgeleiteten	100
##vial	100
passenden	100
dateireferenz	100
plötzlich	100
##einsatz	100
cybermut_testmac	100
datums	100
komplexes	100
##dict	100
toolkits	100
##chtungen	100
##osaur	100
enctype	100
katalogdatei	100
zweit	100
##lu	100
lizen	100
hinzukaufen	100
##lligen	100
abwicklung	100
vererbt	100
mehrzei	100
suppose	100
dns	100
unvorher	100
('.'),	100
01020	100
publik	100
openssl_verify	100
nutzername	100
empfange	100
443	100
ft_prefetch	100
benachrichtung	100
##e_string	100
##_allowed	100
übertriebener	100
flood	100
is_in	100
komponenten	100
ob_implicit_flush	100
front	100
wechseln	100
auto_cart	100
verschlüsselungsalgorhythmen	100
ircg_disconnect	100
schlicht	100
erstgeboren	100
entwicklungs	100
authentication	100
##quired	100
zertifikatparameter	100
fortgeschrittene	100
##estatement	100
implizites	100
##amples	100
##olor	100
bitten	100
glücklicherweise	100
bezeichneten	100
rechne_array	100
interface	100
muster	100
mysql_field_type	100
##yte	100
fließkommazahlen	100
untadeli	100
##',	100
tritt	100
##mmt	100
crypt_sal	100
fehlerausgabe	100
'*'.	100
leistungsfähige	100
systemaufru	100
zurückzugebenden	100
printer_select_brush	100
worte	100
hh	100
zurã	100
sesam_fetch_result	100
##baz	100
authorisation	100
installationsprogramm	100
früheren	100
gleichnam	100
##bze	100
befehlsergebnis	100
æ	100
ap	100
##erial	100
##transl	100
columns	100
schrägstriche	100
##ecute	100
math	100
##_create	100
führende	100
##_base	100
##bar_	100
##formula	100
fgetcsv	100
jeden	100
untenstehende	100
poll	100
##überprüfungen	100
manchen	100
##uwert	100
##serfolg	100
setfr	100
##prüfungen	100
required	100
##perms	100
count	100
##_link	100
inhab	100
zurückverfolgen	100
bin2he	100
siebze	100
##ptom	100
##halb	100
phpversion	100
colum	100
beeinflußt	100
eßbar	100
##commit	100
signed	100
kriterien	100
highl	100
plattformübergreifende	100
##api_version	100
debug_ts	100
umzugehen	100
##ur_internet	100
##ape	100
xml_commen	100
##_exists	100
##_srv	100
standardpasswort	100
vt_bstr	100
dbx_compare	100
##_of_year	100
pdf_setgray_stroke	100
elter	100
accepting	100
organisationalun	100
##laufs	100
unterschiedlichsten	100
get_magic_quotes_gpc	100
lerdor	100
##sd	100
view	100
10th	100
nichtpersisten	100
dateinamenserweiterung	100
brow	100
zum	100
##einter	100
nonblocking	100
##ckt	100
wichtigsten	100
information	100
ausdrücklich	100
einheiten	100
automatically	100
##lnk	100
##edir	100
##lish	100
##ighting	100
auffinden	100
51	100
bsp	100
##o_g	100
##ef	100
addtype	100
suppress	100
zeilumbruch	100
stzen	100
##keyid	100
xml_pi	100
meta	100
auto_inc	100
schließende	100
einstellen	100
##_gpc	100
gost	100
bewältigen	100
hyper	100
deklarationen	100
ergeben	100
kraft	100
empfie	100
gefilterten	100
abbilden	100
gestrich	100
wörtlichen	100
schicken	100
kennzeichen	100
temporäres	100
ora_fetch	100
##nötig	100
einzubinden	100
mysql_get_client_info	100
##noo	100
##_libs	100
verschiedensten	100
kopiert	100
##mess	100
##ptem	100
domxml	100
##these	100
isolatin1	100
is_file	100
mensch	100
tr	100
##rich	100
tightness	100
host10	100
inserted	100
benannt	100
##^	100
disposition	100
nü	100
;";	100
##cript	100
##anz	100
##schte	100
.%	100
pay	100
##stak	100
leben	100
aufsteigend	100
pg_lo_create	100
##gsfall	100
not	100
wahrheit	100
('.	100
parenti	100
##izont	100
##gebiete	100
##num_rows	100
angesprochen	100
bezogen	100
##schreibung	100
##wick	100
bestimmeten	100
oldname	100
enthält	100
oci_d_rowid	100
stellige	100
##stot	100
vorhaben	100
style	100
##fügig	100
tab	100
decodieren	100
wagen	100
hel	100
('[	100
vergangenheit	100
##tigsten	100
worin	100
zieldateiname	100
(...	100
kompression	100
##ität	100
##acht	100
##fälle	100
dimensionalen	100
anhangsdaten	100
##uster	100
=%	100
##glich	100
longs	100
urldecode	100
hind	100
##dt	100
statusvariablen	100
dbhost	100
eint	100
allow_persistent	100
vorger	100
mapping	100
bereich	100
##iers	100
##get_cookie_params	100
move_	100
schal	100
##ordin	100
bestehend	100
strong	100
opendir	100
beer	100
##riebenen	100
255	100
##zlich	100
testsystem	100
form	100
pgsql_	100
printer_draw_rectangle	100
gründen	100
har	100
##_commit	100
##bald	100
makey	100
temp	100
funktionsi	100
##_pconnect	100
##free_result	100
##zeigt	100
!\	100
vo	100
zusammensetzt	100
vt_dispatch	100
posi	100
vergleichbar	100
benutzernamens	100
obwohl	100
##pert	100
send	100
sprengen	100
nativ	100
##nts	100
##räre	100
tagen	100
entschlüsseln	100
rfc20	100
passwortes	100
ipla	100
ldap_modify	100
udm_cross_words_enabled	100
which	100
correspond	100
##b3	100
typecast	100
##iesi	100
lösen	100
array_multisort	100
putdata	100
gängig	100
php_f	100
zugreifende	100
yaz	100
ziemlich	100
scheint	100
mirrors	100
ircg_nickname_	100
documents	100
dauerhafte	100
##mand	100
normale	100
mysql_fetch_assoc	100
einzuschränken	100
##uss	100
engli	100
##tä	100
.";	100
##iative	100
##ii	100
noop	100
verknuep	100
pdffilename	100
'/')	100
##ilie	100
leseberechtigung	100
mb_convert_encoding	100
attem	100
klassenmitgliedschaft	100
momentan	100
##asl	100
3333	100
archi	100
letzteres	100
initialisierten	100
##ibliothek	100
errordocument	100
gc_probability	100
suraski	100
null	100
cp_move	100
beseitigte	100
rechte	100
));	100
mißerfolg	100
##ump	100
##ocol_version	100
##odul	100
##_mode	100
##_cookie	100
##ilt	100
cpdf_r	100
##04	100
dispo	100
##ared	100
betriebssystem	100
feldlänge	100
append_child	100
uniqid	100
##hode	100
hervorgehobenen	100
abger	100
##nown	100
feldname_für	100
add	100
high	100
erinnert	100
bzcompress	100
abstra	100
server_ad	100
informix	100
lesezugriffs	100
##maß	100
##wäch	100
meistverbreite	100
jeder	100
##hor	100
component	100
neueren	100
hack	100
##_size	100
##ring	100
eventuell	100
##fizierten	100
##okie	100
informationsfeld	100
ora_commiton	100
gefakt	100
verbindungsabbau	100
imagefilledrectangle	100
anhängen	100
verschlüsseln	100
treibern	100
##rig	100
kalendergegenstück	100
verleiten	100
imap_append	100
ie	100
computer	100
übersetzen	100
generation	100
konversion	100
(?)	100
##teil	100
wechsel	100
unterscheidung	100
hid	100
elternprozesses	100
backlog	100
blockieren	100
pspell_save_wordlist	100
##stype	100
##ass	100
swf_showframe	100
.".$	100
dbmaker	100
feldgrösse	100
vorkommen	100
ccvs_pfad	100
folgenden	100
##_seek	100
sonstige	100
##lesen	100
leere	100
europäischen	100
shellbefehl	100
saveas	100
verbindungstyp	100
##overview	100
##cases	100
##unlink	100
authentifizierung	100
startskript	100
mögliche	100
##lient	100
unterst	100
nötigen	100
zugreifen	100
ingres_fetch_object	100
95	100
##sprachen	100
getmicrotime	100
zeichensatzumwandlung	100
gebunden	100
schlüüsel	100
fopen_w	100
exec_str	100
'"	100
","",	100
##nost	100
gültiger	100
##67	100
deteils	100
eintra	100
sog	100
domdocument_create_text	100
schwierigen	100
simp	100
zuord	100
##ow	100
diejenigen	100
addfill	100
rs	100
##zenz	100
zend_hash_index_update	100
distributed	100
weitergabe	100
##ogon	100
entered	100
webbrowser	100
vermeiden	100
baut	100
feof	100
##kan	100
##hezu	100
wären	100
##_enabled	100
57	100
;...;	100
cpdf_lineto	100
vergrö	100
automatische	100
ausführungsdire	100
mod_php4	100
##_rows	100
jedem	100
deswe	100
##fully	100
##abili	100
speichern	100
##agic	100
##smodell	100
hau	100
suchfeld	100
sport	100
mehrfachausw	100
hört	100
characteristik	100
##p	100
ret	100
füllen	100
##e_tabelle	100
downloaden	100
donts	100
za	100
pad_string	100
openssl_free_	100
##merge	100
empfäng	100
kompatibler	100
dbaddr	100
biometri	100
annotation	100
points	100
suchsprache	100
??	100
##ingt	100
evil_var	100
millionen	100
festzu	100
transfer	100
oktalen	100
two_task	100
##_list_h	100
##bn	100
ocicolumntyperaw	100
##target	100
einstelligen	100
##_exec_dir	100
imagecreatefromjpeg	100
##xread	100
bcsub	100
glob	100
##ät	100
exif_read_data	100
ncur	100
##änderung	100
gehört	100
##erate	100
modifizierung	100
passwortfeldes	100
\$	100
zuordnung	100
odbc_result	100
ncols	100
fnm	100
ausgedrückt	100
fbsql_pconnect	100
iiapi_int	100
managen	100
längste	100
ipaddress	100
vierstellige	100
non	100
imap_fetch_	100
ldap_deref_searching	100
##status	100
ober	100
getlastmod	100
dokumentierte	100
kleine	100
default_host	100
pspell_config_save_repl	100
weiterlei	100
track	100
guten	100
neunmonatigen	100
fluche	100
dafür	100
arrayelemente	100
funcion	100
array_s	100
getprotobyname	100
flock	100
##ees	100
##rik	100
##fnissen	100
bin2hex	100
manip	100
appendix	100
included_	100
##body	100
##kunft	100
gefügt	100
##thmus	100
##z_s	100
zykli	100
arbeitsbibliothek	100
erho	100
ibm	100
supporting	100
##nder	100
hilfestellung	100
"".	100
##opy	100
##asp	100
##swf	100
fbexec	100
##_attribute	100
vervoll	100
erfahren	100
##laced	100
woll	100
##print	100
anzuwenden	100
;").	100
error_reporting	100
##$',	100
##riff	100
eingetra	100
vorausgehen	100
undefinierte	100
ndbm	100
systemarchitektur	100
sesam_txread_readonly	100
entsprach	100
##in_word	100
begeben	100
reportformular	100
erstes_v	100
0x232	100
beispielsweise	100
${$	100
##stabelle	100
pg_lowrite	100
cpdf_set_horiz_scaling	100
benutzerseitig	100
##chr	100
with	100
:',	100
größenbegrenzung	100
##leay32	100
elements	100
##output	100
##tete	100
pufferung	100
dst_x	100
cpdf_closepath_fill_stroke	100
headers_sen	100
auswahl	100
udm_agent	100
anschliessen	100
hay	100
anwendungen	100
blob_id	100
dauerte	100
of	100
:]	100
gui	100
dlls	100
ekeys	100
x509cert	100
zwischenspeichern	100
zus	100
doc_root	100
dateitypen	100
cpu	100
maßnahmen	100
computername	100
konstanten	100
kal	100
##interac	100
mix	100
fbsql_read	100
socket2	100
betroffen	100
214748364	100
kriegen	100
compla	100
zurückgegriffen	100
derartige	100
ungünstig	100
##ulieren	100
.'),	100
mechanismen	100
##abr	100
##fahren	100
##_charset	100
##end_text	100
emt	100
log_per	100
##espeich	100
offenkundig	100
vererbungsbaum	100
##lush	100
lc_numeric	100
includedir	100
strtolower	100
ereignisse	100
darstellbaren	100
separ	100
('$	100
##merziell	100
http_get_vars	100
teilbild	100
##puffer	100
auszuloggen	100
##cash	100
sonder	100
entprechen	100
sourcen	100
adabas	100
pspell_clear	100
bestimmten	100
##spiele	100
schrift	100
unterschiedlichster	100
verisi	100
##_domain	100
alloziiert	100
gesammelt	100
eingestellte	100
##cdata	100
rollbacks	100
msql_error	100
wichtigen	100
nachträglich	100
##quire	100
vorangegangenen	100
kommentarfunt	100
##cvs	100
zerlegende	100
dcgettext	100
spren	100
com_get	100
allgemein	100
##_replace	100
udm_field_desc	100
gesendete	100
freetype	100
##klus	100
##t_index	100
restri	100
grundwert	100
winter	100
##sprechend	100
##laßt	100
##iedergabe	100
kennung	100
übersch	100
dispositions	100
ungültige	100
außerordentlich	100
##uldb	100
##le	100
list	100
##name	100
gehrung	100
pk1	100
##_method	100
konfiguriert	100
dargestellen	100
##wir	100
tcp	100
unterstrichen	100
aufrufer	100
heikle	100
/";	100
gelöscht	100
##iton	100
(*,	100
zahlungssystem	100
gateway	100
pdf_show_boxed	100
modem	100
gbk	100
freiheit	100
sektion	100
lizenz	100
##_cfile	100
neuen	100
##opic	100
##buch	100
bekannten	100
drei	100
eingabekonventionen	100
##keit	100
tituliert	100
preg_grep	100
xs	100
atan	100
referenziert	100
##inat	100
6931471805599	100
prüft	100
sch	100
fget	100
##folg	100
amnnge	100
erinnerung	100
finde	100
##umntype	100
regs	100
hilfreichen	100
vorzeitig	100
##schritte	100
caffeine	100
brauch	100
imagefont	100
beliebiges	100
os	100
exakten	100
numeric	100
inetorg	100
credit	100
##ind	100
gültige	100
nfs	100
xff	100
ymd	100
domattribute_name	100
ncurses	100
ke	100
read_exif_data	100
anfangsteil	100
##zer	100
##ctangle	100
pdf_put	100
ircg_set_	100
tä	100
bearbeitet	100
ansehen	100
textlichen	100
neuereferenz	100
sybase	100
escapes	100
anno	100
##ssysteme	100
kopien	100
##_nl	100
wildcards	100
profitieren	100
multithread	100
pg_loread	100
##gnis	100
äp	100
##í	100
übermittlung	100
is_re	100
##erver	100
##com	100
resultaten	100
zwanzig	100
sequenzen	100
##mitglie	100
quelldokumen	100
stunde	100
740	100
farbüber	100
sonderfälle	100
assi	100
##schalten	100
datenbankschemas	100
client_	100
sämtliche	100
verloren	100
perlscript	100
##next_result	100
##person	100
expander	100
sortierfunktionen	100
##cookie	100
##nzip	100
inhalt	100
##32	100
]}";	100
absteigen	100
##istatement	100
gefetch	100
##édit	100
session_data	100
zusammengesetzt	100
rad	100
##sge	100
tragbaren	100
##ultisort	100
neulinge	100
weiterentwicklung	100
to	100
einzusetzenden	100
flexibler	100
längenattribut	100
zugriffsrechten	100
secret	100
##right	100
##itz	100
annotations	100
##lly	100
nachfolgende	100
member	100
überschreiben	100
kult	100
vielfach	100
".	100
debuggen	100
glau	100
feldindizes	100
##öger	100
'*	100
##);	100
references	100
fokussiert	100
ifx_scroll	100
pg_get_result	100
xml_entity_node	100
imageinfo	100
genug	100
readf	100
utim	100
schafft	100
umzuwandeln	100
##verzeichnisses	100
bla	100
fbsql_fetch_assoc	100
until	100
##import	100
##t_node	100
##anwend	100
17777	100
specified	100
wählen	100
##mail	100
interesse	100
absteigend	100
newdict	100
programmteilen	100
##gangenen	100
udm_cross_words	100
get_class_methods	100
cosinus	100
##way	100
+."	100
adler	100
##vars	100
##uel	100
konfigurationszeile	100
kalendertermine	100
##purpose	100
hetzsituation	100
curl	100
gelog	100
sqlsetconnectoption	100
##verbindung	100
formulardaten	100
functest	100
lastname	100
benchmark	100
succeed	100
schle	100
unterbereiche	100
aktiviertem	100
demnach	100
ressourcen	100
befindet	100
##aupt	100
sqllib	100
my_col	100
28	100
image_type_	100
abstürze	100
##illigung	100
##ose	100
master	100
practice	100
blink	100
interprozess	100
##schem	100
keinen	100
##lick	100
obersten	100
##uellen	100
algorithms	100
gedacht	100
sq	100
unvorhersagbar	100
400x3	100
empfohlenen	100
suid	100
nb	100
pg_last_notice	100
manuale	100
festpl	100
eindeutig	100
imagecreatefromxxx	100
##_dte_type	100
##min	100
neuerr	100
comparison	100
boolscher	100
');}}	100
##_exist	100
##translate	100
stoppt	100
jargon	100
interessieren	100
bekommt	100
standards	100
##_listen	100
##allheaders	100
empho	100
##arc	100
erteilen	100
##_expunge	100
##strichen	100
lesbarkeit	100
##sfeld	100
inn	100
streammp3	100
med	100
formatted	100
libxslt	100
gelesen	100
##_li	100
ressourcent	100
##st	100
einrückung	100
##quotes	100
1234	100
pur	100
arb	100
##formation	100
copyright	100
schutze	100
schwierig	100
stable	100
)()	100
ziele	100
##dge	100
odbc_bin	100
sm	100
##ab	100
anzu	100
ergebnismenge	100
##sdk	100
connection_ab	100
##schlä	100
effekte	100
egpcs	100
##prüfte	100
zusammenhängende	100
##hö	100
##hol	100
ad	100
angewö	100
##ssung	100
##col	100
sa_un	100
##_persistent	100
gerätetype	100
rechtsdrehendes	100
lphilips	100
##'	100
sesam_free_result	100
pg_sh	100
zahlenwerten	100
pdf_save	100
pg_cmdtuples	100
speicherfunktionen	100
mysql_ping	100
##ling	100
config	100
##lage	100
beding	100
xslt	100
befehls	100
()).	100
##nland	100
cookie_sec	100
leider	100
##_tab	100
##flag	100
##vertra	100
produktionsumgebungen	100
##_cre	100
betrachtet	100
##av	100
hierdurch	100
##grösse	100
gsave	100
flat	100
##katalog	100
dokumentationsteil	100
gesetztem	100
mhash_snefru	100
##_select	100
nichtgeschützte	100
ingres	100
##imation	100
o_rd	100
articles	100
ähnlichkeit	100
eingaben	100
##0833	100
library_version	100
dbx_escape_string	100
warn	100
##gemäß	100
ergänzenden	100
iconsdir	100
##rase	100
##_nulls	100
skal	100
dri	100
apache_child_termin	100
##_last	100
##ständ	100
##2	100
da	100
}\	100
schreibberechtigung	100
veränderbaren	100
felddaten	100
examples	100
unrech	100
infos	100
austauschbaren	100
##tippen	100
übertragendes	100
##eugt	100
vervielfacht	100
##weite	100
permanent	100
datenbank	100
##l	100
both	100
##gliefert	100
letztere	100
entwicklerteam	100
ircg_is_conn_alive	100
sig	100
effektiver	100
##_mbox	100
zurückkonver	100
imap_ping	100
berück	100
\"");	100
##pha	100
ldap_deref_finding	100
restlichen	100
verbleibende	100
activescripting	100
udm_field_	100
dargestellt	100
##oring	100
zitrone	100
pg_unt	100
schlüsselworts	100
nichtrelativen	100
ele	100
array	100
fehlercode	100
mac_ok	100
##bzip2	100
beeinflus	100
überrascht	100
##atbu	100
american	100
##ample	100
feedback	100
##ix	100
##agesize	100
##breich	100
y	100
ora_commitoff	100
ausgegebenen	100
bedienungs	100
colle	100
##bmp	100
backslashes	100
##vered	100
##ers	100
betribssytemen	100
##würd	100
urspr	100
##undnacht	100
committed	100
xml_attribute	100
##unabhängig	100
##übereinstim	100
themen	100
show_separators	100
##aktionen	100
persisten	100
##_et	100
persön	100
pgsql_fatal_error	100
openssl_pkcs7_encrypt	100
schw	100
lautet	100
##atekey	100
stad	100
indik	100
creation	100
phpnewbox	100
##situ	100
ldap_get_option	100
conf	100
soweit	100
##problemen	100
ausgabepuffers	100
array_re	100
tag	100
anführunf	100
abhängig	100
getpro	100
##).	100
modulversion	100
shmem_attach	100
execution	100
behaf	100
confusing	100
document_root	100
effizient	100
##cement	100
eingebracht	100
erheb	100
##sprite	100
seinerseits	100
steuerfunktionen	100
nleafy	100
name	100
##ank	100
applik	100
##los	100
textdokumen	100
zurückgeschaltet	100
ereig	100
##horiz_s	100
weitere	100
gearbeitet	100
##ätigt	100
himbeere	100
ifx_libs	100
mb_output	100
they	100
##behand	100
echtes	100
konne	100
##antojd	100
funktionsreferenzen	100
hup	100
coordin	100
ocibindbyname	100
require_once	100
referen	100
feld	100
ftp_user_pass	100
abhängt	100
##wind	100
projekt	100
##_update	100
besonder	100
##bauten	100
clearwater	100
##ründen	100
syntaxvorsch	100
##_bar_	100
vorgenommen	100
pgsql_bad_response	100
##resource	100
erneuter	100
fuer	100
unset	100
betre	100
bespielsweise	100
libraries	100
foobarbarbaz	100
##_fdf_data	100
webservers	100
sollen	100
ocifreec	100
webprogrammierung	100
##_des	100
openssl_pkcs7	100
zurückzuholen	100
erwähnt	100
]",	100
safe_mode_protected_	100
handhabende	100
cpdf_setgray_fill	100
abwärts	100
ldap_opt_sizel	100
##internal	100
##schwer	100
solaris	100
systemdrive	100
##base64	100
)\	100
environment	100
zusammenbruch	100
neue_cache	100
longvarbinary	100
anzuhängen	100
##ached	100
,,	100
##hei	100
fdf_get_field	100
auftauch	100
500	100
optionalen	100
{/	100
zuende	100
dazugehörigen	100
liyanage	100
##ocumen	100
senden	100
ctype_alpha	100
anlä	100
("$","	100
colnames	100
mssql_min	100
msql_list_fields	100
##umen	100
##001	100
document	100
##neiden	100
##ti	100
allzu	100
erkennt	100
nntp	100
##vererbung	100
vollgeschrieben	100
anwend	100
gästebuch	100
leafy	100
ernsthaft	100
";}	100
##konver	100
generische	100
mikrosekunde	100
'	100
anschaue	100
konfigurationsoption	100
ldap_next_	100
"=".	100
##rp	100
kodierung	100
fbsql_fetch_array	100
dest	100
besagt	100
strn	100
shm_det	100
##gierte	100
pgsql_copy	100
ergebnisdaten	100
ungeprüfte	100
arcus	100
doku	100
weitergeleiteten	100
result_dump_file	100
in_array	100
("(	100
mckay	100
##wenden	100
##23	100
##telem	100
cpdf_stringwidth	100
##ang	100
##spuffer	100
weiterführende	100
##uished	100
save	100
0x80000	100
fbsql_read_clob	100
##icz	100
cpdf_set_text_rise	100
##msginfo	100
genauere	100
zeit	100
##nah	100
leerer	100
platzierung	100
bau	100
empfängt	100
rückgabewertes	100
bcdiv	100
ocicolumnisnull	100
jdtojewish	100
##_named_cart	100
pspell_config_personal	100
##221	100
anwendungsfällen	100
##aufbau	100
##conn	100
ip	100
pat	100
verlage	100
postgressql	100
getmy	100
erfolgter	100
nettes	100
korrespondierenden	100
zcon	100
textverarbeitungsfunktionen	100
inprise	100
myphp	100
##gin	100
höher	100
dateistatus	100
kategorienbrowser	100
##peraten	100
##kürzt	100
_cookie	100
value	100
basierte	100
output_compression	100
arbeitsplatz	100
signaturen	100
menü	100
zudem	100
x1	100
##_make_seek	100
##_handler	100
y0	100
##_ba	100
ircg_set_on_die	100
##mäßig	100
##2de	100
##eit	100
##_word	100
##gekocht	100
."'");	100
nachwievor	100
)"	100
wirkt	100
ergebnisrück	100
zurückkehrt	100
wiedergabewerte	100
##ircle	100
note_value	100
webapplikationen	100
34	100
time_	100
##data	100
aufzustellen	100
standardisierter	100
##anday	100
unsicher	100
##freund	100
ausführliche	100
##lobal	100
ja	100
owner	100
type	100
detailierte	100
benutzerabbrüche	100
%)"	100
go	100
cp_	100
rechenintensiv	100
##tinhalt	100
;...	100
##itätsgründen	100
wenig	100
##angen	100
leu	100
ungarisch	100
##struct	100
trackquery	100
lei	100
day	100
umgegangen	100
zeichenkette	100
asoziativ	100
textabschnitt	100
udm_ispell_type_server	100
performancegründen	100
groß	100
zeile	100
}}	100
wün	100
ptr	100
pgsql_copy_from	100
##ition	100
##kennwort	100
open_data	100
hübsche	100
geringfügig	100
##zen	100
ircg_lookup_format_messages	100
##fü	100
konfigurationsvariable	100
ini_get	100
38	100
cp_uid	100
zeilenende	100
##_png	100
department	100
##riti	100
comput	100
##non	100
pd	100
allgemeinste	100
gib	100
##graph	100
sech	100
##ernt	100
sontag	100
codebl	100
:]]+)	100
persönliche	100
einschließlich	100
(??	100
mysql_real_escape_string	100
buchstaben	100
,"{	100
verfahren	100
realpath	100
product	100
sprachlimit	100
##barray	100
bildformate	100
recur_interval	100
welten	100
notwendig	100
pg_freeresult	100
##into	100
inkrementen	100
ausführ	100
gemacht	100
whitespace	100
##ringen	100
hauptfunktion	100
zeigen	100
meldung	100
verzeichnisses	100
##stat	100
##behalten	100
stream_set_	100
antialias_ste	100
##swill	100
indizierungsmechanismus	100
vorber	100
logstring	100
iiapi_dte_type	100
stmt	100
##rary_path	100
##ffee	100
##pdf	100
gleichheit	100
clas	100
php3_configuration	100
##liziert	100
portabel	100
http_host	100
sofern	100
isapi	100
##sq	100
zurückkehr	100
y3	100
einbe	100
requests	100
##lass_of	100
##ine	100
müssen	100
shif	100
nötige	100
##enden	100
##oziativ	100
vorgegebenen	100
hashing	100
print_r	100
pra	100
cpdf_show_xy	100
##_of_week	100
einzubetten	100
20010	100
##hp	100
mnrp	100
"'".	100
implement	100
##rior	100
##t_str	100
##schreitung	100
##wacht	100
nort	100
gammawert	100
271222	100
angebunden	100
"*	100
vertei	100
base64_decode	100
##xtojd	100
gef	100
kanon	100
nre	100
expose	100
konvertierungen	100
printer_open	100
##tiges	100
##arta	100
dbx_pgsql	100
##_convert	100
fehlers	100
hauptvorlage	100
##kommt	100
##eue	100
##ativer	100
dump_file	100
trotzdem	100
tm_m	100
##wär	100
ähnelt	100
empfiehlt	100
##zepten	100
benutzerverzeichnisse	100
news	100
zugrundeliegende	100
readmes	100
##jewis	100
##varial	100
kapitels	100
##stausch	100
append	100
misslingen	100
mysql_tcp_port	100
beliebiger	100
bezeichnete	100
dispositionsparameter	100
hereink	100
obenstehendes	100
associated	100
egebnismenge	100
sicherheitsgründen	100
sen	100
funtkion	100
übernehmen	100
brombeer	100
ausgabetextes	100
übert	100
pdf_setgray_fill	100
oktalzahl	100
mysql_assoc	100
box	100
mysql_list_fields	100
quit	100
apache_request_headers	100
experimentieren	100
eingebet	100
subscribe	100
ifx_get_blob	100
(')	100
sätzen	100
majorver	100
beschränken	100
dbs	100
crack_opendict	100
jo	100
##cept	100
seines	100
##_inter	100
unkomplizierter	100
nativen	100
konfigurationseinstellungen	100
tele	100
untar	100
framework	100
##igkeit	100
bestätigungsmeldung	100
##füllen	100
##;}	100
('%	100
lib	100
umfang	100
']);	100
auth	100
ldap_get_dn	100
##lob_mode	100
##e_es	100
rm	100
liebt	100
##monat	100
##_cart	100
wiederher	100
veranlasst	100
definiertes	100
fügen	100
##wand	100
max_chars_per_line	100
##utlich	100
unteste	100
##lla	100
erfolgen	100
umrandung	100
erdbeere	100
##_fetch_	100
höhepunkt	100
load	100
eingesetzten	100
schalt	100
##tected_	100
##eigen	100
maximal	100
##lace	100
column_name	100
##tension_funcs	100
##memory	100
##eidet	100
geloggt	100
werfen	100
vierter	100
##ante	100
##mas	100
##atisch	100
sysv	100
##eigend	100
##ertem	100
##_free	100
zielserver	100
);}	100
reaktion	100
##onne	100
##as	100
##amatisch	100
##ruktion	100
##modus	100
nick	100
##ungsfunktion	100
oth	100
prozessen	100
abb	100
identifier	100
star	100
änderungsvor	100
##schicht	100
##ingung	100
mysql_fieldtable	100
entwicklungspl	100
880000	100
##use	100
##beiten	100
:()	100
##ribute	100
verläuft	100
installatiion	100
fam	100
pfadangaben	100
all	100
äquivalent	100
dd	100
##räuch	100
entsprech	100
##_g	100
verständnis	100
##gesamt	100
zeichencod	100
##sscript	100
##lean	100
waren	100
anweisung	100
;}	100
##_farbe	100
klammern	100
sess_data	100
geschwungen	100
beg	100
positionieren	100
vorgefertigte	100
cpdf_setrgbcolor	100
libswf	100
##vok	100
##ste_sp	100
wertepaare	100
##dimension	100
gewachsen	100
##vid	100
##lieb	100
##nel	100
transaction	100
"=	100
07	100
sorte	100
quick	100
liest	100
sortieralgorhythmus	100
chet	100
##_use_odbc	100
aktueller	100
svr_class	100
si	100
##ds	100
##mals	100
vertrieben	100
##ndition	100
gelesene	100
msql_both	100
zweiten	100
besitz	100
erscheinenden	100
pg_fetch_row	100
exter	100
arbeitsweise	100
pg_loexport	100
marlies	100
modularität	100
abgrenzung	100
##isapi	100
vorstellungen	100
##hebungen	100
schwerfälligere	100
steuert	100
ob_end_flush	100
gener	100
binären	100
inkludiert	100
##andom	100
document_element	100
##xslt	100
fü	100
fbsql_set_lob_mode	100
transformieren	100
##gfault	100
mssql_min_error_severity	100
mulitplikation	100
pdf_stroke	100
logische	100
imagettf	100
hinweis	100
##op_db	100
73	100
##_reporting	100
cookie_domain	100
methods	100
myoptions	100
needle	100
##sv	100
behinhalten	100
dien	100
datenbankserver	100
##liti	100
kommen	100
##econtent	100
ausserdem	100
aussprache	100
jav	100
cybermut_creer	100
your	100
shared	100
ändert	100
carriage	100
##sekunde	100
##fäl	100
weiterleitet	100
##utes	100
session_id	100
##_merk	100
objects	100
error_descriptions	100
##history	100
psql	100
##sitive	100
unwahrscheinlich	100
profil	100
shm_attach	100
sichtweise	100
most	100
gehandhabt	100
headers	100
miteinander	100
ausgelasteten	100
pg_connect	100
##zip	100
ora_open	100
mysql_both	100
##tigte	100
konst	100
cast	100
checksummen	100
printer_draw_elipse	100
##hrase	100
make	100
pspell_add_to_personal	100
##server_controls	100
netzwerkproble	100
eintrages	100
encrypted	100
sæther	100
punktnotation	100
##idarray	100
##hilfe	100
angeforder	100
cpdf_set_char_spacing	100
mystring	100
imagesy	100
eigent	100
interne	100
/?	100
interessant	100
bauen	100
tilde	100
empfo	100
handbücher	100
reserv	100
##fields	100
content	100
framesets	100
lesen	100
mktime	100
num_changed_sockets	100
##_par	100
öffenen	100
mylogin	100
erne	100
ausrichtungsmodus	100
{...	100
vollständig	100
##lose	100
unterverzeichnisse	100
##nteilen	100
excellente	100
##weisungen	100
verwirklichen	100
puten	100
ereigniss	100
anspricht	100
mb_convert	100
angelegte	100
##").	100
##nacht	100
fehlermeldungen	100
cre	100
##satzes	100
müsste	100
linienende	100
vertrauenswürdigen	100
##transaktionen	100
##mlich	100
selektieren	100
##fäh	100
beinhalten	100
paramater	100
vorhergehenden	100
wesley	100
funktionsumfangs	100
zend_module_api_no	100
datum	100
hergestellte	100
silva	100
##_recur	100
tricks	100
anforderungen	100
#	100
veränderungen	100
##haben	100
erforderlichen	100
kür	100
felds	100
ftp	100
,":	100
bösartige	100
seitenübersicht	100
sqrt	100
##eresult	100
##86	100
mysql_freeresult	100
##_no	100
deriv	100
treffen	100
1345	100
php_d	100
irgend	100
##kcs7	100
zeu	100
allem	100
nächst	100
##_translate	100
wrote	100
ora_do	100
##decken	100
##tierungen	100
dbx_persistent	100
ctype_digit	100
##sanleitung	100
##rohlich	100
durchzuführen	100
##fügten	100
vober	100
/$	100
infra	100
array_search	100
unterbinden	100
eingeschlossen	100
##atiion	100
pspell_fast	100
##59	100
thies	100
wrapperfunkiton	100
primarily	100
odbc_rollback	100
##_exp	100
##1111111	100
queue	100
activ	100
##ziert	100
protocols	100
zahlreichen	100
##hurt	100
heißt	100
tup	100
bestätigung	100
gescheitert	100
##lapp	100
servermodul	100
##puff	100
##_res	100
.?	100
jean	100
filled	100
while	100
http_session_vars	100
ctype_lower	100
##alue_of_var	100
imap_uid	100
get_defined_con	100
basiscodes	100
moment	100
domain	100
dos	100
überlapp	100
dateiupload	100
mysql_thread	100
funt	100
dokumentation	100
##_dl	100
ldl	100
ält	100
##start	100
gemisch	100
konformen	100
udm_param_weight_factor	100
allocate_new	100
ev	100
warteschlange	100
bu	100
##gereicht	100
lines	100
70	100
brows	100
kreiszahl	100
##ßt	100
63	100
redirect	100
##werfen	100
##gelung	100
sensi	100
gleichzeitigen	100
sendmail_path	100
abfangen	100
##_query	100
interessantesten	100
codierung	100
meter	100
bis	100
kombinationen	100
22	100
memory_limit	100
imap_errors	100
cos	100
##uliert	100
##ßn	100
##ri	100
pop	100
##_mdt	100
"))))	100
##lengths	100
prozedural	100
projekten	100
##_together	100
kontextes	100
aliasliste	100
unbesch	100
imap_set_quot	100
##schema	100
##her_name	100
aus	100
catalogname	100
socket1	100
compiliert	100
passwörter	100
used	100
variable	100
lat1	100
##_numeric	100
mcal_is_leap_year	100
referenzieren	100
nähere	100
änder	100
warum	100
indizierungs	100
session_decode	100
gesperrten	100
##zug	100
blumenladen	100
setzten	100
http_cookie_vars	100
.";}}?	100
palmpilo	100
mysql_fieldtype	100
parallelen	100
f	100
sparen	100
enc	100
##scht	100
steuerungsfunktion	100
##_format	100
privilegierte	100
stöhne	100
eigenständiger	100
##ümer	100
standardisierte	100
strnat	100
php_s	100
el	100
w2k	100
":")	100
##_quotes	100
simultan	100
verzögern	100
active	100
##stils	100
##sttat	100
').'	100
##ahe	100
##lass	100
leute	100
bsd	100
gauss	100
verschiedenene	100
soll	100
##apec	100
udm_param_vard	100
##bringen	100
ldcon	100
anzupassen	100
ht	100
tausen	100
24	100
##lußt	100
cyber	100
jemals	100
##gegeben	100
ingres_field_precision	100
benutzerdefinierter	100
einstellungen	100
##so	100
leistungs	100
##fragten	100
läft	100
freizugeben	100
erreich	100
aufmerksam	100
correspondent	100
weiter	100
verm	100
korrekt	100
##aff	100
mysql_get_proto_info	100
##versionen	100
relativen	100
ftp_nb	100
##liegt	100
rolle	100
lunix	100
nachteile	100
##ichtig	100
einziges	100
##tit	100
jjjjmmtt	100
not_null	100
entsprechend	100
bidirektionaler	100
##spellers	100
750	100
ul	100
harter	100
##anleitung	100
zeigers	100
garan	100
##wandelt	100
ltd	100
arr1	100
its	100
register_sh	100
test_script	100
ausgabewerte	100
oci_assoc	100
##hingt	100
dige	100
verviel	100
##keentry	100
fließ	100
].$	100
welcom	100
##efont	100
feldanzahl	100
verringert	100
##_rip	100
##benutzer	100
pg_dbname	100
##hp3	100
pg_fieldtype	100
abfrageinformation	100
neue_	100
passwd	100
organisation	100
verwal	100
stri	100
##_checkpurpose	100
dateierweiterungen	100
##enten	100
unf	100
tvor	100
pg_put_line	100
lt	100
genauer	100
##_load	100
kore	100
zustand	100
voranstehende	100
##fpro	100
doppeldeutigkeit	100
##findet	100
erledigen	100
nebenfalls	100
cliping	100
zweckmäßige	100
##nc	100
importierten	100
adapterfunktion	100
##berechtigung	100
##adf	100
t	100
datenträ	100
wahrscheinlich	100
##jizieren	100
bookmark	100
hand	100
##_continue_text	100
gequoted	100
##bereinig	100
##aften	100
entstehen	100
washingt	100
spezifische	100
##heben	100
komanndos	100
##lässig	100
pg_fieldisnull	100
näher	100
compil	100
x_size	100
ftp_nb_get	100
komponen	100
reload	100
2147	100
zeitabstand	100
gültigen	100
session_set_save_	100
keinerlei	100
##tolower	100
##ndiz	100
mess	100
##abfrage	100
lockten	100
hohen	100
genauso	100
##fige	100
abruf	100
hat	100
is_readable	100
ovrimos_result_all	100
cookie_spec	100
zer	100
eingeschränkte	100
unde	100
odbc_binmode_passthru	100
sessionmanagment	100
##riv	100
encoded_data	100
lösung	100
imagecreatefrompng	100
car	100
mb_strim	100
##geboren	100
##options	100
##kod	100
cpdf_rlineto	100
##mat	100
recur_inter	100
##ätz	100
erweiterten	100
yacl	100
httpd	100
##amma	100
domain__	100
magazi	100
stein	100
##ured	100
richtung	100
chr	100
bechreibungsstrings	100
src_	100
domdocument_dump_file	100
verwor	100
öffnet	100
ingres_	100
vari	100
grob	100
umbenennen	100
umfangreich	100
##_right	100
mutuel	100
define	100
mhash_get_block_size	100
##inung	100
schlei	100
udm_ispell_type_db	100
komplexe	100
jdt	100
##miterlimit	100
wes	100
##gh	100
ladenden	100
seien	100
packages	100
eines	100
##zugriff	100
dek	100
herauszu	100
nuten	100
qualifizierter	100
betreff	100
quelltexten	100
begriffe	100
liyan	100
testobj	100
fdf_set_file	100
##weist	100
##tables	100
bezahlung	100
##ste	100
';'	100
rekursiven	100
ausrichtung	100
überspring	100
vt_ui4	100
##achtung	100
vernachlässigen	100
protokollen	100
jede	100
wörter	100
loadjpeg	100
printer_list	100
35	100
##vor	100
schreibvorgang	100
insert	100
##fiel	100
studio	100
##pliz	100
eingabedaten	100
##tex	100
zuletzt	100
ldap_delete	100
##terhalten	100
signifikant	100
legitime	100
zugesendet	100
##olower	100
'?	100
##find	100
fehlerhaf	100
läng	100
unklarheit	100
rekonstruieren	100
überschreiten	100
det	100
##abwicklung	100
characters	100
##ffen	100
imagefilled	100
##nte	100
durchschei	100
eingehend	100
hö	100
pg_client_encoding	100
##ritt	100
php_bar_	100
bedient	100
##stück	100
enthaltene	100
local_file	100
führt	100
assioziativen	100
array_flip	100
##quenz	100
fbsql_num_fields	100
##urncode	100
criticality	100
##ographic	100
jüdisch	100
mitzuteilen	100
coordinate	100
auftreten	100
##yn	100
##licher	100
erstes_viertel	100
innherhalb	100
##doppel	100
sortfrom	100
##ý	100
rückwärtskompatibles	100
js	100
sa_recent	100
ähne	100
##_text_node	100
recur	100
##vention	100
##_num_fields	100
##amb	100
zwanz	100
identischen	100
getan	100
schriftzeichen	100
="(	100
##ben	100
##riebener	100
ultimatezip	100
mersenne	100
identifizierung	100
datenbytes	100
cpdf_set_text_matrix	100
##zgra	100
überspringen	100
##gadd	100
1867	100
limits	100
##ungsweise	100
ocir	100
datenbankspezifische	100
##chreib	100
colnames_case	100
##_row	100
kleinschreinbung	100
servername	100
variante	100
myphpapp	100
##~	100
zeichenfolgen	100
removed	100
preg_spliti	100
##world	100
anteil	100
##unix	100
rowids	100
##890	100
heutzut	100
get_magic_quotes_runtime	100
eingebauter	100
##lient_controls	100
http_fdf_data	100
teilbilder	100
##caling	100
angefragt	100
ink	100
##ts	100
objektmethode	100
auswahlbox	100
behin	100
##xt_	100
fripm01	100
##assthru	100
japanisch	100
escapeshell	100
##310	100
verstimm	100
spaß	100
param	100
ursache	100
backtick	100
erolgsfall	100
##f8	100
empfehl	100
wiederhergestellt	100
genaues	100
konzept	100
twister	100
mach	100
,%	100
mod_include	100
mysql_affected_rows	100
array_un	100
##ail	100
retour	100
gemeinsam	100
großschreibung	100
##antwor	100
(???).	100
upgra	100
erratene	100
pieces	100
libreadline	100
gelink	100
veröff	100
integer	100
zufallszahl	100
te	100
##tungen	100
auszeichnen	100
backup	100
gepufferten	100
zuordnungen	100
##2ip	100
version	100
openssl_get_priv	100
##fäll	100
##auen	100
##[^	100
mhash_ripemd128	100
udm_param_	100
run	100
show_source	100
bequemeren	100
]");}	100
feldeigenschaften	100
socket_set_timeout	100
##f	100
##row	100
syntakti	100
##ssystem	100
mehrfacher	100
f_w	100
##aril	100
verbunden	100
betriebss	100
investitionen	100
cybermut_creerreponsecm	100
darin	100
##cod	100
##ki	100
nachem	100
schneidet	100
linenum	100
##cap	100
seiner	100
geprägt	100
interpretern	100
modifikations	100
##alun	100
who	100
unterversions	100
veränderung	100
datenstr	100
##ndeliegen	100
vergleicht	100
##klick	100
zufällige	100
##_split	100
protokolliert	100
##zierten	100
vergleichsausdrück	100
##ormat	100
pdf_put_image	100
unehrliche	100
geistigem	100
swfshape	100
390	100
beschreibungsdateien	100
standardwerte	100
xml_global_namespace	100
feldtypen	100
formatierungsstring	100
algorithmen	100
##1222	100
üblicher	100
odbc_pconnect	100
existierende	100
auszulesen	100
dünn	100
natürlicher	100
klappt	100
weitergeben	100
unterkategorie	100
29	100
stapelverarbeitungssystem	100
feldtyps	100
pf	100
long	100
dba_firstkey	100
sortieralgorhy	100
wwwserver	100
##hand	100
##gsql	100
11100	100
img1	100
##enti	100
belegt	100
kompil	100
userdata	100
latex	100
gegenüber	100
wär	100
##dokumen	100
verweist	100
##uerte	100
stößt	100
zukünftig	100
sprach	100
nnnnn	100
##owner	100
mb_sub	100
user_agent	100
isolatin2	100
manipulationen	100
100	100
betreffs	100
"{	100
newname	100
sessionmanagementsystem	100
habe	100
existierenden	100
modifiers	100
subtra	100
gesetzte	100
##fik	100
erlangt	100
jv	100
ldconfig	100
allerdings	100
##mung	100
durchsucht	100
udm_cross_words_disabled	100
q	100
archivs	100
großartig	100
angibt	100
set_magic_quotes	100
integrieren	100
##anderes	100
##ication	100
bleibt	100
tradi	100
##ume	100
resourcetypen	100
##urlencode	100
formt	100
wirkungen	100
weiterer	100
attr	100
maximalgröße	100
flagged	100
##eay32	100
getrusage	100
getäu	100
##uus	100
##pon	100
besei	100
lernen	100
zurückgeben	100
rv	100
000	100
##emon	100
samstag	100
lyn	100
udm_field	100
datenbankverbindung	100
land	100
##gestellt	100
unüblich	100
und	100
schlüsselresource	100
0x0	100
()*	100
tobase	100
##tag	100
kompiliert	100
auskenn	100
old_mbox	100
beabsichtigt	100
glibc	100
pil	100
##oken	100
produktionssysteme	100
mü	100
entfer	100
com_set	100
ft_pe	100
##steam	100
()!	100
entscheidung	100
dokumentationsteam	100
##aldaten	100
linker	100
webanwend	100
##ompng	100
popularität	100
##utf7	100
sperrfunktionen	100
variab	100
##allocate	100
bemerk	100
ey	100
dokumentenkategor	100
oldauth	100
textcookie	100
42sbw	100
mysql_store_	100
##343	100
__s	100
zustände	100
pathinfo	100
ergebnisfelds	100
präprozess	100
##ssl	100
mysql_client_interac	100
bedeuted	100
##load_ispell	100
rechteckigen	100
crypt	100
bespiel	100
strerror	100
";}?	100
sesam_exec	100
infilename	100
erweiterung	100
unver	100
betriebssystemen	100
##!$	100
erfassung	100
##um_limit	100
get_resource_type	100
##horiz_scaling	100
##ch	100
##ilar_text	100
rechten	100
einzubindende	100
offensicht	100
artigen	100
frontpage	100
##110	100
elseif	100
##ertypen	100
##place	100
unterläst	100
ludwig	100
##rt	100
sechs	100
##_si	100
löschmarkierung	100
kalendern	100
micro_seconds	100
0x12	100
##zimal	100
einzustellen	100
swfmorph	100
##falls	100
addition	100
##zeich	100
november	100
##shift	100
##_dcom	100
backend	100
##594	100
fundamentalen	100
datenstrom	100
richteten	100
%)	100
daten	100
vorgestellt	100
einbinden	100
fraglich	100
rus	100
##vers	100
?.	100
0x41	100
steuerzeichen	100
kaufmännisches	100
##serlebnissen	100
fdf_set_value	100
pg_lo_read	100
done	100
umkehr	100
entscheiden	100
lebensz	100
direkten	100
begrenzten	100
se_uid	100
##_numericentity	100
oktalwerte	100
##uell	100
:'	100
##iell	100
datentrans	100
gesendeten	100
/*	100
übereinstimmenden	100
daumen	100
##lete	100
##_max_	100
##key_exists	100
##layitem	100
mc	100
usesuper	100
##sbar	100
meine_datenbank	100
nahezu	100
##module	100
abcdef	100
anfäng	100
ftp_get_option	100
durchzu	100
regulären	100
##alog	100
servernamen	100
jim	100
##8bit	100
(":",	100
ebene	100
##fname	100
pluszeichen	100
##_1	100
identifiziert	100
##gamma	100
kleinsten	100
drä	100
morgen	100
will	100
newfun	100
##raries	100
year	100
gemischtes	100
wunsch	100
v4	100
3600	100
priv_key	100
(++$	100
phpnew	100
berechne	100
generierte	100
geläu	100
##atezip	100
aborted	100
verwirrenden	100
setmargins	100
zip_entry_files	100
nun	100
##split	100
index	100
initialisierungen	100
dso	100
p0001807	100
variable_key	100
spielt	100
deskriptors	100
]'	100
größte	100
sort_regular	100
zielen	100
##api_name	100
]."	100
swf_shapecurveto	100
ociloadlob	100
##:",	100
standardkonfiguration	100
ora_bind_out	100
locators	100
##stroke	100
##gelei	100
ocinewdescriptor	100
onto	100
zahlungsaufforderung	100
##all	100
##lang	100
##ival	100
ungesicherte	100
wenige	100
##ollt	100
sternchen	100
##147	100
könnnen	100
shown	100
udm_set_agent_param	100
)]".	100
##}	100
04	100
übersetzt	100
generiert	100
=	100
hinzunahme	100
denselben	100
byname	100
winnt40	100
konform	100
pg_cmd	100
betroffenen	100
beschreibt	100
verkürzt	100
imap_getmailboxes	100
##outline	100
kompressionsstufe	100
=*	100
##sinformationen	100
arr	100
clock	100
dbx_connect	100
##hieren	100
##ierungen	100
'*'	100
folgt	100
verwendenden	100
)));	100
##leben	100
ranlib	100
every	100
##mercial	100
no_zerolength_community	100
##lasteten	100
47286	100
sil	100
aufgerufene	100
printer_select_pen	100
##hrt	100
katalog	100
openssl_pkcs7_sign	100
mysql_list_processes	100
##ml	100
viel	100
geschätz	100
-(($	100
',	100
pg_setclientencoding	100
##ausdruck	100
;');	100
0b3	100
diesbezügliche	100
anzahl	100
##ändig	100
acrosdk	100
##nd	100
##report	100
crcs	100
##ausw	100
##dor	100
umgewandelten	100
##_internal	100
##gro	100
rechtschreibdaten	100
codierungen	100
pg_insert	100
schluss	100
pbmplus	100
##uu	100
adresse	100
datumsfromate	100
1war	100
##schl	100
vergnügen	100
auto_detect_line_endings	100
##varbinary	100
lösungen	100
##ndos	100
verwe	100
ftp_systype	100
formalisiert	100
set_time	100
falsche	100
veralteter	100
wärend	100
höhe	100
iconv	100
konzepten	100
schliesslich	100
host	100
gleicher	100
eigenschaft	100
##rigen	100
utc	100
klassenfunktion	100
##öhne	100
verwirft	100
belässt	100
##esche	100
571428	100
labels	100
mysql_errno	100
sortierreihen	100
##peration	100
##faßt	100
eingangsseite	100
zweite_gruppe	100
dynamisch	100
duplicating	100
tiefer	100
auswertungs	100
webbasierten	100
--;}	100
##robleme	100
##mouse	100
";;}	100
sqlsci	100
##boten	100
varaib	100
sollten	100
inner	100
##spage	100
##indert	100
bcmath	100
selten	100
auruf	100
foos	100
erstens	100
##ges	100
##ruktoren	100
also	100
funktionsaufru	100
##_m	100
fragezeichen	100
##orit	100
##elt	100
##modes_name	100
typkonzept	100
##_q	100
posix_set	100
erm	100
kombination	100
##ception	100
##week	100
dateiendes	100
filepro_rowcount	100
dodbc_qnx	100
imap_check	100
##eid	100
##egi	100
schwerer	100
unklar	100
ostersonntag	100
servern	100
##alue	100
datenbankmodul	100
##genden	100
rewind	100
zip_open	100
##stimm	100
endfor	100
struktur	100
zuverlässig	100
dob	100
xml_ele	100
entsprechenden	100
fehlfunktion	100
sitzung	100
mul	100
##aufforderung	100
speich	100
##bie	100
erwähnen	100
quadratic	100
##ider	100
programmes	100
##ses	100
vlad	100
imap4	100
basiertem	100
eintrags	100
werdenden	100
##enn	100
integ	100
##nahme	100
##onatigen	100
ürsprüngliche	100
enhält	100
and	100
sie	100
irgendein	100
##rgbcolor	100
builtin	100
contain	100
##sed	100
##_snefru	100
##iehung	100
löschoperationen	100
##e_byte	100
##nftigen	100
ewouldb	100
autoren	100
obenstehen	100
swfaction	100
d03	100
directives	100
##_upload	100
line_num	100
fdf_set_status	100
lc_	100
##verity	100
##med	100
esp	100
säu	100
##uerung	100
dynam	100
pol	100
##login	100
'/'	100
";?	100
outlth	100
mouse	100
##im	100
##ysi	100
##utt	100
beschwert	100
einträgen	100
cybermut_test	100
überlegenswert	100
geord	100
401	100
fbsql_connect	100
authorized_client	100
fhttpd	100
##kli	100
##lob	100
verlaufen	100
eindeutiger	100
washington	100
mitgelieferten	100
##cation	100
modular	100
buttons	100
dbx_result_index	100
_4site	100
et	100
("([[:	100
voreinstellungen	100
wonach	100
primärer	100
##reate	100
##structure	100
##mel	100
übersetzungsteam	100
quer	100
ausschnitt	100
exact	100
bringen	100
managementfunktionen	100
##nten	100
##form	100
+"	100
prompt	100
##det	100
rtrim	100
##terregendes	100
salary	100
anonymes	100
bakken	100
vt_date	100
mcal_snooze	100
localtime	100
img_wbmp	100
interprtiert	100
setoption	100
angle	100
##nihttpd	100
covered	100
öffnung	100
##oneno	100
##192	100
ociplogon	100
vebindungs	100
over	100
einbrachten	100
dst	100
einfachsten	100
readline_info	100
session_name	100
##formular	100
subjectlength	100
wesentliche	100
cannot	100
eß	100
zurück	100
konsistenz	100
##vel	100
##leichen	100
:.	100
##drück	100
listenende	100
statistiken	100
mist	100
spaltennummer	100
##button	100
openssl_get_	100
weitergelei	100
##trace	100
arg2	100
##lic	100
##tifi	100
vergleichsfunktion	100
ssh	100
eigen	100
##cit	100
solchen	100
ocicollsize	100
##farbe	100
transpar	100
numerische	100
zurückkehren	100
##byref	100
base_convert	100
##fru	100
derselben	100
##w42	100
fdf_get_file	100
-(	100
*?	100
basieren	100
sql_autocommit	100
cer	100
##atur	100
produzieren	100
zweitgenannte	100
kritischer	100
angegegeben	100
##stag	100
50000	100
win32install	100
##ßwörter	100
kümmert	100
##ziffer	100
garantie	100
##jous	100
##genen	100
##___	100
kenntnis	100
bestehen	100
wollte	100
testimg	100
abhäng	100
o_trunc	100
jun	100
xlst	100
is_integer	100
kan	100
keep	100
##alten	100
##reifen	100
statusinform	100
datenbanktreibern	100
1923	100
##nüp	100
)")	100
];}	100
multidimensionale	100
##ählen	100
domcdata	100
recur_enddate	100
dieselben	100
fdf_get_	100
##ux	100
##_sid	100
vorausgehenden	100
kontrollpunk	100
mindesten	100
spe	100
cookie_lifetime	100
möglich	100
datenbankapplikation	100
stren	100
expire	100
##schlo	100
pdf_set_word_spacing	100
small	100
##line	100
##ll	100
basisklasse	100
##_	100
pg_fetch_array	100
neg	100
ch	100
verknüpfung	100
pg_field_type	100
gc_	100
##sb	100
zugewiesen	100
ldap_get_entries	100
zugang	100
docs	100
##indizes	100
##rush	100
sicherheitsrelevanter	100
abwechselnd	100
sperrung	100
union	100
unanswered	100
9999999	100
3306	100
##thread	100
##erungs	100
xxxx	100
##_get_	100
printreturncode	100
pg_fieldsize	100
##gesetz	100
##annot	100
ausgab	100
##nol	100
massenhaften	100
empfohlende	100
answered	100
wild	100
."----	100
grestore	100
zend_function	100
signal	100
##eiden	100
##ötig	100
ausgeschriebener	100
indiziert	100
##lastmessage	100
cv_	100
mußten	100
binärsich	100
übersetz	100
certifi	100
grie	100
("..	100
ms	100
highlighting	100
##att	100
abstürzt	100
für	100
gepar	100
mark	100
verlang	100
zurückgespeichert	100
ältere	100
##üst	100
##arith	100
aktiveren	100
somewhere	100
treten	100
entwicklungsplattform	100
##üc	100
win1250	100
prä	100
dbase_identifier	100
##agent	100
egon	100
##einander	100
##brauch	100
stapelverarbeitung	100
lly	100
schreiboperationen	100
##ze	100
strr	100
##gleiche	100
doll	100
arcussinus	100
##renn	100
übereinstimmung	100
##_relative	100
##remen	100
##ifx	100
##_type_	100
anzugreifen	100
##unt	100
beginngen	100
konsequ	100
/)?	100
zugrunde	100
cp_acp	100
synchronisiert	100
during	100
zwei	100
libre	100
##acket	100
dasselbe	100
pdf_open_image_file	100
##ende	100
mcrypt_en	100
##agment	100
pdf_add_annotation	100
laufzeitbibliothek	100
prozesskennung	100
suchendes	100
##und	100
234	100
nice	100
konfigurationsscriptes	100
pdf_show_xy	100
##kunden	100
##uese	100
höherer	100
unicode	100
vorsicht	100
veranlassen	100
viell	100
start_str	100
unglaublich	100
seek_end	100
textdomain	100
##piel	100
win95	100
chdir	100
zend	100
"][	100
hauptverzeichnis	100
##eth	100
commerce	100
:\*.*	100
##.*	100
ftp_mdtm	100
hostnamen	100
##closest	100
##ärschlüssel	100
ge	100
verwendetet	100
##hind	100
?");	100
##komma	100
##_params	100
##ün	100
unles	100
company	100
ho	100
amp	100
5714285714286	100
##_ele	100
##werte	100
kurzer	100
pfpro_clean	100
meldungen	100
udm_param_min_word	100
suchmodus	100
/}}?	100
archiviert	100
##anta	100
ha	100
abo	100
##loaded	100
darstellt	100
namenskonventionen	100
abfragen	100
tags	100
ord	100
##ungsp	100
!--#	100
sem_release	100
##request	100
ld_lib	100
##execution	100
1	100
each	100
##alität	100
d	100
tabell	100
##methode	100
instructions	100
verzeichnistrenner	100
instanzeigenschaften	100
durchläuft	100
##tenv	100
hochgeladene	100
##nehmen	100
unix_timestamp	100
##variablen	100
gespeicherten	100
echte	100
another_cart	100
##media	100
##räge	100
##spiel	100
##stisch	100
("",	100
("^	100
grafica	100
custom_odbc	100
folgendes	100
eingearbeitet	100
druckfreund	100
mcrypt_	100
mb_output_handler	100
36	100
notwendigen	100
##recated	100
##termin	100
gleicht	100
dateierweiterung	100
auskommentiert	100
vergleichen	100
linksbündig	100
browser_name_pattern	100
schreibmodus	100
gegenteil	100
lt_target	100
chunklen	100
erstelle	100
##div	100
pad_length	100
##_content	100
resorucen	100
hinzuzufügen	100
key	100
grundsätzlich	100
zahll	100
benutzername	100
ignore_	100
telefonnummer	100
domattribute	100
##one	100
logischen	100
wget	100
spielen	100
outfilename	100
extr_prefix_if_exists	100
boolschen	100
##bibliothek	100
meistverbreiteten	100
o_ap	100
##atei	100
##aquire	100
##ctime	100
gefi	100
initialisiert	100
##inframe	100
organisationalunit	100
wahrheitswert	100
##schicken	100
fliesskommazahlen	100
does	100
verbindung	100
mehrdimension	100
ing	100
##mine	100
zweites	100
proprietäres	100
writer	100
xit	100
ungequo	100
##aus	100
##_font	100
typische	100
umgebaut	100
##edoc	100
basisklassen	100
beachtet	100
gemeinsame	100
festlegen	100
unterstütz	100
gewaltigen	100
attribute	100
anweisungsgruppe	100
spezialfälle	100
sql_st	100
nmehr	100
beginn	100
bestimmung	100
sichergehen	100
##wordlist	100
nutzen	100
ã	100
##teten	100
cpdf_close	100
##_open_mem	100
dup	100
strict	100
schwabenbräu	100
jahrhunderts	100
conn	100
organisationseinheit	100
ausdrucksoriente	100
cities	100
herabsetzen	100
msql_create_db	100
##")	100
differenz	100
speichergrösse	100
einzuführen	100
##42	100
mysql_client_compress	100
gx9a2s0x	100
tutorials	100
endung	100
fehlende	100
sichergestellt	100
schleifenbegin	100
leitung_list_sk	100
gängiger	100
leichteste	100
swf_set	100
joeblow	100
suchfunktionen	100
antialias_steps	100
##ssperren	100
univers	100
dekomprimierten	100
assoziation	100
sprang	100
str_pad_both	100
printer_create_dc	100
1973	100
verwirrend	100
jpg	100
##objekt	100
]*$',	100
benennt	100
extr_prefix_	100
leser	100
manko	100
new_mbox	100
dynamischer	100
##_un	100
##skript	100
abzuspalten	100
yp_match	100
(:	100
sicherer	100
benutzen	100
ab	100
hart	100
optionaler	100
extr_overwrite	100
kontrolliert	100
computed	100
oci_d_file	100
programmiersprachen	100
zeitwie	100
##tl	100
##enst	100
gleichlau	100
##rukt	100
msql_fetch_row	100
other	100
##tags	100
gegen	100
dr	100
koor	100
##xis	100
auftretende	100
##ivalente	100
angezeigten	100
relevant	100
betreut	100
gesehen	100
75	100
basiert	100
überla	100
##_exif	100
katze	100
deshalb	100
soundex	100
pkeyid	100
benutzerinformation	100
yy	100
belastet	100
xslt_set_sax_handler	100
;";}	100
##_cur	100
nachzu	100
()"	100
##fallenen	100
##ction	100
##ield	100
2048	100
##ieg	100
registrieren	100
zehn	100
##umme	100
odbc_cursor	100
überspr	100
i586	100
bewusst	100
nachrichtenheader	100
##rite	100
herausfinden	100
ono	100
offene	100
crawler	100
redundante	100
bewirkt	100
zeichenoperationen	100
umform	100
unterstüzung	100
zugriffskontrolle	100
lesezeichen	100
*)	100
viscii	100
pg_pconnect	100
mcrypt_create_i	100
???.	100
erzielen	100
img_w	100
eckunktes	100
tone	100
effektiv	100
ergänz	100
zwischenraum	100
##spol	100
additions	100
##_abort	100
geschätzten	100
las	100
qualifiziert	100
sichere	100
.[	100
ergebnismengen	100
homedir	100
()?".	100
##ordert	100
ausgang	100
##sort	100
zuständ	100
orei	100
sicherheitsst	100
@$	100
##füg	100
paste	100
schweine	100
sogar	100
##wartet	100
bed	100
##_sen	100
ocirowcount	100
wegzuschneiden	100
installation	100
pdf_set_parameter	100
definierter	100
myputfile	100
adding	100
zelle	100
##stemen	100
binutils	100
´,	100
pspell_fast_bar_pspell_run_together	100
verdoppel	100
aufnehmen	100
##gma	100
gekocht	100
dbname	100
_p	100
versions	100
hh24	100
pg_send_query	100
api	100
vermieden	100
##nspar	100
volltextindizierung	100
minimum_limit	100
statt	100
dot	100
sci	100
ubekannt	100
##schecks	100
hpuxmach	100
##schwäch	100
##331331	100
mysql_insert	100
pixel	100
readgzfile	100
sound	100
folow	100
##stelle	100
##ntyper	100
stör	100
e_error	100
serverbenutzer	100
ungerade	100
wur	100
1901	100
zufallssequ	100
xml_document_frag_node	100
feldzeiger	100
)),	100
deutlich	100
ar	100
pfadnamen	100
domdocument_create_pro	100
odbc_close_all	100
bereitstellen	100
none	100
##_place	100
umask	100
gr	100
sichtbare	100
_post	100
übermittelt	100
bm	100
unpack	100
entwicklern	100
##bet	100
##ührt	100
target	100
##angens	100
##ear	100
'"'	100
normal	100
##iors	100
hier	100
draws	100
##ktionen	100
knotens	100
##_release	100
6	100
##sch	100
schleifenausführung	100
qualifizierten	100
##_con	100
##host_info	100
(\	100
relays	100
##logo_g	100
number	100
++'	100
##****************	100
##lennamen	100
##verbreite	100
ausgewählt	100
statische	100
##821	100
erspar	100
eff	100
back	100
systemdatum	100
ausp	100
handle	100
##vmap	100
downloaded	100
wirk	100
portieren	100
umlaute	100
inhaltes	100
sol_u	100
durchzugehen	100
##umbn	100
money_format	100
iiapi_int_type	100
##key	100
komprimierte	100
##stellen	100
bytes	100
nützlicheren	100
##fon	100
attachment	100
is_exec	100
app13	100
pygtk	100
##rendering	100
kommand	100
##omische	100
.$	100
quelle	100
weitergereicht	100
##ope_	100
vielen	100
"-=-=-=-=-	100
.";}?	100
ersparen	100
##stellt	100
verarbeitet	100
drückt	100
##denti	100
##gestellten	100
ocicollgetelem	100
##ati	100
dictionaries	100
dateizeigerposition	100
##deten	100
##seite	100
##io	100
##uar	100
##pcs	100
##fügt	100
##1a	100
abgehalten	100
osterfesten	100
domdocument_dump	100
##blick	100
odbc_result_all	100
did	100
verwendendet	100
autoglobale	100
##bcmath	100
decomp	100
##ese	100
##_closepath	100
##loaded_extension	100
entwickeltes	100
gmstrftime	100
wahrheitsge	100
erhöht	100
##stungs	100
##indiz	100
zurückgegeben	100
fbsql_db	100
organisationsein	100
anderer	100
##_match	100
sortierreihenfolge	100
zerstört	100
pdf_circle	100
table1	100
mi	100
##excontr	100
starthilfe	100
dateiname	100
geschützt	100
##style	100
doch	100
bildes	100
session_	100
funk	100
pgtz	100
##_total	100
365	100
element	100
verbindungsab	100
ähnlichen	100
##_parse_ad	100
buffering	100
zaehler	100
gefetched	100
klassendefinitionen	100
originaldaten	100
zeitbegrenz	100
weiterhel	100
##restore	100
kurzen	100
kriti	100
##loadfont	100
##ies	100
sat	100
inter	100
##next_	100
gleichbedeutend	100
tmpfile	100
##rauchte	100
annä	100
beschaffen	100
ruft	100
folgendermaßen	100
##forderungen	100
##siert	100
unvollständig	100
handbü	100
##urn	100
books	100
cle	100
variables_order	100
benutzerfreund	100
##ili	100
pad_type	100
varaiable	100
remo	100
##funktion	100
##logon	100
mandate	100
##ag	100
normalererweise	100
firma	100
1908338681	100
bad	100
postings	100
ucwords	100
##_error	100
paramter	100
##wünsch	100
uids	100
ora_plogon	100
eingabewerte	100
strpos	100
##signelem	100
##714	100
##prägt	100
##_return	100
##übergreifen	100
übermittelter	100
spaeter	100
##unabhängige	100
##_s	100
überschrieben	100
readfile	100
errmsg	100
ausdruck	100
dictionary	100
udm_find	100
##_rowid	100
anstellen	100
abgerufenen	100
unixtojd	100
schwierigste	100
##ordneten	100
##risi	100
ocierror	100
getdate	100
ctype_upper	100
kreditkarten	100
%%	100
teilt	100
##critical	100
project	100
cpdf_moveto	100
file_upload	100
##stemp	100
ctime	100
submit	100
kürzer	100
überlegungen	100
pragma	100
besetzt	100
einzurichten	100
erra	100
aktivierung	100
pg_connection_busy	100
ocicolumnsize	100
feldindex	100
heimatverzeichnis	100
shm_by	100
##pie	100
schiefgeht	100
##_empty	100
##parametern	100
##infer	100
rowcount	100
gingerall	100
##_clob	100
assoziativ	100
eigensch	100
umben	100
##noch	100
zeitzoneneinstellung	100
##blow	100
table	100
##iteid	100
anderes	100
ausgeht	100
dname	100
##osearch	100
##frame	100
verantwortlichkeit	100
##item	100
##binary	100
array_slice	100
abschätzen	100
highlight	100
##tate	100
##sichtig	100
##e_once	100
##ügen	100
session_un	100
wortanfang	100
portugiesisch	100
include_path	100
mehrdimensional	100
vorgehensweise	100
pdf_add_outline	100
##reht	100
angegebn	100
##fined_con	100
pg_connection_status	100
abgeschlossener	100
cat_path_arr	100
zeige_ver	100
(%	100
##_pspell_run_together	100
imap_listmailbox	100
selektierten	100
hello	100
standardsortierung	100
mcrypt_get_cipher_name	100
gehen	100
ius	100
##_y	100
##rypt	100
pg_exec	100
"	100
##_cookie_params	100
fbsql_list_dbs	100
##erialize	100
vor_name	100
php_sapi_name	100
ingres_pconnect	100
mysql_bar_	100
testing	100
angestossen	100
sim	100
is_float	100
geschwindigkeit	100
minde	100
postfachnamen	100
weiterzuverwenden	100
ausg	100
seen	100
datumsberech	100
mcrypt_enc_get_modes_name	100
##ration	100
elementname	100
beeinflusst	100
erspart	100
##_mou	100
gol	100
ressource	100
##20	100
mssql_field	100
äußerst	100
persönliche_wort	100
##_flush	100
##ionen	100
gewertet	100
schwier	100
lit	100
einblick	100
zufügen	100
##_compress	100
betreffen	100
get_loaded_extension	100
##umond	100
multiplikation	100
imagefilledpolygon	100
shm	100
formatting	100
dateistream	100
symbolische	100
apache_no	100
##count	100
agen	100
sign	100
variablenbezeichner	100
class	100
##bsten	100
##bol	100
html_specialchars	100
phptestbox	100
anbie	100
ausgefeilt	100
fbsql_field_len	100
pg_result	100
##lobals	100
kri	100
##gelassen	100
jahre	100
ausfüllen	100
msql_drop_db	100
trape	100
##opment	100
zeitpunktes	100
wiederverwendbarer	100
vobereiten	100
##cimal	100
##iner	100
setmargin	100
been	100
control	100
##sql_	100
durchlaufs	100
auftauchen	100
##_add	100
##ager	100
##ön	100
exp	100
kompilation	100
meinem	100
##ported_key_sizes	100
grös	100
tw	100
e_notice	100
sü	100
##_prior	100
dreh	100
##lier	100
ungewöhnliche	100
##get_elements	100
datenbl	100
isnullable	100
defineirten	100
##_port	100
##fel	100
pg_field_num	100
1003	100
mig	100
wartenden	100
socket_select	100
##iden	100
aufbau	100
pbmp	100
##key_si	100
sache	100
##am	100
konvertierung	100
imagecolorat	100
langwierig	100
zugru	100
##store_	100
##_namespace	100
verant	100
messe	100
erfolgt	100
##ith_path	100
udm_api_version	100
erwähnte	100
##irect	100
umriss	100
aequivalent	100
¼	100
siebte	100
ports	100
vereinig	100
rw	100
##64	100
akzeptiert	100
##amenumber	100
##ubclass_of	100
anhand	100
geschrieben	100
cpdf_fill	100
nichtsdestot	100
deren	100
ressourcentyps	100
empfänger	100
vollen	100
##mstellen	100
französischen	100
umgekehrter	100
##durch	100
():	100
3xx	100
##_opendict	100
clientseitigem	100
aufgefangen	100
preg_match	100
verlangsamt	100
##info	100
erstesquart	100
sequentielle	100
verw	100
bet	100
array_push	100
gleich	100
bzread	100
##stimg	100
isi	100
namensauflösung	100
abgefangen	100
überschreitet	100
sn	100
max_execution_time	100
mill	100
()),	100
##_ne	100
##ectively	100
##zugehö	100
exportiert	100
zukunft	100
log_notice	100
gesamtheit	100
nehmen	100
dement	100
http_env_vars	100
xml_element_node	100
basierende	100
konvertier	100
exceptions	100
dum	100
hpux	100
alexander	100
##orver	100
ftp_get	100
schl	100
umge	100
instantasp	100
technik	100
ähnlicher	100
deutschland	100
##tect	100
abfragetyp	100
##loses	100
##_specialchars	100
##ern	100
##löst	100
anpassen	100
ociserver	100
getm	100
zyklus	100
ausgabepufferung	100
newsref	100
hierfür	100
##ps	100
##artig	100
rfc2060	100
schlimm	100
unwahr	100
)$	100
##=-=-=-=-	100
dateien	100
digit	100
##uert	100
free_result	100
weiterentwicklen	100
segmentes	100
##ussionen	100
socket_getopt	100
natural	100
ifx_nullformat	100
##ld	100
aufmerk	100
##für	100
webserveruser	100
%=	100
diskutiert	100
grafiken	100
'';	100
moorhuhn	100
angeht	100
120	100
epoch	100
imap	100
##_stoptable	100
##ht	100
##icht	100
win12	100
dokumentenverzeichnis	100
kochen	100
niedriger	100
##atum	100
involviert	100
authentifiz	100
##niken	100
zwischengespeich	100
definitionen	100
pg_tty	100
spezialfall	100
pws	100
berechtigungen	100
visible	100
schaden	100
zug	100
stristr	100
##eitert	100
outputfile	100
fbsql_affected_rows	100
hr	100
abhalten	100
pg_query	100
anzumerken	100
##ution	100
abschalten	100
april	100
faulen	100
##reibungen	100
advisory	100
##esendeten	100
beherrschen	100
udm_free_	100
##undlicherweise	100
zehntausen	100
##führt	100
')	100
bibliothekseigenen	100
datenaustausch	100
demonstration	100
##wärts	100
##ison	100
disk_free_space	100
ref	100
inser	100
##etze	100
##unk	100
junk	100
entblößt	100
pg_set_client_encoding	100
##day	100
num_rows	100
pattern	100
connection_timeout	100
swfmovie	100
vorstellen	100
understrichen	100
arbeitet	100
gekürzt	100
registriertes	100
located	100
##pfa	100
einzigartige	100
seatt	100
##ßerst	100
public	100
dbase_pack	100
##sprüfung	100
image_type_to_mime_type	100
überspringt	100
sperren	100
einzel	100
direktgespeich	100
sitz	100
##ka	100
msql_num_rows	100
##jav	100
ter	100
udm_limit_lang	100
##gehen	100
beschreibing	100
gregorianischen	100
##_odbc	100
.';}	100
sablot	100
writable	100
macroman	100
serverversion	100
suggestion	100
al	100
pfeiltasten	100
bearbeite	100
datenorganisation	100
##onelevel	100
##fatal_error	100
spalten	100
bildschirm	100
##rifft	100
##space	100
logisches	100
dba_insert	100
erläuterung	100
tm_yday	100
handheld	100
##gment	100
pfads	100
##d_cart	100
wooooooooooort	100
##crypt	100
##bro	100
option	100
besitzt	100
dokumente	100
##_entity	100
datenquelle	100
char	100
begrenzen	100
entfernende	100
feldes	100
##");	100
##ständigungsfunktion	100
odbc_prepare	100
dekremen	100
bekanntgeben	100
beinhal	100
schütz	100
##ubscribe	100
##ronly	100
##0b50	100
rüchgabe	100
ltime	100
cache_expire	100
custom_odbc_libs	100
result_array	100
fbsql_database_password	100
fen	100
##gether	100
##ferral	100
verwundbar	100
session_unregister	100
libpq	100
##desc	100
##enügen	100
notext	100
funktionsergebnisses	100
##stens	100
##_se	100
ursprungsvariablen	100
ti	100
fantastisch	100
some_var	100
##g_file	100
phpnewbö	100
system	100
gekommen	100
por	100
##os	100
frage	100
konfigurationsscript	100
fruits	100
besuch	100
eingestellt	100
monetäre	100
initialisieren	100
opencontent	100
ldap_scope_subtree	100
mcal_list_events	100
hinzu	100
pdf_execute	100
möchten	100
##ort	100
debuggers	100
angreifer	100
beliebige	100
ory	100
##kannt	100
##_dump_mem	100
unerwünsch	100
icon	100
##rg	100
##vis	100
##binden	100
##tient	100
könnte	100
wahl	100
##timal	100
##lelement	100
##menge	100
gab	100
dist	100
##rrechten	100
spätere	100
##legte	100
begrenzungs	100
wechse	100
xml_document_	100
beachte	100
openssl_error_string	100
ifx_htmlt	100
##mtime	100
(+	100
imsp	100
modu	100
leitung	100
mmmm	100
ldblib	100
bar	100
drittes	100
erkannter	100
ausgabevariablen	100
untersuchen	100
sql	100
bekomme	100
##stream_event	100
dabei	100
pg_field_is_null	100
':'	100
installationen	100
establish	100
zuzuordnen	100
gemeinsamen	100
vordefin	100
##linge	100
for	100
macexpertencoding	100
pdfclock	100
tight	100
19jähriger	100
schreibzugriffe	100
##prüfung	100
fehlermeldung	100
##hinaus	100
indire	100
pdf_rect	100
verbindungslose	100
rü	100
word	100
kopier	100
"),	100
gehängt	100
negativ	100
halbwert	100
##gten	100
textare	100
##etzt	100
##möglichkeiten	100
##special	100
##_local_machine	100
pg_locreate	100
liefert	100
##tionell	100
dbx_colnames_	100
sym	100
##glie	100
##ndet	100
php_version	100
swf_shapec	100
triviales	100
abc_	100
##e_bytea	100
wirkliche	100
behandeln	100
##twort	100
älter	100
mysql_stat	100
##irec	100
abfragewerte	100
ocilogon	100
##chsel	100
56	100
##tial	100
seek	100
sagen	100
##lange	100
weitgehend	100
farbüberlaufs	100
##_machine	100
ausfall	100
mhash_rip	100
##662722	100
preg_replace	100
php3_ignore_user_abort	100
unlesbar	100
php_stream_make_seekable	100
##ischen	100
##89	100
dateiänderung	100
schaltet	100
syntax	100
abfolge	100
escape	100
holland	100
nachgesagt	100
rechners	100
"$	100
formaten	100
einsp	100
komprimierungswerkzeuge	100
auslast	100
endliche	100
bzerrno	100
quellvariablen	100
frombase	100
untersucht	100
pem	100
strval	100
##e	100
acrobat	100
##enze	100
sql_ascii	100
größer	100
mitgeschrieben	100
cu	100
##shop	100
körper	100
anschauen	100
'/	100
compact	100
\.	100
ldapconn	100
bietet	100
=".	100
hochgeladenen	100
##maliges	100
umgebung	100
zusätzlicher	100
erreichen	100
##fatal	100
gestartete	100
##gcase	100
##rementen	100
logdatei	100
##hp4	100
vorzeichen	100
nodename	100
irgendwann	100
datenbankuser	100
font_index	100
##gaben	100
natsort	100
originalen	100
##oose	100
rand	100
geschriebenes	100
##rotate	100
geschriebene	100
ibase_execute	100
html_string	100
##erseits	100
##ree	100
udm_param_cache_mode	100
18	100
pau	100
##ander	100
fehlermeld	100
##fren	100
##domain	100
umzuleiten	100
letztermonat	100
##_ret	100
betriebsystem	100
wegdefinieren	100
128	100
schlie	100
übertragung	100
eingebauten	100
0x2328	100
oktober	100
planungs	100
types	100
supportseiten	100
sel	100
utility	100
unta	100
##mar	100
know	100
sensib	100
##_configuration	100
##mam	100
datenbanktyp	100
dementsprechend	100
gehack	100
anfangen	100
len	100
##yleshe	100
resolv	100
entsp	100
auswirken	100
welche	100
bedeutung	100
konstruktors	100
schädlichen	100
verriegelung	100
domtext	100
white	100
völlige	100
##_separ	100
zeilende	100
rückgabe	100
##lation	100
device	100
##ßmodule	100
wiederherstellen	100
passwortüberprüfungen	100
alone	100
entwicklungsumgebungen	100
##melt	100
##_rd	100
wahr	100
entp	100
##mäß	100
pie	100
cpdf_rect	100
##switch	100
##rent_	100
##upload	100
praktisch	100
bechreib	100
##seh	100
beabsichtig	100
gespeicherte	100
wochent	100
php	100
verboten	100
cw	100
stringanfang	100
##ey	100
kollisionen	100
sysname	100
##oman	100
pixeln	100
gzpassthru	100
optimieren	100
##24	100
hingegen	100
ingresii	100
tei	100
swfsprite	100
down	100
zusammenbau	100
1310	100
##ipsel	100
v	100
liegt	100
##_com	100
verbindungsstatus	100
prozzesses	100
##teilt	100
##angle	100
dio_fcntl	100
warnung	100
explizi	100
monitoring	100
##cont	100
öffentlich	100
fortgeschritten	100
produ	100
vt_ui	100
udm_param_first_doc	100
ergebniseinträge	100
##geschritten	100
alarm	100
verzeichnisbaumes	100
chown	100
beliebigen	100
hq	100
behalten	100
ingres_connect	100
f_wrlck	100
specif	100
##ationen	100
lastday	100
bs2	100
##reference	100
eher	100
feldoff	100
sql99	100
anzuwendender	100
add_	100
found	100
é	100
brown	100
ergebnissen	100
umsteigen	100
##ript_action	100
##iement	100
##_new_doc	100
,...).	100
##abschnitt	100
pdf_set_text_matrix	100
##dir	100
binärdistributionen	100
codes	100
150	100
##zeichnis	100
##docs	100
wür	100
php_put	100
##setzungen	100
##äter	100
unvorhersehbares	100
derselbe	100
##_sc	100
##_curveto	100
erwünscht	100
remote_file	100
##_oid	100
##ial	100
##bauen	100
raffinierte	100
db_n	100
aufgegebenen	100
dessen	100
##par	100
mär	100
genannten	100
februar	100
cpdf_page_init	100
##search	100
##ributed	100
89	100
speicherbreich	100
##ding	100
localeconv	100
ldap_deref_ne	100
##fbauen	100
sqlnchar	100
ldap_op	100
pad_value	100
dollarzeichen	100
cpdf_set_current_	100
anscheinend	100
wochentag	100
meistens	100
workaround	100
derbenötigten	100
sleep	100
##word_match	100
##mps	100
öffnen	100
obige	100
_vars	100
syntaxvorschriften	100
durchsuchen	100
pdf_set_dur	100
injection	100
regexp	100
##_acp	100
einfachste	100
##_cat	100
probleme	100
formatierung	100
geliefert	100
ergebnisfeldes	100
00000001	100
##dbeere	100
datenbankparametern	100
mozilla	100
##stehende	100
extract_type	100
ocistatementtype	100
numerischem	100
bündels	100
nutzloses	100
bemerkt	100
puffers	100
##roman	100
enclose	100
##dot	100
tupel	100
df	100
##mit_ung	100
**	100
datumsfrom	100
pdf_find	100
qu	100
##ystemen	100
feldnummern	100
##izi	100
##ib	100
drehungswinkel	100
718281828459	100
teilweise	100
##_create_dc	100
sess_	100
##cess	100
unsigned	100
##bank	100
##_asc	100
aktion	100
zeilenschaltung	100
ldap_opt_host_name	100
wird	100
veröffentlich	100
teil3	100
sql_statement	100
night	100
11	100
internation	100
udm_param_wordinfo	100
details	100
veröffentlicht	100
##ässi	100
ocicolumn	100
anmerkung	100
trans	100
##ization	100
auswirkt	100
ich	100
##zuverwenden	100
logarith	100
stande	100
abzuwick	100
##stools	100
popul	100
mssql_result	100
##a	100
denken	100
ibase_close	100
5637	100
();"	100
##ahore	100
geblieben	100
##testet	100
euc	100
sybase_pconnect	100
##_datenbank	100
license	100
varian	100
lob_upload	100
ifx_incdir	100
bestehendes	100
##endung	100
internal_encoding	100
variablenwerte	100
##ählt	100
objekte	100
anforderung	100
cpdf_output	100
##_array	100
verwendete	100
libexecdir	100
##0001	100
##durchlauf	100
##esse	100
hinzufügen	100
marc	100
##ziehen	100
ctrl	100
archiv	100
openssl_pkcs7_decrypt	100
weitaus	100
op	100
##_fun	100
vorgemerkten	100
metaphone	100
##mente	100
sichern	100
missb	100
verfügt	100
allgemeinen	100
under	100
call_user_method	100
umgekehr	100
##riage	100
products	100
ldap_sc	100
shm_get_	100
emphohlen	100
pgsql_empty_query	100
##pare	100
##_space	100
##_meth	100
schmid	100
components	100
##k	100
nline	100
zugriffstyp	100
amt	100
unange	100
extra_headers	100
##ie	100
f_un	100
latinx	100
pg_errorm	100
bedienen	100
originale	100
shmop_open	100
off	100
kondition	100
ce	100
fatal	100
zu	100
dbh	100
##parameter	100
benutzerkennwort	100
erw	100
##isi	100
spezieller	100
mssql_connect	100
##ntastisch	100
op_anony	100
enclosure	100
##anfragen	100
pdf_set_duration	100
connection_id	100
##_fi	100
task	100
erweiterter	100
0x1a	100
pconnect	100
tauchen	100
##elder	100
##stack	100
##fis	100
einzelnes	100
standardmodus	100
##stand	100
empty_clob	100
übergebene	100
flachheit	100
##_free_space	100
##ory	100
zugriffsrechte	100
bemerkung	100
##hin	100
dev	100
##heit	100
left	100
kommandozeilenargumente	100
27122299212594	100
experimentell	100
heisst	100
removing	100
drittens	100
postgresql	100
second_val	100
cpdf_save_to_file	100
datenbanknutzer	100
##d_con	100
auszuwerten	100
vergisst	100
##_re	100
bo	100
##variant	100
##ae	100
##id	100
##é	100
##dateien	100
korrig	100
simuliert	100
##imit	100
bibliotheksei	100
##halfopen	100
swfbitmap	100
##ischt	100
negative	100
##laufen	100
holl	100
shock	100
einräge	100
usen	100
mont	100
##lock	100
pg_num_fields	100
##_c	100
##agsname	100
##ild_termin	100
zeilum	100
##ristian	100
primitive	100
pkgadd	100
parsers	100
paket	100
profils	100
herumgedreht	100
simult	100
dircon	100
##stä	100
##871011	100
loadgif	100
löschvorgang	100
sendenden	100
missbrauchsmöglichkeiten	100
("\\")	100
##spru	100
##_client_	100
ora_fetchinto_nulls	100
allian	100
openssl_csr	100
pag	100
vordefinierten	100
englische	100
geleist	100
array_map	100
jünger	100
##_file	100
##feld	100
ya	100
infrastruktur	100
illegal	100
wider	100
connection_string	100
fähigkeit	100
could	100
shares	100
##ügend	100
stringwerten	100
##flä	100
introduced	100
pcre	100
##chgabe	100
##stock	100
##db	100
kodierten	100
##eschnitten	100
ebenenanzeige	100
systemdatums	100
autreten	100
eigenschaften	100
hexadezimalen	100
ft_	100
##ore	100
zeug	100
domnode_append_child	100
immernoch	100
##lags	100
##meric	100
einweg	100
subtype	100
book	100
unterzeich	100
begrenzungspfad	100
finaly	100
textversionen	100
komprimiert	100
##set_save_	100
db2inst	100
tit	100
email	100
##filter	100
##sz	100
oktale	100
fehlschlug	100
forcetype	100
helvetica	100
exist	100
installierten	100
hallo	100
##ablen	100
ol_srv	100
xl	100
=\"	100
pg_connection_reset	100
schauen	100
divid	100
is_resource	100
")?	100
##nement	100
ftp_ascii	100
einfaches	100
");}	100
objektbaums	100
##ired	100
##ahl	100
ändern	100
benötigten	100
##ösen	100
erstes	100
unserem	100
distinguished	100
##on_die	100
##ach	100
ibase_connect	100
sortien	100
##uploaded_file	100
adapter	100
##ash	100
bereichen	100
fall	100
feldname	100
upge	100
headerfeldes	100
bewir	100
verwandelt	100
fbsql_stop_db	100
verwaltung	100
##rieben	100
eins	100
imap_msg	100
##teren	100
##schei	100
dateiendung	100
mandir	100
lt_	100
##sen	100
konfigurationsober	100
auswertet	100
herstellt	100
ldap_first_entry	100
res	100
socket_connect	100
ircg_set_file	100
substr_replace	100
deref	100
niemals	100
html_en	100
mysql_client_ignore_	100
##5057799	100
abbonieren	100
att	100
##fmt	100
packet_id	100
1415926	100
ausger	100
##igntes	100
##steuer	100
##_set_name	100
##eist	100
punk	100
lauten	100
##000000000000000	100
##_i	100
installations	100
praktischen	100
##cted_	100
tm_h	100
msql_tablename	100
##prise	100
##d	100
zeichnet	100
wandelt	100
inv	100
pdfdocencoding	100
cpdf_continue_text	100
##connect	100
visual	100
emp	100
cns	100
konvert	100
##"	100
eingelesene	100
neuer_string	100
lynx	100
##affix	100
ausnahme	100
##poch	100
häufigkeiten	100
swinstall	100
##geschrieben	100
blobidarray	100
fbsql_autocommit	100
##arg	100
sommerzeit	100
)";	100
##pol	100
##eint	100
iodbc	100
someth	100
##alation	100
##db_query	100
gehalten	100
drücken	100
erlangen	100
minimal	100
ob_implicit	100
3166	100
##ving	100
committen	100
le	100
repar	100
beizusteuern	100
hig	100
']"	100
##ow_boxed	100
gesagte	100
object_id	100
##rufen	100
overrides	100
##krä	100
verknüpfungen	100
pkcs7	100
pdf_close_image	100
ergebis	100
speicherbed	100
trig	100
errcode	100
ldap_opt_deref	100
erweiterungsmöglichkeiten	100
documen	100
##umgebungen	100
##bö	100
standalone	100
ky	100
patches	100
kopierten	100
400	100
informelle	100
ausgelassen	100
omnihttpd	100
jjj	100
f9	100
freizeit	100
##ace	100
##ify	100
##zeiger	100
vorlag	100
");	100
"';	100
sequentiellen	100
aufzulisten	100
routi	100
erwartete	100
eingabeaufforderung	100
##barer	100
eingegeben	100
vorgenommenen	100
##ites	100
ext2fs	100
available	100
protokollierdi	100
abgelegte	100
class_name	100
dtd	100
##den	100
dateiformat	100
cac	100
basierend	100
vorbestimmte	100
##html_dump_mem	100
plu	100
verfügbarer	100
com_object	100
wörtliches	100
verbraucht	100
generischen	100
tmpfname	100
##´	100
##per	100
fehlerhaft	100
dokumentes	100
sa_messages	100
mängel	100
tv_sec	100
returns	100
host1024	100
zurückge	100
(,,	100
attributs	100
stream_set_write_buffer	100
innen	100
##okolliert	100
ld	100
blick	100
authentifiziertem	100
##_dump	100
pdf_open_png	100
,?	100
oster	100
is_dir	100
daselbe	100
##rie	100
##lename	100
verbindungsabbruchs	100
##fall	100
cpdf_add_outline	100
verzeichniseint	100
vorgäng	100
op_anonymous	100
ideal	100
bereit	100
##attribut	100
menge	100
analy	100
zusammenarbeit	100
greedy	100
##beispiel	100
##hlen	100
wuchs	100
assoziatien	100
##_compare	100
ausliefert	100
bookmarks	100
nmehrere	100
hersteller	100
unverfälschte	100
7	100
##ya	100
verteilt	100
langer	100
st_de	100
dekomprimiert	100
##rectangle	100
##alien	100
##eight	100
##telten	100
##om	100
udmsearch	100
alnum	100
komprimierten	100
03	100
##mal	100
(.	100
nl2br	100
ohnehin	100
unerwünschte	100
##aces	100
nichtrela	100
comm	100
##nden	100
iiapi_cha_type	100
mb_convert_variables	100
identificationsstring	100
##rypted	100
##4567	100
verwandten	100
zeilen	100
dividiert	100
verwechsel	100
important	100
printer_get_option	100
adressiert	100
##long	100
##ax	100
trennzeichen	100
##_delete	100
endezeichen	100
7fffffff	100
##459	100
##_l	100
originalgewicht	100
daumenregel	100
abgelegt	100
);?	100
eigentliche	100
match	100
sæ	100
benutzerin	100
avail	100
ansonsten	100
defin	100
individuelle	100
##uff	100
legend	100
##hash_name	100
##ke_seek	100
daraus	100
##_retour	100
verde	100
##division	100
veran	100
377	100
tabellenn	100
nam	100
count_chars	100
einzi	100
##locale	100
##_style	100
inform	100
ergebnistyp	100
##ufen	100
genaue	100
operand	100
erfolg	100
ausliest	100
konfigurationseinstellung	100
aktiviert	100
)´	100
quellpa	100
desriptors	100
##c_open	100
##eferenz	100
modulnummer	100
l222	100
##mk	100
fehler	100
require	100
zts	100
zeitspanne	100
##_clear	100
httpdctl	100
url_retour	100
community	100
dec	100
##arbe	100
u	100
empty_blob	100
##_pw	100
häufige	100
##_bar	100
eintrag	100
seltsam	100
gefundenen	100
ldap_errno	100
xml	100
##ü	100
php_normal	100
##sol	100
welcher	100
leerzeilen	100
klarer	100
gleichheitszeichen	100
gefixed	100
dbx_sort	100
##änder	100
##s_date	100
##bo	100
swfmor	100
path	100
mathematics	100
nummeriert	100
lieferte	100
ausnutz	100
addslashes	100
##_lang	100
lambda	100
udm_load_ispell	100
originalversion	100
profile	100
##1828459	100
vw	100
sortiere	100
benutzung	100
ibase_date	100
domdocumen	100
##auscht	100
sicherheitsrisiko	100
facil	100
process	100
transaktionsblock	100
gettype	100
verwiesene	100
verfügen	100
6291725057799	100
##rint	100
prioritäten	100
unterstütze	100
##t_jpeg	100
ermöglichte	100
protokollierdienst	100
continue	100
##meld	100
##tige	100
##_stream	100
path_translate	100
disk_total	100
mcal_day	100
diax	100
zield	100
detaillierte	100
##klassen	100
puff	100
zukommt	100
aufget	100
ldap_opt_sizelimit	100
readline_name	100
external	100
ungeordnet	100
out	100
##tp	100
()."	100
##cp	100
kümmern	100
rmdir	100
mailingliste	100
ne	100
rc4	100
imap_mailboxmsginfo	100
umwandlungen	100
markierten	100
nsapi	100
-).	100
augab	100
##wen	100
pg_	100
importieren	100
vier	100
skriptdatei	100
##annter	100
0b1	100
##da	100
weiterbenutz	100
posix_getpw	100
heimat	100
hervorrufen	100
gefä	100
##buff	100
shm_read	100
parallele	100
ausdrückt	100
ähn	100
zufalls	100
datenbanknutz	100
betriebssytem	100
pg_lo_tell	100
jddayof	100
swftextfield	100
modifizierten	100
antiquierten	100
##ctor	100
property	100
ingres_close	100
leicht	100
richt	100
merkmale	100
##ängig	100
##trim	100
üblichen	100
palette	100
selection	100
##bü	100
=[	100
bekom	100
beigefügten	100
serven	100
ftp_rename	100
00000	100
button	100
maschinenabhängige	100
ang	100
fester	100
uner	100
publis	100
"]").	100
imap_fetch_overview	100
##iefe	100
dupliziert	100
nachkommastellen	100
virenverseuchte	100
pdf_closepath_stroke	100
"]);?	100
filters	100
imap_renamemailbox	100
##forge	100
produkt_3	100
getrennten	100
effekt	100
udm_load_ispell_data	100
wer	100
aut	100
##aris	100
mcrypt_list_modes	100
sowieso	100
msdn	100
-,	100
##tensiv	100
vorbehaltliche	100
latt_noinfer	100
##port	100
imagecolorset	100
##ernden	100
##_timeout	100
ok	100
feature	100
##ansi	100
statuscode	100
##sign	100
hash	100
klärungen	100
fäh	100
gewesen	100
mehrere	100
schritten	100
kossu	100
replacement	100
gzwrite	100
benutzernamen	100
heben	100
##passen	100
ldapv3	100
inkompatbil	100
nocache	100
bildformat	100
vergif	100
toolkit	100
wege	100
augen	100
udm_phrase	100
hochgesetzt	100
vla	100
##inhalte	100
typdeklaration	100
key_identifier	100
##is	100
pg_fetch_result	100
##_dash	100
beitreten	100
##nu	100
wirkungslos	100
implizite	100
##alisierungen	100
+).	100
entwicklungen	100
pg_escape_bytea	100
überdies	100
kommunication	100
printer_write	100
standardtimeout	100
domxml_open_mem	100
eltern	100
"#	100
.";}	100
sortierflags	100
path_translated	100
alphabets	100
setframes	100
seinem	100
##ei	100
highly	100
udm_cat	100
enk	100
tasse	100
##ted_key_si	100
gegenwärtige	100
clever	100
nur_werte	100
ftp_stream	100
##aure	100
füllung	100
inhaltlich	100
zeigt	100
getprotob	100
erweiterbares	100
enger	100
##orderung	100
##smodule	100
portierung	100
unmittel	100
##ntag	100
übermit	100
ircg_is_conn_ali	100
enorme	100
6382729035898	100
hebrevc	100
##yper	100
##auth	100
##chen	100
##alone	100
rechner	100
dbase_delete_record	100
berechnete	100
vordefinierte	100
##_lookup	100
##]+	100
ngrund	100
##hnen	100
export	100
attributes	100
zeigern	100
##gung	100
endungen	100
ldap_opt_re	100
h416	100
dbx_sybasect	100
##gebnis	100
func_get_	100
velocis	100
##ascii	100
zugeordneten	100
küm	100
];?	100
postfach	100
geprüft	100
##ub	100
geringe	100
programmierschnittstelle	100
##limit	100
aktual	100
##host	100
namens	100
##lared	100
##aspe	100
verendung	100
##mid	100
spezifiz	100
string_var	100
steigt	100
verdoppeln	100
error_log	100
##stmtoption	100
##riptions	100
imap_set_quota	100
pgsql_c	100
ellery	100
serversystemen	100
desk	100
##172	100
##¶	100
cia	100
##gif	100
ccvs	100
zeitraum	100
durchgängig	100
epoche	100
hpux10	100
ifx_prepare	100
server_name	100
rech	100
unseres	100
evtl	100
##anzeige	100
num_req	100
##ac	100
benutzerwechsel	100
sesam_affected_rows	100
##ränkungen	100
##größe	100
swatch	100
wisconsin	100
add_item	100
ucfirst	100
klassendefinition	100
images	100
registrierten	100
##mus	100
überschattet	100
mssql_get_last	100
fr	100
(,	100
##matrix	100
ietf	100
leap	100
kb	100
resultierende	100
##komp	100
zziplib	100
beginnt	100
pgsql_connection_ok	100
ora_bind_in	100
mache	100
mcal_delete	100
beque	100
cfg_file	100
useful	100
different_cart	100
##uler	100
##de	100
signifikanten	100
tt	100
integriert	100
eine	100
techn	100
kling	100
php_document_root	100
cpdf_set_sub	100
niedrig	100
speicherbereinig	100
hp	100
##blob	100
xmltest2	100
non_existing_table	100
absolut	100
genealogy	100
##swert	100
betrügerischen	100
socket_set_non	100
ingres_field	100
muss	100
schlüsselassoziationen	100
wertet	100
erweiterungsmodule	100
ingres_num	100
##reichen	100
tm_hour	100
bund	100
prüfen	100
transformations	100
##ostente	100
##geord	100
##lassoziationen	100
##stabe	100
stattfinden	100
##sä	100
yp_get_default_domain	100
##speich	100
nuls	100
binärwert	100
zählung	100
##nung	100
exponentialmethode	100
verfasst	100
ankü	100
zwingend	100
beantworten	100
xml_pi_node	100
obiges	100
##ätze	100
##ug	100
"/	100
num_changed_s	100
anhangs	100
dich	100
##----	100
liefere	100
irgendwo	100
aktualisert	100
dat	100
funktionsdeklaration	100
undefiniert	100
wechselnde	100
dummy	100
konfigurationstabelle	100
geschweifte	100
er	100
##cmp	100
janu	100
extr_prefix_invalid	100
##_line	100
sorgfäl	100
##ltigen	100
datetime	100
merkmal2	100
pghost	100
festen	100
##usinform	100
geschütztes	100
imap_last_error	100
disku	100
##md5	100
##83	100
laufenden	100
syntaxfehler	100
trxtype	100
hereinkommen	100
einfache	100
display	100
dbase_delete	100
besseren	100
komplettes	100
2x	100
msql_fetch_array	100
vorausgehende	100
stam	100
ora_errorcode	100
spezifizieren	100
temporäre	100
male	100
fehlschlag	100
##eits	100
sources	100
uti	100
abget	100
datensätzen	100
codeblock	100
##srv	100
http_post	100
led	100
debug	100
tools	100
##züglich	100
##lee	100
##normal	100
enter	100
##49	100
##mension	100
mails	100
stil	100
##quellen	100
syslog	100
##_index_update	100
##rom	100
##ags	100
inputfile	100
zufallssequenzen	100
##ctl	100
hunderttausend	100
vernetzten	100
sequence	100
##value	100
späteren	100
##escape_string	100
##llib	100
verz	100
divis	100
running	100
sonntags	100
##ober	100
result	100
geschrumpft	100
üb	100
copy	100
nicht_exist	100
##swürd	100
##mitted_name	100
str2	100
##umrech	100
better_t	100
dst_y	100
'";?	100
##inne	100
alloc	100
pop3	100
mysql_listfields	100
##sskomma	100
##windigkeit	100
legi	100
abwick	100
suggestions	100
##greifen	100
stack	100
select_data	100
auszuwählen	100
verschiebung	100
com_invoke	100
##unf	100
überschreibt	100
##ogregor	100
(!	100
formatstring	100
##eri	100
ausführungsdirektiven	100
anstatt	100
z0	100
nä	100
##fie	100
##richten	100
43	100
"(???)	100
unterlie	100
##ed_dn	100
cain	100
authentifizierungsversuch	100
logarithmus	100
##stypen	100
bibliothek	100
spoo	100
error_logfile	100
veri	100
originäre	100
angewand	100
##sammler	100
ph	100
##tene	100
uc	100
##merkt	100
ibase_prepare	100
##adow	100
2f	100
buffer	100
##base	100
abzufragen	100
##buffered_query	100
jap	100
retrieve	100
##uuu	100
korekt	100
recipient	100
grundlegende	100
##genannten	100
##inden	100
absender	100
##rige	100
auswirk	100
kontrolle	100
oci_commit	100
##grös	100
abfrageresultat	100
ctype_cntrl	100
any	100
grundrechen	100
weltverzeichnisses	100
aktuallisierte	100
##_client_encoding	100
umsetz	100
nimm	100
überfl	100
str_repeat	100
speicherverbrauch	100
anzustellen	100
dü	100
spaltenwert	100
##halten	100
nib	100
##nkel	100
return_value	100
unglaub	100
udm_param_charset	100
basic_functions	100
swf_place	100
inkrement	100
##flags	100
einzig	100
vorschlagen	100
pgsql_empty	100
blieb	100
defined	100
settransaction	100
get_object_vars	100
268	100
##send_	100
##fehlern	100
##angaben	100
einereferenz	100
-".	100
draheim	100
phpnewböx	100
n	100
xmlstr	100
kanonisches	100
float	100
##dat	100
##assword	100
trennt	100
"(";	100
##_personal	100
addison	100
feldname_für_erste_sp	100
dezimalwert	100
##577	100
given	100
mas	100
endgül	100
datenbanken	100
byte	100
doppelpunkt	100
konditionalen	100
vierte	100
register_globals	100
##testclass	100
##stehen	100
']-	100
tabellenbeschreibungen	100
höchstens	100
einkauf	100
vorkomp	100
eingeben	100
##iff	100
unterer	100
gewonnen	100
implementat	100
minimalen	100
parsemoldb	100
##wler	100
##fr	100
ctype_alnum	100
##cetype	100
aufweist	100
ldap_err	100
##art_	100
dise	100
session_save_path	100
manager	100
sysc	100
seward	100
dateinamenserweiter	100
crypt_md5	100
##_modify	100
file_to	100
96	100
))	100
##pers	100
ocicancel	100
##stmt	100
bcdef	100
##gesuche	100
formatiere	100
privilegien	100
algorithmus	100
##asvarchar	100
demonstriert	100
##selben	100
ergebnisss	100
eingefügt	100
uasort	100
##_api	100
aufruft	100
anschlußmodule	100
entropy_file	100
##swort	100
##nx	100
wegfallen	100
dba_open	100
sequentielles	100
\\	100
seek_cur	100
steuern	100
pspell_suggest	100
verbindungsindex	100
;";}}	100
##_child	100
##jahre	100
##ithy	100
gebil	100
##empty	100
input	100
##otes	100
mb_detect_encoding	100
db3	100
##xd	100
locate	100
dbx_	100
äl	100
please	100
user	100
okt	100
ermittelte	100
##=-	100
benutzerabbruchs	100
##esetz	100
##umfang	100
alternativ	100
##neket	100
multipurpose	100
assozi	100
rechtsdre	100
einwand	100
umgekehrt	100
vbscript	100
pseude	100
pdf_fill_stroke	100
##undert	100
system_id	100
literal	100
success	100
short	100
zweibuchstabigen	100
##mber	100
##arbeiten	100
datenbankadresse	100
##_encode	100
gethostbyadd	100
fuege	100
dateit	100
environmentvariablen	100
einstell	100
##oc	100
zurückbekommen	100
bekanntesten	100
lock	100
oracleinstanz	100
systemen	100
spaetere	100
getestet	100
abschluss	100
standardbereich	100
binärfest	100
##process	100
());}?	100
##_precision	100
private_no_expire	100
vt_bool	100
programmers	100
setline	100
konfigurationsanweis	100
registri	100
46	100
##_limiter	100
##ilo	100
dbx_cmp_desc	100
socketprogrammierung	100
zertifikaten	100
about	100
prozess	100
5432	100
dekrement	100
",	100
##oper	100
stream_register	100
##_int	100
opel	100
##_fcnt	100
##tities	100
##pr	100
##bert	100
##t	100
pseu	100
##othek	100
umwandlungsfunktionen	100
*");	100
fol	100
secretdir	100
##cale	100
ta	100
eng	100
löcher	100
driver	100
tv_	100
##marked	100
php_manual	100
##cb659	100
##versuche	100
bek	100
##oser	100
geheimen	100
##adaten	100
bedingte	100
gleichheits	100
udm_get_res_field	100
zyklisch	100
xml_text_node	100
lös	100
socket_bind	100
##nis	100
darunter	100
markus	100
derzeitigen	100
##a2	100
privileges	100
startwert	100
-´	100
mög	100
##?".	100
shuffle	100
ausgabefarbe	100
ob_end_clean	100
directive	100
wom	100
##_flt_type	100
verzeichniseintra	100
ovrimos	100
vorgangsweise	100
centre_commercial	100
checked	100
database	100
##2php	100
vt_dec	100
##undet	100
##tr	100
wod	100
gänzlich	100
cookie_li	100
gethostbynam	100
##ging	100
##variable	100
idenitfiziert	100
ocifreestatement	100
activesc	100
unterminierung	100
anwendungsbeispiel	100
##mlt	100
onek	100
entsprechen	100
oci_return_nulls	100
auszuweiten	100
pg_clientencoding	100
:?	100
##öst	100
##häng	100
].	100
##onat	100
pg_numrows	100
rückwärts	100
ten	100
parameteranzahl	100
mdec	100
##mechanis	100
##ieferten	100
##grö	100
olsen	100
##beste	100
einsatzzweck	100
geist	100
ldap_dn2ufn	100
modules	100
neuesten	100
umständ	100
##lters	100
mysql_client_	100
=$	100
reading	100
weiss	100
dokumenteninformation	100
mysql_listtables	100
verteidigung	100
erfordert	100
##her	100
::	100
##nde	100
##ruck	100
herausgefunden	100
datenbankadministrator	100
arbeitsbereich	100
odbc_setoption	100
wahrheitsgehalt	100
returniere	100
)",	100
##99212594	100
ali	100
innere	100
##rary	100
get_html_translation_table	100
array_	100
manualseiten	100
##ings	100
dba_replace	100
übrigens	100
##ulen	100
erforder	100
escaped_item	100
##ceed	100
nachweis	100
short_tags	100
##_sy	100
uwe	100
##_be	100
##stem	100
angegebenen	100
großbuchstaben	100
win2k	100
##eturns	100
##45	100
argc	100
tempor	100
übereinstimm	100
options	100
##_lo	100
##_env_vars	100
##dern	100
security	100
depot	100
##_script	100
austin	100
aufgefüllt	100
##auff	100
fehlerposition	100
pg_escape_string	100
performance	100
pg_select	100
temporär	100
compilern	100
ineinander	100
messages	100
##gedreht	100
eind	100
artiger	100
num_ch	100
##_repl	100
get_class	100
##gorithms	100
schnellste	100
pspell_clear_session	100
##anztransaktionen	100
espresso	100
02d	100
instanz	100
geformtes	100
komp	100
openssl_pkcs7_verify	100
vers	100
deserialisierung	100
##schaften	100
##ische	100
erkennen	100
out_charset	100
xml_local	100
mssql_close	100
domdocument_create_com	100
##ser	100
##margin	100
array_rand	100
widergespiegelt	100
kommandozeilen	100
ename	100
##ließende	100
ssl	100
##_log	100
anzuwendenden	100
definieren	100
get_object	100
001	100
beschleunigen	100
ora_	100
##deuten	100
schwar	100
strtoupper	100
mysql_num_fields	100
oob	100
lf	100
##riptoren	100
##020	100
dateierzeugung	100
netzwerk	100
##wohl	100
##ndig	100
zuzu	100
verwirren	100
current	100
without	100
zeichenzahl	100
static	100
freigabe	100
aufrufkonvention	100
namensräumen	100
beschrieben	100
wert1	100
getlast	100
verteilung	100
ibase_timestamp	100
wen	100
##_count	100
532	100
auswechselungen	100
##grenz	100
arg_separator	100
voreingestellt	100
lap	100
herstellungsdatum	100
func_get_args	100
datenab	100
jefe	100
trenn	100
vollständ	100
http_user_agent	100
beiliegt	100
##_pack	100
xslt_set_	100
oct	100
beende	100
filterausdruck	100
gerne	100
e_all	100
##oben	100
grenzen	100
,-	100
##methoden	100
##order	100
fdf_close	100
datenbankmod	100
##urldecode	100
cmd	100
391	100
pho	100
rückkehrmöglichkeit	100
iklp	100
erniedrigt	100
##2722	100
orbit	100
log_warning	100
allgemeines	100
inst	100
sesam_field_array	100
backslash	100
##steuern	100
explode	100
selber	100
tablelle	100
76	100
expose_php	100
##teter	100
instance	100
lukas	100
##führung	100
##infile	100
ocistatement	100
odbc_longreadlen	100
bcmul	100
herstellerspezifische	100
sort_flags	100
anzeige	100
##är	100
,...}.	100
catalog	100
##erdefin	100
entführen	100
activate	100
##ken	100
##_write_address	100
##rieve	100
##_scale	100
sicherheitsaspekte	100
gehören	100
gebräuch	100
zurückliefert	100
imap_last	100
gehand	100
suchmod	100
choose	100
handled	100
##che	100
mcrypt	100
ticks	100
libpfpro	100
##_session	100
##folge	100
##iehen	100
##t_root	100
udm_field_rating	100
kommentare	100
wie	100
auftra	100
verl	100
'',	100
gx9a2	100
kombinierte	100
umfassendere	100
##ares	100
vorn	100
##cellen	100
##01	100
##_files	100
statist	100
behandelte	100
common	100
erwartungen	100
binäre	100
war	100
netsplit	100
##haupt	100
new	100
##quo	100
get_include	100
ceo	100
readline_list_h	100
base_dn	100
dbconn3	100
##"",	100
bring	100
##fe	100
ucd	100
übereinstimmt	100
nullbasierten	100
argumen	100
##ment_node	100
ausgabebuffer	100
##lichkeit	100
{}}	100
zweckentfremdet	100
ctype_pun	100
dokumen	100
datensätze	100
##sichtlich	100
shadow	100
##gendes	100
geholt	100
hängen	100
satellite	100
##oname	100
anweisen	100
verfügabr	100
mcrypt_encrypt	100
umbenannt	100
##pace	100
gepla	100
genießt	100
ru	100
##44	100
domdocument_create_cdata_section	100
describ	100
eingehende	100
injizieren	100
##deren	100
einzug	100
semap	100
"]-	100
mysql_port	100
aliasname	100
formatiertes	100
##last_doc	100
überlasten	100
##_tag	100
1pl2	100
domdocument_create_comment	100
deaktivierter	100
konfigurierens	100
akzep	100
herabzusetzen	100
php_dba	100
block	100
schnittstellenänderung	100
ging	100
los	100
outtest	100
laufe	100
domdocument_add_root	100
inlined	100
##_char	100
vorgesehene	100
'$	100
winterzeit	100
##aeter	100
##ril	100
famili	100
php_put_filename	100
arithmetische	100
##cationen	100
##einig	100
skript	100
ungewöhnlich	100
##_pi	100
even	100
##fordern	100
ctype_xd	100
boo	100
mibs	100
unterstellt	100
##essos	100
realm	100
schnelles	100
stecken	100
den	100
entwick	100
anfängt	100
##dbs	100
mailbox	100
##wa	100
##hält	100
gunzip	100
framerate	100
yp_master	100
meth	100
microsofts	100
##ig	100
##bruch	100
bequ	100
111	100
##over	100
domdocument_create_element	100
empcnt	100
imap_rfc822_parse_ad	100
überprüfungsprozess	100
##atibilität	100
verform	100
mil	100
##loaden	100
##ment	100
##41	100
easysoft	100
glaube	100
benutzerrrechten	100
##cb	100
autom	100
pg_untrace	100
session_cache	100
##side	100
cybermut_creerreponse	100
fand	100
abwärtskompatibel	100
unerwünschten	100
deaktivierung	100
##roll	100
ursprünglichen	100
mcal_list	100
##attet	100
escaping	100
ablaufende	100
445	100
vernünftigen	100
ß	100
abgewartet	100
mssql_fetch_lengths	100
.),	100
xhtml	100
möglicher	100
##esehen	100
dekodierte	100
klaren	100
frip	100
ksort	100
einmal	100
##:";	100
ocicolltrim	100
jen	100
##verbindungen	100
benö	100
übersetzungen	100
gelieferten	100
änderung	100
dateiende	100
entpspricht	100
programming	100
##attribute	100
packet	100
utoronto	100
##chse	100
##keydir	100
dbx_colnames	100
ausreicht	100
##fix	100
length	100
##ret	100
nex	100
unter	100
##irgt	100
ttf	100
klassen_ab	100
##rägt	100
speicherbereinigungsroutine	100
octdec	100
##are	100
bil	100
##festen	100
interpr	100
."'	100
warnenden	100
openasp	100
behandelten	100
swfbit	100
##doc	100
ibase_exec	100
installshield	100
aufgetretene	100
##ader	100
##_signal	100
ibase_fetch_object	100
##_to	100
';?	100
xslt_openlog	100
typec	100
_bar	100
##deutend	100
##ispell	100
nullformat	100
##abdruck	100
##f9	100
##xx	100
##arfs	100
##_ignore_	100
mb_convert_kan	100
fdfrollover	100
##uld	100
ziels	100
##wdb	100
##treiber	100
msql_numrows	100
##filename	100
verantwort	100
teil5	100
aufrufs	100
##eggie	100
fbsql_warning	100
benachrich	100
tagundnacht	100
woa	100
"",	100
gewünschte	100
##lärend	100
(..)	100
##ted_	100
##_vorhanden	100
nochwas	100
minute	100
"].	100
##_result	100
knacken	100
imap_headers	100
##setzt	100
##bsql	100
hoher	100
mysql_use	100
konfigurieren	100
clark	100
enthüllt	100
pg_port	100
##_id	100
error	100
funktionsaufrufs	100
iterativ	100
##sinus	100
unbekannten	100
##_headers	100
unerlaubter	100
objekti	100
werten	100
odbc_lo	100
filepro	100
##_sybase	100
dbx_result_info	100
assoziatives	100
syslogd	100
anderswo	100
s2	100
signature	100
gültigkeitsbereich	100
instabil	100
quellpaket	100
##meldung	100
dicke	100
dateinamensprüfung	100
##dies	100
ãœberblick	100
annäherungen	100
##oot	100
##lets	100
xslt_run	100
allow	100
usr1	100
12	100
irgendeiner	100
knack	100
line_buffer	100
durchgang	100
reihenfolge	100
swf_openfile	100
##ave_path	100
cpdf_set_current_page	100
pararmeter	100
name_vorher	100
##tel	100
zurückgesch	100
0x42	100
besonderen	100
wörterbuch	100
##able_tags	100
konfigurationsdatei	100
ausgewerte	100
cachemodus	100
##elements	100
mehr	100
##ype	100
##ní	100
sicherheitszer	100
gtm	100
außer	100
indiziertes	100
anbieten	100
dio_close	100
mysql_password	100
quadrant	100
##ket	100
latt_	100
buche	100
iscritical	100
chapter	100
##_x	100
ifx	100
imap_msgno	100
workfactor	100
cp_thread	100
##lässt	100
create_text_node	100
semik	100
aufwärts	100
returned	100
stabiler	100
"@'	100
auto_increment	100
['	100
##_section	100
fbsql_create	100
dezimale	100
##prefetch	100
##sh	100
instalation	100
ldap_opt_c	100
wooooooo	100
gewährt	100
ldaprdn	100
endwinkel	100
entw	100
verwandte	100
dür	100
sesam_t	100
uas	100
instalationsanleitung	100
inkonsistent	100
##qu	100
respectively	100
holenden	100
##inter	100
st_dev	100
hintergrundbild	100
zeichensätze	100
libpng	100
##omprimierte	100
messende	100
##stellten	100
auft	100
zuver	100
"...	100
alphabeti	100
ldap_next_attribute	100
##update	100
fi2	100
nicht_existierende_datenbank	100
vorzeichenlos	100
funktionsreferenz	100
##sabwick	100
077	100
##ntrl	100
prac	100
appear	100
ftp_n	100
comple	100
veschlüsselte	100
getpgrp	100
##oconf	100
ausprobiert	100
artikelnummer	100
referenzoperator	100
verwirrt	100
mitprotokolliert	100
unterzeichnet	100
##licating	100
mustermannh	100
fehlender	100
hinterlässt	100
ceil	100
versiegelung	100
shtml	100
##hting	100
##03	100
imap_get_quota	100
gibpunkt	100
einerseits	100
begrenzungszeichen	100
mm	100
"*");	100
##peratoren	100
meistbenutzten	100
ausstattung	100
entwicklerversion	100
##nete	100
[".$	100
##eine	100
stücke	100
gc_maxlifetime	100
##ließend	100
zweimal	100
spiel	100
einheitliche	100
##ressed	100
gebräuchliche	100
##ir	100
48	100
colattr	100
objektvariablen	100
##nf	100
empfangenden	100
##igem	100
besitzen	100
kä	100
spooge	100
prozesses	100
kei	100
('/	100
entry	100
##klasse	100
##lb	100
keine	100
40	100
);}?	100
linienbreite	100
mysql_connect	100
']))	100
stärken	100
mitwirken	100
utilities	100
kalk	100
performanter	100
operanden	100
bibliothekendatei	100
directory	100
source	100
gehei	100
koreanisch	100
erlernen	100
seitenaufruf	100
configur	100
##nispuffer	100
sqlsetstntoption	100
##ol	100
sy	100
pg_end_copy	100
msql_fieldname	100
hauptwe	100
833333333333	100
##0	100
##ennung	100
##100	100
textausgabe	100
##ktiver	100
##_all	100
##_inc	100
##field_name	100
##esich	100
sin	100
einbindung	100
[,	100
modifying	100
veranlasses	100
wro	100
dre	100
vornehmen	100
entgegengesetzte	100
imagecolorclosest	100
bir	100
gegebenes	100
##rupp	100
fileinode	100
##rv	100
völlig	100
##wertung	100
##mler	100
bezug	100
ausgenommen	100
##var	100
problemen	100
##_stroke	100
nachstehen	100
createref	100
verbessert	100
("%	100
domnode_ap	100
typetext	100
datenbankadmin	100
andererseits	100
##ör	100
mysql_thread_id	100
abarbeiten	100
mssql_field_name	100
##jj	100
usleep	100
optionale	100
##fasst	100
euc_cn	100
benutzerauthentifizierung	100
##eils	100
erleich	100
##erv	100
##mann	100
get_b	100
halcyon	100
ini_array	100
holds	100
oci_b_rowid	100
jewei	100
ping	100
wörterbuches	100
uni	100
##quelle	100
utf	100
ausgaben	100
##alisiert	100
msg	100
acro	100
##fenster	100
##uncement	100
1806	100
##2k	100
pdm	100
pg_result_status	100
beend	100
einsatzfall	100
highlighter	100
##_fbsql	100
##babil	100
ange	100
##owframe	100
it	100
vorbehalten	100
occurs	100
').	100
##west	100
blind	100
##ungsroutine	100
quad	100
good_login	100
einbeziehen	100
euc_	100
popen	100
dbase_record	100
ora_fetchinto_nulls_bar_ora_fetchinto_assoc	100
##_fontheight	100
##alte	100
.";?	100
paßwörter	100
zurückgel	100
kon	100
datentypen	100
ländercode	100
'{	100
##digend	100
udm_field_order	100
employ	100
##collection	100
ergebnisliste	100
."	100
anything	100
ausgelesen	100
wddx_packet	100
umgebungsvariablen	100
##it_timeout	100
##_buffer	100
fieldvalue	100
ircg_pconnect	100
these	100
schule	100
hinteren	100
vt_cy	100
mustermann	100
sesam_errormsg	100
kost	100
gzopen	100
("+").	100
possible	100
benutze	100
##tard	100
##liessen	100
eingelesenen	100
##here	100
sem	100
##code	100
angewendet	100
indices	100
siehe	100
##programm	100
,';	100
verbreiteter	100
##_field_info	100
honest	100
oracle_sid	100
iconv_set_	100
fav	100
array_key_exists	100
followed	100
func	100
##ieso	100
exotische	100
spart	100
##cessing	100
##eß	100
exmaple	100
##_monet	100
verfalls	100
arithmeti	100
dur	100
s	100
mysql_db	100
##hfach	100
bzstr	100
komprimierungsmethode	100
pdf_add_	100
##12	100
datensatzzeiger	100
cde	100
aufzubessern	100
dekremente	100
auszugebende	100
roman	100
entpack	100
formularen	100
##412	100
##atform	100
tri	100
von	100
kompliziert	100
##pend_file	100
##_busy	100
optionen	100
dient	100
'+	100
eigenschafts	100
bü	100
aufbauen	100
relativ	100
sesam_	100
clientseitigen	100
##_fetch_result	100
grund	100
##usy	100
##oweit	100
benutzerhandbuch	100
vendor	100
tru	100
selbst	100
ora	100
:"	100
udm_param_search	100
bob	100
anhängt	100
euc_kr	100
quellcode	100
cod	100
##sweise	100
ccvsd	100
mcal_event_fetch_current_stream_event	100
umzuwand	100
wesentlichen	100
##_encoding	100
##re_com	100
aussehen	100
trees	100
##do	100
funktionsdefinition	100
mysql_tablename	100
phoneno	100
bald	100
men	100
userfile_name	100
einger	100
##iele	100
bei	100
##henti	100
##dre	100
##dns	100
ifx_textasvarchar	100
##1805599	100
vereinigungs	100
einzubet	100
codestücks	100
##iexecute	100
payflow	100
##rollback	100
##veto	100
ocicol	100
post_max_	100
==	100
exe	100
]	100
##schlagen	100
mitprot	100
##ací	100
zielformular	100
nveggie	100
statistische	100
kleing	100
##ession	100
##swerte	100
filiale	100
bs2000	100
##von	100
textes	100
##reeresult	100
kompiliere	100
aktuellem	100
schwerwiegen	100
pionierarbeit	100
mssql_field_seek	100
gegenstücke	100
decl	100
extract	100
##halte	100
entscheidend	100
printer_close	100
filedelete	100
max_	100
##95	100
##to_file	100
nebene	100
datenabank	100
gestarteten	100
mssql_	100
http_response	100
##elang	100
baum	100
##schrei	100
anzugeben	100
pspell_new_personal	100
weiße	100
ociload	100
einstellungsparameter	100
##aur	100
parse_str	100
kreis	100
##sebene	100
'@');	100
##[@	100
schreibt	100
authenti	100
test_aggregation	100
site	100
gesteuert	100
erfolgreichen	100
##pend	100
libpthread	100
parameters_array	100
speichersegmenten	100
appli	100
##ess	100
zuzulassen	100
überzähl	100
00100	100
has	100
kau	100
praxis	100
##6	100
assoziative	100
##sehbar	100
##getelem	100
longreadlen	100
origin	100
hom	100
##ließen	100
0	100
##konst	100
wun	100
##schiebung	100
modulunterstützung	100
dep	100
serverinformation	100
überschriebenen	100
bestandteil	100
stripslashes	100
selbsterklärend	100
besteht	100
##vance	100
##check	100
##uth	100
jedesmal	100
zufälligen	100
invol	100
ocicollmax	100
timeout	100
app	100
leerstellen	100
bevorzugte	100
heraus	100
informixserver	100
cpdf_stroke	100
rx	100
längen	100
fähigen	100
##scape	100
##rü	100
'"';	100
proz	100
oci_return_lobs	100
seitenaufrufe	100
by	100
pdf_set	100
fehlerbe	100
imap_deletemailbox	100
eí	100
colspan	100
usecatupd	100
kleinste	100
##agen	100
rgba	100
');	100
mathematischen	100
##length	100
bas	100
bub	100
benützt	100
zurückgesetzt	100
nachfolger	100
cpdf_closepath	100
assoziierten	100
##zess	100
vorliegt	100
##remo	100
cpdf_global_set_document_limit	100
"");	100
benötigt	100
field_number	100
##griff	100
zwischenspeich	100
##able	100
spricht	100
##spalten	100
seit	100
weite	100
##??	100
50	100
ingres_commit	100
benuterdefinierten	100
##quot	100
##norm	100
msec	100
bedarf	100
fünf	100
zeichens	100
fred	100
zoll	100
ausfüllt	100
wrappern	100
get_required	100
band	100
colin	100
##weise	100
##was_	100
##program	100
##readlen	100
œ	100
ocis	100
primary	100
##onym	100
wiederverwendung	100
op_readonly	100
ext	100
());?	100
{...,	100
initialisiere	100
zzzz	100
datenhandles	100
##ntra	100
objektes	100
##_search	100
abstammung	100
zeichneket	100
manipuliert	100
##ablot	100
mächtigkeit	100
kehrt	100
wagenrücklauf	100
##ffix	100
##ntags	100
dezimaler	100
##eter	100
auszudrucken	100
cpdf_place_inline_image	100
##schie	100
talk	100
st	100
##ak	100
m4	100
verknüpft	100
ern	100
ausführungsanweisung	100
get_defined_constants	100
rangfolge	100
experi	100
codebeispielen	100
##_get_contents	100
udm_param_w	100
masch	100
##bares	100
cursornamen	100
##ns	100
proble	100
##riptor	100
tut	100
ankündigung	100
##raum	100
downloadseite	100
zufallsgener	100
##_foo	100
quellformat	100
texteing	100
wertepaar	100
chmod	100
##arbeit	100
normalzeit	100
affected	100
##konstrukts	100
ibase_time	100
zugriffsbeschränkungen	100
aufzählung	100
##tritt	100
##aren	100
##ces	100
__	100
bisherige	100
fbsql_start_	100
sicherheitspro	100
sites	100
konvertierungsprogramm	100
##servers	100
programmlauf	100
mangel	100
ginger	100
pdf_end_page	100
beides	100
g	100
brombe	100
gefahr	100
("(\.	100
dezimalziffer	100
hughes	100
konfigurierten	100
systemdateien	100
##nzlich	100
frei	100
##eigenschaften	100
simplen	100
schwarzen	100
##skennung	100
##okumen	100
advanced	100
##oziationen	100
##irm	100
zuweisungen	100
variableninhalt	100
yp	100
##_op	100
safe	100
zeilenabstand	100
beinhaltete	100
joghurt	100
[...]
