##ortion	100
yong	100
##ited	100
pagan	100
persona	100
presc	100
compositions	100
gue	100
horrible	100
##rities	100
admin	100
prospect	100
personnel	100
##opl	100
##ompr	100
schw	100
journ	100
ἑ	100
organize	100
arbit	100
traps	100
楯	100
##amily	100
ṝ	100
adapted	100
##け	100
標	100
canad	100
dew	100
##oan	100
ellen	100
أ	100
##ũ	100
anter	100
transfer	100
ostensibly	100
disappro	100
இ	100
##eng	100
瀛	100
stra	100
decade	100
##í	100
##歡	100
vern	100
औ	100
##ἰ	100
terra	100
improvement	100
steamed	100
##alth	100
synag	100
iron	100
alma	100
##pur	100
↓	100
bount	100
##fire	100
enzymes	100
gamma	100
intact	100
tribunal	100
discharged	100
adults	100
107	100
presence	100
##云	100
subf	100
竇	100
##补	100
realizing	100
reveals	100
mcgovern	100
##ŋ	100
disadvant	100
discern	100
##iker	100
晋	100
seldom	100
dimin	100
ét	100
##ᾳ	100
clinton	100
stockholm	100
unexp	100
##aiman	100
backstage	100
76	100
acceptance	100
lan	100
##abor	100
##ử	100
cemet	100
fairbanks	100
誌	100
lans	100
nearly	100
guam	100
fey	100
##堆	100
##尊	100
comparative	100
##agre	100
戴	100
疾	100
##icus	100
##残	100
consensus	100
oakley	100
wharf	100
wooded	100
ry	100
kicking	100
gimm	100
nobody	100
##僕	100
highways	100
##策	100
ュ	100
formation	100
氣	100
##mad	100
server	100
28th	100
##翘	100
hv	100
##yl	100
52	100
lionel	100
##stones	100
撃	100
prod	100
##ppo	100
dap	100
masonry	100
gaelic	100
##と	100
1950s	100
ใ	100
##atus	100
##ॊ	100
₣	100
curr	100
巻	100
##orns	100
君	100
ⱱ	100
記	100
pitcher	100
greatly	100
extratropical	100
flav	100
jerusalem	100
##stage	100
##პ	100
ensemb	100
爆	100
improvements	100
異	100
location	100
basil	100
##icit	100
ignored	100
##ened	100
##ō	100
constructed	100
violet	100
execute	100
macedonian	100
##ഹ	100
hitting	100
exhibit	100
laurence	100
companies	100
apt	100
railroad	100
rhin	100
##ct	100
fm	100
##enes	100
ved	100
##amus	100
jeop	100
block	100
##鳥	100
##age	100
##層	100
ੱ	100
##ions	100
alumni	100
jacobs	100
deposition	100
##ไ	100
weighing	100
stun	100
##ᡠ	100
ﬀ	100
雀	100
lessons	100
facts	100
joyce	100
##elong	100
edges	100
##uates	100
##izing	100
##ّ	100
succeeded	100
unprecedented	100
##isk	100
answ	100
parking	100
nept	100
contestants	100
##ju	100
keller	100
ת	100
騷	100
##odrome	100
ि	100
憎	100
chaotic	100
##ann	100
块	100
angular	100
beneath	100
overlapping	100
aging	100
kennedy	100
ustaše	100
sud	100
sellers	100
##ways	100
ฏ	100
怡	100
linc	100
competitions	100
specially	100
consortium	100
arrives	100
dres	100
##%	100
い	100
##arch	100
baker	100
sounding	100
##ading	100
cartoonist	100
unseen	100
##階	100
##图	100
dreadnoughts	100
##ack	100
elections	100
∈	100
有	100
hesit	100
莞	100
glider	100
blend	100
starring	100
heels	100
##ier	100
##apan	100
tenth	100
featured	100
satisf	100
electromagnetic	100
manuscript	100
observe	100
##eno	100
breeds	100
bl	100
costumes	100
belonging	100
february	100
##mind	100
electronic	100
joan	100
##ง	100
cc	100
toll	100
nightmare	100
仇	100
fired	100
##rio	100
cary	100
imaging	100
explosions	100
##示	100
igu	100
transfers	100
##総	100
##ict	100
ס	100
##ɞ	100
nikol	100
##ibility	100
墙	100
strengths	100
##沖	100
sounds	100
short	100
##otta	100
##quest	100
인	100
##ż	100
pressing	100
fly	100
##oka	100
##兔	100
able	100
##elly	100
##薔	100
arlington	100
comedian	100
quartet	100
##វ	100
ṯ	100
##stock	100
overlooked	100
##ury	100
##悫	100
comets	100
sophia	100
##則	100
韶	100
hotels	100
hawai	100
phenomena	100
##ە	100
ensure	100
turkish	100
unex	100
箪	100
sy	100
証	100
雁	100
sketch	100
mccarthy	100
exceptional	100
memory	100
chin	100
##oured	100
best	100
catap	100
消	100
##塞	100
##aston	100
elimination	100
kr	100
700	100
##usal	100
##put	100
commissioners	100
##pass	100
thought	100
marit	100
parall	100
센	100
儡	100
欒	100
exagger	100
發	100
disbanded	100
lady	100
objectives	100
ε	100
upcoming	100
##gestion	100
##gard	100
ambass	100
foraging	100
trem	100
helicopter	100
midship	100
##曲	100
##ំ	100
##億	100
lich	100
ܛ	100
bh	100
armament	100
ny	100
soils	100
spaced	100
strain	100
ర	100
among	100
##ops	100
kal	100
##堤	100
oliv	100
temporary	100
comprom	100
##巖	100
missile	100
##build	100
##mire	100
##თ	100
##壱	100
allan	100
滑	100
##𐏁	100
positions	100
interval	100
asked	100
crosses	100
confessed	100
thrash	100
x	100
peac	100
oxide	100
⥇	100
to	100
5th	100
oliver	100
ǹ	100
mant	100
##璉	100
degener	100
##芬	100
confrontation	100
combination	100
all	100
鈴	100
##ḏ	100
##ỗ	100
車	100
##组	100
##therly	100
incom	100
shortest	100
##叡	100
##戸	100
seeing	100
##对	100
##၈	100
##olith	100
##風	100
rhyth	100
sequences	100
##hampton	100
organized	100
##utation	100
squadrons	100
hered	100
131	100
났	100
appar	100
##ン	100
##ざ	100
qualified	100
motorcy	100
chart	100
giants	100
delivered	100
emer	100
ranged	100
ark	100
階	100
玖	100
##irez	100
##ូ	100
timing	100
##ד	100
##rop	100
immigrants	100
stewie	100
##泾	100
##ents	100
##ៃ	100
##結	100
ǽ	100
##ዛ	100
sho	100
code	100
partners	100
insect	100
mantle	100
##掲	100
wr	100
enth	100
ド	100
外	100
##凱	100
中	100
time	100
##ူ	100
ঢ	100
many	100
traded	100
飞	100
1911	100
abu	100
vom	100
mainstream	100
begg	100
ruins	100
cloth	100
finalists	100
銓	100
##讼	100
rescue	100
##姫	100
inspire	100
thin	100
weight	100
##udi	100
holland	100
ladies	100
용	100
盒	100
penalty	100
ottoman	100
##rite	100
orbital	100
iranian	100
崇	100
another	100
mythological	100
rö	100
箇	100
antonio	100
centres	100
ejected	100
衢	100
socialist	100
damp	100
##ography	100
attained	100
conver	100
conditions	100
애	100
katy	100
隆	100
##lyss	100
面	100
bad	100
squadron	100
ɦ	100
##圏	100
unf	100
details	100
weigh	100
admired	100
dwarfs	100
encountering	100
##彩	100
uruguay	100
accommod	100
formal	100
##倭	100
indust	100
facil	100
characteristic	100
##甜	100
##切	100
advantage	100
exchange	100
dem	100
186	100
##鈴	100
reasonably	100
los	100
front	100
##acements	100
體	100
jeffrey	100
catal	100
##1	100
actual	100
##iend	100
##aus	100
檻	100
##inking	100
op	100
bulb	100
##gh	100
instrumental	100
##ܘ	100
brock	100
༌	100
##വ	100
valley	100
cabinet	100
catalog	100
390	100
州	100
##agues	100
運	100
competition	100
nucle	100
perception	100
patron	100
##arez	100
shall	100
vikings	100
cooled	100
insult	100
micro	100
##roy	100
吉	100
reminded	100
mammal	100
陈	100
clif	100
也	100
ago	100
missou	100
entreprene	100
santiago	100
caf	100
述	100
kilomet	100
elite	100
betrayal	100
influences	100
tile	100
propriet	100
##祀	100
structures	100
sau	100
##ull	100
alloy	100
##ump	100
##into	100
1810	100
set	100
foc	100
scul	100
tiny	100
transverse	100
guest	100
sudden	100
盐	100
184	100
millimetres	100
shar	100
trib	100
磁	100
deck	100
ordering	100
niece	100
##ze	100
850	100
provoked	100
##색	100
phara	100
붉	100
portfol	100
##ƒ	100
ul	100
nhl	100
##els	100
conform	100
##尸	100
##坪	100
##issance	100
##担	100
ascent	100
##come	100
补	100
balk	100
semif	100
outages	100
##ida	100
##宮	100
dynam	100
韩	100
pierre	100
##ů	100
音	100
elm	100
##継	100
##복	100
synopsis	100
philosophers	100
取	100
##浦	100
instrument	100
##iki	100
besieged	100
shore	100
韓	100
universal	100
##ះ	100
ostens	100
1794	100
tel	100
conclude	100
##hawks	100
soil	100
augusta	100
effect	100
poster	100
geology	100
##omin	100
riaa	100
determination	100
repuls	100
biograph	100
ố	100
internationally	100
እ	100
ī	100
##itals	100
laughs	100
轩	100
##empo	100
easter	100
contaminated	100
##ugs	100
##irk	100
compared	100
eastward	100
wilf	100
3d	100
monarchs	100
t	100
梨	100
##ヨ	100
##imate	100
approved	100
fraction	100
##新	100
finger	100
##oland	100
萨	100
ṟ	100
straightforward	100
switch	100
##isph	100
rerouted	100
reside	100
welf	100
##acter	100
ᚨ	100
pin	100
seas	100
##ਵ	100
freeway	100
##ador	100
0	100
inhabited	100
畜	100
nina	100
fraser	100
̰	100
##ifications	100
##vens	100
malays	100
##烏	100
handful	100
lisbon	100
##ⵣ	100
secondary	100
neph	100
tails	100
contention	100
savannah	100
##后	100
ೋ	100
##四	100
mcl	100
tann	100
emerged	100
romanian	100
doesn	100
viet	100
incarnation	100
勇	100
elected	100
##ione	100
tan	100
ط	100
藍	100
⋯	100
##usc	100
sponsor	100
coaster	100
twelve	100
诶	100
rouge	100
rafael	100
176	100
rhino	100
##è	100
events	100
motives	100
mash	100
conflict	100
consist	100
bf	100
badge	100
##越	100
san	100
memorable	100
rapid	100
borne	100
circus	100
predation	100
river	100
78	100
hawk	100
polished	100
bart	100
##ineas	100
##gie	100
discipline	100
曦	100
ble	100
##ب	100
mall	100
grandson	100
登	100
aesthetic	100
synchron	100
hubert	100
##ฆ	100
additions	100
monaster	100
沽	100
counting	100
thermal	100
聰	100
joy	100
##urity	100
teamm	100
department	100
faint	100
##music	100
tuesday	100
##rd	100
sugar	100
angela	100
nh	100
iuc	100
customary	100
倪	100
aw	100
brotherhood	100
投	100
neville	100
##纲	100
wherein	100
principal	100
egg	100
agar	100
squarepants	100
counterp	100
fare	100
##tingham	100
##采	100
bite	100
##ə	100
##鎖	100
duncan	100
stol	100
##iqu	100
treaty	100
##athan	100
##ala	100
collided	100
tribun	100
leaf	100
##ﮭ	100
##osity	100
duel	100
##泥	100
equipment	100
迷	100
綺	100
##tel	100
define	100
∩	100
下	100
suited	100
endurance	100
銘	100
holt	100
walking	100
outdoor	100
albeit	100
advantages	100
列	100
##ula	100
##rial	100
taiwan	100
cancellation	100
忘	100
##erto	100
sawyer	100
ો	100
##afts	100
##ever	100
##洞	100
frogs	100
##ul	100
##oral	100
addressed	100
outline	100
corrid	100
impact	100
orientation	100
何	100
浮	100
##ubl	100
ecl	100
amusement	100
musc	100
colorado	100
grape	100
unite	100
cricketer	100
consumption	100
smyth	100
panc	100
manga	100
##ating	100
downgraded	100
tributaries	100
簡	100
graduation	100
conferences	100
##end	100
厘	100
短	100
sl	100
##ult	100
ἃ	100
recounted	100
原	100
strategies	100
##fa	100
sister	100
poetic	100
specialised	100
##hr	100
helen	100
producing	100
hassett	100
demograph	100
celebration	100
focuses	100
47	100
gothic	100
trunc	100
##兵	100
才	100
³	100
提	100
gil	100
##thard	100
##拏	100
##grad	100
僕	100
##ɲ	100
##ឫ	100
impr	100
##ported	100
##yah	100
clarified	100
##eter	100
ც	100
##ars	100
eb	100
##form	100
##發	100
办	100
1800	100
barack	100
遗	100
sanchez	100
theological	100
##棟	100
dirt	100
myster	100
antiquity	100
ৰ	100
origin	100
improve	100
##丘	100
gund	100
東	100
exclus	100
drummer	100
connor	100
1776	100
##stown	100
arrow	100
textile	100
he	100
solitary	100
##asaki	100
##utt	100
flowering	100
##ვ	100
##日	100
cincinnati	100
##ᚨ	100
anniversary	100
ã	100
驰	100
yes	100
lithium	100
motifs	100
verde	100
ign	100
terminus	100
decrease	100
##rae	100
vapor	100
##oking	100
##ɯ	100
艶	100
##atra	100
陪	100
kanye	100
geographic	100
##electric	100
secession	100
shifting	100
pharaoh	100
negot	100
##军	100
##ẩ	100
clay	100
扈	100
财	100
ὕ	100
cyt	100
##illa	100
whedon	100
##º	100
琪	100
ministers	100
stuart	100
應	100
const	100
##ella	100
salary	100
wain	100
##槐	100
尧	100
##质	100
##line	100
##fman	100
honor	100
levi	100
le	100
##ected	100
seattle	100
##tered	100
师	100
meredith	100
calhoun	100
tells	100
á	100
獻	100
##shi	100
mating	100
1979	100
torped	100
##弱	100
##ctions	100
original	100
pitch	100
siblings	100
雲	100
ﻔ	100
##omac	100
丘	100
bombardment	100
big	100
内	100
port	100
##ush	100
tyres	100
relegation	100
##finger	100
1827	100
incarn	100
song	100
chino	100
ܲ	100
gamer	100
菲	100
##詔	100
bord	100
mic	100
maneuver	100
##cliffe	100
##ests	100
dominate	100
enjoyable	100
砲	100
ɬ	100
skies	100
navigate	100
##독	100
歳	100
##ḹ	100
##ứ	100
##eted	100
defences	100
roose	100
jake	100
stim	100
onward	100
##idium	100
thor	100
##nd	100
彬	100
##osed	100
昇	100
##ither	100
unconstitutional	100
##ically	100
乃	100
话	100
clone	100
##aki	100
##..	100
##urt	100
operations	100
##戦	100
亡	100
seg	100
stafford	100
helm	100
##amped	100
triang	100
england	100
tone	100
永	100
##စ	100
harald	100
##lements	100
找	100
alternatives	100
conflicting	100
##urn	100
##yard	100
pyth	100
tank	100
ô	100
juno	100
o	100
mckin	100
☾	100
##olution	100
wagner	100
##兩	100
acquisition	100
線	100
##算	100
1851	100
ṫ	100
highway	100
と	100
1850	100
counted	100
crocod	100
ç	100
##ȳ	100
purchasing	100
≠	100
dictators	100
##合	100
methodist	100
##幣	100
來	100
份	100
frust	100
화	100
cry	100
##茸	100
feel	100
peace	100
##riptions	100
የ	100
tul	100
##钊	100
leaving	100
necess	100
##ܚ	100
marketed	100
1811	100
seal	100
uncomfort	100
vas	100
##黨	100
##ods	100
founder	100
男	100
condu	100
綠	100
forget	100
director	100
##rid	100
祐	100
northern	100
heroin	100
monaco	100
word	100
rocks	100
順	100
college	100
##荻	100
梶	100
zach	100
forcing	100
fits	100
breakthrough	100
##uct	100
organ	100
scheduled	100
slowly	100
ken	100
take	100
ه	100
##mate	100
##und	100
##ⅱ	100
##rell	100
dancers	100
cele	100
unrelated	100
organisation	100
geometric	100
##ells	100
##ław	100
##へ	100
challeng	100
##chy	100
##籃	100
##itory	100
steady	100
sympathy	100
homicide	100
##収	100
##enzie	100
stage	100
quad	100
reflections	100
##閏	100
##armed	100
##季	100
##ਂ	100
##ez	100
##道	100
compreh	100
##mann	100
樗	100
horizontal	100
1831	100
cher	100
pastoral	100
##博	100
african	100
repeal	100
##ɜ	100
general	100
prest	100
寬	100
##isbury	100
monastic	100
##.	100
timeslot	100
灼	100
butter	100
##鰐	100
tunnels	100
insurgents	100
eliot	100
節	100
quite	100
ancestral	100
load	100
sk	100
mim	100
canadiens	100
型	100
##known	100
ְ	100
鄧	100
refer	100
unlock	100
royale	100
##itive	100
extend	100
##uve	100
at	100
明	100
ё	100
hud	100
supplies	100
waterline	100
##里	100
##更	100
proport	100
including	100
##ooth	100
designer	100
substit	100
armstrong	100
standards	100
##街	100
bish	100
hero	100
cbs	100
braz	100
ȼ	100
##ẖ	100
captive	100
ˁ	100
##earing	100
monitors	100
semi	100
eugene	100
justice	100
rush	100
##ola	100
1818	100
mush	100
coloured	100
ɓ	100
finals	100
obl	100
##here	100
##wer	100
bermuda	100
guarantee	100
demise	100
paulo	100
affair	100
破	100
ከ	100
颱	100
origins	100
##horst	100
-	100
##ert	100
gotten	100
built	100
##三	100
##ation	100
gaz	100
factories	100
alum	100
tunnel	100
periph	100
tic	100
##bons	100
mam	100
##漠	100
pine	100
reminiscent	100
quest	100
##ulsion	100
burns	100
petty	100
₡	100
##agus	100
##antine	100
1836	100
vaugh	100
elementary	100
1795	100
conferred	100
##ictions	100
membrane	100
hum	100
perry	100
##執	100
olivia	100
eroded	100
legislators	100
族	100
platform	100
##sea	100
mills	100
kum	100
inher	100
##也	100
辉	100
##hi	100
望	100
leased	100
##work	100
ằ	100
##lake	100
justified	100
java	100
dropped	100
⇪	100
dra	100
parach	100
piv	100
accessed	100
##藩	100
challenging	100
##shot	100
dialog	100
##ά	100
landlord	100
chinese	100
wills	100
亨	100
##光	100
jury	100
aires	100
##ⵓ	100
negotiating	100
##esth	100
荼	100
underm	100
fan	100
##pt	100
##atops	100
resolution	100
brighton	100
classified	100
括	100
nurs	100
venezuela	100
transmission	100
deputies	100
printed	100
separ	100
##ressed	100
pony	100
phoen	100
##oi	100
##副	100
靂	100
遼	100
artefact	100
whitman	100
##२	100
anc	100
##q	100
21	100
seat	100
sued	100
designing	100
proportions	100
県	100
swift	100
likewise	100
nineteenth	100
submit	100
##ages	100
熟	100
territorial	100
##rifying	100
neil	100
##ilities	100
judgement	100
ank	100
corresponds	100
##岳	100
##ogram	100
nirvana	100
敢	100
##泊	100
enix	100
moh	100
coden	100
##庭	100
exploitation	100
destroy	100
nintend	100
eclipse	100
義	100
ῠ	100
##坂	100
assess	100
unin	100
1858	100
position	100
penetrated	100
accompaniment	100
##le	100
##禁	100
lur	100
lyn	100
nassau	100
embassy	100
##tern	100
ș	100
explicit	100
ally	100
arn	100
##ｰ	100
##used	100
##haw	100
tob	100
bush	100
anxiety	100
dan	100
##詩	100
ᚻ	100
##作	100
warri	100
kurt	100
polls	100
ུ	100
##istics	100
yoko	100
##敬	100
density	100
assistants	100
##ces	100
ivan	100
aj	100
whales	100
remarked	100
tissues	100
澪	100
launching	100
##bie	100
tap	100
mull	100
creed	100
##gary	100
thick	100
##غ	100
airways	100
##bard	100
picks	100
ֹ	100
gary	100
foli	100
##phal	100
carr	100
û	100
##ploy	100
##tic	100
contact	100
flattened	100
tucker	100
weird	100
tsun	100
脚	100
##ael	100
opus	100
##邦	100
##il	100
ma	100
resh	100
##权	100
you	100
##gi	100
ぉ	100
knocked	100
採	100
pert	100
salaries	100
##禄	100
mess	100
##xes	100
##ester	100
##ٍ	100
生	100
##ื	100
ａ	100
four	100
顯	100
ਹ	100
##ident	100
provision	100
़	100
suggestions	100
wilson	100
##rence	100
##osem	100
钊	100
heat	100
peloton	100
##ves	100
likely	100
wise	100
##察	100
节	100
肥	100
ў	100
##খ	100
bridge	100
talks	100
mond	100
pornography	100
充	100
hands	100
衙	100
yankovic	100
##umar	100
dimensional	100
refres	100
interstate	100
##ಬ	100
盼	100
kitty	100
belfast	100
杂	100
wer	100
##電	100
##estern	100
##巂	100
excavated	100
catch	100
٧	100
##ɔ	100
##andon	100
meets	100
##marine	100
subgen	100
1806	100
dens	100
##asi	100
scarlet	100
then	100
les	100
forthcoming	100
images	100
against	100
jessica	100
rap	100
identifies	100
##铜	100
native	100
electronics	100
they	100
dictionary	100
##泡	100
##ʕ	100
121	100
##稽	100
##წ	100
band	100
隱	100
malcolm	100
formats	100
judici	100
##rad	100
##met	100
##anc	100
##ographer	100
haw	100
well	100
political	100
ste	100
volcano	100
utility	100
paced	100
lights	100
pauline	100
louis	100
skinner	100
##ڠ	100
##荪	100
howard	100
permanently	100
##丁	100
propeller	100
hay	100
##ụ	100
options	100
person	100
jones	100
##ftime	100
cardinals	100
athletes	100
immortal	100
census	100
洛	100
##keep	100
archaeology	100
orbit	100
slot	100
##耕	100
baj	100
determined	100
unc	100
oversh	100
flourished	100
##裟	100
##real	100
##entric	100
gaga	100
pledged	100
over	100
reflecting	100
炷	100
craft	100
##enses	100
activation	100
stirling	100
##オ	100
翱	100
##ahu	100
encirc	100
expanded	100
mail	100
##ess	100
87	100
##兜	100
##ế	100
reggae	100
##李	100
荫	100
ﮮ	100
##itz	100
##una	100
impl	100
gloucestershire	100
،	100
##emy	100
aircraft	100
declaration	100
##ensively	100
offense	100
ׂ	100
##ྣ	100
श	100
conservation	100
ץ	100
ज	100
lennon	100
録	100
binary	100
naturalist	100
##勘	100
bounty	100
淑	100
##転	100
reformed	100
occasionally	100
##ples	100
sulfur	100
defendants	100
103	100
glen	100
environments	100
ladder	100
shifted	100
∞	100
downstream	100
chir	100
1903	100
jor	100
impair	100
correspond	100
栽	100
##ati	100
worsh	100
##刘	100
malaysian	100
皙	100
fears	100
society	100
马	100
killing	100
madrid	100
֫	100
patrolling	100
##丑	100
##lad	100
crit	100
ᐊ	100
sarajevo	100
##標	100
##ind	100
relocation	100
richards	100
招	100
lauren	100
∘	100
##ប	100
timeline	100
nebraska	100
什	100
##ី	100
じ	100
nothing	100
##島	100
ways	100
##bur	100
lower	100
gra	100
80s	100
##riet	100
##郛	100
hamp	100
personality	100
carn	100
buy	100
待	100
capital	100
oly	100
110	100
ň	100
堂	100
gore	100
☫	100
passion	100
##usters	100
santos	100
reich	100
minne	100
##극	100
##淇	100
parts	100
ኖ	100
##妻	100
annually	100
cp	100
freder	100
impressions	100
overall	100
niss	100
##well	100
ἕ	100
social	100
mao	100
arrests	100
sal	100
##圻	100
##ubs	100
folklore	100
##ika	100
properties	100
kell	100
##ueger	100
miy	100
s	100
##ថ	100
mys	100
过	100
##ீ	100
criminals	100
##ף	100
exeter	100
getting	100
satisfy	100
overl	100
rifle	100
650	100
buck	100
redevelop	100
bik	100
happens	100
画	100
employed	100
背	100
abbot	100
lineage	100
##lew	100
significantly	100
遙	100
##erc	100
headed	100
track	100
noticed	100
awful	100
##bul	100
victory	100
田	100
##ans	100
psychology	100
##ride	100
cargo	100
ש	100
##ู	100
maximum	100
jordan	100
dreams	100
fortifications	100
plateau	100
cinemas	100
##iano	100
sacrifice	100
ச	100
prevention	100
remembered	100
survives	100
达	100
ensured	100
updated	100
᷅	100
split	100
tay	100
unt	100
##ヶ	100
subscription	100
ಡ	100
習	100
##ト	100
regarded	100
tosh	100
贼	100
regina	100
firearms	100
##ounded	100
fixtures	100
stab	100
division	100
˘	100
##anne	100
benj	100
1799	100
##攝	100
ื	100
monkeys	100
当	100
##ansas	100
winnip	100
guang	100
ranger	100
condemn	100
北	100
cosm	100
頌	100
shopping	100
##ification	100
圍	100
快	100
affili	100
spont	100
screw	100
tremendous	100
##cw	100
##誓	100
scott	100
wickets	100
copper	100
##ದ	100
parv	100
##zed	100
##狂	100
ʢ	100
means	100
鯵	100
calcutta	100
改	100
咖	100
sheep	100
##ं	100
carmen	100
威	100
##荒	100
prehist	100
northerly	100
again	100
##aceans	100
慎	100
favorite	100
manila	100
##早	100
##们	100
礮	100
cheshire	100
nigeria	100
viz	100
##jav	100
@.@	100
add	100
recommended	100
draw	100
##날	100
##itian	100
db	100
1925	100
parliament	100
##onica	100
gard	100
渥	100
teller	100
inadvertently	100
##מ	100
百	100
##展	100
otherwise	100
ォ	100
佑	100
surface	100
twentieth	100
##ect	100
𒀳	100
##aking	100
objects	100
˚	100
ᛟ	100
inclined	100
finn	100
##ರ	100
hubbard	100
mcclellan	100
treason	100
repres	100
pyg	100
stroke	100
researched	100
##aze	100
decreases	100
##enue	100
brack	100
sectors	100
ქ	100
lineback	100
archive	100
1841	100
arcs	100
burst	100
agreement	100
	100
subdivision	100
unused	100
##nia	100
1876	100
kosovo	100
hein	100
##寿	100
pope	100
northeastward	100
mirror	100
proof	100
##复	100
cat	100
programming	100
strongh	100
stevenson	100
medications	100
comply	100
ܣ	100
##ฮ	100
plat	100
singh	100
隠	100
invited	100
##迄	100
##鞋	100
amal	100
##进	100
reveal	100
martin	100
##inus	100
26th	100
resemblance	100
左	100
##吾	100
豬	100
##ction	100
mig	100
##ʉ	100
affect	100
##kar	100
grouped	100
rama	100
ई	100
produc	100
revital	100
hatch	100
enterprise	100
##ern	100
leicester	100
##aa	100
sloven	100
##ɪ	100
endangered	100
p	100
岩	100
occasional	100
watch	100
boarding	100
forfe	100
##呂	100
##駆	100
upper	100
crossing	100
##津	100
cycle	100
contempt	100
##ش	100
louisville	100
routine	100
##ὰ	100
##thers	100
政	100
sem	100
##ἴ	100
praise	100
##σ	100
##wy	100
toxicity	100
preh	100
twelfth	100
##ධ	100
##under	100
blair	100
crisis	100
doses	100
##ams	100
##ɢ	100
й	100
##せ	100
關	100
cod	100
earnings	100
shotgun	100
therefore	100
animated	100
officers	100
lighthouse	100
minh	100
evident	100
##nor	100
##超	100
##isers	100
rous	100
designed	100
differences	100
argues	100
앙	100
deep	100
sides	100
stationed	100
restored	100
ත	100
ư	100
思	100
苺	100
roller	100
disease	100
八	100
##ch	100
ast	100
##გ	100
ű	100
##inz	100
stated	100
equivalent	100
arbitr	100
气	100
locations	100
utterly	100
ə	100
##硕	100
legislation	100
citadel	100
moose	100
̊	100
exercise	100
tombs	100
##ches	100
suc	100
weapon	100
commerce	100
萧	100
electron	100
incap	100
files	100
680	100
ฐ	100
##function	100
nhc	100
gop	100
partner	100
##uesday	100
##unte	100
medal	100
prejudice	100
fort	100
##lio	100
libretto	100
憑	100
costume	100
謙	100
resort	100
##心	100
submerged	100
slipped	100
##inter	100
##殺	100
ー	100
##実	100
clos	100
##hol	100
reconstruction	100
##él	100
king	100
##icans	100
hij	100
##ק	100
requiring	100
1948	100
komb	100
tal	100
virt	100
contributions	100
##珠	100
淇	100
underwent	100
##ampton	100
##さ	100
hund	100
##ಟ	100
homeless	100
dolphins	100
chicken	100
##陽	100
##erty	100
##ɮ	100
##eting	100
恼	100
fuj	100
ֻ	100
₨	100
##lemania	100
夜	100
##orum	100
ฟ	100
investments	100
jing	100
il	100
##wind	100
honours	100
‌	100
##ricts	100
carry	100
armen	100
##々	100
##渦	100
consoles	100
lar	100
÷	100
淘	100
carried	100
bergen	100
ross	100
目	100
rural	100
loves	100
##raph	100
##炎	100
##ந	100
ideal	100
deluxe	100
medina	100
clem	100
拾	100
廬	100
##臨	100
title	100
remaining	100
ź	100
##ุ	100
嚣	100
vocal	100
eligible	100
##鐵	100
輝	100
publications	100
vicinity	100
spell	100
1942	100
present	100
##annon	100
##締	100
##ist	100
##using	100
popmat	100
cumberland	100
##冬	100
seasons	100
airports	100
flaws	100
varsity	100
constantinople	100
##ont	100
##ｒ	100
喋	100
##forward	100
smallest	100
kau	100
##erse	100
20th	100
##aged	100
qualify	100
##ph	100
committees	100
cindy	100
祥	100
變	100
porn	100
sut	100
##ṯ	100
##œ	100
rodrig	100
communicate	100
circum	100
titus	100
cottage	100
gardner	100
##achy	100
kelley	100
plaint	100
lois	100
居	100
##5	100
oxygen	100
conventional	100
雉	100
concept	100
##thod	100
富	100
patrols	100
newly	100
hil	100
##亮	100
##apse	100
##ಾ	100
1960	100
ventilation	100
##rete	100
札	100
gentleman	100
™	100
gob	100
gian	100
alt	100
gosp	100
stew	100
dion	100
retaining	100
documentation	100
##ខ	100
ᠸ	100
carefully	100
##iture	100
sequel	100
courty	100
rounded	100
sperm	100
##匠	100
##ians	100
ϝ	100
vill	100
fiscal	100
marty	100
虎	100
marshall	100
椅	100
tea	100
promoting	100
sob	100
##eth	100
##itt	100
kits	100
accelerated	100
chronicle	100
##apor	100
importance	100
##acco	100
daw	100
##ǐ	100
##icts	100
1972	100
142	100
mar	100
1933	100
estimate	100
inadequate	100
hutchinson	100
booked	100
prevents	100
芭	100
##碗	100
arabian	100
belonged	100
##周	100
1924	100
##ᓘ	100
##ple	100
bulgarian	100
producer	100
voy	100
##课	100
positioning	100
slender	100
##歲	100
ト	100
pat	100
nigel	100
##ection	100
##rous	100
##ido	100
##adel	100
⑦	100
mv	100
phr	100
潤	100
professional	100
collaborations	100
astronomical	100
topic	100
##psons	100
countered	100
shell	100
abrams	100
graves	100
dard	100
painting	100
prohib	100
attractive	100
##喝	100
emissions	100
contractor	100
expans	100
motiv	100
chesapeake	100
##户	100
chocolate	100
##uated	100
digest	100
ျ	100
##ḗ	100
ivy	100
branded	100
snowfall	100
##관	100
##aire	100
せ	100
ans	100
parasites	100
legal	100
cath	100
michele	100
kissing	100
##pre	100
arcade	100
##akers	100
##aren	100
inst	100
##拘	100
##gé	100
##aga	100
developments	100
interc	100
##abis	100
##ture	100
brun	100
thief	100
1944	100
garfield	100
resource	100
姫	100
##午	100
inspection	100
wah	100
1927	100
decommissioned	100
lebanon	100
蘑	100
tudor	100
divor	100
oldest	100
establish	100
viewer	100
欠	100
reserves	100
##uled	100
intersp	100
liquid	100
##integr	100
##究	100
##cip	100
##leep	100
##ᡳ	100
presenting	100
##談	100
##ከ	100
pleasure	100
routes	100
barns	100
##ǭ	100
##gregor	100
懷	100
##立	100
##rent	100
##ify	100
##豊	100
##phones	100
##otte	100
sculptures	100
mark	100
ranging	100
keeps	100
share	100
existence	100
##ussion	100
steve	100
explan	100
은	100
##ያ	100
呪	100
##auc	100
baseman	100
mersey	100
##bridge	100
爪	100
箋	100
muk	100
ﻉ	100
##to	100
doctor	100
fru	100
statistics	100
##ိ	100
##ovo	100
pp	100
table	100
##ऽ	100
complications	100
僑	100
##wick	100
##ouver	100
forem	100
ಬ	100
concession	100
warnings	100
purchased	100
##lement	100
antarctic	100
##雎	100
syll	100
outsk	100
agents	100
zoo	100
##羊	100
か	100
##umbling	100
teams	100
##మ	100
airing	100
##vas	100
republic	100
surroundings	100
##children	100
上	100
##翻	100
battle	100
orn	100
nest	100
spheres	100
ベ	100
1807	100
announcement	100
percent	100
detected	100
kerr	100
legitimate	100
##ર	100
honorary	100
opener	100
suite	100
퇴	100
noct	100
participating	100
##镗	100
perl	100
august	100
metacritic	100
gb	100
developer	100
م	100
##坤	100
appreciated	100
##鬥	100
##ὑ	100
executives	100
inconsistent	100
##uge	100
leth	100
⟧	100
##县	100
sick	100
##appy	100
foreigners	100
ḹ	100
ユ	100
inauguration	100
italian	100
ὴ	100
挥	100
synonym	100
hong	100
##rif	100
̃	100
劍	100
orion	100
analys	100
vast	100
연	100
switched	100
##avier	100
boat	100
nob	100
录	100
peers	100
##holders	100
spider	100
sacrament	100
decades	100
lg	100
meas	100
derives	100
compartments	100
brows	100
##铺	100
gunnery	100
making	100
drum	100
om	100
fountain	100
eruptions	100
appointed	100
rebuilding	100
##notes	100
##技	100
specific	100
##梓	100
garland	100
糸	100
tom	100
##史	100
##ಸ	100
kath	100
##walk	100
mined	100
##00	100
×	100
##bra	100
premium	100
₁	100
dimension	100
##虔	100
##oir	100
pilots	100
##ussy	100
ultr	100
electricity	100
ょ	100
referee	100
臣	100
##fia	100
shah	100
motivation	100
murderer	100
moses	100
titan	100
݂	100
##汗	100
##欽	100
crippled	100
ᛋ	100
賀	100
regency	100
neutron	100
##ព	100
##icho	100
##awak	100
veterans	100
denis	100
##omot	100
accomplishments	100
footh	100
##acc	100
mortality	100
##ဝ	100
89	100
鳴	100
dhar	100
alaska	100
##ⴳ	100
##ʽ	100
逯	100
統	100
determin	100
颗	100
factory	100
##螺	100
absolutely	100
concentrate	100
##inois	100
exports	100
vaccine	100
streaming	100
touch	100
ム	100
##だ	100
devils	100
##math	100
glou	100
胠	100
directing	100
ᶴ	100
depot	100
features	100
eve	100
earnest	100
##驗	100
matching	100
荥	100
wessex	100
鷺	100
calculated	100
##press	100
sack	100
landslide	100
excellence	100
security	100
contingent	100
answers	100
mirrors	100
##그	100
##ã	100
##aily	100
##ive	100
##ranged	100
convergence	100
##erness	100
##ere	100
ᴷ	100
##시	100
##ẫ	100
prominent	100
##comb	100
melody	100
collaboration	100
rhythm	100
##wning	100
呼	100
櫻	100
clouds	100
maggie	100
blizz	100
lak	100
##ules	100
number	100
wolf	100
05	100
ruff	100
compensate	100
jacqu	100
##ens	100
einstein	100
build	100
quiet	100
welfare	100
娘	100
渦	100
##堅	100
divers	100
danish	100
reb	100
stops	100
##market	100
guinea	100
exploited	100
##gener	100
营	100
来	100
합	100
monmouth	100
##熙	100
pittsburgh	100
ʇ	100
琦	100
dressing	100
astronom	100
deliberately	100
帖	100
shi	100
##艶	100
atm	100
memphis	100
且	100
borrow	100
##mph	100
spars	100
##éd	100
porto	100
票	100
jut	100
##bal	100
抵	100
伝	100
bolsh	100
開	100
##illusion	100
##ela	100
smith	100
makes	100
virgil	100
sussex	100
##elius	100
allegian	100
inflict	100
❆	100
##ibus	100
ernst	100
coc	100
muc	100
address	100
playoff	100
##थ	100
assaulted	100
hens	100
⩽	100
painted	100
memb	100
##籠	100
initially	100
1783	100
realigned	100
##侍	100
reviewer	100
poison	100
##itable	100
##isted	100
##內	100
##esha	100
superintend	100
bever	100
##ce	100
rebu	100
##vi	100
cop	100
eleanor	100
polo	100
##uble	100
♣	100
##乌	100
##kef	100
ῦ	100
argue	100
articles	100
aristocracy	100
樉	100
potomac	100
glee	100
seizure	100
metropolitan	100
nit	100
flames	100
ṣ	100
degrees	100
ethical	100
plum	100
##terly	100
bacterial	100
eyew	100
oppenheimer	100
florence	100
##about	100
ds	100
##妍	100
##ご	100
61	100
ak	100
disguise	100
bikini	100
meeting	100
mvp	100
##断	100
roses	100
commem	100
##百	100
孤	100
pills	100
amateur	100
红	100
ashley	100
മ	100
校	100
nou	100
defe	100
administ	100
wife	100
rhythms	100
█	100
khrushchev	100
##ぼ	100
ⴰ	100
##tering	100
##0	100
奪	100
fins	100
perished	100
##ʻ	100
н	100
##anas	100
priestley	100
##ό	100
ὗ	100
side	100
##asion	100
nominee	100
##ped	100
premier	100
crusade	100
confused	100
##thood	100
л	100
announ	100
##rates	100
splin	100
pruss	100
##eny	100
##list	100
##cer	100
wwf	100
curse	100
hospital	100
hostility	100
spin	100
lowland	100
##nut	100
##車	100
##鋼	100
##sm	100
##体	100
鎧	100
milit	100
plasma	100
scient	100
##ی	100
##ape	100
န	100
哀	100
氏	100
bangladesh	100
pair	100
plaintiff	100
spru	100
征	100
##佳	100
gé	100
蜃	100
starboard	100
პ	100
equity	100
##hamm	100
##stidia	100
##风	100
pars	100
##ange	100
activist	100
栈	100
lgbt	100
maintained	100
##kshire	100
musl	100
famil	100
marble	100
icelandic	100
##rea	100
finest	100
jet	100
legislature	100
municipalities	100
{	100
spl	100
khan	100
貴	100
##ή	100
论	100
executive	100
his	100
ศ	100
##ards	100
##ties	100
replica	100
##x	100
ِ	100
알	100
cur	100
mention	100
##ฎ	100
campaign	100
notor	100
##ပ	100
##imited	100
禺	100
lobbied	100
跡	100
composite	100
##視	100
##attle	100
publicized	100
joel	100
satire	100
##erous	100
1815	100
doll	100
routinely	100
##與	100
savage	100
ך	100
##olas	100
##ena	100
obey	100
edin	100
完	100
##orship	100
##estown	100
％	100
##aic	100
流	100
116	100
##石	100
subm	100
ᏹ	100
##ied	100
taylor	100
dioxide	100
⚴	100
##𐎼	100
##萍	100
landscape	100
historia	100
地	100
清	100
expectations	100
showc	100
impossible	100
鹼	100
temp	100
##ɴ	100
historical	100
spine	100
cancer	100
superhero	100
utc	100
leaves	100
lope	100
conceal	100
ř	100
dark	100
spain	100
##enness	100
prefer	100
dag	100
##author	100
silly	100
ὲ	100
wheat	100
ı	100
1970s	100
advertising	100
ranked	100
##piece	100
complimented	100
access	100
##ifier	100
cl	100
sensation	100
ಖ	100
mother	100
forced	100
##leman	100
snakes	100
服	100
collectively	100
stepped	100
depressed	100
##ality	100
metab	100
culture	100
admiral	100
client	100
feminism	100
誘	100
heart	100
newark	100
蘇	100
ecological	100
##寬	100
ੰ	100
aliens	100
excited	100
米	100
盛	100
dep	100
stopped	100
嵐	100
##務	100
engaging	100
northwestern	100
φ	100
criteria	100
##urance	100
fielder	100
♭	100
buttons	100
abandonment	100
##ﻔ	100
##aware	100
##ysical	100
love	100
##빤	100
kaf	100
bridges	100
divided	100
##側	100
recruitment	100
necessitated	100
##fold	100
glass	100
shipbuilding	100
歡	100
advocacy	100
craw	100
苣	100
##虐	100
tit	100
leading	100
involved	100
falc	100
posture	100
漂	100
mastered	100
suppress	100
sire	100
reun	100
closed	100
m3	100
chu	100
焦	100
ॉ	100
gap	100
آ	100
members	100
fier	100
recruited	100
戈	100
planetary	100
noticeable	100
##口	100
##う	100
禄	100
fischer	100
##uen	100
##aced	100
cush	100
finalized	100
samuel	100
##ropol	100
##aring	100
mathematic	100
variations	100
patronage	100
stylistic	100
##se	100
##莉	100
涙	100
vault	100
magazine	100
##iday	100
ferdinand	100
cerebral	100
american	100
shipped	100
##alis	100
lieutenant	100
linking	100
naples	100
陣	100
##й	100
bunker	100
##參	100
deposed	100
disemb	100
palat	100
要	100
schools	100
##朗	100
##남	100
##reh	100
bro	100
compose	100
##加	100
r	100
munich	100
toxic	100
ម	100
export	100
illustrated	100
fuller	100
causeway	100
kod	100
•	100
climbed	100
##athing	100
shifts	100
techn	100
seven	100
translated	100
##徳	100
⌋	100
tick	100
##ogle	100
devastating	100
##ύ	100
inflamm	100
涼	100
chec	100
rabb	100
##ixon	100
##sten	100
conductor	100
possession	100
leeds	100
##ṇ	100
##奉	100
aim	100
glac	100
ཡ	100
##星	100
脩	100
##召	100
##返	100
cultivation	100
sach	100
bolet	100
モ	100
includ	100
##anians	100
swing	100
239	100
沸	100
telescope	100
relies	100
わ	100
##ن	100
charged	100
dale	100
steps	100
genetics	100
maus	100
dominated	100
egyptians	100
penc	100
205	100
议	100
admiration	100
庆	100
emerg	100
theoretical	100
leices	100
rhetoric	100
ុ	100
anyone	100
74	100
愚	100
kim	100
complicated	100
足	100
##ٰ	100
functional	100
intensive	100
##렌	100
io	100
暦	100
##裔	100
##urer	100
enam	100
dash	100
inspiring	100
##闍	100
birth	100
negl	100
u2	100
##front	100
##ĕ	100
刀	100
bowie	100
##esis	100
unique	100
orr	100
##emies	100
inherit	100
treating	100
formid	100
sacked	100
suprem	100
accessible	100
ᚷ	100
##ɽ	100
visible	100
##xim	100
markings	100
shrews	100
10th	100
optim	100
reintrodu	100
cultiv	100
specified	100
doub	100
##悪	100
街	100
br	100
##卦	100
predecessors	100
##cing	100
abortion	100
schem	100
##eters	100
ზ	100
overwhel	100
disputes	100
abolition	100
jesus	100
chuck	100
confesses	100
##hen	100
fet	100
classifications	100
speak	100
rub	100
prevented	100
##ndez	100
##ot	100
##ry	100
颜	100
鹿	100
##ley	100
departments	100
##astic	100
sparrow	100
լ	100
penguin	100
ecclesiast	100
##盆	100
combinations	100
budapest	100
##ȝ	100
1877	100
駆	100
##:	100
guatemala	100
seemingly	100
descent	100
❄	100
’	100
##芳	100
ther	100
滿	100
##須	100
ᠮ	100
ỹ	100
兵	100
nearby	100
##ೋ	100
陛	100
paris	100
##ite	100
coastal	100
modified	100
mcdonald	100
vector	100
225	100
jackson	100
熙	100
##iamen	100
##ɘ	100
door	100
jeremy	100
jok	100
fav	100
expresses	100
bats	100
lambert	100
alleged	100
##源	100
decre	100
‒	100
##勇	100
down	100
clifford	100
draft	100
manz	100
bio	100
##wise	100
##is	100
##uity	100
##向	100
christ	100
jersey	100
##ello	100
##itled	100
ars	100
##advant	100
admir	100
demolished	100
इ	100
##agements	100
instructed	100
criminal	100
endless	100
cripp	100
se	100
phelps	100
françois	100
different	100
图	100
##亜	100
berth	100
matsu	100
虔	100
ে	100
ಿ	100
antar	100
##7	100
##陈	100
ყ	100
affects	100
humili	100
خ	100
gri	100
forbidden	100
karnataka	100
roof	100
##enon	100
herring	100
1994	100
鎖	100
kicked	100
quadruple	100
##ulating	100
coverage	100
singing	100
airplane	100
υ	100
burr	100
##utnant	100
civilians	100
civic	100
##ा	100
wilkinson	100
##粟	100
譌	100
⅙	100
##霖	100
ban	100
ein	100
raced	100
domin	100
contin	100
absor	100
##礁	100
##ks	100
##嬢	100
##emb	100
athenians	100
##师	100
blues	100
烈	100
##pl	100
##oses	100
windsor	100
##ᚻ	100
costs	100
립	100
##ropical	100
plann	100
脉	100
van	100
##м	100
##orn	100
tight	100
undertaker	100
##婷	100
##ented	100
##gy	100
ay	100
##箱	100
artistic	100
seaw	100
##ieu	100
lively	100
mixing	100
murders	100
informed	100
ֳ	100
cred	100
##ifically	100
sitting	100
##达	100
concern	100
fungi	100
wonder	100
١	100
##ould	100
blessed	100
桀	100
engage	100
employment	100
bills	100
reported	100
cul	100
farmer	100
disband	100
mari	100
ծ	100
械	100
created	100
春	100
suddenly	100
robbie	100
篋	100
##均	100
spent	100
perfection	100
underground	100
scot	100
##ograph	100
##eley	100
weeks	100
「	100
啡	100
portraits	100
फ	100
##镜	100
settings	100
좋	100
masters	100
farm	100
brink	100
##鸟	100
refuse	100
##yer	100
martha	100
timber	100
具	100
ざ	100
##孵	100
##enders	100
lass	100
¶	100
##म	100
##即	100
##侨	100
##atum	100
碼	100
126	100
ǫ	100
successors	100
dwarf	100
achie	100
##pper	100
##런	100
丙	100
##thest	100
norwegian	100
certain	100
subsequent	100
singled	100
vik	100
indu	100
core	100
supposedly	100
##ܵ	100
##強	100
jose	100
specimens	100
mgm	100
psychiatric	100
##keeping	100
steams	100
liberation	100
ꮉ	100
installments	100
situation	100
资	100
##oughton	100
##ੇ	100
##gang	100
##望	100
##gg	100
조	100
floor	100
岬	100
皇	100
jumping	100
##hus	100
disco	100
heid	100
pom	100
##þ	100
##iewicz	100
##waffe	100
precise	100
alliance	100
chromos	100
##謡	100
᷄	100
eccles	100
patterson	100
capt	100
guitars	100
hispan	100
거	100
##land	100
counterattack	100
##ique	100
michel	100
##anth	100
beers	100
绍	100
justin	100
surprising	100
nap	100
socio	100
transf	100
harold	100
ath	100
##ecting	100
賈	100
nev	100
postal	100
##rants	100
##houses	100
parry	100
millimeter	100
airpl	100
never	100
uematsu	100
阿	100
ros	100
creating	100
feast	100
bodied	100
决	100
prefecture	100
cmll	100
##ო	100
exac	100
au	100
touring	100
interest	100
ợ	100
perkins	100
∂	100
##ા	100
᷇	100
34	100
throne	100
future	100
##rot	100
##tre	100
list	100
##imo	100
##運	100
##深	100
gdp	100
mandatory	100
exclusive	100
else	100
180	100
proto	100
##蒭	100
ר	100
referring	100
itv	100
thomson	100
poetry	100
rumors	100
eighty	100
variants	100
摸	100
hos	100
霖	100
just	100
##ŗ	100
counteratt	100
bunch	100
##ocation	100
altitude	100
106	100
congregation	100
560	100
hers	100
wrestling	100
shakes	100
傅	100
force	100
##ⵜ	100
##ở	100
##就	100
salvation	100
ego	100
##ィ	100
##冉	100
##ズ	100
ჸ	100
六	100
##ming	100
##atched	100
penns	100
crim	100
##rí	100
##wright	100
senior	100
##isions	100
##ør	100
##삼	100
chem	100
##hal	100
口	100
vid	100
筋	100
##단	100
neglect	100
disappears	100
dahl	100
whilst	100
het	100
reprinted	100
marriage	100
位	100
exp	100
條	100
ⲩ	100
##一	100
meth	100
##iah	100
##jevo	100
##ib	100
offering	100
sop	100
##aguchi	100
fertil	100
##ede	100
confeder	100
升	100
起	100
##א	100
anticip	100
personally	100
dom	100
砍	100
极	100
##har	100
diameter	100
carved	100
singapore	100
grossed	100
hydraul	100
##asions	100
predomin	100
kilogr	100
activism	100
##6	100
ratio	100
운	100
̣	100
inside	100
displaced	100
quater	100
##袈	100
compan	100
##ৈ	100
defeats	100
beh	100
確	100
comparable	100
260	100
##mers	100
##bet	100
intervals	100
quarterf	100
ja	100
beard	100
##any	100
abuse	100
标	100
oblig	100
reserv	100
##止	100
successes	100
launched	100
＞	100
##憶	100
afor	100
##ising	100
indefin	100
palae	100
##蒲	100
township	100
shorts	100
added	100
##ware	100
regret	100
赭	100
∴	100
unauthor	100
filmmakers	100
##環	100
##ogical	100
ped	100
queensland	100
diverse	100
intended	100
cane	100
##arian	100
##ダ	100
##run	100
mercedes	100
drive	100
##雀	100
presidents	100
園	100
ৈ	100
##eus	100
strick	100
lyrically	100
before	100
bach	100
##η	100
conceded	100
味	100
radio	100
д	100
၇	100
eck	100
##abling	100
##arily	100
경	100
番	100
resignation	100
causing	100
architectural	100
payments	100
##assic	100
##仙	100
reviewers	100
ฑ	100
moody	100
##樸	100
##omon	100
vehicles	100
驤	100
##ả	100
##聚	100
guardians	100
kitchen	100
ψ	100
journal	100
acet	100
aur	100
tampa	100
향	100
02	100
ki	100
tiles	100
##警	100
motivated	100
antig	100
ℕ	100
diplom	100
ἦ	100
불	100
crane	100
##皿	100
绮	100
##ivation	100
##ays	100
duch	100
川	100
琮	100
proteins	100
123	100
some	100
ல	100
##amation	100
##ash	100
1830s	100
##準	100
七	100
wayne	100
28	100
exclud	100
##nh	100
demonstrations	100
ብ	100
vine	100
##uffle	100
140	100
ko	100
##ratory	100
##ق	100
runner	100
站	100
##怖	100
mons	100
fans	100
ced	100
performs	100
恭	100
contributor	100
sugg	100
##祠	100
cruiser	100
sup	100
##ono	100
ற	100
إ	100
##緩	100
yester	100
submission	100
reorgan	100
##umed	100
鼎	100
晒	100
price	100
performances	100
bil	100
׳	100
##arius	100
clashes	100
##ゆ	100
rated	100
acts	100
逢	100
##斬	100
##届	100
##争	100
##obi	100
##ट	100
##革	100
inches	100
棵	100
##agn	100
seems	100
对	100
##ostic	100
operate	100
##foot	100
stealth	100
bonus	100
##追	100
##enth	100
##パ	100
laud	100
weakened	100
lime	100
crowded	100
accidents	100
᷉	100
downed	100
##oco	100
hard	100
fu	100
heav	100
##平	100
##aped	100
ጅ	100
##oln	100
insuff	100
##heads	100
cooking	100
##広	100
weir	100
platoon	100
thrill	100
怎	100
醋	100
nar	100
##ted	100
ele	100
独	100
ribbon	100
##ppers	100
tradition	100
numerous	100
##ia	100
mountain	100
##ず	100
午	100
探	100
frederic	100
response	100
declare	100
bree	100
1853	100
horse	100
15	100
innocent	100
triumph	100
exc	100
region	100
##hum	100
##あ	100
everybody	100
##树	100
francis	100
greeks	100
end	100
|	100
##ʀ	100
##鉄	100
useless	100
調	100
fiction	100
räikkönen	100
bahá	100
##atile	100
concluded	100
莫	100
##še	100
talented	100
ק	100
inaccurate	100
##β	100
##ild	100
cochrane	100
ફ	100
arsenal	100
kratos	100
assemble	100
พ	100
surge	100
hydra	100
ታ	100
delivers	100
sein	100
transition	100
##ía	100
ven	100
chiefly	100
rink	100
usd	100
vertical	100
zepp	100
humorous	100
proclaimed	100
##毘	100
##zo	100
simply	100
ँ	100
##linary	100
björ	100
papal	100
imagination	100
lung	100
clive	100
邑	100
fing	100
1700	100
muscular	100
茂	100
conducting	100
younger	100
catholicism	100
exacerb	100
shades	100
surreal	100
hampton	100
marathon	100
##urbed	100
##萨	100
seized	100
lemur	100
pet	100
sour	100
innovations	100
biographical	100
mik	100
##phis	100
##ovny	100
##ropolis	100
##む	100
350	100
##te	100
海	100
army	100
lifespan	100
##itarian	100
##rys	100
elliott	100
邪	100
##ለ	100
conquer	100
厦	100
webb	100
attempting	100
strait	100
##roth	100
scratch	100
commonwe	100
##ʈ	100
marked	100
kak	100
mer	100
空	100
##baum	100
scept	100
ital	100
処	100
teenager	100
contractors	100
vladimir	100
##岭	100
##ather	100
highlands	100
掛	100
辽	100
historians	100
시	100
sid	100
##bu	100
unw	100
##aea	100
sweet	100
processing	100
monitored	100
牛	100
##ё	100
##戎	100
bram	100
charlie	100
왜	100
成	100
imprison	100
nationals	100
injection	100
##ሰ	100
jurassic	100
175	100
##ষ	100
emancipation	100
##ahi	100
contained	100
存	100
##ీ	100
given	100
artillery	100
clip	100
eleven	100
矮	100
amendments	100
##ಶ	100
orchestrated	100
mounted	100
##elage	100
##isse	100
underside	100
##oy	100
##ো	100
"	100
humphrey	100
outnumbered	100
divine	100
혹	100
ӯ	100
flanked	100
##使	100
##は	100
enjoyed	100
##assing	100
##mother	100
lae	100
##少	100
ን	100
anto	100
sending	100
spectators	100
builder	100
ゑ	100
fron	100
embry	100
enjoying	100
console	100
songwriting	100
##overed	100
claud	100
##尺	100
ှ	100
##wen	100
##润	100
##药	100
improv	100
acoust	100
breakfast	100
tomatoes	100
trailing	100
elabor	100
berm	100
##ix	100
##actic	100
沢	100
核	100
began	100
editions	100
helms	100
##kee	100
##ruption	100
task	100
antic	100
removal	100
##isition	100
upgr	100
patches	100
couple	100
album	100
##康	100
婷	100
aer	100
facilitated	100
farrell	100
za	100
##事	100
rates	100
publicity	100
guinness	100
စ	100
扶	100
adjacent	100
smackdown	100
##ima	100
hass	100
basin	100
captain	100
metal	100
##changes	100
steals	100
cork	100
iceland	100
戸	100
completed	100
efforts	100
clothing	100
##姿	100
##輿	100
sex	100
##イ	100
boil	100
bm	100
sora	100
harper	100
earp	100
##whel	100
fossil	100
palm	100
peasant	100
discarded	100
##lywood	100
1790	100
engagement	100
kil	100
##菱	100
##票	100
trafficking	100
寇	100
##~	100
加	100
killed	100
##otes	100
엔	100
obv	100
榊	100
vii	100
presumably	100
doc	100
disrupted	100
##bs	100
right	100
anx	100
wealthy	100
芮	100
ζ	100
裟	100
nike	100
朱	100
someone	100
greek	100
aggress	100
eric	100
heroic	100
vatic	100
necessary	100
lap	100
sol	100
##retto	100
silicon	100
ari	100
salisbury	100
arj	100
crab	100
lay	100
##ゼ	100
granted	100
##ܼ	100
##胴	100
##թ	100
ヘ	100
accounted	100
lawn	100
徒	100
clothes	100
##arn	100
scouting	100
hence	100
##ophy	100
##з	100
grande	100
##產	100
##apo	100
lowered	100
zx	100
scrapped	100
##neum	100
1600	100
mee	100
opined	100
myths	100
##alli	100
鳳	100
##讀	100
連	100
spur	100
teachings	100
anton	100
##品	100
ⵏ	100
samus	100
mathem	100
know	100
1885	100
髪	100
overwhelmed	100
ò	100
ℛ	100
ヶ	100
##eye	100
mystery	100
##ench	100
##κ	100
solic	100
domestic	100
cent	100
storyline	100
elderly	100
cheek	100
jardine	100
##悼	100
cautious	100
皿	100
fighting	100
uncle	100
thereafter	100
maintenance	100
216	100
bic	100
podium	100
纵	100
recapt	100
furious	100
##қ	100
fle	100
beak	100
fantastic	100
ported	100
delays	100
##friend	100
nc	100
lived	100
花	100
광	100
lava	100
cease	100
lp	100
nationalist	100
fairly	100
shade	100
##ţ	100
手	100
沫	100
gliders	100
##ultural	100
royalty	100
##岛	100
excessive	100
remark	100
grip	100
mafia	100
置	100
##ugu	100
##嶺	100
##ilee	100
foll	100
##elg	100
destroyers	100
contrib	100
##brough	100
##ನ	100
casino	100
neuro	100
emerald	100
nicaragua	100
integrity	100
quote	100
##酥	100
media	100
priory	100
burger	100
‐	100
⟨	100
matthews	100
raising	100
wallace	100
successful	100
incorpor	100
las	100
approach	100
reworked	100
##k	100
rhodesia	100
artists	100
##dan	100
賢	100
max	100
̆	100
stup	100
##о	100
backlash	100
audiences	100
pab	100
detection	100
clergy	100
1849	100
##itious	100
spurred	100
encounter	100
loaned	100
magnificent	100
landmarks	100
hendrix	100
##続	100
intens	100
##ペ	100
支	100
聲	100
｣	100
aus	100
毛	100
煜	100
fem	100
##ades	100
##ɨ	100
kes	100
engaged	100
ナ	100
‍	100
sover	100
##沢	100
competed	100
植	100
##track	100
##ⵔ	100
##暁	100
representation	100
casey	100
##庙	100
紺	100
promised	100
width	100
emigrated	100
☧	100
##oping	100
##正	100
diabetes	100
1890	100
göring	100
007	100
##易	100
##bles	100
մ	100
regimental	100
gaul	100
##獄	100
agrees	100
beacon	100
stalled	100
##world	100
crying	100
tol	100
蜡	100
willam	100
##ὴ	100
घ	100
##群	100
##題	100
cruc	100
crossed	100
excess	100
shown	100
rapt	100
##oly	100
taxonomic	100
planets	100
coffee	100
##七	100
county	100
##ece	100
passage	100
smaller	100
##ylan	100
cult	100
災	100
##abh	100
##蓑	100
##ject	100
210	100
ⲥ	100
kilograms	100
豫	100
occurs	100
activity	100
understood	100
presley	100
##ogenesis	100
막	100
##urus	100
struck	100
turbine	100
comments	100
zool	100
##多	100
##庁	100
##ῇ	100
##gem	100
hides	100
solar	100
crucial	100
##ad	100
mistress	100
stow	100
##eal	100
stru	100
1913	100
riff	100
searches	100
caric	100
##irts	100
##ilocy	100
treated	100
##が	100
portable	100
##thouse	100
impro	100
##rup	100
還	100
##ก	100
##ea	100
养	100
growth	100
mythology	100
spoken	100
disorders	100
##َ	100
anarch	100
prolong	100
͡	100
##ឪ	100
static	100
tube	100
riffs	100
por	100
mast	100
隔	100
##ΐ	100
georgian	100
prone	100
claim	100
palmer	100
jess	100
##aco	100
坤	100
##itated	100
殻	100
louisiana	100
##aker	100
諸	100
##养	100
ŭ	100
##院	100
##판	100
airborne	100
##rod	100
accumulated	100
excluded	100
き	100
ត	100
argument	100
deny	100
包	100
ḭ	100
##厦	100
囚	100
became	100
referenced	100
##議	100
welcome	100
##jo	100
cylindrical	100
槻	100
disabled	100
manufact	100
corps	100
##ny	100
##左	100
adopted	100
##克	100
spe	100
surfaces	100
yale	100
prohibited	100
##zone	100
wanna	100
remake	100
extant	100
patton	100
decision	100
hunt	100
##är	100
##dy	100
deploy	100
separated	100
boarded	100
telegram	100
##elect	100
絆	100
missouri	100
actions	100
##昂	100
##etta	100
terrorist	100
vest	100
禮	100
mm	100
##手	100
##reated	100
rox	100
##股	100
oval	100
tiber	100
rus	100
##处	100
方	100
##uk	100
eag	100
eaten	100
##lar	100
##ङ	100
seiz	100
processes	100
##beg	100
側	100
believes	100
whist	100
lasted	100
え	100
wolverines	100
katrina	100
##burgh	100
##uating	100
##љ	100
##ぇ	100
##汉	100
discuss	100
retrieved	100
##chang	100
easy	100
rooms	100
ැ	100
dc	100
soap	100
collaborators	100
##ų	100
taste	100
tent	100
crime	100
widow	100
##ault	100
sacramento	100
橘	100
馒	100
##투	100
##sover	100
bacter	100
reel	100
schl	100
ned	100
付	100
旅	100
##翠	100
amended	100
inc	100
area	100
juliet	100
component	100
##enos	100
currently	100
minds	100
wainwright	100
nor	100
余	100
ulyss	100
##banks	100
lines	100
치	100
cool	100
ု	100
steel	100
donations	100
politician	100
reasonable	100
ich	100
掲	100
##ropods	100
##案	100
係	100
##lete	100
ث	100
discovery	100
zion	100
火	100
155	100
settled	100
hymns	100
infer	100
හ	100
aftermath	100
khrush	100
yankees	100
narration	100
suicide	100
rhodesian	100
bom	100
plus	100
incomp	100
##zen	100
knots	100
agenda	100
ध	100
abel	100
frankf	100
truly	100
₧	100
##න	100
points	100
tourists	100
##贝	100
1926	100
footballer	100
scouts	100
##อ	100
##卫	100
lia	100
planting	100
informing	100
fix	100
##å	100
respects	100
益	100
##罸	100
saying	100
urban	100
toe	100
##found	100
gasoline	100
universally	100
bags	100
scenarios	100
cro	100
coincided	100
점	100
blamed	100
ञ	100
reprodu	100
##𐎹	100
##beat	100
negro	100
juveniles	100
performing	100
striking	100
intric	100
##チ	100
##wned	100
##laim	100
91	100
researchers	100
matched	100
##笠	100
ŗ	100
board	100
marginal	100
swallow	100
tested	100
polit	100
##aman	100
##atin	100
cao	100
##ious	100
testimony	100
island	100
任	100
##梨	100
races	100
transitions	100
##eding	100
pigeon	100
##ȷ	100
lover	100
鼓	100
项	100
##ately	100
weiss	100
lifted	100
##菜	100
⌊	100
##ott	100
##uana	100
filmfare	100
恐	100
##n	100
wilhel	100
##rard	100
specifications	100
##nas	100
brawl	100
streets	100
烟	100
legitimacy	100
品	100
wanting	100
cig	100
rider	100
##厩	100
##ረ	100
##pole	100
encouragement	100
zeus	100
archit	100
##hard	100
杏	100
ⲛ	100
citing	100
##ando	100
attraction	100
rises	100
##screen	100
firing	100
##仲	100
##营	100
around	100
##ک	100
observer	100
##봐	100
剛	100
盏	100
##变	100
##服	100
##gan	100
##change	100
##朱	100
technical	100
combat	100
loan	100
kills	100
revised	100
##itzer	100
dalton	100
solve	100
chess	100
supplying	100
winnipeg	100
storyboard	100
##昌	100
ာ	100
##ve	100
##ꭸ	100
historically	100
wilde	100
spiritual	100
lizard	100
drinking	100
stal	100
##ellation	100
##萬	100
##九	100
aboard	100
ደ	100
abb	100
##quit	100
intervened	100
curves	100
subsequently	100
hostages	100
futuristic	100
knowledge	100
ច	100
丨	100
曼	100
blue	100
##ived	100
##커	100
卫	100
israel	100
##ogn	100
##astically	100
pollution	100
toil	100
100th	100
tactics	100
shiva	100
oceanic	100
etymology	100
##研	100
sigism	100
##tle	100
detective	100
preventing	100
euph	100
優	100
wildc	100
ox	100
portra	100
recruiting	100
unchanged	100
feral	100
bou	100
##ature	100
solid	100
宮	100
##仔	100
座	100
deliveries	100
denmark	100
commenced	100
##gil	100
hemisph	100
fianc	100
hindu	100
##培	100
expected	100
扁	100
일	100
吴	100
batter	100
throat	100
役	100
belie	100
##ੰ	100
caution	100
##佐	100
effectiveness	100
barcelona	100
kom	100
##ങ	100
desc	100
##orous	100
harp	100
goals	100
pulling	100
advancement	100
campaigned	100
innings	100
##rations	100
oscar	100
banned	100
disappointment	100
stalk	100
policies	100
ถ	100
wheels	100
piet	100
fl	100
mph	100
伟	100
ori	100
steep	100
ժ	100
restoration	100
striker	100
##ansen	100
##icked	100
##eta	100
漫	100
spectrum	100
totaling	100
phel	100
undertaking	100
##φ	100
ử	100
##齊	100
廟	100
harding	100
##ḣ	100
cody	100
ok	100
much	100
industrial	100
smoke	100
##agen	100
passengers	100
carriage	100
##eliness	100
continuation	100
speculation	100
น	100
ridden	100
##商	100
bruce	100
spear	100
##house	100
vettel	100
##burg	100
vl	100
arnold	100
synagogue	100
magical	100
infinity	100
gc	100
faith	100
die	100
alternative	100
trigger	100
郝	100
group	100
observers	100
rely	100
trustees	100
論	100
̳	100
structural	100
developmental	100
さ	100
##nis	100
##ʐ	100
정	100
芙	100
너	100
emphasize	100
##(	100
mob	100
scope	100
anah	100
ゃ	100
arrival	100
##areth	100
intellectual	100
신	100
wore	100
arrows	100
##煜	100
cap	100
##hound	100
lead	100
##毅	100
##醒	100
stating	100
跖	100
capit	100
minded	100
##答	100
##ƀ	100
隼	100
担	100
##ⵡ	100
pioneering	100
ricky	100
cases	100
way	100
melee	100
##門	100
phill	100
မ	100
zam	100
愛	100
cryst	100
##ogen	100
跑	100
rede	100
regulated	100
nicholson	100
esp	100
չ	100
crafts	100
##veland	100
infin	100
undergone	100
bank	100
intervention	100
##vana	100
bn	100
schizophren	100
라	100
fus	100
bike	100
##vara	100
##eli	100
nelson	100
##stead	100
伊	100
##ه	100
alec	100
tall	100
##edience	100
barlow	100
100	100
非	100
latitude	100
immediate	100
outfield	100
journals	100
megan	100
wiggins	100
គ	100
##identified	100
elder	100
eddy	100
sara	100
##ớ	100
fierce	100
##itud	100
arrest	100
##arth	100
dedication	100
ї	100
deeds	100
##med	100
##ovina	100
ʳ	100
possibility	100
##cle	100
council	100
##osure	100
cun	100
mur	100
##rov	100
lynch	100
women	100
caut	100
liked	100
oxy	100
islands	100
這	100
mack	100
xer	100
georges	100
姦	100
##訳	100
manpower	100
precious	100
requirement	100
incorporated	100
mandela	100
ramirez	100
odyssey	100
##尼	100
inn	100
kat	100
valleys	100
wavelength	100
gettysburg	100
reach	100
alcohol	100
evolution	100
##銃	100
森	100
##軽	100
turtles	100
account	100
adjoining	100
danger	100
1996	100
assassinated	100
##ɖ	100
playable	100
identical	100
但	100
관	100
##ues	100
ọ	100
accounting	100
corpses	100
scripted	100
picking	100
##inet	100
peaking	100
猪	100
feld	100
proposals	100
##idus	100
##穎	100
sé	100
##ệ	100
versa	100
sang	100
##oken	100
##鷓	100
mum	100
##dom	100
got	100
##竹	100
re	100
pages	100
奔	100
publisher	100
criticised	100
aboriginal	100
##writer	100
attacked	100
mill	100
angel	100
labelled	100
travel	100
armoured	100
##予	100
plunder	100
parrot	100
ﻋ	100
concludes	100
##裳	100
writings	100
ʔ	100
##吉	100
revealing	100
matilda	100
crick	100
##態	100
secre	100
τ	100
traveling	100
ridd	100
contrad	100
楠	100
##idy	100
##叉	100
career	100
det	100
char	100
乚	100
##倪	100
##wall	100
sparked	100
##werp	100
rating	100
mcd	100
无	100
confisc	100
##colm	100
keynes	100
##aird	100
melanch	100
perimeter	100
jesse	100
invading	100
138	100
warning	100
kicks	100
gut	100
##enh	100
ن	100
##ั	100
##โ	100
matric	100
stretch	100
unable	100
29	100
jeal	100
##look	100
habits	100
ensemble	100
##ben	100
##孝	100
conclud	100
madag	100
ʛ	100
##hawk	100
analyses	100
##ồ	100
帝	100
seemed	100
転	100
1847	100
##gen	100
##玉	100
∤	100
##girl	100
crushed	100
accepting	100
reused	100
##nel	100
##eddy	100
formerly	100
institutional	100
##囃	100
day	100
propaganda	100
erik	100
reinfor	100
amman	100
虹	100
him	100
news	100
rewards	100
parties	100
civ	100
奥	100
##战	100
entrance	100
protagonist	100
contest	100
stolen	100
holocaust	100
yugoslav	100
beds	100
##惠	100
##iro	100
tailed	100
##eson	100
rodrí	100
##ène	100
semifinal	100
equation	100
disguised	100
pitched	100
pilgrims	100
ы	100
rs	100
dv	100
##issa	100
yesterday	100
stiff	100
##ː	100
brett	100
##志	100
raid	100
##ost	100
shetland	100
sebast	100
##座	100
nad	100
isbn	100
brave	100
##ured	100
consec	100
pc	100
reception	100
specialized	100
sort	100
jill	100
vancouver	100
leipzig	100
unaccept	100
##ochond	100
marshal	100
聚	100
aster	100
개	100
contenders	100
comic	100
舍	100
reformation	100
rejection	100
cuis	100
խ	100
w	100
rul	100
야	100
##ic	100
##su	100
衆	100
俄	100
skilled	100
##ander	100
lenn	100
name	100
##uda	100
cruz	100
##read	100
piz	100
maj	100
holden	100
%	100
##icide	100
##mid	100
越	100
##സ	100
##ain	100
innocence	100
dav	100
##ky	100
շ	100
##illas	100
dioc	100
##狼	100
occur	100
obtaining	100
estab	100
wembley	100
镇	100
汰	100
teach	100
eastern	100
wed	100
biographers	100
1856	100
olaf	100
hilar	100
main	100
jun	100
hawkins	100
drink	100
excer	100
parodies	100
hale	100
netherlands	100
##篇	100
ฆ	100
⅓	100
網	100
蝴	100
yus	100
last	100
submarines	100
taught	100
##ኖ	100
tec	100
premiership	100
##细	100
opted	100
##엔	100
##idents	100
##보	100
gift	100
##ु	100
炼	100
##ত	100
bat	100
##ń	100
項	100
mana	100
defenc	100
enrol	100
schmid	100
##ctic	100
##ibi	100
bay	100
##oth	100
weights	100
##焔	100
springs	100
idaho	100
##kill	100
ំ	100
pistols	100
boone	100
##ín	100
##歌	100
philippines	100
ಕ	100
鹹	100
解	100
ᛗ	100
頒	100
mercen	100
遥	100
tony	100
##ellar	100
##ა	100
豆	100
observation	100
constituency	100
tart	100
millwall	100
##а	100
##운	100
politics	100
economically	100
ズ	100
身	100
seb	100
ms	100
##冒	100
concealed	100
clut	100
ethics	100
##劣	100
skin	100
jets	100
refuel	100
contribution	100
iod	100
owls	100
sil	100
made	100
cont	100
##ecution	100
expose	100
?	100
ί	100
185	100
х	100
grind	100
黄	100
buoy	100
ᡝ	100
22	100
##器	100
##ork	100
##veloped	100
undergrad	100
sig	100
impose	100
1up	100
abundance	100
showcased	100
##写	100
holiday	100
discrimination	100
karen	100
depths	100
##ዘ	100
##池	100
##took	100
##xton	100
##aging	100
fitted	100
waist	100
bafta	100
julian	100
ʿ	100
bullets	100
chor	100
cov	100
hex	100
##assium	100
explosive	100
jtwc	100
이	100
unm	100
##adowed	100
##阪	100
hardy	100
##atro	100
ww	100
ů	100
ey	100
benson	100
throw	100
inexper	100
rockets	100
ruler	100
艦	100
tra	100
separate	100
##othy	100
##ole	100
初	100
usual	100
##ipes	100
feat	100
adventure	100
peak	100
##ボ	100
##lyn	100
樊	100
air	100
##mouth	100
forming	100
##ab	100
clues	100
chestnut	100
exche	100
federation	100
ἢ	100
referendum	100
ل	100
##issioned	100
拳	100
##ham	100
ሕ	100
battles	100
hann	100
recommendations	100
त	100
##官	100
fame	100
dental	100
ộ	100
##宗	100
##fax	100
predictable	100
saf	100
##ց	100
hotel	100
##ien	100
##ぬ	100
1907	100
##gal	100
pedro	100
chim	100
wholes	100
庄	100
##록	100
persecution	100
elevator	100
puzz	100
demographics	100
誒	100
cyl	100
##체	100
plane	100
##ass	100
##cor	100
lanes	100
heating	100
오	100
mann	100
##矩	100
ॆ	100
lone	100
##오	100
batch	100
keith	100
trophies	100
##aries	100
genuinely	100
tex	100
鴉	100
difference	100
barges	100
infectious	100
qu	100
##ane	100
ἅ	100
##mill	100
色	100
rend	100
scrap	100
##raine	100
gives	100
equipped	100
stre	100
congestion	100
̚	100
huss	100
寔	100
##lend	100
黙	100
supposed	100
##rec	100
ɞ	100
faculty	100
##麾	100
exempt	100
##ရ	100
shit	100
ϊ	100
autumn	100
orph	100
leh	100
assistant	100
##宫	100
america	100
np	100
weaver	100
foxes	100
##章	100
archer	100
ian	100
today	100
punch	100
##행	100
lacrosse	100
schum	100
preferring	100
hated	100
ブ	100
##關	100
亰	100
##body	100
reddish	100
##nings	100
##mn	100
concentrations	100
ulster	100
##寧	100
old	100
friction	100
า	100
程	100
毬	100
wonders	100
mainten	100
minimum	100
arthur	100
meditation	100
호	100
##vin	100
萬	100
tend	100
injured	100
##ute	100
dissipating	100
到	100
retirement	100
stef	100
##위	100
classification	100
forth	100
γ	100
simplified	100
##牧	100
ket	100
60	100
鉱	100
weakness	100
kor	100
lanka	100
liberals	100
seconds	100
笑	100
##採	100
腰	100
haas	100
##忍	100
raises	100
balkan	100
rever	100
shu	100
##賞	100
##焼	100
janet	100
##cr	100
노	100
##ʷ	100
comprises	100
intentionally	100
posthumously	100
confusion	100
##alo	100
bos	100
von	100
guilty	100
verbal	100
intelligent	100
bearing	100
harness	100
atl	100
seem	100
##뿐	100
dot	100
##直	100
##ero	100
rav	100
scholarly	100
marc	100
oregon	100
##ospace	100
organizing	100
conclus	100
##umont	100
minor	100
spawned	100
freight	100
參	100
voter	100
##ᛠ	100
providence	100
sophomore	100
물	100
##eca	100
dre	100
bahamas	100
末	100
##ድ	100
##odore	100
retal	100
vigil	100
##zes	100
##ocative	100
phyll	100
##ى	100
little	100
##tr	100
order	100
銅	100
e	100
##良	100
ी	100
##ings	100
dismay	100
##静	100
##ẵ	100
stap	100
##ぎ	100
緯	100
##vent	100
foundations	100
citizens	100
魯	100
##ἥ	100
limits	100
bon	100
seriously	100
pill	100
portrait	100
amp	100
taped	100
defining	100
##岚	100
probably	100
innov	100
prer	100
elephants	100
##荘	100
libya	100
##ained	100
benefited	100
聖	100
pub	100
寸	100
rä	100
turbines	100
这	100
marseille	100
hardest	100
bottles	100
##系	100
##trak	100
惟	100
eurogamer	100
##assed	100
奏	100
45	100
##ipp	100
poland	100
##藥	100
wedd	100
ud	100
austria	100
surgical	100
trouble	100
boulev	100
coron	100
received	100
##urnal	100
horton	100
##ư	100
##灯	100
დ	100
satellite	100
ĉ	100
##enson	100
ida	100
concurrent	100
gathering	100
privile	100
##玄	100
feather	100
sik	100
intox	100
stem	100
##敏	100
##廷	100
walk	100
##tender	100
forehead	100
camera	100
yanke	100
##ᚾ	100
##ill	100
royal	100
##회	100
malt	100
iv	100
##aret	100
bradley	100
intern	100
119	100
jerome	100
##臘	100
unavailable	100
outfits	100
summar	100
ٔ	100
shortly	100
ba	100
##ois	100
##柔	100
##bands	100
emancip	100
ts	100
landscapes	100
ging	100
stupid	100
##vol	100
recurring	100
##ʎ	100
nadu	100
堅	100
completing	100
mun	100
##agi	100
##unda	100
northumbria	100
being	100
coy	100
shoe	100
##國	100
1898	100
towed	100
厂	100
nightclub	100
騎	100
austen	100
##覚	100
assembled	100
abe	100
splitting	100
inqu	100
alison	100
wedding	100
##gers	100
beyond	100
stands	100
##ច	100
progression	100
update	100
cous	100
ල	100
ི	100
criticized	100
university	100
titles	100
##店	100
blind	100
##tar	100
##lev	100
nails	100
##律	100
demonstrating	100
spacecraft	100
sharp	100
privilege	100
屑	100
##계	100
anyway	100
##客	100
inte	100
255	100
##頌	100
##net	100
##帖	100
atoms	100
funding	100
kick	100
governmental	100
##inn	100
canterbury	100
decisive	100
##ṣ	100
樹	100
mul	100
##灰	100
199	100
pratt	100
diagnosis	100
##遠	100
##述	100
brownlee	100
alge	100
##aim	100
ｉ	100
head	100
senate	100
##園	100
guitarist	100
admiralty	100
##`	100
phillips	100
##ˣ	100
ο	100
rugby	100
dana	100
consp	100
bet	100
west	100
steven	100
projects	100
ottawa	100
vul	100
##adors	100
rib	100
huff	100
ṵ	100
waters	100
laboratory	100
rowed	100
##ׁ	100
houston	100
##vor	100
tate	100
##agua	100
ill	100
downloads	100
tubercul	100
hospitals	100
china	100
johor	100
97	100
exploring	100
허	100
playstation	100
demolition	100
##ains	100
denounced	100
##osing	100
tomorrow	100
confident	100
##ady	100
involving	100
ﺒ	100
##erd	100
pt	100
##ź	100
interpreted	100
historian	100
scal	100
temporarily	100
##ブ	100
assum	100
梓	100
##uals	100
evaluated	100
usur	100
narrow	100
liaison	100
resigned	100
ⵡ	100
yorker	100
pointed	100
寞	100
##na	100
majors	100
shirley	100
visitors	100
preced	100
turnpike	100
kras	100
croatian	100
uniforms	100
tortured	100
喚	100
##ಮ	100
##beth	100
##aham	100
expense	100
##节	100
##ft	100
##erg	100
日	100
intersection	100
grac	100
header	100
##願	100
syd	100
sacrifices	100
dwind	100
##漸	100
promising	100
##ᵀ	100
particular	100
##靠	100
1869	100
lithuanian	100
summ	100
ญ	100
ජ	100
borders	100
sc	100
workshop	100
##க	100
##entially	100
wright	100
own	100
旋	100
テ	100
tiger	100
sulf	100
sympath	100
##rical	100
nac	100
鸟	100
##lass	100
##enter	100
ラ	100
♠	100
厚	100
##ŭ	100
rash	100
邱	100
gos	100
outrage	100
##支	100
centennial	100
##주	100
##ause	100
outlook	100
congressional	100
大	100
roberts	100
incorporating	100
##興	100
##cent	100
peninsula	100
documents	100
実	100
contacted	100
wires	100
why	100
em	100
keeping	100
润	100
util	100
drops	100
##ย	100
chronic	100
##曜	100
soldiers	100
employee	100
##station	100
gum	100
銖	100
ü	100
ʲ	100
ῐ	100
berlin	100
aqueduct	100
##atorium	100
jna	100
diagnosed	100
colonists	100
##ional	100
baron	100
songs	100
##芦	100
##ica	100
##kins	100
breed	100
##esi	100
bav	100
reclaim	100
##aur	100
gon	100
discovering	100
amus	100
범	100
fusion	100
##雪	100
##杜	100
06	100
virus	100
muslims	100
艳	100
killings	100
錄	100
##kes	100
ordinance	100
##ova	100
##ဇ	100
blonde	100
xiv	100
沖	100
)	100
per	100
##ront	100
accuracy	100
##雜	100
comment	100
graham	100
finds	100
trail	100
sung	100
invent	100
fixed	100
炯	100
##redited	100
finalist	100
ä	100
1934	100
maple	100
conscience	100
##屠	100
##mons	100
movements	100
##श	100
goeb	100
isaac	100
##色	100
ু	100
coup	100
##į	100
pont	100
cables	100
significance	100
diana	100
marry	100
wonderful	100
##olid	100
綾	100
##ills	100
trademark	100
sic	100
lear	100
់	100
##ต	100
nay	100
##却	100
##iph	100
bigger	100
##晶	100
presented	100
##agara	100
double	100
伯	100
dub	100
ท	100
sandra	100
##牡	100
quickly	100
##丸	100
produ	100
parishes	100
##water	100
paraguay	100
ရ	100
esc	100
apology	100
##etic	100
##瞬	100
##od	100
compares	100
polygon	100
folded	100
④	100
继	100
camel	100
##ovsky	100
##ɰ	100
##ded	100
excit	100
ġ	100
က	100
##gus	100
rita	100
##ivers	100
##atic	100
accur	100
tip	100
v	100
##ffield	100
sickness	100
ђ	100
##iting	100
presby	100
##მ	100
##欣	100
recip	100
紀	100
##魚	100
nes	100
ャ	100
##譚	100
characteristics	100
generally	100
wu	100
##night	100
comprising	100
##pow	100
abc	100
wish	100
##nip	100
refusal	100
demons	100
##akov	100
gillian	100
alv	100
##拳	100
##ility	100
ineff	100
##per	100
潜	100
shock	100
##ritic	100
##lies	100
unfinished	100
ず	100
dodgers	100
ꜭ	100
numbers	100
alpha	100
martyr	100
/	100
twil	100
paul	100
eis	100
exchequer	100
powder	100
##cast	100
expelled	100
reverted	100
##ਲ	100
≪	100
##regon	100
##jected	100
landown	100
##淹	100
ʒ	100
្	100
rom	100
1774	100
jason	100
국	100
藻	100
manchester	100
##inder	100
span	100
屿	100
favored	100
hd	100
##imentary	100
vampires	100
gent	100
##妇	100
sen	100
嚴	100
pioneered	100
pearl	100
demanding	100
##aving	100
ident	100
訳	100
boo	100
mould	100
##shire	100
unfav	100
##ᵝ	100
russell	100
manages	100
##高	100
presentation	100
favor	100
##是	100
hemingway	100
farn	100
hav	100
##ึ	100
##orus	100
凱	100
attributes	100
cros	100
joined	100
##ճ	100
bieber	100
fert	100
royalists	100
chassis	100
##eda	100
permission	100
exerc	100
##birds	100
##oqu	100
1859	100
recording	100
connector	100
辭	100
##楠	100
kesha	100
##漢	100
lyrics	100
gallipoli	100
cantata	100
included	100
corporal	100
##ю	100
pinned	100
marks	100
casting	100
euc	100
murder	100
colbert	100
泥	100
##entine	100
equilib	100
edwards	100
老	100
);	100
kens	100
̟	100
##ru	100
pover	100
##ampa	100
meat	100
##appa	100
superior	100
##itude	100
irish	100
gospel	100
ph	100
paralympic	100
kriegs	100
paid	100
questions	100
bond	100
##enz	100
explained	100
russo	100
韋	100
turf	100
instrumentation	100
省	100
##undy	100
amounts	100
申	100
forts	100
krist	100
troy	100
genuine	100
lying	100
##igible	100
आ	100
へ	100
厥	100
flooded	100
#	100
机	100
kong	100
ruf	100
semin	100
孔	100
岡	100
##災	100
thorpe	100
ceas	100
##塔	100
mitochondrial	100
merry	100
saskatch	100
bronze	100
earned	100
student	100
hersh	100
configuration	100
ট	100
subpl	100
##essing	100
##és	100
persist	100
##berry	100
##狱	100
human	100
姉	100
1777	100
helping	100
rehearsal	100
廷	100
к	100
##odont	100
upgraded	100
fault	100
tribes	100
##imm	100
##mission	100
rna	100
larg	100
battalions	100
estates	100
##iana	100
labor	100
##권	100
##bage	100
sailed	100
phys	100
##sted	100
flies	100
##扇	100
##意	100
熔	100
minnesota	100
dou	100
snake	100
homes	100
anime	100
compton	100
postponed	100
##棋	100
##š	100
ɶ	100
യ	100
##eason	100
reunited	100
##pine	100
##gles	100
introdu	100
eu	100
merced	100
謡	100
##く	100
ɢ	100
##arta	100
dramat	100
marine	100
##heim	100
filters	100
$	100
著	100
dup	100
tok	100
爽	100
##伏	100
ප	100
ば	100
##ows	100
tempor	100
gir	100
orthodox	100
##kien	100
chast	100
##tt	100
touched	100
beatrice	100
##祐	100
outlaw	100
##ken	100
spy	100
##rane	100
##భ	100
habsburg	100
mugh	100
rival	100
candidates	100
##統	100
##哮	100
屍	100
桧	100
##rett	100
loun	100
pleaded	100
biod	100
songwriter	100
##bour	100
蓀	100
climb	100
tunes	100
quinn	100
wholly	100
##illery	100
ƣ	100
appropriate	100
debr	100
##ases	100
疆	100
##角	100
##薇	100
##other	100
gains	100
nevada	100
lavish	100
abolished	100
reinst	100
caroline	100
jeopardy	100
serial	100
jewel	100
##aku	100
charities	100
規	100
arms	100
breaks	100
illness	100
##ior	100
wisdom	100
派	100
style	100
##緒	100
attendance	100
##itions	100
##给	100
##宴	100
cornell	100
identify	100
ᵑ	100
manager	100
##氏	100
constantin	100
depleted	100
lacking	100
##nitz	100
timor	100
傳	100
##π	100
talents	100
750	100
窗	100
kar	100
##诺	100
lectures	100
conversation	100
联	100
medicine	100
術	100
skyscr	100
black	100
authors	100
fr	100
##usive	100
##apt	100
動	100
##勝	100
50th	100
miracle	100
##hammer	100
jab	100
warns	100
scores	100
gauge	100
藏	100
ة	100
continue	100
##ias	100
jacksonville	100
reprised	100
allah	100
dependent	100
gesture	100
guer	100
##خ	100
nobel	100
##ortun	100
did	100
##four	100
¼	100
##ш	100
russ	100
##uff	100
##敦	100
hare	100
1792	100
invasion	100
rotten	100
haul	100
聡	100
##ández	100
##lich	100
unpreced	100
seize	100
occult	100
elbow	100
sixteenth	100
敵	100
ผ	100
outlets	100
հ	100
##ellus	100
instant	100
ぴ	100
mish	100
↔	100
bear	100
##罪	100
gor	100
cons	100
upon	100
##怎	100
九	100
ᛞ	100
shō	100
postwar	100
remarking	100
betrayed	100
蠻	100
send	100
##ty	100
152	100
corners	100
appearance	100
wants	100
shake	100
quarters	100
＜	100
##ʏ	100
ಪ	100
hyder	100
assass	100
circuit	100
dim	100
ấ	100
notably	100
parody	100
speculated	100
ess	100
impaired	100
แ	100
estuary	100
retrospective	100
magic	100
schwartz	100
rowing	100
determining	100
publishers	100
##ц	100
ǒ	100
##inda	100
hod	100
##ɵ	100
##る	100
##rix	100
caliph	100
yacht	100
numbered	100
##型	100
##vis	100
spanning	100
suits	100
vint	100
quotes	100
retailers	100
##worth	100
mask	100
industries	100
##lav	100
patent	100
ears	100
车	100
adop	100
ෝ	100
talk	100
##軒	100
influenza	100
runners	100
軒	100
##bling	100
association	100
##准	100
##inski	100
명	100
##abulary	100
蒭	100
騭	100
lunch	100
##希	100
applied	100
express	100
屬	100
##ὼ	100
institutions	100
##ল	100
fragile	100
##両	100
stud	100
##ti	100
spreading	100
meetings	100
rains	100
##減	100
ï	100
jagd	100
prosecution	100
ｍ	100
##uka	100
坡	100
flex	100
##區	100
stro	100
##芒	100
caribbean	100
酔	100
kun	100
##ᵻ	100
mini	100
apoll	100
edge	100
evolutionary	100
indirectly	100
##kamp	100
##佛	100
慰	100
##然	100
liverpool	100
commercial	100
descendant	100
##ṽ	100
##adin	100
愁	100
我	100
rhe	100
flatt	100
reopened	100
징	100
ninety	100
ぃ	100
mitch	100
##姚	100
united	100
rough	100
რ	100
##ags	100
brut	100
friend	100
##how	100
lópez	100
‡	100
outright	100
midland	100
dreadnought	100
commod	100
accommodate	100
base	100
physi	100
vandal	100
##h	100
1995	100
##born	100
graff	100
interrupt	100
ྱ	100
##igation	100
ballroom	100
##አ	100
dé	100
sul	100
cs	100
##porary	100
chemistry	100
钱	100
##rible	100
bestowed	100
move	100
ジ	100
poole	100
weld	100
holes	100
millenn	100
drained	100
##oper	100
腹	100
davidson	100
climate	100
recommend	100
##ometry	100
ν	100
difficulties	100
econ	100
尽	100
##min	100
##棵	100
##oft	100
acqu	100
francisco	100
##ț	100
1936	100
ef	100
教	100
##-	100
##val	100
##ques	100
##onna	100
reed	100
richardson	100
grunge	100
2008	100
alex	100
models	100
с	100
##尽	100
##donald	100
##osen	100
trains	100
运	100
##ਘ	100
狸	100
winner	100
coinc	100
declar	100
equal	100
##inte	100
##ecess	100
##atta	100
##ｄ	100
voice	100
1980s	100
##ilated	100
theaters	100
nobility	100
request	100
mackay	100
eri	100
リ	100
##ahan	100
##umb	100
止	100
##ulent	100
opera	100
##榔	100
్	100
len	100
himself	100
cheer	100
sher	100
relev	100
bicycle	100
destined	100
chand	100
##town	100
surrendered	100
##ك	100
##乎	100
tournament	100
##歳	100
sec	100
browns	100
##tenstein	100
müller	100
shank	100
1813	100
##ֶ	100
##ron	100
重	100
relates	100
vort	100
fell	100
chelsea	100
filed	100
##iffer	100
##應	100
falcon	100
dev	100
aunt	100
ᵊ	100
##eign	100
##థ	100
surrounded	100
##kas	100
rational	100
blessing	100
hollow	100
service	100
##etti	100
1867	100
wides	100
##dle	100
réunion	100
##estation	100
lifting	100
winding	100
ponies	100
##chester	100
̠	100
somers	100
midst	100
##acle	100
kerala	100
cis	100
##糖	100
援	100
bahrain	100
##ket	100
proven	100
salmon	100
1870s	100
analysts	100
##inson	100
##da	100
needs	100
vicious	100
interview	100
citizen	100
400	100
##iber	100
away	100
##isle	100
##ec	100
takeover	100
杖	100
裔	100
oil	100
##unders	100
##ʔ	100
kelly	100
gloria	100
叉	100
590	100
flush	100
##iang	100
evaluation	100
cats	100
third	100
broadside	100
矩	100
authored	100
mona	100
192	100
̮	100
lau	100
ré	100
震	100
##icia	100
remnant	100
rory	100
qing	100
pop	100
plac	100
column	100
ter	100
##继	100
	100
##ម	100
pursuing	100
26	100
##ক	100
维	100
impressed	100
##ifer	100
energ	100
楼	100
interesting	100
泉	100
##番	100
##स	100
##υ	100
weekend	100
categor	100
名	100
陶	100
rout	100
burke	100
바	100
diversion	100
ml	100
ص	100
贺	100
floors	100
lance	100
##ontin	100
bound	100
亮	100
##ĭ	100
solomon	100
omitted	100
off	100
climbing	100
ぽ	100
vin	100
##に	100
##俱	100
circuits	100
남	100
##ound	100
libraries	100
##ios	100
minogue	100
域	100
##ǒ	100
astronaut	100
hermit	100
lang	100
fourth	100
top	100
腎	100
generous	100
耿	100
岐	100
buckingham	100
philipp	100
levels	100
##ales	100
##ɸ	100
sense	100
retiring	100
ix	100
worm	100
朴	100
127	100
##pack	100
##も	100
谷	100
finished	100
##板	100
radiohead	100
compass	100
̋	100
欽	100
##립	100
nearest	100
unsure	100
宇	100
wwe	100
crop	100
plague	100
goalkeeper	100
##광	100
##珂	100
##ites	100
fisher	100
intending	100
struct	100
lyrical	100
cinc	100
ớ	100
addition	100
forec	100
hangar	100
mary	100
kore	100
ع	100
suspects	100
弐	100
what	100
##ript	100
cancel	100
defunct	100
壳	100
congression	100
##oration	100
pé	100
downward	100
but	100
##lane	100
lengths	100
contracted	100
permits	100
transylvania	100
##iff	100
eliz	100
##를	100
중	100
##亨	100
zeb	100
##剛	100
ூ	100
##炼	100
games	100
notes	100
shops	100
pere	100
pretend	100
concerning	100
ille	100
piece	100
pigs	100
infring	100
##時	100
tones	100
ornament	100
provinces	100
##ん	100
職	100
荻	100
connect	100
1918	100
gibral	100
riot	100
slave	100
rehabil	100
泾	100
##派	100
##ב	100
##ara	100
①	100
out	100
abbrev	100
sin	100
##銳	100
ninth	100
##ώ	100
##gger	100
##ⲥ	100
##asp	100
ヒ	100
burnley	100
smash	100
ⵛ	100
##amer	100
12th	100
pick	100
interact	100
##quin	100
cas	100
պ	100
@,@	100
sar	100
##沫	100
박	100
##aining	100
nl	100
orb	100
systematic	100
vessel	100
細	100
strongest	100
ap	100
##rin	100
##ū	100
##乙	100
figur	100
##rium	100
probe	100
grate	100
buildings	100
166	100
mccorm	100
eye	100
誠	100
infrared	100
ầ	100
gunfire	100
侯	100
曹	100
spat	100
kel	100
partnered	100
ħ	100
些	100
##urch	100
##80	100
ꭸ	100
占	100
gle	100
birch	100
##罰	100
##ⲱ	100
theodore	100
raiders	100
##外	100
##qu	100
res	100
ind	100
leak	100
贤	100
禰	100
10	100
witt	100
‰	100
##udes	100
croc	100
풍	100
humanitarian	100
newfound	100
becoming	100
82	100
specialist	100
representatives	100
戦	100
bombed	100
##ẹ	100
excitement	100
##ᡴ	100
street	100
##esses	100
independence	100
##岡	100
̽	100
apprec	100
extensive	100
magnitude	100
steadily	100
chance	100
##万	100
##rum	100
ធ	100
ordered	100
votes	100
facult	100
thornton	100
##ು	100
వ	100
##ہ	100
migrate	100
atom	100
##vern	100
nass	100
##泰	100
juven	100
transmitted	100
bugs	100
##orne	100
##悠	100
沛	100
vi	100
frag	100
tightly	100
rein	100
gw	100
住	100
facial	100
deer	100
ℵ	100
##ृ	100
legislative	100
differing	100
lact	100
¿	100
##谦	100
interd	100
##horn	100
dancing	100
return	100
##etics	100
##μ	100
珂	100
剩	100
##ˈ	100
##爾	100
preceded	100
awesome	100
telec	100
##alty	100
burt	100
##cements	100
stard	100
receptions	100
mustaine	100
##go	100
##도	100
moving	100
ostr	100
136	100
fluoride	100
falk	100
close	100
companion	100
ค	100
韃	100
1871	100
uter	100
祚	100
161	100
倫	100
##条	100
opposition	100
tung	100
##壁	100
sovereignty	100
gen	100
advant	100
damaged	100
##moor	100
slant	100
색	100
##侗	100
ulysses	100
ascended	100
coma	100
dealt	100
tackles	100
ļ	100
ɮ	100
agreed	100
gibraltar	100
andrew	100
rodríguez	100
##aski	100
iconic	100
##ál	100
##zt	100
吸	100
##emia	100
##樹	100
##綾	100
ⵎ	100
darwin	100
ecu	100
realm	100
ू	100
矢	100
##砂	100
##ɡ	100
undertook	100
##asty	100
meet	100
rogue	100
from	100
meng	100
restriction	100
wheel	100
regardless	100
yellowish	100
gamespot	100
blast	100
vamp	100
ប	100
rectang	100
enforced	100
outl	100
fluct	100
declines	100
mistakenly	100
rodgers	100
摂	100
humans	100
becky	100
##別	100
ី	100
ე	100
strengthen	100
ܼ	100
flet	100
##icial	100
வ	100
nov	100
broad	100
simultaneously	100
rushing	100
로	100
##壳	100
apartment	100
plural	100
laurent	100
}	100
jud	100
##輝	100
chorus	100
##ross	100
##ᚷ	100
暂	100
narrows	100
pistol	100
##撃	100
ឫ	100
##壽	100
convers	100
##icate	100
##何	100
vince	100
gj	100
##pike	100
pottery	100
##ｌ	100
##orh	100
reflect	100
ｊ	100
致	100
阪	100
##he	100
delta	100
##狸	100
emin	100
plagued	100
drill	100
##islaus	100
肉	100
heir	100
ک	100
packs	100
skills	100
##illon	100
complete	100
##ү	100
箭	100
္	100
beer	100
mexico	100
chartered	100
吞	100
literacy	100
lips	100
expanding	100
ত	100
尉	100
boron	100
##民	100
fruits	100
retains	100
satell	100
finance	100
northward	100
cape	100
lev	100
catastroph	100
sarah	100
ူ	100
##ἶ	100
money	100
牙	100
mechanism	100
achieved	100
2003	100
uncon	100
billion	100
offs	100
##omi	100
†	100
##飛	100
##ulations	100
adequate	100
ek	100
1983	100
beck	100
surviving	100
冠	100
matter	100
##lem	100
treatment	100
̄	100
hundred	100
flem	100
confusing	100
##ista	100
##ference	100
afghan	100
##對	100
taxi	100
alco	100
sins	100
##ら	100
sinatra	100
represents	100
##ndon	100
lou	100
##ician	100
patricia	100
##lusion	100
declined	100
ύ	100
彖	100
力	100
except	100
prim	100
strand	100
epstein	100
##rated	100
1864	100
143	100
exclusion	100
lichtenstein	100
ड	100
distinctive	100
##factory	100
commissioner	100
boats	100
ỉ	100
because	100
##ments	100
mong	100
blade	100
usa	100
##地	100
cultural	100
capture	100
삼	100
secret	100
volunt	100
rené	100
##spec	100
hyderabad	100
squares	100
ancestors	100
assent	100
crash	100
##uj	100
surprise	100
##ts	100
surveys	100
chambers	100
sailors	100
employ	100
divisions	100
soup	100
##rib	100
extrem	100
separation	100
reviews	100
consuming	100
維	100
tribut	100
unexpectedly	100
気	100
masses	100
watching	100
##城	100
venom	100
uefa	100
耳	100
##ぱ	100
##adium	100
##ness	100
playoffs	100
樱	100
traced	100
og	100
葦	100
realms	100
##reg	100
pud	100
府	100
blitz	100
literal	100
##冶	100
渚	100
capac	100
##will	100
##ษ	100
丁	100
病	100
##悦	100
##coe	100
##flies	100
ు	100
mdot	100
doctorate	100
##ශ	100
ņ	100
##慧	100
instruments	100
##enne	100
##ras	100
baro	100
ዛ	100
##ធ	100
urged	100
##沙	100
lindsay	100
pengu	100
##丹	100
suffering	100
memorials	100
sleep	100
occupied	100
##ourg	100
ሓ	100
館	100
##most	100
##坊	100
##製	100
command	100
mysteries	100
recreation	100
supplied	100
macdonald	100
halt	100
modeled	100
ವ	100
213	100
stellar	100
##ught	100
##lets	100
reilly	100
clubs	100
visions	100
ఠ	100
calls	100
arid	100
緬	100
bax	100
concerto	100
phil	100
##ǝ	100
##增	100
##ign	100
license	100
equest	100
##থ	100
based	100
veto	100
##문	100
跳	100
plymouth	100
respiratory	100
##ᚹ	100
seam	100
emmy	100
평	100
##е	100
conj	100
nancy	100
brunswick	100
##yan	100
##ո	100
##投	100
swamp	100
##ql	100
許	100
verge	100
萝	100
泊	100
##ộ	100
sunlight	100
measurement	100
arm	100
artist	100
passing	100
di	100
ech	100
##３	100
##ň	100
areas	100
##元	100
mod	100
internet	100
intermediate	100
##紡	100
davis	100
enabled	100
exhibits	100
courier	100
daily	100
culminated	100
brew	100
广	100
트	100
樓	100
sing	100
治	100
helium	100
depends	100
棚	100
gif	100
##由	100
ő	100
lanthan	100
rutherford	100
chalk	100
叶	100
fueled	100
thur	100
霧	100
touching	100
##у	100
emble	100
鱼	100
butler	100
vend	100
ি	100
##壮	100
hond	100
observatory	100
intercept	100
simpson	100
##d	100
##籌	100
discussions	100
bubble	100
record	100
##ikh	100
immig	100
榛	100
associations	100
耶	100
##雞	100
ventures	100
bk	100
##ata	100
approaches	100
clich	100
celtics	100
castro	100
fast	100
##step	100
ὐ	100
cale	100
ai	100
commando	100
unpre	100
iq	100
preferred	100
##enzo	100
vess	100
lacked	100
ん	100
promot	100
##た	100
soundtracks	100
awarded	100
糊	100
epith	100
microscop	100
direction	100
happened	100
酥	100
receptor	100
##the	100
blocking	100
##ruct	100
##縊	100
squad	100
##ters	100
amy	100
done	100
notable	100
ƙ	100
categ	100
##aha	100
lyd	100
summon	100
##iciently	100
##カ	100
##lah	100
##itted	100
hirosh	100
##ader	100
##iling	100
##ে	100
←	100
punj	100
grab	100
##ishi	100
proportion	100
ń	100
byz	100
sets	100
7th	100
carlton	100
layered	100
sequence	100
teamed	100
瓢	100
##inely	100
催	100
##atis	100
rapids	100
kag	100
19	100
ƒ	100
##ф	100
taxonomy	100
##able	100
sounded	100
employs	100
ĸ	100
adding	100
##rooms	100
##ctica	100
kai	100
##ฟ	100
##zing	100
ᶷ	100
404	100
composer	100
outf	100
colors	100
decline	100
occ	100
芥	100
celtic	100
sci	100
whale	100
mamm	100
##ason	100
##ὶ	100
##oca	100
vampire	100
##钦	100
jar	100
##iti	100
system	100
herman	100
protected	100
독	100
鑒	100
stability	100
arr	100
vision	100
ব	100
##ots	100
1930s	100
ch	100
clo	100
attaining	100
kansas	100
herbert	100
獅	100
headquarters	100
##after	100
##彪	100
##候	100
q	100
flour	100
adoption	100
够	100
rising	100
engr	100
guerrero	100
boxes	100
precision	100
needing	100
have	100
movement	100
ward	100
##aug	100
##ithm	100
edith	100
252	100
beneficial	100
##蛇	100
infinite	100
##lain	100
commissioning	100
##ipel	100
assistance	100
ball	100
##top	100
##aza	100
observations	100
##同	100
embedded	100
##illard	100
##ọ	100
rans	100
##000	100
spokesperson	100
call	100
mushroom	100
baroque	100
flooding	100
##og	100
affirmed	100
##olt	100
hiding	100
antibodies	100
##soft	100
84	100
monroe	100
##uring	100
2002	100
季	100
##omo	100
ia	100
purposes	100
charge	100
遮	100
offers	100
produces	100
道	100
wishes	100
##urg	100
17	100
gilligan	100
sculptor	100
drought	100
zy	100
##ム	100
##com	100
happy	100
nmi	100
metamorph	100
ceremonies	100
astronomer	100
seller	100
持	100
clerk	100
bwv	100
albert	100
##倫	100
##瓜	100
##ut	100
##ae	100
adap	100
schwart	100
voyager	100
##pleas	100
scoring	100
poe	100
deleted	100
ber	100
lawrence	100
₱	100
##itting	100
概	100
amnesty	100
騰	100
##波	100
##ʌ	100
片	100
##门	100
suspended	100
barrett	100
##atherine	100
vib	100
armies	100
##aline	100
ị	100
transcend	100
azerbaijan	100
##powder	100
##enced	100
captained	100
nations	100
##unciation	100
##ag	100
哮	100
instinct	100
safe	100
##pres	100
ћ	100
##咲	100
親	100
diving	100
##ဘ	100
sony	100
montgom	100
ｐ	100
##indy	100
常	100
echoed	100
ireland	100
##cence	100
##硝	100
##oku	100
intake	100
susp	100
魚	100
角	100
sz	100
##ῷ	100
superb	100
##犖	100
thing	100
##ྥ	100
jumps	100
ranking	100
##iz	100
##椛	100
alc	100
筑	100
sponsored	100
４	100
training	100
##沼	100
##eons	100
′	100
zealand	100
##atical	100
##ܠ	100
descended	100
##遺	100
chasing	100
##ञ	100
##=	100
刻	100
maturity	100
irwin	100
various	100
recognizing	100
target	100
##lec	100
fol	100
##ت	100
##炯	100
##vel	100
east	100
pursue	100
迦	100
notice	100
##ét	100
commemorated	100
tourn	100
烙	100
##alam	100
morrison	100
吹	100
logical	100
galactic	100
robbery	100
creator	100
longtime	100
##ele	100
prophecy	100
weakening	100
capped	100
##弾	100
##ӣ	100
♆	100
georgia	100
##gue	100
recovery	100
##ద	100
tac	100
ĥ	100
rico	100
##ember	100
rape	100
柳	100
inters	100
candid	100
##ῶ	100
##pe	100
妹	100
healing	100
gloss	100
hels	100
##bach	100
chang	100
rt	100
termed	100
ŋ	100
郎	100
followers	100
##ܐ	100
trop	100
甫	100
##ゴ	100
##abilities	100
##ihan	100
##ĉ	100
exits	100
thwart	100
outflow	100
འ	100
viral	100
学	100
瑣	100
##quito	100
deserted	100
evid	100
##tery	100
ό	100
during	100
	100
##ὡ	100
𐭕	100
dow	100
cups	100
##ription	100
stripe	100
克	100
tard	100
fred	100
##iers	100
##ܔ	100
antagonist	100
lé	100
##lock	100
always	100
brook	100
ჳ	100
采	100
actin	100
ordin	100
馮	100
colleges	100
resp	100
餅	100
budd	100
deliver	100
festival	100
concurrency	100
##shore	100
vocalist	100
cand	100
##嶋	100
logan	100
lunar	100
near	100
colomb	100
shane	100
overcome	100
ˌ	100
##來	100
lutheran	100
haven	100
医	100
縄	100
posthumous	100
arg	100
wadd	100
镜	100
accurate	100
フ	100
sheridan	100
runway	100
##isp	100
督	100
rb	100
accurately	100
lancashire	100
##銀	100
roman	100
half	100
sergeant	100
dissol	100
scout	100
hungry	100
squid	100
reefs	100
button	100
ṳ	100
vertebrae	100
coll	100
##１	100
##颂	100
enh	100
体	100
consisting	100
##orted	100
cricketers	100
depending	100
hun	100
##ges	100
replaced	100
milo	100
##噛	100
##ads	100
##稔	100
faç	100
##irmed	100
dors	100
##轩	100
ye	100
surgeon	100
stocks	100
philadelph	100
inducted	100
use	100
bankrupt	100
assembly	100
trust	100
კ	100
##而	100
inhg	100
##尔	100
1992	100
rac	100
liquor	100
eminent	100
matches	100
##ँ	100
cam	100
瓜	100
y	100
lovers	100
##в	100
alps	100
avi	100
miranda	100
disillusion	100
##с	100
rep	100
three	100
豹	100
sam	100
##勒	100
##ig	100
li	100
拥	100
dol	100
##え	100
austrians	100
pneum	100
##ć	100
ringo	100
streams	100
革	100
##琮	100
coal	100
underway	100
app	100
inhabit	100
reject	100
rate	100
recalled	100
holders	100
##密	100
thro	100
ぷ	100
smart	100
##厂	100
1830	100
corresponding	100
ϟ	100
##m	100
relax	100
ferr	100
continues	100
##ito	100
##ủ	100
mayer	100
cancelled	100
##aparte	100
##真	100
##20	100
##叶	100
ȷ	100
seism	100
##quez	100
净	100
hu	100
##ared	100
##度	100
噛	100
wives	100
1844	100
버	100
friedrich	100
ģ	100
entries	100
##conn	100
magaz	100
intensity	100
##vey	100
禾	100
絵	100
장	100
deteriorated	100
elegant	100
##bor	100
##ٌ	100
##ong	100
suspicion	100
luck	100
paranormal	100
后	100
decent	100
##owing	100
cambridge	100
##ặ	100
citation	100
奉	100
##ivals	100
##ַ	100
publ	100
protesters	100
##ing	100
##mith	100
##era	100
braath	100
offensive	100
##片	100
watershed	100
deposit	100
efficient	100
owing	100
prair	100
離	100
绅	100
facade	100
ka	100
##chi	100
mard	100
overs	100
jord	100
under	100
periods	100
##odic	100
##rob	100
transm	100
##礼	100
we	100
##ḭ	100
serge	100
patience	100
##owa	100
##愛	100
paras	100
restaurant	100
dual	100
churchill	100
criticism	100
sd	100
humidity	100
##ng	100
nominated	100
憲	100
##射	100
musician	100
supplement	100
resear	100
nect	100
friedman	100
##ᠴ	100
##ర	100
##_	100
⅔	100
ov	100
foul	100
extent	100
##rified	100
##物	100
國	100
股	100
##ises	100
bah	100
strained	100
pale	100
闕	100
manage	100
dakota	100
players	100
wrought	100
##ָ	100
believe	100
##ভ	100
marvel	100
每	100
##ours	100
sell	100
##ʙ	100
favre	100
하	100
premises	100
car	100
##ｐ	100
disc	100
牵	100
##y	100
##ications	100
permanent	100
wearing	100
calgary	100
legends	100
encyclop	100
##ancement	100
##hib	100
##wan	100
anders	100
containing	100
continuity	100
##義	100
ᡴ	100
ろ	100
₴	100
summer	100
##retion	100
duchy	100
届	100
##ht	100
loyalist	100
cites	100
intensifying	100
류	100
##ounted	100
changes	100
chetniks	100
##ล	100
##珙	100
¹	100
fleets	100
##ace	100
纪	100
##羽	100
##ฐ	100
##驁	100
decided	100
nwa	100
pride	100
payne	100
##okee	100
##ulous	100
somewh	100
從	100
producers	100
transp	100
…	100
japan	100
immort	100
prohibition	100
蕭	100
##vester	100
##流	100
pairs	100
##獵	100
ple	100
☽	100
##isations	100
gr	100
##桑	100
week	100
flowing	100
wagon	100
ᶑ	100
##券	100
栗	100
##見	100
##ecut	100
棋	100
und	100
generated	100
statue	100
fighter	100
chop	100
##riages	100
generic	100
premise	100
stanza	100
‖	100
##ῦ	100
##息	100
deities	100
##amorph	100
allen	100
cigarette	100
hidden	100
ju	100
terrace	100
gadd	100
##pro	100
##oring	100
ẵ	100
##vision	100
demonstrates	100
露	100
additional	100
##평	100
light	100
##协	100
##ons	100
instability	100
posthum	100
分	100
dough	100
preview	100
codex	100
徐	100
辰	100
史	100
##ク	100
generators	100
##ୁ	100
ammon	100
ussr	100
please	100
desper	100
##観	100
electric	100
preparation	100
##块	100
reptiles	100
enrollment	100
読	100
jean	100
##hammad	100
壤	100
1886	100
freighter	100
critics	100
injuries	100
crawford	100
stationary	100
newfoundland	100
170	100
ero	100
ク	100
culminating	100
##ֿ	100
ق	100
commissioned	100
bath	100
option	100
##oming	100
frequencies	100
rested	100
tales	100
integrated	100
##uchi	100
##女	100
rochester	100
lands	100
1980	100
moment	100
constitu	100
##て	100
clean	100
inspiration	100
webster	100
頃	100
ア	100
ditch	100
shut	100
##emic	100
logistics	100
##zac	100
chlor	100
##ៀ	100
̯	100
##ы	100
alumn	100
backup	100
##ර	100
crosby	100
lesnar	100
surn	100
fresh	100
##ぜ	100
##妙	100
##ྡ	100
partis	100
affiliated	100
##汇	100
##宣	100
unfortun	100
##easterly	100
44	100
country	100
宵	100
##f	100
##响	100
astrol	100
hans	100
daring	100
##etically	100
leopard	100
eff	100
静	100
activated	100
##མ	100
kill	100
searched	100
##elles	100
挂	100
団	100
ས	100
id	100
ჱ	100
##onian	100
##巡	100
##跖	100
mlb	100
##ira	100
리	100
്	100
ls	100
勃	100
lic	100
##진	100
breakout	100
##outs	100
explorers	100
##key	100
exceed	100
ō	100
ic	100
contributed	100
economics	100
spike	100
apoc	100
modernization	100
activities	100
##medi	100
134	100
榔	100
richmond	100
trap	100
kuala	100
##marks	100
diversity	100
##igo	100
ो	100
##描	100
##換	100
canal	100
##차	100
bure	100
glas	100
1832	100
giant	100
carlos	100
tower	100
bost	100
plaster	100
byrds	100
bets	100
shipw	100
ջ	100
sap	100
##ologic	100
choosing	100
secrets	100
prelimin	100
copies	100
collaborated	100
os	100
##य	100
ῆ	100
holly	100
dust	100
judged	100
540	100
czech	100
ؤ	100
良	100
##繋	100
己	100
##ួ	100
went	100
##wa	100
intense	100
dynamics	100
李	100
thunder	100
impacted	100
ჯ	100
nazis	100
implied	100
toul	100
urine	100
alonso	100
converting	100
tran	100
soundsc	100
ὣ	100
pav	100
assaults	100
generator	100
##献	100
reporter	100
##avel	100
彩	100
xiii	100
ρ	100
pasc	100
newspapers	100
tintin	100
choices	100
beliefs	100
##ove	100
sesame	100
##by	100
##thr	100
eleventh	100
ann	100
ƍ	100
alley	100
stag	100
¯	100
ए	100
northumberland	100
bun	100
discharge	100
iucn	100
nj	100
referred	100
fisc	100
##孛	100
mov	100
painter	100
upset	100
##illion	100
##嚣	100
72	100
##局	100
##ẓ	100
hind	100
educational	100
##isely	100
voltage	100
computing	100
##일	100
normal	100
##esia	100
ease	100
hain	100
homer	100
##ђ	100
metro	100
canyon	100
mumb	100
##х	100
chrono	100
信	100
debris	100
georgetown	100
zhang	100
stays	100
##jj	100
herbiv	100
lewis	100
teammate	100
warned	100
steamer	100
iowa	100
distribute	100
##cil	100
rosa	100
influ	100
贵	100
competent	100
##ox	100
鮑	100
隸	100
prizes	100
##ř	100
agreements	100
yank	100
irregular	100
##anish	100
shows	100
spinal	100
ಲ	100
psp	100
息	100
極	100
c	100
##bon	100
##aldi	100
##empt	100
継	100
associ	100
##ience	100
read	100
rollins	100
beside	100
fossils	100
anim	100
##oman	100
canter	100
గ	100
staff	100
ʻ	100
personalities	100
scholarship	100
##itation	100
jagu	100
197	100
waited	100
slavery	100
shocking	100
owner	100
ɷ	100
message	100
collective	100
仲	100
##owski	100
flexibility	100
蒲	100
match	100
90	100
caus	100
bulls	100
opinion	100
wheeler	100
祀	100
siber	100
ධ	100
譜	100
officer	100
ғ	100
challenged	100
surname	100
da	100
##鍵	100
##idi	100
纯	100
##atar	100
##英	100
1968	100
fbi	100
##ilon	100
super	100
spac	100
triangle	100
丝	100
ꜣ	100
cascade	100
altered	100
requests	100
alexandra	100
##yle	100
ᠰ	100
##館	100
fry	100
reperto	100
intimid	100
1987	100
championships	100
##束	100
α	100
perth	100
back	100
ո	100
cru	100
honest	100
hypothesis	100
##났	100
研	100
caused	100
銀	100
##aya	100
wrist	100
ப	100
holloway	100
total	100
##င	100
oh	100
##𐭕	100
##burn	100
plug	100
甘	100
aust	100
##bl	100
perpendicular	100
monica	100
##erun	100
coincide	100
automatic	100
##奇	100
underwater	100
representative	100
architecture	100
財	100
鰐	100
##"	100
inhabitants	100
wig	100
η	100
##界	100
##iosity	100
roadway	100
recipes	100
鲁	100
bliss	100
##orrow	100
##ശ	100
miles	100
gathered	100
hills	100
tyr	100
cen	100
haun	100
regulations	100
padres	100
wartime	100
pronounced	100
##anti	100
##do	100
##只	100
prospects	100
awa	100
##安	100
overlord	100
##ම	100
##雇	100
lighting	100
breakaway	100
3000	100
lily	100
##uras	100
##歩	100
resurrection	100
nut	100
desperate	100
##や	100
悪	100
lungs	100
寗	100
johnston	100
##胞	100
blu	100
##ling	100
##ි	100
queens	100
##ぽ	100
##iable	100
balanced	100
later	100
veget	100
motte	100
##符	100
granting	100
業	100
older	100
deriv	100
ley	100
##秒	100
bid	100
##bane	100
dispos	100
灵	100
grew	100
figh	100
ske	100
optical	100
benedict	100
colts	100
sway	100
##areness	100
##watch	100
ariel	100
鬪	100
##ership	100
##ោ	100
unanimously	100
##回	100
deport	100
problematic	100
erotic	100
1791	100
satisfaction	100
為	100
cartridge	100
elli	100
ᒡ	100
simple	100
直	100
legion	100
civilization	100
合	100
commun	100
scattered	100
##科	100
##bound	100
pull	100
conviction	100
ү	100
##buster	100
honour	100
manual	100
##幸	100
glam	100
unnecess	100
ful	100
data	100
arbor	100
や	100
braw	100
##ovic	100
##賊	100
stan	100
##une	100
lucrative	100
handheld	100
founding	100
caud	100
archibald	100
##春	100
indirect	100
sov	100
rece	100
chak	100
henderson	100
was	100
##oyne	100
##where	100
ổ	100
断	100
##수	100
isle	100
##uba	100
ž	100
albany	100
propulsion	100
##jack	100
substantially	100
dip	100
##燃	100
provides	100
parish	100
cay	100
원	100
semifinals	100
aber	100
nintendo	100
##yp	100
violations	100
牌	100
seymour	100
afternoon	100
##刷	100
##姑	100
jungle	100
isolation	100
insistence	100
uttar	100
##idency	100
##ibald	100
##宋	100
##만	100
tell	100
精	100
faults	100
preston	100
ら	100
##请	100
servants	100
oklah	100
ಚ	100
能	100
bac	100
##ée	100
抱	100
bears	100
竺	100
combs	100
krak	100
offic	100
accus	100
congress	100
urgent	100
##ष	100
cost	100
##olo	100
magistrate	100
億	100
hamburg	100
„	100
diver	100
##향	100
gamers	100
endorsed	100
帰	100
##明	100
demographic	100
1973	100
concerns	100
subsc	100
gn	100
hits	100
insight	100
##outh	100
fe	100
afterwards	100
##rus	100
##앙	100
marion	100
interfer	100
##spoken	100
catches	100
box	100
##mod	100
##ector	100
detonated	100
尺	100
these	100
okin	100
1952	100
bul	100
薯	100
km2	100
mozamb	100
transactions	100
邓	100
##瑾	100
##af	100
alberto	100
燕	100
##uo	100
mangal	100
哈	100
detention	100
errone	100
ow	100
##裝	100
115	100
considers	100
prem	100
luxembourg	100
receiving	100
##lett	100
nominal	100
cou	100
양	100
scholars	100
##處	100
##ris	100
cinematography	100
breckinridge	100
##li	100
你	100
黒	100
##escope	100
north	100
contrasts	100
eld	100
together	100
臘	100
1828	100
##马	100
##ully	100
##ỵ	100
差	100
##point	100
walsh	100
conduct	100
##蘄	100
##巨	100
##ees	100
##fic	100
##다	100
朋	100
reserve	100
ѯ	100
complaints	100
kidney	100
styled	100
vanguard	100
margar	100
##湯	100
桓	100
length	100
problem	100
market	100
concerned	100
canucks	100
pumping	100
1878	100
backstory	100
research	100
alternatively	100
##ful	100
troops	100
##acked	100
dialect	100
rah	100
eras	100
岛	100
thorium	100
norfolk	100
##isen	100
fauna	100
##ತ	100
##個	100
lil	100
sophisticated	100
##len	100
mo	100
�	100
enroll	100
upward	100
magazines	100
冒	100
##bec	100
brit	100
recordings	100
glasses	100
奇	100
blow	100
buffy	100
诚	100
##頭	100
awards	100
suggest	100
nephew	100
##craft	100
moreno	100
ឋ	100
religious	100
wom	100
##isms	100
156	100
##ማ	100
impedance	100
societies	100
cohen	100
live	100
51	100
##icy	100
##iss	100
compulsory	100
few	100
##room	100
##メ	100
bis	100
豌	100
≥	100
pl	100
格	100
extr	100
malay	100
violation	100
hybrids	100
blown	100
ɜ	100
my	100
ိ	100
feed	100
##己	100
awes	100
##fast	100
true	100
tribune	100
##inem	100
tire	100
稚	100
mountains	100
##น	100
tanks	100
##ounds	100
visited	100
ই	100
나	100
offered	100
reduced	100
##orter	100
##暮	100
focus	100
vanc	100
ruined	100
calm	100
brand	100
sard	100
road	100
heming	100
##乘	100
berger	100
researcher	100
blog	100
measured	100
interactive	100
hick	100
1922	100
harvest	100
stabil	100
##esty	100
organisms	100
touchdowns	100
athens	100
##ュ	100
unified	100
jul	100
barbar	100
笛	100
##タ	100
gibson	100
##ku	100
##odies	100
更	100
特	100
都	100
negative	100
jas	100
##半	100
prompting	100
##仮	100
developers	100
loved	100
gramm	100
merchant	100
vers	100
undergoing	100
lesson	100
✡	100
accept	100
enthusiasm	100
switching	100
border	100
towards	100
##ὐ	100
μ	100
ठ	100
ね	100
##lington	100
management	100
佛	100
##respond	100
壁	100
工	100
goes	100
piers	100
pau	100
acquired	100
##ķ	100
##ဲ	100
neck	100
delegation	100
##i	100
ד	100
##oded	100
dian	100
##emann	100
##廊	100
统	100
##ᛁ	100
nominate	100
##tingu	100
shortages	100
##fest	100
##级	100
sn	100
##市	100
brooks	100
kensington	100
♀	100
##ahl	100
monthly	100
wednes	100
##ribe	100
##bury	100
sons	100
registry	100
their	100
chester	100
##inis	100
##び	100
##mer	100
concent	100
mult	100
prow	100
graphic	100
##े	100
ḳ	100
persons	100
trafford	100
mikhail	100
pakistan	100
##ʿ	100
就	100
march	100
dug	100
hust	100
pel	100
privileges	100
overturn	100
charging	100
椛	100
ɱ	100
potential	100
##ü	100
democrat	100
spans	100
france	100
restrictions	100
diet	100
damascus	100
procession	100
230	100
rudolf	100
##dam	100
hawaii	100
eust	100
&	100
##iv	100
##ius	100
##ca	100
hir	100
scandin	100
##边	100
enzyme	100
##茂	100
torn	100
messages	100
##atore	100
practition	100
##攻	100
kob	100
emanuel	100
motors	100
汤	100
##ghan	100
##onium	100
practice	100
according	100
ቆ	100
shel	100
チ	100
𐎰	100
sexual	100
brian	100
##pled	100
materials	100
##ean	100
wi	100
pursuit	100
reinforce	100
##ooner	100
artific	100
bleeding	100
usc	100
kerrigan	100
tasked	100
##elle	100
outcome	100
##久	100
##ivity	100
flood	100
##hips	100
surre	100
##封	100
ceremon	100
persian	100
짓	100
##loe	100
##言	100
quar	100
渾	100
##동	100
##椰	100
traders	100
gang	100
##osoph	100
##卒	100
##affe	100
canadian	100
##eaux	100
구	100
labeled	100
##sey	100
թ	100
béla	100
soc	100
villain	100
##rest	100
dangerous	100
trailers	100
bringing	100
##ు	100
##oes	100
ᡥ	100
适	100
expressions	100
rockef	100
禎	100
##い	100
三	100
solving	100
keating	100
roosevelt	100
sha	100
##ʱ	100
cann	100
amate	100
##comes	100
partial	100
##tec	100
ড	100
sv	100
##庫	100
gallery	100
antiqu	100
australian	100
蛍	100
threat	100
beng	100
undefeated	100
##ries	100
##ollen	100
moly	100
spectral	100
급	100
##涼	100
岑	100
∑	100
470	100
恵	100
synthetic	100
the	100
##op	100
editing	100
華	100
vu	100
1825	100
convince	100
strict	100
vietn	100
rodrigues	100
litigation	100
communication	100
##isy	100
##ato	100
assured	100
##顏	100
stance	100
颪	100
##ys	100
##ental	100
##戰	100
basic	100
youtube	100
##れ	100
lawsuit	100
##狀	100
##部	100
prosecut	100
wooden	100
sevent	100
vett	100
##rict	100
cheaper	100
preseason	100
##ホ	100
brend	100
##入	100
gunn	100
##岩	100
mbar	100
##刃	100
mos	100
返	100
ю	100
##辭	100
endors	100
錡	100
corpus	100
freak	100
procedure	100
recipient	100
##職	100
郭	100
##uit	100
notion	100
##olics	100
af	100
##agar	100
1998	100
bud	100
鸭	100
##osh	100
ⲁ	100
##ider	100
informal	100
consolidated	100
slovak	100
##thor	100
ீ	100
sharply	100
唐	100
タ	100
##ocy	100
cr	100
##inas	100
filipino	100
##arians	100
maintaining	100
##焦	100
##hyd	100
##伟	100
ant	100
etym	100
nurse	100
town	100
##tym	100
specimen	100
##ন	100
##ugh	100
##を	100
trained	100
saga	100
##points	100
hitter	100
select	100
fellow	100
##远	100
##浜	100
interactions	100
##ե	100
northwest	100
crashes	100
colon	100
peop	100
##積	100
piano	100
truce	100
##灵	100
##当	100
higgins	100
brewer	100
glaston	100
ȝ	100
chau	100
現	100
ling	100
jer	100
##uts	100
##ù	100
##鐸	100
guit	100
mourning	100
lo	100
고	100
marcus	100
evolve	100
truck	100
##olin	100
azerb	100
unusual	100
tna	100
majority	100
shankar	100
anch	100
1946	100
triggered	100
seward	100
identifying	100
##橋	100
ন	100
渠	100
undert	100
potent	100
驗	100
浅	100
prologue	100
蒼	100
adult	100
冥	100
96	100
##uv	100
##werff	100
##ု	100
reaches	100
hail	100
^	100
composition	100
discip	100
##uss	100
execution	100
痛	100
##ear	100
未	100
acad	100
appears	100
ц	100
antilles	100
promotions	100
hier	100
assy	100
arches	100
cubic	100
supre	100
rear	100
migrated	100
##发	100
##ems	100
ⴂ	100
##育	100
ỵ	100
##آ	100
##4	100
##大	100
duchess	100
﻿	100
conning	100
moisture	100
releasing	100
り	100
##促	100
spons	100
##浚	100
##hail	100
##ⵃ	100
竹	100
already	100
ഹ	100
併	100
##mitted	100
##前	100
##use	100
cable	100
##中	100
explain	100
ษ	100
php	100
cellular	100
plenty	100
##ই	100
##idity	100
##过	100
commander	100
hmas	100
digging	100
wor	100
##ザ	100
##omet	100
neigh	100
nominations	100
homet	100
unle	100
ions	100
詩	100
age	100
eleph	100
##harmon	100
##経	100
##歴	100
plains	100
toledo	100
##襲	100
available	100
fifa	100
glasgow	100
accommodation	100
ancest	100
label	100
applic	100
##セ	100
sleeping	100
brezhnev	100
eastenders	100
jen	100
##ody	100
penetrate	100
ment	100
accomplished	100
joining	100
neo	100
rage	100
recept	100
jov	100
volume	100
##oran	100
scler	100
##ැ	100
scheme	100
##gs	100
rebel	100
ฝ	100
##enant	100
ho	100
邊	100
legend	100
nascar	100
obliv	100
##iza	100
neighborhood	100
##ado	100
drew	100
destroying	100
ⴌ	100
xi	100
necessity	100
stood	100
##ood	100
##ぷ	100
considering	100
##议	100
belg	100
richie	100
castles	100
becomes	100
##onn	100
parkway	100
##ω	100
##reen	100
新	100
1954	100
##kr	100
genoc	100
bournemouth	100
##会	100
##amiliar	100
americans	100
##ava	100
##成	100
webs	100
stain	100
lincoln	100
bang	100
invented	100
薊	100
coming	100
vulture	100
screenwriter	100
protector	100
amid	100
亞	100
pour	100
passive	100
wy	100
ecology	100
除	100
##eline	100
##frame	100
purp	100
neither	100
surviv	100
income	100
morton	100
inherent	100
##울	100
sty	100
##ives	100
commended	100
discretion	100
invis	100
##ో	100
##iac	100
ﬁ	100
##ews	100
##ammy	100
徹	100
##紅	100
morn	100
杲	100
್	100
nud	100
管	100
mounting	100
操	100
##,	100
##ស	100
ought	100
##華	100
枯	100
##主	100
bordered	100
grounded	100
##gage	100
eden	100
convent	100
##ギ	100
##opsis	100
victor	100
curriculum	100
davenport	100
trace	100
##uxe	100
brigade	100
stole	100
##戈	100
oriental	100
##estone	100
watts	100
fraud	100
斬	100
##ぶ	100
sina	100
epidemic	100
þ	100
##kh	100
artefacts	100
wins	100
smallville	100
rule	100
brazilian	100
insurance	100
##fare	100
##拐	100
proximity	100
adela	100
stir	100
model	100
rivals	100
##京	100
⊣	100
financing	100
ḕ	100
ɔ	100
horn	100
##19	100
subspecies	100
hart	100
editors	100
305	100
serp	100
##utta	100
expect	100
cuts	100
産	100
##aurus	100
municipal	100
##tha	100
##상	100
progressive	100
massacre	100
periodic	100
detectives	100
香	100
chicago	100
quick	100
avengers	100
timbaland	100
駿	100
##uary	100
ガ	100
atlanta	100
nost	100
##auer	100
##anton	100
루	100
lu	100
eval	100
resources	100
##명	100
漢	100
introduction	100
marie	100
porch	100
##省	100
##rano	100
##iciency	100
触	100
cannon	100
gan	100
pus	100
ʷ	100
servant	100
inver	100
##imin	100
嬴	100
unwilling	100
##isi	100
sharks	100
cure	100
ண	100
habit	100
##ning	100
ശ	100
rall	100
##urers	100
household	100
团	100
invaded	100
administrators	100
##pse	100
family	100
冶	100
##thern	100
選	100
respect	100
##gate	100
comm	100
lub	100
maw	100
traw	100
excerpt	100
anj	100
豊	100
##悟	100
##ibly	100
physician	100
椰	100
##気	100
cavity	100
hurricane	100
clifton	100
glands	100
2010	100
hepburn	100
luft	100
##バ	100
feud	100
visiting	100
burton	100
##ܕ	100
1822	100
##iments	100
des	100
妻	100
archives	100
ain	100
risen	100
yah	100
cement	100
##â	100
##酸	100
thoughts	100
ethanol	100
զ	100
turner	100
տ	100
intends	100
ɪ	100
略	100
grow	100
diagn	100
lü	100
sweeping	100
heaven	100
hinted	100
divide	100
辯	100
##taining	100
##lor	100
panic	100
1860s	100
trit	100
autom	100
radius	100
severity	100
bottle	100
##azar	100
factor	100
~	100
dispute	100
minority	100
##anny	100
scream	100
sunk	100
decisions	100
professor	100
##kie	100
columbus	100
weather	100
daniels	100
missionary	100
##𐎠	100
傘	100
dealing	100
expressing	100
silva	100
##宅	100
答	100
##ὺ	100
soft	100
2005	100
rebounds	100
##亚	100
##wal	100
imagine	100
##opus	100
##emason	100
corruption	100
pitches	100
bor	100
substitute	100
score	100
charm	100
bollywood	100
暁	100
##ersed	100
##타	100
openly	100
sculpted	100
##त	100
##[	100
##烧	100
##atever	100
筆	100
peter	100
ం	100
cor	100
迄	100
⊙	100
##ä	100
##est	100
xbox	100
coat	100
deciding	100
gabri	100
##ា	100
̩	100
plastic	100
continuing	100
tough	100
##ow	100
plent	100
insign	100
##ܒ	100
м	100
̗	100
##ڬ	100
gly	100
schemes	100
ceded	100
fact	100
津	100
##恥	100
airline	100
perman	100
malaria	100
璉	100
郑	100
ோ	100
indicates	100
##ulture	100
ku	100
gener	100
90s	100
pod	100
##efe	100
##富	100
誐	100
searching	100
aaron	100
seventy	100
choral	100
让	100
bombay	100
##ulated	100
庭	100
留	100
1892	100
humour	100
不	100
##ecutive	100
torr	100
1779	100
裁	100
臂	100
arranged	100
trav	100
і	100
ূ	100
似	100
##구	100
##chwader	100
design	100
##irable	100
theology	100
puls	100
az	100
chancel	100
ɟ	100
ⴳ	100
##ue	100
india	100
gave	100
rendered	100
##uters	100
92	100
aux	100
##char	100
extends	100
tej	100
의	100
spani	100
clara	100
surv	100
ヅ	100
ninja	100
pigment	100
jedi	100
##hart	100
peng	100
##建	100
garner	100
ែ	100
failure	100
##仪	100
shad	100
lock	100
##発	100
superin	100
wealth	100
sky	100
rememb	100
##swick	100
詞	100
excl	100
foundation	100
economy	100
dropping	100
样	100
勅	100
超	100
##华	100
##etamine	100
##leen	100
拉	100
overd	100
羅	100
##虎	100
unconstitution	100
##iar	100
##ably	100
##30	100
salts	100
##\	100
##မ	100
nas	100
borg	100
bard	100
##ided	100
wouldn	100
kit	100
##산	100
86	100
atlant	100
hastily	100
ut	100
princess	100
trium	100
amor	100
##惑	100
亜	100
##ption	100
₩	100
cave	100
currency	100
carriages	100
destroys	100
溫	100
betty	100
##oke	100
oc	100
passages	100
カ	100
##aments	100
bre	100
sr	100
##ව	100
investigate	100
prosperity	100
↑	100
→	100
prepare	100
array	100
漸	100
beta	100
formidable	100
functions	100
markets	100
dong	100
##roscop	100
##idence	100
cross	100
instruction	100
radar	100
##昏	100
upanish	100
##ise	100
extensively	100
vir	100
upd	100
##ès	100
##fr	100
compassion	100
##round	100
##の	100
israeli	100
accepts	100
lect	100
disg	100
stel	100
sentences	100
trick	100
neu	100
零	100
state	100
等	100
dolls	100
##iled	100
intrig	100
##enues	100
asia	100
rowland	100
京	100
##ude	100
unse	100
controversy	100
engineer	100
sustainable	100
##šić	100
##抵	100
詠	100
##栄	100
▢	100
norton	100
forbes	100
##ourt	100
##elsen	100
##iga	100
having	100
柏	100
everglades	100
ⴕ	100
letters	100
change	100
##adh	100
∊	100
pearson	100
##ᛟ	100
##හ	100
##boy	100
##önen	100
meadows	100
assignment	100
hur	100
##ノ	100
stained	100
loosely	100
ት	100
##onic	100
trees	100
##ज	100
sake	100
駢	100
lif	100
##boards	100
grun	100
estimated	100
chronicler	100
disturbing	100
nik	100
architects	100
captains	100
##æ	100
shine	100
cord	100
##elier	100
30	100
162	100
evening	100
metre	100
##itis	100
छ	100
institute	100
overrun	100
griev	100
emperor	100
##acs	100
shan	100
ể	100
wad	100
건	100
纲	100
hallow	100
tug	100
windows	100
##泣	100
philosopher	100
colloqu	100
suggesting	100
堯	100
consecutive	100
staging	100
##ზ	100
鏡	100
invest	100
sapph	100
sep	100
23rd	100
##ე	100
##ἲ	100
hypothes	100
pie	100
districts	100
hyde	100
##di	100
oxidation	100
ᡵ	100
##煩	100
regular	100
polish	100
bern	100
noting	100
##ship	100
##pend	100
##arin	100
interchanges	100
intercontinental	100
vowel	100
门	100
빙	100
##図	100
highland	100
##my	100
nem	100
extraordin	100
##opoly	100
conventions	100
	100
##放	100
☉	100
pain	100
nomin	100
runs	100
terms	100
gaps	100
slowed	100
phi	100
##廻	100
##沌	100
regener	100
serving	100
##ir	100
tariff	100
bruins	100
##拍	100
##皙	100
##ظ	100
##ned	100
psi	100
##ym	100
calling	100
reversed	100
##enburg	100
issue	100
vass	100
injury	100
sits	100
ɧ	100
while	100
sells	100
##ل	100
ж	100
]	100
件	100
##ribed	100
galveston	100
dos	100
apparatus	100
doo	100
weekends	100
##ᛞ	100
sometimes	100
effort	100
珙	100
##ோ	100
커	100
##ogue	100
simpl	100
matthew	100
pushed	100
medley	100
候	100
##ḷ	100
旦	100
##够	100
solely	100
##aser	100
##終	100
##eton	100
brooklyn	100
ཀ	100
##棚	100
explor	100
telescop	100
dutch	100
land	100
tox	100
johann	100
reads	100
erected	100
explore	100
##while	100
mystic	100
##筹	100
realistic	100
##玩	100
carnival	100
##計	100
（	100
dozen	100
attractions	100
##berg	100
busiest	100
##ission	100
##ified	100
adverse	100
school	100
elevated	100
fees	100
##札	100
anthony	100
occurring	100
fringe	100
arjona	100
##hardt	100
matters	100
groening	100
reiter	100
##腎	100
##cony	100
##軍	100
##achus	100
##ʳ	100
correctly	100
arena	100
how	100
square	100
tut	100
opponent	100
樛	100
freel	100
##ih	100
demonst	100
similarly	100
saxons	100
freshwater	100
割	100
##柳	100
##zyn	100
coke	100
##怀	100
types	100
1917	100
##炸	100
cage	100
##朋	100
앤	100
脇	100
futur	100
buddy	100
object	100
isab	100
insufficient	100
機	100
##უ	100
currents	100
##梏	100
val	100
forgot	100
charters	100
maya	100
ke	100
##킨	100
unfair	100
##p	100
forestry	100
troop	100
ੇ	100
pavilion	100
ǂ	100
##uling	100
rehabilitation	100
nero	100
114	100
choreograph	100
atlantic	100
slavic	100
territories	100
營	100
雞	100
550	100
suspect	100
##ཁ	100
vac	100
outskirts	100
edu	100
usually	100
familiar	100
formula	100
##ئ	100
heather	100
##н	100
##uru	100
melbourne	100
drifted	100
oversee	100
##inished	100
likelihood	100
ה	100
サ	100
victim	100
excavation	100
##ne	100
rites	100
ദ	100
##onto	100
dose	100
items	100
business	100
##腿	100
patterns	100
hill	100
ව	100
infect	100
prosth	100
enables	100
##辰	100
斎	100
stunning	100
ghost	100
લ	100
##점	100
theat	100
displ	100
unpop	100
dramatic	100
∗	100
manoeuv	100
livingstone	100
स	100
fat	100
##unes	100
discrimin	100
е	100
vinc	100
cream	100
##orse	100
ʰ	100
##ontinental	100
bayern	100
machin	100
orchest	100
##ed	100
ش	100
##ving	100
inner	100
fer	100
̞	100
房	100
가	100
florida	100
allies	100
nom	100
grounds	100
interviewed	100
kiel	100
ns	100
##징	100
prevailing	100
##izz	100
mech	100
無	100
蕩	100
connecting	100
flanders	100
wrath	100
##istical	100
subur	100
loses	100
##産	100
connects	100
shadows	100
chose	100
segments	100
repetitive	100
##課	100
gibbs	100
martial	100
1837	100
sentiments	100
undergraduate	100
1899	100
edinburgh	100
##osp	100
expert	100
##olly	100
##ค	100
##ネ	100
arts	100
##theless	100
gong	100
勝	100
6th	100
although	100
tig	100
##roid	100
##ҷ	100
##漫	100
##ipping	100
##imir	100
响	100
joint	100
ள	100
incredibly	100
supporters	100
bian	100
志	100
##խ	100
rather	100
mour	100
climax	100
synthesized	100
milk	100
熊	100
##pool	100
ˢ	100
soprano	100
genocide	100
##sis	100
198	100
##side	100
explanation	100
reunion	100
notified	100
wehrmacht	100
concepts	100
##ϟ	100
everyone	100
cutting	100
ups	100
convoy	100
organs	100
noel	100
devast	100
##rosse	100
supporter	100
projected	100
magnet	100
##賦	100
##fe	100
福	100
involvement	100
genev	100
ⵇ	100
pictures	100
##chen	100
marker	100
##imet	100
burrows	100
給	100
##ि	100
mist	100
predominantly	100
词	100
generation	100
##mb	100
psyched	100
snap	100
##桐	100
ʝ	100
ڈ	100
##ĩ	100
醫	100
2012	100
婁	100
job	100
##雄	100
##abi	100
##տ	100
demonstrate	100
湾	100
muss	100
ref	100
rematch	100
##ખ	100
hoff	100
probability	100
savings	100
columbia	100
promise	100
slow	100
consumer	100
ɨ	100
巂	100
1843	100
resur	100
##unch	100
struggling	100
protecting	100
smile	100
checks	100
minerals	100
disliked	100
penned	100
##lu	100
once	100
operative	100
jenkins	100
##ort	100
socially	100
蔭	100
nichols	100
admission	100
shield	100
##inks	100
toyota	100
als	100
layers	100
##luded	100
buff	100
asking	100
##edo	100
##脚	100
unconv	100
introduced	100
boeing	100
ม	100
rich	100
organism	100
ﷲ	100
mcm	100
ኲ	100
rio	100
gain	100
exchanged	100
beloved	100
bury	100
##づ	100
##we	100
spir	100
球	100
adds	100
appropri	100
¢	100
##unt	100
lobby	100
##itational	100
enterprises	100
ဘ	100
##莘	100
darius	100
烦	100
廊	100
灯	100
glory	100
louise	100
、	100
堀	100
route	100
discontin	100
昏	100
##筍	100
寧	100
exhibitions	100
hast	100
nr	100
籠	100
##ễ	100
dinosaurs	100
195	100
##ள	100
exact	100
czechoslovakia	100
pianist	100
gemini	100
過	100
chocol	100
ಸ	100
anxious	100
##聃	100
亅	100
sansk	100
qf	100
participant	100
brick	100
pole	100
fitzger	100
217	100
ｇ	100
refit	100
##print	100
##乐	100
opened	100
ാ	100
photos	100
treatments	100
wallach	100
sparta	100
post	100
盆	100
イ	100
simp	100
##don	100
catholics	100
fortification	100
hap	100
模	100
勘	100
##巻	100
##ര	100
listed	100
playwright	100
heads	100
鉦	100
spotlight	100
particle	100
both	100
##净	100
##iot	100
##chan	100
scholar	100
batista	100
descending	100
scale	100
##ocr	100
路	100
aerospace	100
hub	100
囃	100
ö	100
孩	100
周	100
发	100
geoff	100
##ef	100
##ariat	100
凯	100
而	100
interested	100
approaching	100
ᚼ	100
##organ	100
strip	100
archaeological	100
foremost	100
synth	100
confirmed	100
廿	100
joe	100
fictional	100
flor	100
##号	100
##ਿ	100
五	100
##lish	100
catalogue	100
##dt	100
sparse	100
terrible	100
mach	100
##agan	100
##拉	100
##臚	100
infrastructure	100
machines	100
mé	100
aims	100
##sole	100
##vy	100
##50	100
blowing	100
737	100
dismissed	100
bend	100
parallel	100
phylogenetic	100
ܒ	100
starr	100
clair	100
铜	100
##ổ	100
scarborough	100
ਜ	100
續	100
അ	100
tenants	100
翹	100
##鼠	100
hunter	100
##ichi	100
芒	100
brig	100
藕	100
##sk	100
rena	100
detailed	100
cowboys	100
##リ	100
returned	100
borneo	100
extraction	100
##light	100
prinz	100
##ime	100
occupation	100
richard	100
¥	100
shap	100
causes	100
##ta	100
diseases	100
齊	100
yout	100
venture	100
programs	100
awkward	100
employer	100
##enge	100
ca	100
溶	100
##recht	100
200	100
liberal	100
finishing	100
rebell	100
viruses	100
hes	100
preceding	100
trench	100
cambodia	100
manuscripts	100
upstream	100
##kend	100
carriers	100
pursued	100
preserve	100
兆	100
ى	100
religion	100
##綸	100
might	100
document	100
##rance	100
signatures	100
ratt	100
population	100
##唄	100
delhi	100
ambush	100
##徽	100
british	100
##砖	100
elis	100
for	100
ග	100
caled	100
carib	100
none	100
flank	100
chile	100
thereby	100
##告	100
##动	100
two	100
­	100
##教	100
##uch	100
麥	100
radiation	100
cir	100
warship	100
勢	100
對	100
restoring	100
istanbul	100
solved	100
avant	100
subfamily	100
拏	100
##ville	100
##勃	100
badly	100
島	100
##ais	100
tatt	100
populous	100
ᾰ	100
cres	100
gott	100
script	100
deception	100
nag	100
credit	100
onstage	100
##xi	100
pa	100
##瑜	100
##生	100
ceasefire	100
妇	100
repairs	100
rotating	100
24	100
naruto	100
##garian	100
σ	100
##ò	100
chaplin	100
tort	100
euras	100
##champ	100
##ond	100
##aid	100
##부	100
##东	100
sab	100
feminine	100
parl	100
kilometers	100
767	100
guys	100
201	100
穎	100
revers	100
豐	100
rufus	100
ɾ	100
禁	100
##vie	100
accepted	100
spirits	100
1949	100
bedford	100
昂	100
advisories	100
reset	100
ֵ	100
67	100
##駒	100
guarant	100
##ns	100
exper	100
investigations	100
nablus	100
penalties	100
##ogne	100
##ount	100
ร	100
##征	100
sings	100
rum	100
##葉	100
驚	100
mosque	100
##ency	100
avenue	100
##ongh	100
ist	100
凌	100
##莎	100
kon	100
##ping	100
##add	100
mysore	100
gray	100
##hn	100
electrical	100
premature	100
cousins	100
fow	100
##崖	100
commentators	100
marilyn	100
hectares	100
1960s	100
ъ	100
olivier	100
##ৰ	100
resistant	100
evan	100
primarily	100
beij	100
##謝	100
pants	100
communist	100
##昭	100
precisely	100
##ression	100
##所	100
olympic	100
rad	100
##ners	100
aeron	100
##iae	100
##daughter	100
鹽	100
rivera	100
pleas	100
spoke	100
木	100
connection	100
browning	100
##遁	100
##匹	100
##ś	100
biz	100
albanian	100
salvador	100
laf	100
cadet	100
ω	100
fries	100
tru	100
გ	100
greens	100
loud	100
shearer	100
##办	100
exited	100
鞍	100
attribute	100
##yn	100
depth	100
##ח	100
evangel	100
kron	100
##ح	100
whistle	100
gun	100
##ឹ	100
policy	100
municip	100
##証	100
scary	100
##aph	100
endings	100
##杲	100
眞	100
creat	100
##active	100
cove	100
truss	100
gallip	100
endang	100
##瑠	100
coloss	100
##助	100
listened	100
145	100
##လ	100
pity	100
mccay	100
佳	100
canberra	100
ou	100
butterfly	100
º	100
##]	100
critical	100
##izations	100
viii	100
##lam	100
legendary	100
##ៈ	100
枭	100
luc	100
speaks	100
consecrated	100
dock	100
damage	100
##yards	100
##語	100
dogs	100
definite	100
##画	100
afraid	100
challenge	100
baltic	100
##rick	100
vil	100
altar	100
##靂	100
##하	100
##蝶	100
##assment	100
##acre	100
contender	100
torpedoed	100
xen	100
##ular	100
princip	100
靖	100
venet	100
##十	100
##inged	100
##禎	100
##pat	100
occup	100
artificial	100
影	100
##iques	100
reconcile	100
´	100
lit	100
ղ	100
鞋	100
meaning	100
chie	100
progr	100
places	100
proves	100
berk	100
ി	100
courtyard	100
昔	100
橫	100
football	100
burnham	100
portug	100
##晉	100
thresh	100
ા	100
cameras	100
obst	100
technology	100
უ	100
histor	100
gar	100
pend	100
##adal	100
reconstruct	100
confederates	100
sihan	100
spearhead	100
##ம	100
cameron	100
ἴ	100
≲	100
muddy	100
##ϕ	100
##ion	100
##ously	100
##onymous	100
##iks	100
##ism	100
elliot	100
##van	100
##elia	100
typically	100
ṽ	100
##ial	100
billy	100
merger	100
biographer	100
bohem	100
lah	100
ো	100
gö	100
##底	100
macl	100
incorrectly	100
創	100
为	100
ဆ	100
cash	100
屯	100
ὃ	100
צ	100
james	100
##ür	100
##pert	100
##交	100
traces	100
##降	100
##ates	100
collaps	100
vinyl	100
mesa	100
jin	100
norwich	100
athe	100
install	100
sutherland	100
arist	100
‼	100
special	100
raiding	100
avo	100
ખ	100
拟	100
##秘	100
##信	100
ster	100
oy	100
petroleum	100
twisted	100
trade	100
식	100
raaf	100
interceptions	100
诉	100
##aut	100
協	100
##anded	100
fined	100
passer	100
##慶	100
theory	100
##ˀ	100
property	100
tract	100
oxid	100
承	100
##plus	100
storage	100
unre	100
⊗	100
mercury	100
ஆ	100
def	100
russians	100
rebuilt	100
spectacle	100
fc	100
hamlin	100
##antic	100
##l	100
commented	100
shirt	100
747	100
volumes	100
gambling	100
chrom	100
lateral	100
financial	100
##県	100
##న	100
soph	100
thousand	100
diverted	100
##ellow	100
ludwig	100
唯	100
##tim	100
##ivided	100
rut	100
ಱ	100
話	100
##mark	100
manufacturer	100
eliminate	100
逆	100
်	100
##ִ	100
##典	100
##rious	100
##堡	100
§	100
##叔	100
spit	100
eternal	100
lid	100
bottom	100
predecessor	100
##edia	100
ḗ	100
##鋒	100
resist	100
ः	100
tro	100
wors	100
destructive	100
##suit	100
巴	100
priest	100
罰	100
tracked	100
##査	100
rook	100
ariz	100
wulf	100
crucifix	100
109	100
gram	100
##rh	100
cair	100
##遊	100
̈	100
dele	100
##赭	100
continuous	100
本	100
tying	100
resolve	100
刘	100
acting	100
##畑	100
##喜	100
since	100
##olved	100
ᵗ	100
survived	100
fatalities	100
##ᡥ	100
##inty	100
disag	100
失	100
twent	100
##론	100
##uky	100
寝	100
『	100
##gam	100
坊	100
ely	100
dest	100
substrate	100
gradient	100
structure	100
ronnie	100
spokes	100
##terson	100
##磅	100
bru	100
##沛	100
##u	100
##键	100
treat	100
##iatus	100
nutri	100
marin	100
vacu	100
ℝ	100
̀	100
ฉ	100
移	100
##erver	100
dive	100
associated	100
##觀	100
##ង	100
quag	100
##ub	100
questioning	100
anast	100
##etary	100
212	100
##11	100
administrative	100
lindwall	100
middle	100
##elor	100
徽	100
wan	100
mariah	100
fundamental	100
pedestrian	100
##琬	100
##ilt	100
murphy	100
避	100
jacket	100
definition	100
弟	100
banner	100
##);	100
뿐	100
lester	100
tense	100
assumes	100
networks	100
failed	100
malagasy	100
extinct	100
distingu	100
sail	100
dean	100
otter	100
avail	100
claus	100
rebecca	100
spelled	100
schul	100
dispatch	100
##令	100
leop	100
ὸ	100
##encies	100
ἀ	100
矯	100
retro	100
evol	100
enforce	100
worth	100
##紀	100
터	100
免	100
##ā	100
ོ	100
cardiff	100
漆	100
##嶼	100
##istically	100
supportive	100
koh	100
deeper	100
suffix	100
reducing	100
遍	100
##aul	100
##滅	100
sent	100
missing	100
gallant	100
剑	100
##ner	100
entire	100
kings	100
skill	100
##暴	100
##จ	100
##ensis	100
faces	100
localization	100
然	100
asylum	100
ding	100
elaborated	100
馬	100
edged	100
ger	100
turrets	100
##き	100
totally	100
凶	100
勾	100
evacuated	100
festivals	100
aberdeen	100
echoes	100
⅞	100
feelings	100
committee	100
examination	100
artif	100
unders	100
paraly	100
tae	100
landowners	100
paus	100
##bin	100
ʠ	100
β	100
aug	100
د	100
wesley	100
##iest	100
licensing	100
##aram	100
woll	100
ming	100
##풍	100
˞	100
conspic	100
clash	100
incent	100
trams	100
germanic	100
##川	100
##alg	100
作	100
##稷	100
slope	100
铁	100
attitude	100
sporadic	100
ｰ	100
requiem	100
abstract	100
lana	100
filled	100
27	100
ਦ	100
dec	100
##rik	100
appl	100
sole	100
deserv	100
summers	100
##hip	100
dolphin	100
caes	100
##ements	100
succeeding	100
縣	100
nebula	100
##ories	100
##me	100
reward	100
ŵ	100
##俊	100
##tershire	100
erie	100
##ョ	100
##nik	100
volcanic	100
光	100
1200	100
asset	100
##処	100
ensued	100
reigning	100
##rit	100
##ignment	100
relative	100
delaware	100
##東	100
##縄	100
衝	100
wh	100
trough	100
卦	100
##희	100
wisc	100
鵡	100
suit	100
##pr	100
kern	100
ց	100
parameter	100
dop	100
compar	100
imag	100
##apolis	100
¡	100
##町	100
accused	100
rainfall	100
##lia	100
vic	100
‛	100
var	100
linked	100
jes	100
rankings	100
avalanche	100
##arked	100
bakshi	100
organic	100
##ival	100
tibet	100
₫	100
##americ	100
disposal	100
##str	100
pioneers	100
予	100
ܝ	100
##asses	100
##odon	100
##ֵ	100
format	100
##奏	100
##건	100
23	100
its	100
complet	100
##ṉ	100
wal	100
##av	100
behaviour	100
##lessness	100
mosc	100
nicknamed	100
篤	100
酱	100
rij	100
delay	100
interven	100
##lud	100
madame	100
##尉	100
づ	100
31	100
pizza	100
feels	100
##유	100
regiments	100
##耳	100
##ine	100
overturned	100
times	100
designers	100
filling	100
improved	100
aspir	100
shooting	100
arrive	100
links	100
##iors	100
ampl	100
instit	100
electro	100
##ί	100
atomic	100
280	100
##ficial	100
statutes	100
锡	100
ឪ	100
##onsin	100
##cement	100
麵	100
arte	100
draws	100
hors	100
##焉	100
taxon	100
elk	100
闯	100
mac	100
碩	100
trigg	100
莲	100
lowest	100
trenches	100
carpet	100
mere	100
##舟	100
##iri	100
##ding	100
##psy	100
symptoms	100
1802	100
germ	100
initiative	100
handled	100
rendition	100
##震	100
books	100
chair	100
ب	100
##em	100
everywhere	100
##ᶴ	100
3ds	100
called	100
##ល	100
ୁ	100
ending	100
convinc	100
destinations	100
extrav	100
veloc	100
ս	100
巫	100
##지	100
##း	100
pregnancy	100
competitor	100
⋆	100
##銖	100
##ublin	100
sass	100
โ	100
修	100
煙	100
hammond	100
minim	100
isol	100
1969	100
##oard	100
##wald	100
ء	100
##ல	100
leg	100
ѣ	100
雷	100
##瓷	100
prom	100
approximately	100
normally	100
ಗ	100
transl	100
ion	100
##靖	100
inch	100
struggled	100
##aven	100
1879	100
installations	100
畫	100
观	100
showed	100
##asse	100
prec	100
glob	100
warwick	100
norm	100
##oko	100
##限	100
ḵ	100
##alus	100
michelle	100
ecos	100
banana	100
##ulum	100
monsters	100
col	100
玲	100
##gn	100
曜	100
##s	100
ჵ	100
tchaikovsky	100
##rops	100
lanc	100
ninet	100
portraying	100
##ِ	100
graded	100
brandon	100
slated	100
##ifix	100
erupted	100
dining	100
##thy	100
1928	100
儀	100
vocabulary	100
久	100
heath	100
후	100
##related	100
philadelphia	100
breeding	100
hath	100
setup	100
portions	100
##iful	100
western	100
stranded	100
##원	100
raptors	100
##脂	100
kilometres	100
##毬	100
denial	100
ೞ	100
##amental	100
quot	100
profitable	100
remix	100
소	100
##伯	100
kitch	100
application	100
conveyed	100
lacks	100
denomin	100
##ines	100
##ʃ	100
anat	100
##opot	100
indeed	100
##du	100
람	100
booth	100
##itch	100
##head	100
coach	100
ΐ	100
##uto	100
朏	100
*	100
barrel	100
費	100
##akon	100
immature	100
née	100
##ă	100
soon	100
##plant	100
cosmic	100
lloyd	100
investigated	100
wales	100
awak	100
miners	100
##謀	100
##cu	100
##好	100
aguilera	100
##irt	100
operational	100
##ɹ	100
##亀	100
prey	100
あ	100
##rar	100
statute	100
deliv	100
ై	100
inad	100
##bell	100
sigismund	100
novak	100
jail	100
ῖ	100
passeng	100
purple	100
reynolds	100
128	100
##cc	100
determ	100
pur	100
##ա	100
##ா	100
neighbour	100
manusc	100
robot	100
苑	100
complex	100
❅	100
affinity	100
incompet	100
finding	100
##旋	100
209	100
よ	100
권	100
ш	100
moder	100
clearly	100
gab	100
##ck	100
forest	100
european	100
splash	100
narr	100
##aska	100
interfered	100
malaysia	100
hon	100
nato	100
হ	100
##売	100
360	100
spaniel	100
trucks	100
##erm	100
overlooking	100
lethal	100
##hd	100
de	100
##ations	100
carrying	100
104	100
##ి	100
fidel	100
far	100
jointly	100
remind	100
lancash	100
enthusiastic	100
fortun	100
##근	100
∆	100
distributor	100
##anson	100
brass	100
subsidies	100
performance	100
##amous	100
petition	100
149	100
pm	100
uncommon	100
##ж	100
synthesis	100
heroine	100
铭	100
jewish	100
creek	100
复	100
##ণ	100
##雙	100
retired	100
robin	100
tommy	100
unav	100
midnight	100
mitochond	100
##leaf	100
nostalg	100
##ὣ	100
transit	100
ܙ	100
##cul	100
realised	100
zimbabwe	100
ranks	100
peters	100
neptune	100
ា	100
incredible	100
roost	100
##ᠰ	100
②	100
ต	100
dartmouth	100
willingness	100
tear	100
##tles	100
sp	100
chains	100
hyd	100
##aka	100
cd	100
charity	100
yd	100
inade	100
렬	100
historic	100
boris	100
了	100
monitoring	100
敷	100
honoured	100
unstable	100
spotted	100
ề	100
sexes	100
##ے	100
more	100
献	100
user	100
pant	100
pro	100
航	100
gust	100
##ꦂ	100
primetime	100
fused	100
orleans	100
ପ	100
##ố	100
oper	100
certified	100
粥	100
##master	100
鯖	100
epit	100
são	100
branches	100
unidentified	100
leone	100
cond	100
athlet	100
ය	100
##omp	100
standard	100
midway	100
eisenhower	100
##标	100
severely	100
conspirators	100
onset	100
₃	100
tottenham	100
authorized	100
##ì	100
δ	100
租	100
housew	100
sandy	100
enable	100
neighborhoods	100
165	100
##守	100
ideals	100
horses	100
##綺	100
presbyterian	100
environment	100
グ	100
plan	100
jane	100
##esco	100
influential	100
chal	100
gear	100
론	100
certificate	100
期	100
slaughter	100
self	100
approve	100
##親	100
rachel	100
extinction	100
pra	100
bailey	100
##实	100
##agnetic	100
ं	100
##ġ	100
harm	100
陵	100
isotope	100
##text	100
contributing	100
塘	100
##olds	100
tolerance	100
titular	100
turkey	100
cracks	100
##級	100
kamp	100
##emen	100
phrases	100
##oun	100
##表	100
prediction	100
eli	100
party	100
fant	100
##afa	100
navigation	100
absol	100
circle	100
breck	100
##ergy	100
successor	100
trapped	100
##isha	100
burd	100
nab	100
ĕ	100
##ordination	100
##鋪	100
##桜	100
russia	100
castle	100
·	100
##fted	100
voiced	100
##ographical	100
contr	100
spending	100
##ellery	100
##剣	100
##imp	100
spend	100
havilland	100
franco	100
##ension	100
##adi	100
##post	100
shout	100
remarkable	100
chet	100
narc	100
jum	100
andr	100
reclass	100
圏	100
observes	100
##chez	100
stump	100
ij	100
##oks	100
伸	100
blond	100
inappropriate	100
ဗ	100
##zeg	100
ḫ	100
杜	100
##命	100
somet	100
ren	100
ℓ	100
ᾷ	100
cf	100
joc	100
customer	100
blank	100
geneva	100
天	100
℃	100
佐	100
##illus	100
毫	100
marched	100
controvers	100
decim	100
1958	100
malaya	100
educ	100
##odynam	100
oste	100
progressively	100
##try	100
靈	100
##杖	100
##背	100
bye	100
##舞	100
桂	100
##ヒ	100
derby	100
ч	100
commodore	100
##ɫ	100
restricted	100
thrust	100
##ḩ	100
reached	100
gusts	100
##ye	100
##灣	100
策	100
峰	100
songwriters	100
consulting	100
##ibal	100
cerem	100
##nie	100
，	100
convincing	100
delivery	100
##端	100
veronica	100
brisbane	100
##assis	100
desert	100
studying	100
柱	100
##ө	100
chemical	100
室	100
cour	100
##憑	100
indians	100
liter	100
chap	100
##念	100
##竇	100
##阁	100
č	100
fitting	100
despite	100
##icating	100
茶	100
extracted	100
##ér	100
##abl	100
表	100
conte	100
籃	100
昌	100
veteran	100
implying	100
fals	100
##bn	100
溪	100
##illy	100
्	100
远	100
z	100
霜	100
##ution	100
tie	100
##艳	100
##報	100
##aks	100
##磲	100
饾	100
strateg	100
arch	100
receip	100
subordinate	100
##漁	100
soviet	100
hydraulic	100
##stri	100
𒀯	100
##za	100
rescued	100
allowed	100
funn	100
melodic	100
桐	100
algor	100
killer	100
##minster	100
reviewed	100
킨	100
##隱	100
塞	100
bacon	100
viewership	100
ֲ	100
diego	100
engines	100
bain	100
cocon	100
labels	100
ɑ	100
瑪	100
mud	100
##amoto	100
reh	100
kink	100
##利	100
##so	100
alfred	100
washington	100
roads	100
popularly	100
champ	100
them	100
sf	100
reli	100
讼	100
΄	100
##似	100
archae	100
everton	100
ideas	100
領	100
availability	100
enrolled	100
##ija	100
prostit	100
狱	100
curve	100
served	100
paleont	100
##agu	100
##婆	100
deg	100
ヲ	100
hoy	100
latter	100
shuttle	100
plumage	100
悠	100
숫	100
pecul	100
procl	100
##aho	100
dud	100
##edon	100
##ﮮ	100
suspected	100
jub	100
lord	100
##aming	100
##음	100
侗	100
vernon	100
500	100
ȯ	100
silk	100
inception	100
yas	100
neut	100
##b	100
teaser	100
pad	100
rev	100
screened	100
leng	100
ʹ	100
權	100
acknowled	100
ǝ	100
genu	100
匹	100
##ដ	100
proceeding	100
challenger	100
##giving	100
##fo	100
##溜	100
ineffective	100
feet	100
##atives	100
walton	100
mood	100
puff	100
cinema	100
maneuvers	100
##ø	100
##布	100
姬	100
祖	100
stripes	100
hag	100
##놔	100
pros	100
maurice	100
識	100
campbell	100
63	100
##igs	100
dispro	100
crypt	100
筹	100
偵	100
phall	100
ሐ	100
nath	100
⑤	100
ballet	100
蘭	100
##優	100
##劃	100
##ය	100
trio	100
offer	100
landmark	100
rice	100
##otus	100
##can	100
##lee	100
ṅ	100
airport	100
detained	100
##enko	100
unfortunately	100
theories	100
翡	100
mighty	100
##憲	100
##oki	100
embarr	100
𐭃	100
ice	100
liberty	100
##oric	100
執	100
##mie	100
##ɦ	100
effective	100
spontaneous	100
澄	100
##窟	100
ę	100
silence	100
98	100
##ović	100
knee	100
##特	100
protests	100
bother	100
##指	100
glad	100
and	100
physics	100
##ingu	100
í	100
precurs	100
rer	100
tum	100
##arte	100
##box	100
罗	100
seventeenth	100
ồ	100
amassed	100
##act	100
spot	100
soul	100
succ	100
##wara	100
##ה	100
arizona	100
hastings	100
ambrose	100
##ver	100
meridian	100
硝	100
gord	100
compat	100
pray	100
dism	100
##ฉ	100
##ated	100
athlete	100
##{	100
cab	100
弘	100
frigates	100
voting	100
vishn	100
shot	100
punish	100
##oya	100
dob	100
reluctantly	100
scav	100
ß	100
##桧	100
namely	100
##人	100
beaches	100
military	100
planet	100
##鴣	100
##ali	100
mine	100
##食	100
柩	100
vis	100
biological	100
mü	100
buying	100
##arre	100
skating	100
叔	100
thanks	100
lenin	100
##ং	100
gome	100
##ocre	100
##atter	100
rif	100
##에	100
##ecki	100
垣	100
##ević	100
maintains	100
outc	100
final	100
##旦	100
housed	100
jennifer	100
learn	100
scottish	100
negoti	100
string	100
##ennial	100
##洋	100
##贞	100
##需	100
monasteries	100
contrary	100
aluminium	100
galax	100
paired	100
join	100
cycl	100
umpire	100
辺	100
infants	100
accounts	100
philosophy	100
##ou	100
hal	100
hairs	100
gallons	100
##阳	100
ꜩ	100
##營	100
##day	100
suburban	100
celebrating	100
ibrahim	100
##opol	100
whether	100
##ɑ	100
crown	100
gentle	100
interior	100
beauty	100
theft	100
lust	100
gravitational	100
returning	100
sydney	100
##men	100
drain	100
sag	100
fulfilled	100
misch	100
##rip	100
##ड	100
cells	100
relief	100
vermont	100
warmer	100
##ances	100
##栗	100
copenhagen	100
ᠵ	100
##𐎢	100
강	100
duties	100
##raged	100
invalid	100
##錡	100
unh	100
photographer	100
##フ	100
tension	100
埔	100
algorithm	100
eats	100
骸	100
##数	100
shares	100
1990	100
theatres	100
##lla	100
lawsuits	100
##olit	100
פ	100
##aneous	100
##ccess	100
##ogist	100
##荼	100
##oa	100
pseudo	100
1950	100
acknow	100
##ً	100
repeat	100
....	100
flights	100
irons	100
##ฑ	100
inmates	100
gran	100
猛	100
improper	100
##ison	100
##wulf	100
ፈ	100
##宁	100
放	100
generating	100
naked	100
avoiding	100
ួ	100
1964	100
##ֱ	100
《	100
ჹ	100
kling	100
falcons	100
偏	100
spots	100
muscles	100
literally	100
单	100
##ც	100
harrison	100
l	100
ⴈ	100
##ince	100
till	100
stark	100
##글	100
propose	100
kab	100
capability	100
praising	100
ほ	100
stones	100
##eness	100
singap	100
abdul	100
##essions	100
probable	100
selecting	100
talent	100
贝	100
integer	100
purs	100
vienna	100
pilgrim	100
withstand	100
brownish	100
prominence	100
taunton	100
枝	100
##沽	100
newton	100
limestone	100
mates	100
clans	100
mistake	100
葛	100
du	100
only	100
卢	100
watches	100
risks	100
##愁	100
baptism	100
distribution	100
jurisd	100
coh	100
sailing	100
##注	100
奴	100
wester	100
worthy	100
##borough	100
入	100
typ	100
亦	100
notre	100
teenagers	100
##olan	100
fascist	100
defeat	100
##rimination	100
##gence	100
flanks	100
##ml	100
ऋ	100
抜	100
diffic	100
げ	100
##rack	100
##ual	100
altitudes	100
##mium	100
183	100
薩	100
anywhere	100
##罗	100
##渣	100
earning	100
430	100
pike	100
”	100
##öl	100
hue	100
ј	100
lumber	100
ĩ	100
readily	100
estim	100
recognized	100
sisters	100
closely	100
enjoys	100
dixon	100
cannons	100
peterson	100
sexuality	100
##occ	100
skirm	100
赤	100
overt	100
lighth	100
tik	100
carey	100
##伴	100
##inth	100
stone	100
combine	100
##0s	100
线	100
棺	100
dig	100
葆	100
livestock	100
##樓	100
nomura	100
court	100
券	100
1826	100
nolan	100
##制	100
##霰	100
##pet	100
##区	100
板	100
cooperative	100
##窓	100
##and	100
knowing	100
ramsay	100
##ひ	100
@-@	100
intersecting	100
ὄ	100
胴	100
##幕	100
experts	100
soror	100
束	100
##𐎺	100
##in	100
shocked	100
repet	100
យ	100
##ogenic	100
##ment	100
cycles	100
ɯ	100
hampered	100
dockyard	100
oak	100
##gren	100
根	100
à	100
versailles	100
ぎ	100
min	100
##가	100
[UNK]	100
wilmington	100
hiv	100
merc	100
83	100
shoulders	100
translations	100
longer	100
##elyn	100
և	100
descendants	100
hey	100
angus	100
lent	100
ramb	100
revisions	100
##agger	100
nickel	100
湯	100
132	100
arose	100
farmland	100
ϵ	100
plank	100
team	100
dams	100
棟	100
##iev	100
inj	100
passionate	100
ಮ	100
眼	100
##旅	100
铺	100
##陶	100
sto	100
johns	100
partition	100
冫	100
枚	100
158	100
恋	100
happiness	100
result	100
네	100
instructions	100
surprised	100
晉	100
hide	100
##鼓	100
##ell	100
##eder	100
punt	100
software	100
1797	100
55	100
dak	100
americas	100
##ledon	100
##iously	100
degenerated	100
examples	100
narrator	100
##hood	100
flaw	100
##adelph	100
ii	100
##በ	100
錦	100
cag	100
sull	100
##pants	100
##テ	100
mechanisms	100
##跆	100
spanned	100
转	100
tint	100
##rag	100
balkans	100
controlled	100
recent	100
recu	100
##ิ	100
б	100
seventh	100
outstanding	100
##reet	100
##鏡	100
pitted	100
##elope	100
剧	100
##ầ	100
revival	100
dirty	100
compromise	100
##ighters	100
lament	100
graphical	100
certifications	100
換	100
ง	100
inaugural	100
##狐	100
##ascular	100
##你	100
carlisle	100
blame	100
werner	100
train	100
perhaps	100
channel	100
sabot	100
using	100
##忠	100
excavations	100
interfere	100
1839	100
##下	100
romania	100
ף	100
youth	100
##oss	100
##乩	100
infilt	100
judiciary	100
##aen	100
##sel	100
婆	100
贞	100
##stadt	100
rig	100
comet	100
235	100
##敢	100
tied	100
custom	100
rem	100
gull	100
nebr	100
pu	100
journalists	100
shim	100
rhys	100
＆	100
bail	100
midwest	100
tetr	100
##瘡	100
르	100
trends	100
winners	100
hp	100
focused	100
榴	100
龍	100
emph	100
summit	100
violated	100
healthcare	100
sylvester	100
khal	100
hamlet	100
骨	100
vain	100
##復	100
1816	100
nationalism	100
moz	100
ฎ	100
##guard	100
overc	100
venezuel	100
lc	100
indefinitely	100
ま	100
ali	100
totaled	100
samples	100
##六	100
##ᡝ	100
antagon	100
##జ	100
雕	100
##滋	100
mccar	100
subspec	100
##isl	100
##un	100
sequ	100
company	100
hobbs	100
##ʹ	100
etc	100
conclusion	100
##ළ	100
##無	100
averaged	100
annie	100
renewal	100
际	100
232	100
##া	100
vari	100
losses	100
코	100
incomplete	100
shortage	100
ვ	100
could	100
َ	100
assumed	100
aborigin	100
borrowed	100
sgt	100
##บ	100
roma	100
grid	100
angeles	100
covered	100
cliff	100
acknowledge	100
wag	100
ru	100
rko	100
med	100
justify	100
김	100
mus	100
##iso	100
investment	100
kru	100
བ	100
懍	100
対	100
kry	100
ring	100
orang	100
##den	100
heter	100
intermedi	100
streak	100
brien	100
於	100
##χ	100
extre	100
ri	100
##爽	100
##erv	100
tour	100
##vre	100
##分	100
aff	100
incidents	100
accolades	100
registration	100
##ific	100
vessels	100
exclusively	100
coordinator	100
absurd	100
##isd	100
apprentice	100
澤	100
向	100
đ	100
今	100
##咖	100
battery	100
ᶦ	100
##ackdown	100
cluster	100
peculiar	100
harsh	100
ゅ	100
ܕ	100
豪	100
prisoners	100
##anted	100
potassium	100
elect	100
符	100
1974	100
drawn	100
음	100
##卿	100
identity	100
sa	100
cal	100
deuts	100
##dington	100
orchestral	100
manor	100
segreg	100
cet	100
wollstonecraft	100
尋	100
३	100
traveled	100
##itan	100
˨	100
bu	100
##orph	100
blaz	100
##whe	100
መ	100
principles	100
##eds	100
ለ	100
##bery	100
আ	100
asp	100
ferrari	100
##사	100
榆	100
##犬	100
excluding	100
axe	100
anatomy	100
columnist	100
bak	100
inev	100
##創	100
auxili	100
krie	100
##ገ	100
bombers	100
1781	100
ties	100
ᚢ	100
##nant	100
considerable	100
##允	100
kept	100
熱	100
hunting	100
##蠕	100
official	100
##arms	100
signature	100
forever	100
moons	100
great	100
remixes	100
sector	100
##奔	100
comfortable	100
##包	100
##容	100
ನ	100
##丽	100
hiring	100
##osaurus	100
##aden	100
thie	100
ẻ	100
mainly	100
##iva	100
oscill	100
enhance	100
##ird	100
conflu	100
reinforced	100
##ἵ	100
affecting	100
##ű	100
##fil	100
embrace	100
##ighter	100
coordinated	100
##10	100
庚	100
constable	100
##ⵎ	100
##소	100
##紙	100
##cz	100
##id	100
dru	100
##宏	100
↦	100
ឥ	100
##貞	100
put	100
翁	100
frozen	100
diaries	100
accidentally	100
##hed	100
##ually	100
resulting	100
infections	100
##stop	100
nicolas	100
fought	100
empress	100
寨	100
##囂	100
##麥	100
salv	100
trash	100
倭	100
##コ	100
##応	100
##ulf	100
##財	100
##স	100
surveyed	100
邦	100
##cl	100
ậ	100
##ហ	100
shakira	100
##orian	100
##č	100
##赤	100
##mec	100
kids	100
##ỳ	100
1904	100
95	100
helps	100
砖	100
##滿	100
flavor	100
##膺	100
subsid	100
别	100
##ington	100
##灼	100
##brook	100
ceo	100
斜	100
芽	100
starred	100
punct	100
prince	100
hailed	100
baden	100
##ogs	100
yug	100
##鬼	100
mono	100
##asters	100
metac	100
必	100
hanna	100
sanction	100
##boo	100
追	100
【	100
ɽ	100
##ovakia	100
eyewall	100
સ	100
##ठ	100
##umo	100
coronation	100
##rows	100
##athy	100
##苣	100
##xual	100
acquaint	100
##狩	100
norway	100
蠕	100
vhs	100
##差	100
tigers	100
park	100
levine	100
wre	100
apolog	100
##atas	100
nav	100
##ǜ	100
maur	100
remaster	100
ก	100
ing	100
abbey	100
pius	100
##upp	100
##ꮿ	100
woodland	100
vishnu	100
reverend	100
71	100
अ	100
##ints	100
luther	100
opin	100
smithsonian	100
drunk	100
experiences	100
module	100
𐎼	100
australians	100
overshadowed	100
##anu	100
numerical	100
minorities	100
竜	100
thigh	100
hy	100
forerun	100
ي	100
count	100
slower	100
##aria	100
fairfax	100
##inging	100
##ᚦ	100
advocated	100
##颗	100
##录	100
ǧ	100
##छ	100
worcester	100
protective	100
##elines	100
ខ	100
vaughan	100
70	100
105	100
setting	100
抓	100
weren	100
fragments	100
歌	100
warren	100
##斉	100
湖	100
丹	100
volley	100
going	100
lull	100
reason	100
ད	100
##ဟ	100
##ⵖ	100
digit	100
bod	100
appreh	100
centuries	100
##怒	100
##ested	100
##ls	100
##圣	100
庵	100
##ope	100
抄	100
frontal	100
bib	100
brent	100
settling	100
##ige	100
sinc	100
peel	100
hotspur	100
battalion	100
##utory	100
hanover	100
nich	100
reluctance	100
ʌ	100
a	100
cyn	100
袈	100
173	100
consequences	100
##usk	100
忠	100
noise	100
##裂	100
venues	100
electrons	100
mate	100
##cill	100
##兆	100
sheer	100
1833	100
individuals	100
indian	100
composed	100
distress	100
unlimited	100
trips	100
seizures	100
褒	100
1981	100
ṁ	100
aman	100
bloom	100
yor	100
destro	100
retrie	100
brid	100
炎	100
譚	100
disl	100
protect	100
##sha	100
rolling	100
##alid	100
##ة	100
##sa	100
giov	100
##lined	100
rotation	100
##liest	100
ˀ	100
quant	100
choreography	100
sev	100
##rage	100
॥	100
colony	100
cafe	100
ship	100
deprived	100
hog	100
turb	100
unaware	100
boyle	100
mines	100
rim	100
株	100
##ḍ	100
##剧	100
europe	100
##igned	100
muzzle	100
emil	100
洞	100
fairy	100
は	100
jr	100
##襟	100
##ision	100
low	100
brendan	100
absorb	100
##穂	100
latt	100
##ங	100
shots	100
kw	100
##ved	100
regain	100
以	100
憂	100
develop	100
diplomat	100
58	100
##pton	100
##빙	100
##寄	100
sor	100
1931	100
engineers	100
gomez	100
##inian	100
24th	100
bloc	100
comprise	100
##itely	100
irr	100
##inary	100
agric	100
worldwide	100
##ree	100
##oids	100
sh	100
ܥ	100
officially	100
##rise	100
披	100
牢	100
##gypt	100
likened	100
moff	100
crude	100
modification	100
abrupt	100
40	100
counsel	100
found	100
janeiro	100
##申	100
clips	100
##eroy	100
##usalem	100
##oned	100
appo	100
##藏	100
moderately	100
radial	100
##改	100
dougl	100
scientology	100
pile	100
ᾳ	100
aligned	100
rect	100
##ֽ	100
cyclonic	100
##兰	100
cold	100
prayers	100
get	100
julie	100
dm	100
crimin	100
ᠴ	100
負	100
philosophical	100
1901	100
dil	100
小	100
capitol	100
##hm	100
##ী	100
cle	100
ਉ	100
##ipper	100
celeb	100
shepard	100
programm	100
duo	100
##夏	100
turks	100
##izers	100
surfaced	100
##設	100
aut	100
dinner	100
bow	100
##quar	100
farewell	100
##opp	100
਼	100
ਾ	100
roch	100
##錬	100
maid	100
ì	100
worry	100
hate	100
trek	100
laughing	100
reflected	100
mandate	100
ũ	100
ン	100
##无	100
wounded	100
ó	100
recovering	100
mtv	100
frederick	100
##iler	100
depiction	100
##ondheim	100
##oop	100
##ous	100
##箋	100
invasive	100
negotiated	100
everyday	100
cartman	100
graphics	100
鳶	100
levin	100
franklin	100
ni	100
generations	100
sand	100
unoff	100
##resp	100
dated	100
##igious	100
advisor	100
叛	100
mentally	100
т	100
つ	100
pusan	100
##al	100
##up	100
workshops	100
rubble	100
ner	100
難	100
beings	100
fields	100
协	100
meadow	100
yourself	100
kart	100
superv	100
##13	100
turk	100
輛	100
tw	100
jackie	100
vacc	100
##estyle	100
safer	100
충	100
##elt	100
##ked	100
teammates	100
mysterious	100
##uma	100
広	100
(),	100
applaud	100
ፍ	100
鐸	100
undertake	100
##ode	100
yam	100
##iast	100
##case	100
famously	100
medical	100
fine	100
jamie	100
hitchcock	100
uns	100
float	100
夫	100
101	100
willamette	100
meant	100
retaliation	100
濃	100
##load	100
rept	100
##idae	100
ិ	100
ἠ	100
##ang	100
appeared	100
thumb	100
interst	100
ɘ	100
independent	100
appreciation	100
colored	100
##agon	100
merely	100
2007	100
consideration	100
##ƿ	100
nickn	100
˕	100
##چ	100
##ḻ	100
##ate	100
nons	100
transports	100
describing	100
##屋	100
##oba	100
##ঙ	100
prefix	100
lists	100
sessions	100
lens	100
milford	100
##了	100
そ	100
segment	100
resembles	100
commons	100
脂	100
##ἷ	100
beautiful	100
##蛙	100
hyp	100
##ദ	100
##ˁ	100
##爆	100
displayed	100
##ș	100
abra	100
##象	100
n	100
collegiate	100
##浮	100
##iod	100
loop	100
pierce	100
1793	100
˦	100
侬	100
郷	100
ʼ	100
##ş	100
reluct	100
southwestern	100
##琦	100
apple	100
##omes	100
##agram	100
dances	100
blockade	100
artifact	100
藩	100
##ν	100
##翹	100
che	100
##umps	100
##气	100
##혹	100
method	100
republ	100
gag	100
##amy	100
alder	100
chooses	100
##eenth	100
constituent	100
revis	100
cit	100
##旗	100
##wr	100
glacier	100
advis	100
replies	100
##ivan	100
##衙	100
noun	100
190	100
picked	100
adjo	100
woods	100
##ants	100
legitim	100
superintendent	100
ཙ	100
##self	100
mcmah	100
puzzles	100
##osl	100
gad	100
endeav	100
##駙	100
matth	100
##zzle	100
scar	100
had	100
byzantium	100
occurrence	100
if	100
risk	100
##화	100
ambig	100
originally	100
wes	100
interf	100
##で	100
headline	100
450	100
##蝉	100
output	100
founders	100
##द	100
##士	100
受	100
programme	100
##ma	100
##abwe	100
tunis	100
##ust	100
112	100
cliffs	100
##own	100
##遇	100
##ჯ	100
dragged	100
##ired	100
physical	100
lucky	100
浜	100
宏	100
individ	100
confirmation	100
2000s	100
ዘ	100
looked	100
synd	100
inverte	100
fore	100
workforce	100
relics	100
derived	100
bra	100
sensitivity	100
immune	100
southern	100
prevalent	100
indicated	100
##ni	100
juvenile	100
lake	100
##ari	100
relating	100
saturn	100
rows	100
##霊	100
wherever	100
##esa	100
##ܣ	100
administer	100
ʊ	100
terrain	100
abraham	100
todd	100
##ь	100
య	100
ip	100
friends	100
##ceed	100
ギ	100
uplo	100
california	100
##oro	100
##霆	100
attracted	100
##ress	100
##ifying	100
委	100
struggle	100
julius	100
honorable	100
雪	100
tf	100
庁	100
vegas	100
##恆	100
##观	100
##umbered	100
suffered	100
童	100
冷	100
andes	100
パ	100
nomine	100
clarkson	100
cars	100
montana	100
##נ	100
შ	100
##汝	100
figures	100
highlighting	100
˖	100
刃	100
would	100
ocean	100
eagle	100
wars	100
1891	100
une	100
ں	100
bright	100
ha	100
emp	100
suther	100
solidarity	100
##賈	100
twin	100
grain	100
tremend	100
let	100
confiscated	100
marge	100
##桥	100
opp	100
##わ	100
##uro	100
alle	100
舟	100
ฤ	100
stub	100
ta	100
a3	100
1919	100
tensions	100
smugg	100
##usted	100
absorbed	100
insisted	100
mascul	100
tended	100
eighteenth	100
juxt	100
sym	100
薫	100
##old	100
luxemb	100
dess	100
郁	100
moffat	100
##読	100
greeted	100
karl	100
garden	100
娜	100
instantly	100
给	100
##ieth	100
renaissance	100
obsole	100
##chwitz	100
quietly	100
empt	100
speedway	100
file	100
孫	100
##果	100
##din	100
graz	100
brittany	100
bes	100
landed	100
violin	100
##ھ	100
##境	100
ammun	100
##徹	100
cox	100
##ḥ	100
##旭	100
lob	100
tongue	100
43	100
耕	100
circles	100
##孫	100
approximate	100
建	100
##ese	100
##isal	100
##ulation	100
sage	100
থ	100
##甘	100
eas	100
177	100
exceeding	100
##絵	100
industry	100
dominican	100
iw	100
epithet	100
relocated	100
district	100
##ople	100
allow	100
reasoning	100
proceeded	100
##弟	100
erupt	100
topping	100
qur	100
terminal	100
oral	100
aftern	100
spark	100
##istani	100
biology	100
wall	100
##cher	100
sas	100
understanding	100
1850s	100
hull	100
rod	100
anticipated	100
miss	100
帕	100
gig	100
ప	100
次	100
##atri	100
##away	100
yel	100
vulnerability	100
##歷	100
doug	100
@.	100
para	100
century	100
reactor	100
favourites	100
##imar	100
쌤	100
##邊	100
autobiographical	100
mental	100
terminated	100
raided	100
##etto	100
disturbed	100
1500	100
##ס	100
##sen	100
agricultural	100
呂	100
开	100
水	100
believed	100
sega	100
pakistani	100
ultrav	100
想	100
primates	100
popular	100
philosoph	100
resumed	100
pract	100
ར	100
farms	100
lightly	100
encoun	100
cutter	100
waiting	100
vand	100
兔	100
毅	100
##atory	100
annexed	100
vital	100
ser	100
##ël	100
rapidly	100
206	100
im	100
ḩ	100
doors	100
320	100
mcmahon	100
precedent	100
hor	100
cannes	100
ल	100
##ṓ	100
##umes	100
shakespear	100
châ	100
##デ	100
oppose	100
uss	100
ect	100
interrupted	100
##ient	100
campus	100
##cel	100
rack	100
လ	100
directed	100
##houser	100
roc	100
decks	100
exh	100
cem	100
want	100
growing	100
reputation	100
530	100
constantly	100
states	100
persistent	100
baltim	100
considerably	100
part	100
million	100
##ს	100
gross	100
departure	100
##rian	100
khmer	100
allmusic	100
##ori	100
azerbai	100
widened	100
leo	100
sold	100
జ	100
rigid	100
defence	100
##币	100
##楯	100
mining	100
68	100
dispatched	100
卖	100
##理	100
##督	100
expired	100
waterfall	100
##尧	100
##zig	100
bars	100
serbs	100
popularized	100
gubernatorial	100
##共	100
ottomans	100
員	100
##iate	100
casem	100
batavia	100
diplomatic	100
elong	100
ː	100
්	100
unsuccess	100
yuc	100
デ	100
##廿	100
##失	100
swe	100
yellow	100
tanker	100
poets	100
##fc	100
裸	100
propon	100
vegetation	100
##解	100
惠	100
store	100
##ี	100
##症	100
asserts	100
significant	100
concessions	100
baghdad	100
##pitz	100
pipes	100
烏	100
자	100
leaked	100
##再	100
thoroughly	100
҆	100
ĺ	100
mets	100
auckland	100
massive	100
～	100
##ಕ	100
essence	100
afric	100
##面	100
u	100
adapt	100
##ᠨ	100
sorties	100
ford	100
robots	100
kok	100
₹	100
supported	100
物	100
兒	100
mostly	100
##讐	100
##til	100
fleming	100
##身	100
countryside	100
##ờ	100
##ores	100
9th	100
attain	100
stanton	100
##族	100
syn	100
entertaining	100
hannah	100
ornith	100
ᠪ	100
beams	100
試	100
instances	100
genes	100
ན	100
##恋	100
##rupt	100
##osition	100
marl	100
asyl	100
unconscious	100
balzac	100
shep	100
ἳ	100
bcs	100
barrage	100
reaction	100
complement	100
avatar	100
##盏	100
getty	100
similarity	100
oce	100
albania	100
amph	100
ǣ	100
##邁	100
encour	100
##avian	100
材	100
succession	100
merged	100
metropol	100
oppon	100
hm	100
exempl	100
##梯	100
toler	100
cleveland	100
##初	100
##鹼	100
騒	100
belief	100
fermi	100
atroc	100
1880s	100
supervis	100
phant	100
##person	100
ɒ	100
##憎	100
##ؤ	100
home	100
opportunities	100
crem	100
##ight	100
unanimous	100
ѡ	100
##파	100
invinc	100
spun	100
investigation	100
##equ	100
illumin	100
parliam	100
greater	100
moderate	100
##偵	100
angered	100
tooth	100
reduction	100
admits	100
height	100
##brand	100
threatening	100
##fact	100
charts	100
jup	100
1941	100
##ucker	100
continually	100
albums	100
domest	100
explored	100
念	100
##如	100
twel	100
undivided	100
antibody	100
##勅	100
feudal	100
相	100
encouraging	100
debates	100
##oxide	100
rodney	100
olymp	100
င	100
whe	100
jain	100
##8	100
slightly	100
##箪	100
@-	100
收	100
renewable	100
##ῑ	100
##eshire	100
ល	100
##adt	100
mackenzie	100
case	100
##lings	100
oilers	100
##gle	100
warfare	100
##ote	100
191	100
es	100
emission	100
##aceous	100
##een	100
nuclei	100
##ocks	100
1865	100
sampled	100
ウ	100
attempt	100
immun	100
च	100
detail	100
herds	100
victoria	100
##ball	100
ਵ	100
720	100
緑	100
dress	100
cic	100
abandoning	100
considered	100
♉	100
##bro	100
patt	100
moor	100
hau	100
governors	100
早	100
holding	100
##eres	100
յ	100
pete	100
##ching	100
##불	100
behavior	100
##folk	100
competitors	100
conceived	100
ჷ	100
toronto	100
arabs	100
##黒	100
##致	100
armistice	100
cock	100
unac	100
監	100
skull	100
locomotives	100
##rush	100
famous	100
##rators	100
spells	100
##土	100
revelations	100
cover	100
##ॉ	100
lem	100
temples	100
pradesh	100
($	100
》	100
ʈ	100
clayton	100
temperature	100
##aran	100
started	100
earl	100
salem	100
套	100
enthusi	100
melodies	100
婚	100
confront	100
##為	100
cataly	100
hector	100
perm	100
humid	100
supervised	100
ethnic	100
##rate	100
##勳	100
notorious	100
keep	100
mare	100
##greg	100
ads	100
martine	100
hel	100
強	100
េ	100
##ho	100
photography	100
aimed	100
ach	100
读	100
children	100
察	100
##over	100
definitely	100
respir	100
brenn	100
##lining	100
january	100
aided	100
##our	100
grove	100
freeman	100
astron	100
colonial	100
rene	100
参	100
健	100
时	100
troubles	100
##ram	100
male	100
##eless	100
median	100
1938	100
napoleon	100
acc	100
communications	100
faithful	100
convey	100
ա	100
donna	100
##堂	100
bc	100
ヌ	100
nielsen	100
drop	100
dancer	100
anymore	100
multip	100
##防	100
overseas	100
line	100
phen	100
##ਸ	100
placing	100
orlando	100
divorce	100
##ised	100
participation	100
trailer	100
works	100
jenna	100
覺	100
birmingham	100
iz	100
後	100
musket	100
hears	100
written	100
ⴀ	100
fund	100
历	100
##erted	100
##蕃	100
maiden	100
invites	100
stras	100
##ge	100
above	100
##ラ	100
狛	100
##mented	100
wrestlemania	100
suspension	100
##璽	100
teaching	100
需	100
role	100
idol	100
hereditary	100
jard	100
jed	100
appalach	100
##彌	100
乩	100
committed	100
wilderness	100
comparing	100
stages	100
departing	100
##散	100
ܪ	100
##操	100
##敵	100
libr	100
料	100
adher	100
tim	100
狐	100
mls	100
ჟ	100
satis	100
positive	100
advised	100
##突	100
adjusted	100
brewery	100
##槤	100
源	100
##jection	100
listen	100
stressed	100
##yll	100
celebrate	100
##聯	100
##mour	100
asym	100
ⴷ	100
involve	100
beginnings	100
##诉	100
mascot	100
cler	100
##力	100
bey	100
bw	100
##إ	100
将	100
##ower	100
dw	100
preserved	100
lighter	100
fanny	100
acquiring	100
ſ	100
experimental	100
backl	100
##base	100
legally	100
vietnamese	100
##illo	100
absorption	100
williamson	100
1855	100
wies	100
##am	100
release	100
##ule	100
benefits	100
allegedly	100
##ging	100
##chem	100
##宸	100
gone	100
lea	100
marcel	100
relations	100
racial	100
##檻	100
표	100
critic	100
extending	100
##sta	100
amino	100
witnesses	100
philharmonic	100
eug	100
##ท	100
boyfriend	100
assassination	100
##etsu	100
nineteen	100
te	100
crete	100
##出	100
sever	100
##raw	100
relied	100
##ệm	100
pdf	100
kem	100
obsolete	100
终	100
##eastern	100
##ors	100
prov	100
dies	100
capable	100
靴	100
perceived	100
##ovan	100
monetary	100
formally	100
procedures	100
heaviest	100
##isons	100
##学	100
psych	100
##vo	100
##雕	100
estimates	100
綯	100
alleg	100
aif	100
ℂ	100
場	100
##羅	100
canning	100
##ataka	100
მ	100
巳	100
zagreb	100
ecw	100
romney	100
interacting	100
ucl	100
ambiguous	100
cromwell	100
##鮮	100
repr	100
typh	100
myc	100
round	100
manif	100
ideological	100
##pop	100
##ić	100
##초	100
photo	100
鴨	100
wildlife	100
fay	100
targets	100
aaa	100
muslim	100
homeland	100
##hog	100
##ħ	100
batsman	100
pivot	100
##iation	100
##agonal	100
hulk	100
##nn	100
##圖	100
voc	100
averaging	100
駐	100
rey	100
罠	100
##inate	100
##扉	100
speaker	100
士	100
luftwaffe	100
##iseries	100
##微	100
regard	100
##ilus	100
##riers	100
seats	100
2009	100
ʑ	100
ẫ	100
chain	100
inadequ	100
gin	100
惑	100
ȳ	100
##라	100
##盒	100
##ska	100
biographies	100
hosted	100
sac	100
##ache	100
ซ	100
zo	100
1923	100
##청	100
立	100
void	100
##倉	100
jokes	100
contract	100
empire	100
isabella	100
ਝ	100
surprisingly	100
wishing	100
residential	100
出	100
annexation	100
鉄	100
relieve	100
塚	100
##ೇ	100
bolshev	100
則	100
santa	100
check	100
induct	100
advertis	100
208	100
wild	100
grat	100
1986	100
chann	100
adaptations	100
link	100
##绮	100
##友	100
顾	100
謝	100
election	100
proph	100
masterpiece	100
乳	100
酈	100
circumst	100
defens	100
fif	100
##atures	100
##atz	100
perpet	100
##roc	100
jol	100
virtually	100
î	100
multiple	100
compound	100
##鷹	100
clinic	100
𐀫	100
funnel	100
ø	100
boilers	100
ן	100
말	100
lyric	100
nova	100
з	100
fin	100
burn	100
级	100
handle	100
ubs	100
fights	100
excell	100
록	100
##６	100
mechanical	100
##fleet	100
certainly	100
comfort	100
judicial	100
##南	100
admit	100
rejoined	100
bale	100
##amo	100
leonardo	100
wart	100
bred	100
金	100
paradox	100
嘉	100
##洲	100
点	100
##約	100
##olog	100
2nd	100
ἶ	100
impress	100
segregation	100
pulse	100
##iman	100
︠	100
##giate	100
##蘅	100
##care	100
##晴	100
##上	100
pools	100
numbering	100
labour	100
대	100
mead	100
##ယ	100
hunts	100
scandal	100
##ီ	100
bulk	100
duck	100
admitting	100
##ican	100
caught	100
퍼	100
inning	100
1823	100
reform	100
pacific	100
綁	100
hosp	100
replen	100
##via	100
##피	100
fearing	100
##芮	100
results	100
log	100
##istle	100
〜	100
##疆	100
##ology	100
##engers	100
##know	100
hugo	100
##vex	100
augustine	100
fellows	100
洪	100
##馆	100
renown	100
participants	100
##ģ	100
磅	100
ag	100
proxim	100
##繼	100
london	100
##鲤	100
certific	100
bonnie	100
chenn	100
##hra	100
pic	100
espec	100
ด	100
##eces	100
immigrant	100
ノ	100
help	100
kannada	100
coff	100
rih	100
yard	100
moroc	100
鮮	100
##ữ	100
rebellion	100
motions	100
##iven	100
##寞	100
##reek	100
termin	100
##oga	100
iro	100
safety	100
inhib	100
##植	100
##蝕	100
檜	100
sandwich	100
經	100
##rust	100
ゴ	100
cigar	100
迅	100
ز	100
office	100
tides	100
汉	100
暮	100
##more	100
casc	100
##word	100
interchange	100
민	100
ὑ	100
effects	100
##祿	100
attended	100
描	100
anal	100
wol	100
##糸	100
##essa	100
##sburg	100
12	100
kang	100
边	100
haynes	100
₦	100
##厥	100
verdict	100
ფ	100
bombing	100
preparatory	100
##umbering	100
狩	100
##ⴼ	100
braves	100
像	100
emb	100
ministry	100
betray	100
when	100
telecommun	100
anten	100
canon	100
gav	100
礼	100
ù	100
disappeared	100
揺	100
##蓮	100
##蔭	100
sg	100
ŷ	100
##akh	100
styl	100
sarc	100
quantity	100
dislik	100
achieve	100
##ス	100
finale	100
dissolved	100
រ	100
##ale	100
boring	100
涵	100
卡	100
##ほ	100
##ses	100
belts	100
##back	100
肃	100
elvis	100
哥	100
ahead	100
##ぴ	100
moral	100
##ached	100
##neath	100
gymn	100
regist	100
evolved	100
charted	100
uses	100
敬	100
籌	100
bass	100
orchestra	100
##war	100
longh	100
dying	100
californ	100
theoph	100
rihanna	100
##än	100
##柆	100
##ー	100
ሰ	100
morris	100
礎	100
invested	100
morphology	100
prefect	100
1842	100
##調	100
##ant	100
incons	100
##説	100
nickelodeon	100
##長	100
charting	100
fratern	100
viewers	100
世	100
##igan	100
oldham	100
whil	100
朧	100
sodium	100
##oder	100
bored	100
##護	100
retrieve	100
##ɒ	100
##ḑ	100
##fires	100
##fle	100
ả	100
exploits	100
walter	100
façade	100
ench	100
psychiat	100
##idays	100
##ְ	100
##gro	100
挑	100
を	100
sue	100
cooling	100
upheld	100
promptly	100
関	100
“	100
ӣ	100
stealing	100
1808	100
傷	100
秋	100
slugg	100
straits	100
jenner	100
托	100
cherry	100
environmental	100
ted	100
bly	100
人	100
doggett	100
declares	100
子	100
##stein	100
##સ	100
consid	100
john	100
nam	100
platinum	100
drake	100
vary	100
经	100
##ජ	100
fingers	100
limbs	100
##鉴	100
were	100
be	100
##lers	100
responding	100
immense	100
unfamiliar	100
secular	100
theatre	100
stems	100
##ः	100
purpose	100
interp	100
conrad	100
##ims	100
whitehead	100
devastated	100
##ieg	100
##魄	100
##ample	100
##武	100
impression	100
titanic	100
ἥ	100
拜	100
鬼	100
succeed	100
charming	100
byr	100
##祥	100
cere	100
tracking	100
pronunciation	100
vertebra	100
advanced	100
##iser	100
1863	100
lw	100
releas	100
1868	100
manufacture	100
##取	100
navig	100
##occup	100
victorian	100
ὺ	100
##ⵉ	100
ed	100
##ध	100
autobiography	100
発	100
ᶢ	100
##play	100
brigades	100
ear	100
##聖	100
–	100
石	100
တ	100
handling	100
sheen	100
refusing	100
##are	100
paperback	100
action	100
蕃	100
鎮	100
anthology	100
aub	100
正	100
##ste	100
criticizing	100
ἔ	100
plain	100
lantern	100
✱	100
orth	100
nation	100
swimming	100
行	100
partic	100
romantic	100
madison	100
goaltender	100
coordination	100
##そ	100
zack	100
##isan	100
##ination	100
##第	100
firm	100
nursery	100
##opter	100
##경	100
rounds	100
larry	100
horace	100
辛	100
spec	100
##of	100
responsibility	100
21st	100
nesting	100
arb	100
brady	100
stomach	100
##jina	100
##akes	100
ያ	100
petro	100
shannon	100
gest	100
##idia	100
niger	100
##渊	100
hr	100
al	100
posted	100
邁	100
##ogr	100
whenever	100
##ச	100
cousin	100
del	100
##iced	100
ports	100
##勢	100
respond	100
escorting	100
##eyer	100
##enn	100
anchor	100
ώ	100
medium	100
##寶	100
learns	100
commitment	100
abd	100
##airo	100
painters	100
surm	100
quart	100
burned	100
domination	100
diction	100
restruct	100
reflection	100
##ective	100
redes	100
##iary	100
colonies	100
ς	100
##府	100
mature	100
ឹ	100
pipeline	100
deeply	100
##韓	100
秤	100
anglia	100
--	100
ober	100
arab	100
capsule	100
##igne	100
##flin	100
##rah	100
nowhere	100
卓	100
##lot	100
##愍	100
##oster	100
chanc	100
##stick	100
##liner	100
opposite	100
ecc	100
dishes	100
contains	100
bri	100
##ร	100
compet	100
차	100
brought	100
premi	100
clause	100
bamboo	100
##enary	100
facilitate	100
##ो	100
##原	100
temperatures	100
varies	100
์	100
喝	100
軌	100
bradman	100
incumb	100
##記	100
removed	100
麾	100
##庚	100
squir	100
decl	100
santana	100
echo	100
tenure	100
org	100
gamec	100
ἷ	100
エ	100
1932	100
catching	100
stall	100
##ran	100
##ilar	100
advisory	100
petit	100
enthus	100
transitioned	100
usage	100
飯	100
考	100
##郡	100
##և	100
##ital	100
ስ	100
spores	100
##ice	100
emergence	100
隣	100
indonesia	100
satellites	100
decorative	100
ױ	100
ʾ	100
teachers	100
chew	100
盟	100
ェ	100
adam	100
deadly	100
annih	100
declaring	100
miz	100
hang	100
amsterdam	100
revenue	100
sources	100
ը	100
magn	100
dur	100
supernatural	100
##ể	100
twe	100
abdom	100
mesopotam	100
楽	100
kevin	100
zeal	100
7	100
##anar	100
宜	100
wield	100
##師	100
developed	100
twelf	100
sound	100
##央	100
ம	100
boon	100
infected	100
reid	100
europeans	100
adventures	100
##outed	100
prompt	100
爾	100
##ewan	100
save	100
cooperation	100
ֱ	100
##hurst	100
wool	100
forg	100
nuclear	100
witches	100
1814	100
ῇ	100
midfielder	100
##woman	100
王	100
decay	100
conscription	100
commuter	100
agnes	100
lasting	100
illeg	100
##uable	100
ɭ	100
bowler	100
westbound	100
##itations	100
検	100
mexican	100
太	100
##ers	100
날	100
demanded	100
頭	100
##인	100
macmillan	100
##例	100
##ka	100
calculations	100
form	100
heated	100
痘	100
props	100
tuls	100
ⵃ	100
remainder	100
##ỉ	100
drag	100
gateshead	100
assume	100
consumed	100
looking	100
annual	100
瑋	100
episcopal	100
##unken	100
##iness	100
ủ	100
clar	100
授	100
##oup	100
rhod	100
ric	100
sta	100
##roll	100
flair	100
##末	100
discont	100
prof	100
philip	100
britney	100
##son	100
bould	100
doyle	100
this	100
hereford	100
ask	100
eva	100
##vik	100
destiny	100
##aws	100
microscopic	100
odds	100
孵	100
epic	100
kentucky	100
chords	100
inserted	100
kraków	100
lowe	100
攝	100
taxation	100
elton	100
##傭	100
baja	100
stere	100
ಟ	100
inject	100
chun	100
##ante	100
##է	100
##agonist	100
₂	100
ᛁ	100
stip	100
cu	100
cac	100
仰	100
ჩ	100
##欠	100
aval	100
manner	100
daytime	100
gro	100
##mus	100
organization	100
law	100
saxon	100
fertile	100
dating	100
虫	100
sufficient	100
embarked	100
gabriel	100
##ት	100
vice	100
soldier	100
ver	100
‘	100
鹅	100
rejo	100
danc	100
##irus	100
facto	100
##maker	100
ethiop	100
##ⲩ	100
possesses	100
nir	100
##っ	100
landings	100
一	100
motif	100
eastwood	100
clad	100
munitions	100
袖	100
turn	100
bungie	100
experimentation	100
suz	100
##ء	100
amster	100
勳	100
##据	100
干	100
attorney	100
disp	100
##ense	100
winter	100
##oe	100
誡	100
besie	100
##つ	100
5	100
dwight	100
bombarded	100
##भ	100
더	100
##unction	100
##絶	100
verse	100
chad	100
planted	100
eccentric	100
##eon	100
subtle	100
##决	100
consort	100
anne	100
unknown	100
removing	100
franz	100
##後	100
acoustic	100
dialects	100
##학	100
²	100
audition	100
၁	100
peru	100
resembled	100
ens	100
fitzgerald	100
ڠ	100
shet	100
##iety	100
antis	100
attention	100
figure	100
violence	100
crops	100
indic	100
tres	100
material	100
bolton	100
##pped	100
cyclones	100
pink	100
幻	100
##ᛏ	100
##union	100
rocky	100
##爺	100
designation	100
₄	100
##历	100
supern	100
##dles	100
##ener	100
##rier	100
ꦲ	100
##ⴽ	100
possible	100
worried	100
tender	100
heavy	100
confl	100
肖	100
moss	100
valid	100
rides	100
inventory	100
##件	100
franchises	100
convinced	100
ῑ	100
symbols	100
nin	100
コ	100
hermann	100
蘄	100
opt	100
morality	100
proving	100
##la	100
montreal	100
favorable	100
ev	100
barn	100
ន	100
副	100
renovations	100
##cept	100
mission	100
authenticity	100
fest	100
manson	100
##inces	100
croft	100
##ent	100
presum	100
##pan	100
云	100
springfield	100
##詞	100
griffin	100
##水	100
##fied	100
11	100
强	100
toss	100
database	100
twist	100
endured	100
橚	100
##پ	100
儒	100
jockey	100
##л	100
##司	100
disappointed	100
助	100
pyram	100
marg	100
##iston	100
care	100
youngest	100
evans	100
missionaries	100
battlecru	100
##က	100
ncaa	100
fragment	100
∝	100
rid	100
燈	100
alpine	100
##uce	100
仙	100
arbitration	100
combines	100
栞	100
hist	100
next	100
implement	100
franchise	100
bobby	100
chancellor	100
scenery	100
̏	100
颂	100
ܦ	100
botanical	100
ส	100
魄	100
should	100
counter	100
skept	100
##enberg	100
portrayal	100
niche	100
orkney	100
auction	100
child	100
hok	100
yo	100
consequently	100
##abs	100
captures	100
madness	100
藤	100
depicted	100
argu	100
dorset	100
##我	100
versions	100
1965	100
##句	100
donnell	100
脳	100
焼	100
鞠	100
##ð	100
皮	100
##agic	100
winchester	100
##west	100
荘	100
##ウ	100
##aba	100
rabaul	100
mex	100
beef	100
##持	100
belgrade	100
控	100
opposed	100
subplot	100
##修	100
hobart	100
##bes	100
asian	100
##48	100
cus	100
hedgehog	100
window	100
##乱	100
萍	100
##rovers	100
marvin	100
solutions	100
bast	100
golds	100
##cliff	100
判	100
vener	100
囁	100
53	100
elev	100
ci	100
ట	100
ហ	100
recognizable	100
coulthard	100
allowing	100
dischar	100
interference	100
inappropri	100
dubai	100
ဟ	100
planned	100
ྡ	100
ៈ	100
support	100
##ying	100
##apest	100
hpa	100
resent	100
##楽	100
##ague	100
potentially	100
##rael	100
michael	100
鶍	100
##omans	100
civilian	100
##球	100
mario	100
】	100
shaped	100
equival	100
flemish	100
undis	100
anglo	100
##eit	100
unlike	100
water	100
##asive	100
landis	100
叡	100
嶋	100
trig	100
##煙	100
automobile	100
practical	100
guilt	100
kro	100
##叫	100
##ꦲ	100
ruth	100
heading	100
browne	100
ⁿ	100
་	100
didn	100
##ˢ	100
penal	100
##ჳ	100
shop	100
remarks	100
kou	100
##咆	100
##ending	100
strains	100
孝	100
mal	100
那	100
##crew	100
erosion	100
ᵿ	100
helic	100
saffir	100
fantas	100
rehears	100
##ú	100
is	100
##ö	100
##ounding	100
ṛ	100
##eston	100
burrow	100
##osexual	100
##바	100
##amas	100
consens	100
hybrid	100
၂	100
ἄ	100
crossroads	100
bernard	100
ló	100
만	100
pyr	100
routing	100
ndh	100
弁	100
poet	100
diva	100
tennessee	100
##年	100
georg	100
genesis	100
southeastern	100
amin	100
度	100
amount	100
instruct	100
##ila	100
draught	100
##苗	100
acute	100
rbi	100
##自	100
ረ	100
covering	100
success	100
gird	100
े	100
encountered	100
‿	100
##ray	100
##yss	100
survivor	100
##撒	100
ุ	100
桑	100
nationally	100
##ulin	100
intention	100
##盘	100
##chus	100
･	100
shepp	100
natal	100
防	100
confluence	100
ꮝ	100
##cker	100
##ฤ	100
wide	100
ˠ	100
retrospect	100
coordinate	100
decorations	100
stayed	100
♦	100
deb	100
商	100
saudi	100
瓷	100
comes	100
ങ	100
慶	100
ellis	100
##고	100
##orters	100
舞	100
eddie	100
atoll	100
首	100
exped	100
##car	100
ụ	100
##icious	100
##ղ	100
accordance	100
##atton	100
internally	100
ი	100
##溪	100
##鹿	100
##ぺ	100
advert	100
裕	100
sermon	100
##未	100
க	100
##osc	100
rex	100
calais	100
completely	100
##峰	100
cards	100
##anga	100
##eses	100
嫁	100
cla	100
convoys	100
bride	100
ya	100
transform	100
pref	100
##從	100
##irm	100
external	100
maintain	100
ranges	100
download	100
decreasing	100
tah	100
།	100
所	100
어	100
fully	100
abilities	100
ᡨ	100
蔵	100
##桃	100
##薙	100
batted	100
sends	100
溜	100
financially	100
illustration	100
##他	100
informs	100
##山	100
turning	100
03	100
##iii	100
##ɟ	100
raph	100
fel	100
sharing	100
phone	100
liberties	100
臨	100
산	100
##臂	100
##dp	100
ׁ	100
蒿	100
rowling	100
reproduction	100
rehearsals	100
##rawn	100
exit	100
tests	100
galile	100
##齐	100
##گ	100
ပ	100
ө	100
##集	100
⚵	100
noted	100
lithuania	100
poisoning	100
wilhelms	100
penins	100
ী	100
江	100
kingdoms	100
##rav	100
innovative	100
attackers	100
##ு	100
envisioned	100
clearance	100
escorts	100
##opy	100
##ौ	100
metaph	100
##房	100
valve	100
##ough	100
##arty	100
cra	100
awarding	100
##拖	100
anthem	100
submitted	100
poll	100
##क	100
narratives	100
悼	100
yet	100
##anto	100
ceremonial	100
pitchfork	100
##gel	100
grades	100
disb	100
generals	100
狡	100
outlet	100
##oph	100
sweden	100
submarine	100
nu	100
seventeen	100
facebook	100
법	100
廉	100
adriatic	100
allegiance	100
courtship	100
amendment	100
surpass	100
ჰ	100
emerges	100
flot	100
rent	100
1977	100
tips	100
athen	100
納	100
에	100
heroes	100
148	100
##술	100
justices	100
##豪	100
letting	100
##alt	100
device	100
ั	100
isn	100
early	100
resid	100
chris	100
nocturnal	100
##国	100
##雲	100
required	100
foods	100
##urgical	100
##umen	100
canber	100
##but	100
crystal	100
con	100
denver	100
muhammad	100
##alia	100
obstacles	100
##引	100
##ḳ	100
blew	100
sophie	100
thai	100
unve	100
##raid	100
##爵	100
ʂ	100
##stad	100
ability	100
crazy	100
judg	100
co	100
##eals	100
volunteer	100
rupert	100
rainfor	100
mariners	100
奈	100
guess	100
##陛	100
resided	100
##phy	100
academ	100
synch	100
uncont	100
empir	100
compart	100
joins	100
conqu	100
dad	100
twins	100
廣	100
##imon	100
##atch	100
pointing	100
regulation	100
##rice	100
果	100
监	100
refuses	100
informer	100
ཁ	100
句	100
headquartered	100
240	100
##avan	100
##atories	100
blo	100
pilgrimage	100
##ኢ	100
hammer	100
koreans	100
accession	100
sear	100
##er	100
pneumonia	100
養	100
169	100
neon	100
41	100
doom	100
sabb	100
divert	100
##ret	100
sealed	100
past	100
obviously	100
herr	100
hazard	100
978	100
powers	100
素	100
仪	100
##ribes	100
antio	100
fold	100
้	100
椎	100
ぅ	100
coupled	100
##opath	100
star	100
incub	100
equations	100
norse	100
官	100
hearing	100
wee	100
没	100
##奈	100
##inae	100
##私	100
##ensions	100
อ	100
moe	100
が	100
rapper	100
##iam	100
boss	100
們	100
##ʰ	100
##话	100
announces	100
pillar	100
央	100
such	100
##mir	100
##額	100
pon	100
lal	100
狼	100
roberto	100
膀	100
tragedy	100
ⵔ	100
##weight	100
naming	100
屠	100
iraqi	100
1780	100
mahler	100
rowan	100
complexes	100
mauritius	100
dante	100
##red	100
delegates	100
##ف	100
##ρ	100
seen	100
banks	100
ּ	100
astronomers	100
mccool	100
##roads	100
##ှ	100
ર	100
##ga	100
forward	100
##dal	100
1812	100
owen	100
即	100
ǰ	100
##蕉	100
溢	100
ᓘ	100
constitutional	100
trusted	100
sub	100
蘿	100
minaj	100
卿	100
gay	100
##acles	100
ferguson	100
inquiry	100
ibn	100
##uf	100
mfr	100
歓	100
reflects	100
て	100
scharnhorst	100
##rama	100
##联	100
##ety	100
comp	100
ȟ	100
massachusetts	100
paved	100
rockefeller	100
losing	100
rangers	100
##umin	100
achievements	100
kid	100
rost	100
applying	100
祿	100
exhibition	100
##istent	100
ნ	100
glut	100
she	100
荪	100
ť	100
雾	100
television	100
ceremony	100
robert	100
##ի	100
devised	100
##arya	100
bone	100
franç	100
jutland	100
substances	100
integration	100
nave	100
continu	100
##inge	100
##壯	100
傑	100
uh	100
indies	100
kickoff	100
痴	100
processed	100
徳	100
##ov	100
implies	100
lockheed	100
halfway	100
goodbye	100
##ּ	100
銃	100
offerings	100
め	100
ᵘ	100
malone	100
朵	100
mothers	100
kul	100
顆	100
montgomery	100
ridges	100
##じ	100
secretly	100
##isters	100
hundreds	100
follow	100
rel	100
suppl	100
triangular	100
abdomen	100
tardis	100
プ	100
##通	100
pg	100
##ῐ	100
##ward	100
emot	100
አ	100
##ollow	100
mastering	100
variation	100
只	100
supervising	100
discouraged	100
sacrific	100
provinc	100
illusion	100
northeast	100
雙	100
sided	100
fab	100
explaining	100
hew	100
funeral	100
nude	100
marketing	100
##孟	100
##egro	100
followed	100
๊	100
祺	100
講	100
deleg	100
paran	100
16	100
fuse	100
homestead	100
properly	100
##卸	100
certification	100
ៀ	100
opinions	100
performed	100
ទ	100
##ප	100
relie	100
##燕	100
text	100
year	100
40th	100
divisional	100
tong	100
fabric	100
##ᵊ	100
wood	100
witness	100
mick	100
##anian	100
renumbering	100
##uth	100
##icated	100
debuted	100
holds	100
destruct	100
reef	100
distinct	100
sb	100
vale	100
键	100
##ucle	100
##bru	100
rumours	100
th	100
manufacturing	100
eno	100
neutrons	100
arguments	100
ھ	100
##弘	100
##ker	100
mississipp	100
indoor	100
##aver	100
##ゑ	100
##anor	100
##orts	100
ig	100
jma	100
orbiting	100
ｃ	100
incor	100
commanders	100
lancaster	100
##nc	100
##孔	100
christoph	100
hispanic	100
alf	100
och	100
trumpet	100
relegated	100
boston	100
sentiment	100
sphere	100
架	100
顏	100
retreating	100
ր	100
##aints	100
substantial	100
事	100
酷	100
differs	100
lew	100
tree	100
##ead	100
sri	100
harry	100
hollywood	100
##eg	100
film	100
##zhou	100
##鳴	100
asserting	100
##熊	100
##є	100
215	100
overly	100
bayon	100
乌	100
erlew	100
intend	100
##ׂ	100
##irect	100
gossip	100
connections	100
jim	100
sale	100
respected	100
ণ	100
drift	100
ⵣ	100
##uman	100
ꮀ	100
brake	100
汐	100
fig	100
##nt	100
ք	100
ღ	100
peasants	100
saff	100
进	100
madonna	100
riots	100
隗	100
##ビ	100
invol	100
##ゥ	100
eyes	100
beats	100
##ទ	100
杯	100
pak	100
##掛	100
confuc	100
##es	100
lag	100
##ɭ	100
locked	100
harmony	100
ξ	100
##time	100
rand	100
技	100
colt	100
imminent	100
vibe	100
goldberg	100
##uala	100
asks	100
kn	100
##靈	100
dundee	100
extended	100
##儿	100
torres	100
fulf	100
##pit	100
sidel	100
active	100
##侠	100
corpor	100
赵	100
##ao	100
ĵ	100
##త	100
##摸	100
##western	100
liqu	100
bae	100
ッ	100
尸	100
wa	100
encourages	100
without	100
cact	100
palmy	100
av	100
##istry	100
phoenix	100
circulated	100
※	100
egyptian	100
avoid	100
control	100
培	100
wrapped	100
동	100
consciousness	100
##過	100
##ational	100
ever	100
jamaica	100
clearing	100
mutation	100
楚	100
prior	100
engineering	100
presbyter	100
chimney	100
dexter	100
##糊	100
cuban	100
achievement	100
♯	100
bag	100
##ζ	100
princ	100
♥	100
supports	100
vag	100
charac	100
missions	100
薙	100
##oven	100
膺	100
november	100
dump	100
32	100
crater	100
##釗	100
weaknesses	100
##iami	100
references	100
armist	100
##棺	100
conven	100
patri	100
ord	100
mccl	100
attempted	100
noah	100
toad	100
push	100
##か	100
white	100
distinguishing	100
bishops	100
բ	100
##gett	100
discusses	100
古	100
expo	100
face	100
emotion	100
##ger	100
atlas	100
wang	100
language	100
##ob	100
deaf	100
parasite	100
去	100
cg	100
episodes	100
deton	100
offspring	100
infr	100
studio	100
exceeded	100
tenness	100
mainland	100
mor	100
symbolic	100
hear	100
1921	100
uphold	100
ぱ	100
walked	100
taller	100
ح	100
effectively	100
prop	100
tackle	100
hire	100
##fan	100
ぼ	100
##through	100
ῥ	100
concer	100
##uese	100
mund	100
shoo	100
rescues	100
##marked	100
##haus	100
##ence	100
##표	100
##igny	100
##azz	100
ा	100
rolls	100
pam	100
##լ	100
open	100
chetnik	100
teenage	100
defensive	100
##レ	100
meyer	100
##ellan	100
apply	100
ّ	100
25	100
##makers	100
##宇	100
ਅ	100
##纪	100
clarke	100
城	100
vintage	100
聃	100
frame	100
遇	100
##忘	100
rome	100
aspects	100
subc	100
##irs	100
拱	100
##ṟ	100
##斜	100
coalition	100
submar	100
recognize	100
##启	100
##get	100
xx	100
belongs	100
bub	100
salam	100
wider	100
benn	100
cain	100
unconst	100
##ails	100
瘤	100
##asia	100
##ripp	100
missiles	100
overlap	100
alger	100
##厚	100
adul	100
##碍	100
offshore	100
##ስ	100
mold	100
slayer	100
报	100
handsome	100
##ಲ	100
mouse	100
commission	100
fou	100
conservatives	100
可	100
##eto	100
dave	100
intim	100
addresses	100
fortune	100
##ano	100
16th	100
##야	100
josé	100
strictly	100
discourse	100
ロ	100
##痘	100
gall	100
tink	100
##ral	100
monumental	100
production	100
dang	100
##张	100
##ament	100
aired	100
##傳	100
##rating	100
subs	100
##les	100
below	100
quarter	100
largely	100
ferry	100
northwestward	100
ourselves	100
##ম	100
處	100
##聲	100
##介	100
amn	100
elim	100
##魂	100
gre	100
academy	100
##空	100
##ୀ	100
##tain	100
bi	100
keen	100
##吧	100
##死	100
gazette	100
remarkably	100
pavil	100
##cott	100
##ｘ	100
straw	100
competing	100
##intosh	100
##ulk	100
kay	100
★	100
##inqu	100
종	100
輔	100
##utes	100
circulation	100
##冠	100
relationships	100
ὰ	100
skiers	100
provincial	100
獣	100
＝	100
##凯	100
minimize	100
reference	100
dame	100
头	100
翼	100
statement	100
蕨	100
renowned	100
exotic	100
baxter	100
ratings	100
##డ	100
affected	100
tyre	100
uranium	100
local	100
pok	100
seeks	100
##ining	100
possess	100
lean	100
dent	100
ory	100
##夕	100
tickets	100
annals	100
jac	100
##ema	100
sod	100
myself	100
repeatedly	100
zeppelin	100
##itively	100
##ש	100
though	100
gage	100
##ደ	100
社	100
agencies	100
##ailing	100
invincible	100
populations	100
unpopular	100
##ulative	100
##牛	100
marrying	100
acted	100
selective	100
forces	100
##獣	100
souls	100
##ガ	100
basis	100
hudson	100
罪	100
jade	100
caen	100
fletcher	100
indigen	100
visibility	100
##次	100
##bert	100
##15	100
補	100
floyd	100
ĭ	100
equ	100
strongly	100
600	100
swiss	100
1874	100
##太	100
barcel	100
##賢	100
freeze	100
笔	100
omn	100
steal	100
36	100
gren	100
287	100
ض	100
乙	100
pector	100
##oud	100
##amin	100
令	100
##raf	100
contem	100
diseas	100
##e	100
壓	100
series	100
fortunes	100
⑥	100
demol	100
狀	100
blades	100
officials	100
radi	100
airbus	100
attrib	100
與	100
軽	100
icons	100
##牙	100
##笨	100
nguy	100
realizes	100
deple	100
##丙	100
վ	100
酉	100
soundtrack	100
ُ	100
1820	100
bowman	100
##棍	100
ි	100
pass	100
studios	100
democracy	100
likes	100
luxury	100
towns	100
##ਜ	100
naval	100
enacted	100
ų	100
secure	100
᷈	100
##舎	100
established	100
ệ	100
imped	100
exceptionally	100
ɣ	100
dorm	100
cert	100
possibly	100
lanth	100
##ල	100
橋	100
易	100
##rative	100
eph	100
modeling	100
kne	100
airstri	100
threats	100
lesb	100
rain	100
griff	100
##ña	100
shat	100
冯	100
entry	100
'	100
상	100
坪	100
guaranteed	100
##18	100
middleton	100
visit	100
distracted	100
##ლ	100
##ņ	100
##ḫ	100
##ណ	100
##拾	100
##威	100
capabilities	100
张	100
vocals	100
meaningful	100
frontier	100
##ighth	100
milestone	100
cran	100
repl	100
紡	100
##enb	100
schizoph	100
mississippi	100
##afi	100
dr	100
仔	100
##শ	100
ܚ	100
bolt	100
者	100
##ril	100
##బ	100
escorted	100
simpler	100
context	100
ẽ	100
ves	100
stack	100
mongols	100
##ḱ	100
##政	100
##酷	100
guide	100
macar	100
attachment	100
讓	100
step	100
##ogene	100
送	100
newcastle	100
dum	100
osc	100
##翼	100
strange	100
坑	100
sonic	100
chase	100
renewed	100
resume	100
drinks	100
alam	100
shelters	100
诗	100
ɹ	100
백	100
fifteen	100
sixteen	100
智	100
##ⵇ	100
creative	100
spaces	100
je	100
##靼	100
ground	100
warming	100
##ฝ	100
래	100
##鴻	100
wax	100
ƈ	100
too	100
301	100
fand	100
proced	100
##的	100
##rews	100
##force	100
noon	100
##board	100
paintings	100
hugh	100
##đ	100
##灾	100
acceler	100
omaha	100
##銓	100
bar	100
miller	100
controversial	100
ა	100
persuaded	100
##ilia	100
sticks	100
##eer	100
##won	100
specifically	100
##aughter	100
metroid	100
cone	100
grazing	100
funded	100
boll	100
baldwin	100
evacuation	100
receives	100
corridor	100
remembers	100
highest	100
虐	100
responded	100
##rog	100
stress	100
##che	100
protocol	100
gover	100
ϑ	100
о	100
danube	100
commemorative	100
˩	100
brest	100
imprisoned	100
##istic	100
rookie	100
##藤	100
sacks	100
##杀	100
mele	100
弓	100
沙	100
brad	100
##anced	100
##omal	100
refere	100
shelf	100
enrich	100
continental	100
ヂ	100
##ek	100
cart	100
浙	100
lip	100
aggressive	100
syl	100
##範	100
##flow	100
##王	100
percy	100
susceptible	100
灶	100
fled	100
##optera	100
hiatus	100
releases	100
rok	100
catastrophic	100
裏	100
venge	100
ape	100
piercing	100
κ	100
jam	100
##エ	100
##ama	100
territ	100
hair	100
##uki	100
視	100
slopes	100
##ets	100
corporation	100
stream	100
meals	100
凪	100
mentions	100
cory	100
diss	100
##aukee	100
consult	100
requesting	100
flotilla	100
tram	100
##舍	100
trondheim	100
assemb	100
grams	100
animators	100
##西	100
tre	100
makeup	100
noble	100
trilogy	100
equator	100
centered	100
メ	100
##迪	100
confir	100
⌘	100
##孩	100
##esy	100
layer	100
##gradation	100
epis	100
ng	100
described	100
##fall	100
##瀛	100
ott	100
##eman	100
##條	100
mog	100
bucc	100
alp	100
pot	100
ht	100
77	100
grammy	100
rendez	100
gast	100
##ལ	100
##onst	100
edition	100
tsar	100
wellington	100
pupil	100
blunt	100
planes	100
almost	100
⊞	100
##dish	100
施	100
##한	100
##ports	100
plants	100
##ⲁ	100
##晋	100
##ภ	100
reduces	100
##ilyn	100
bras	100
siv	100
expenses	100
horizont	100
##sex	100
grenades	100
み	100
鋪	100
high	100
1848	100
failures	100
##લ	100
##君	100
",	100
ignore	100
买	100
堡	100
##瓢	100
##isation	100
##穗	100
casual	100
ᛄ	100
##格	100
1970	100
woo	100
scandinavian	100
openings	100
##enna	100
meantime	100
functioning	100
aden	100
bour	100
fashionable	100
##衛	100
##翱	100
##east	100
yang	100
yielded	100
##ro	100
incon	100
𐀁	100
heavier	100
addiction	100
##雷	100
practicing	100
##箭	100
##예	100
##鈍	100
ྥ	100
##순	100
ሥ	100
discussed	100
accordingly	100
sinclair	100
ᚬ	100
nic	100
##语	100
jos	100
怀	100
phon	100
prussia	100
##anna	100
##ำ	100
steering	100
ɻ	100
##ሐ	100
lamp	100
##铁	100
describes	100
hern	100
##ʋ	100
recru	100
##life	100
beginning	100
drainage	100
##iba	100
µm	100
빤	100
##onso	100
##macht	100
frost	100
genus	100
##护	100
met	100
iii	100
254	100
sel	100
ළ	100
imagined	100
계	100
determine	100
der	100
℥	100
finish	100
##iment	100
##ね	100
sidney	100
turned	100
##庆	100
##ᚩ	100
tirpitz	100
##γ	100
ironcl	100
archipelago	100
ot	100
##터	100
##elda	100
ukrain	100
ര	100
跟	100
##域	100
clare	100
game	100
غ	100
##abeth	100
##ắ	100
##gau	100
sophistic	100
weekly	100
117	100
eclips	100
玩	100
##aux	100
explores	100
stair	100
##standing	100
daniel	100
##nder	100
simult	100
deemed	100
reliance	100
andy	100
survey	100
##พ	100
manip	100
brah	100
mab	100
dorsal	100
second	100
gifts	100
edible	100
careful	100
##oc	100
uncom	100
symmetry	100
థ	100
##వ	100
pett	100
columb	100
endorsement	100
##ช	100
##ön	100
contempl	100
し	100
##osa	100
480	100
↘	100
##探	100
決	100
metallica	100
খ	100
map	100
camer	100
internation	100
##ʒ	100
ar	100
1914	100
pri	100
##cut	100
##apped	100
##ゲ	100
drives	100
sorts	100
critically	100
sentence	100
armenians	100
ú	100
patients	100
##lon	100
ʀ	100
№	100
柚	100
##浪	100
ɕ	100
ｒ	100
##immer	100
loading	100
mentioned	100
##啡	100
governance	100
貫	100
请	100
nun	100
baird	100
##卜	100
dramas	100
由	100
̧	100
##lord	100
putting	100
35th	100
pipe	100
##枯	100
un	100
colorful	100
useful	100
ឯ	100
##斯	100
artic	100
##utors	100
##ポ	100
##𐀫	100
pack	100
щ	100
mw	100
##ech	100
š	100
##suits	100
joshua	100
icel	100
阳	100
林	100
sunday	100
contradict	100
conc	100
པ	100
##ས	100
ballot	100
saxophone	100
千	100
##ქ	100
vatican	100
backed	100
renamed	100
##ֹ	100
chemicals	100
bishop	100
emily	100
hatred	100
shirts	100
economic	100
##arm	100
wizard	100
puck	100
habitat	100
quint	100
favourite	100
##喚	100
##icular	100
chit	100
臚	100
mell	100
gland	100
intellect	100
episode	100
johannes	100
shutout	100
provided	100
##瑙	100
partn	100
##ardo	100
##ennes	100
proponents	100
##or	100
##elet	100
emphasis	100
progresses	100
settlements	100
태	100
dist	100
claimed	100
precipitation	100
apprent	100
##worm	100
##ay	100
caves	100
consolid	100
##塚	100
##哉	100
visual	100
thousands	100
poorly	100
confederation	100
praised	100
opportunity	100
##រ	100
secretary	100
##ally	100
緩	100
##ན	100
briarcliff	100
incurred	100
desmond	100
wond	100
##anka	100
passenger	100
auditorium	100
non	100
praises	100
##essor	100
lars	100
nico	100
episcop	100
denied	100
outn	100
test	100
167	100
ձ	100
protein	100
sketches	100
fail	100
robb	100
半	100
##cester	100
##aceae	100
twenty	100
variety	100
filmography	100
ć	100
storytelling	100
discl	100
red	100
analyst	100
consider	100
敏	100
ᚦ	100
##lov	100
fraternity	100
##boats	100
hedge	100
ф	100
expeditions	100
issuing	100
detailing	100
##kin	100
repeating	100
selections	100
##ago	100
impressive	100
ᑲ	100
##线	100
##ɾ	100
ම	100
sabbath	100
ボ	100
雨	100
dunge	100
##olini	100
surg	100
introducing	100
villagers	100
##व	100
corinth	100
first	100
cole	100
ras	100
pitchers	100
nba	100
fishes	100
kl	100
pounder	100
apost	100
글	100
michaels	100
academic	100
##umberland	100
織	100
arv	100
fee	100
underneath	100
must	100
larvae	100
##lez	100
wade	100
conclusions	100
ⴻ	100
celebr	100
testing	100
congressman	100
unemployment	100
nets	100
airfields	100
passed	100
觀	100
encomp	100
故	100
##rant	100
weak	100
bypass	100
##book	100
staircase	100
##led	100
##將	100
ukrainian	100
ف	100
122	100
吟	100
unrest	100
1834	100
##ս	100
##ᑲ	100
##ld	100
ַ	100
canc	100
stephen	100
##位	100
communists	100
coached	100
monuments	100
aston	100
计	100
bombard	100
montenegro	100
tab	100
ʽ	100
##ʼ	100
##ascar	100
pit	100
若	100
##writ	100
proceeds	100
roy	100
##omy	100
fright	100
atmosph	100
arkham	100
brief	100
plant	100
bluff	100
saddle	100
ந	100
प	100
オ	100
buses	100
##esh	100
ankle	100
##老	100
##み	100
globe	100
cum	100
scientific	100
売	100
toured	100
clap	100
whis	100
##ikk	100
hutton	100
traditional	100
sampling	100
archipel	100
##양	100
hungarians	100
been	100
栖	100
arrangement	100
##ூ	100
莉	100
mag	100
resonance	100
privy	100
theolog	100
disagre	100
democrats	100
crescent	100
##odied	100
tonnes	100
##mor	100
声	100
##点	100
authent	100
kot	100
lend	100
universities	100
##chair	100
##鵡	100
inscription	100
tao	100
fission	100
##orial	100
aria	100
##ghai	100
∅	100
buddha	100
##oys	100
vulnerable	100
upro	100
ꭳ	100
objective	100
interrog	100
avoided	100
grass	100
fract	100
黨	100
##izable	100
wind	100
hawaiian	100
oppenheim	100
histories	100
爺	100
##皮	100
##mic	100
##서	100
enc	100
highlighted	100
collapse	100
mason	100
mediterranean	100
##teenth	100
1897	100
##mitt	100
become	100
disastrous	100
##sters	100
ἐ	100
mon	100
ratified	100
學	100
##ladesh	100
anonymous	100
ﬂ	100
attached	100
across	100
##boro	100
allocated	100
##ión	100
slide	100
wednesday	100
##onyms	100
flows	100
diverg	100
##衝	100
reactors	100
##豐	100
##導	100
##ensed	100
२	100
##o	100
##gets	100
amar	100
##ܬ	100
churches	100
kendrick	100
##an	100
coinage	100
##র	100
##mingham	100
traditions	100
##eland	100
##asis	100
38th	100
檀	100
expon	100
##ina	100
基	100
widely	100
##モ	100
fil	100
##just	100
index	100
armenia	100
recruit	100
vulcan	100
merchand	100
organising	100
phenomenon	100
craters	100
1887	100
##aru	100
ỳ	100
瞬	100
ﮭ	100
洁	100
編	100
color	100
冬	100
##ppe	100
radioactive	100
##oor	100
##changed	100
jg	100
emotional	100
淹	100
commentary	100
sixty	100
inaug	100
mart	100
##enheim	100
dorothy	100
##咫	100
##ܝ	100
elimin	100
vegetable	100
ხ	100
##頃	100
##send	100
##ili	100
##ヘ	100
advent	100
advers	100
bres	100
##節	100
program	100
##涵	100
include	100
larkin	100
fis	100
believing	100
살	100
atop	100
ascend	100
ɺ	100
행	100
caste	100
celebrations	100
##ai	100
attract	100
stores	100
transportation	100
##uke	100
sav	100
##mm	100
##識	100
koch	100
kaz	100
roddenberry	100
wii	100
cumb	100
suscept	100
##worthy	100
sanskrit	100
plays	100
nights	100
ū	100
##แ	100
##腐	100
concentration	100
1929	100
##ev	100
ဝ	100
posed	100
vuk	100
omar	100
enormous	100
temperate	100
##州	100
딱	100
##ܲ	100
跆	100
bie	100
phillies	100
pérez	100
151	100
##affected	100
##ǂ	100
1804	100
##sl	100
working	100
diamonds	100
alloys	100
wrest	100
##ance	100
##mans	100
甜	100
mouth	100
##castle	100
心	100
##alach	100
pr	100
regained	100
##程	100
ɸ	100
horror	100
category	100
ក	100
egypt	100
##ج	100
islamic	100
fifth	100
##실	100
##列	100
listeners	100
攻	100
explosion	100
##ṳ	100
fond	100
halo	100
##瑋	100
dynamic	100
deterior	100
閨	100
distinction	100
tops	100
##ز	100
newcom	100
##青	100
landslides	100
obsession	100
viol	100
phyl	100
amend	100
greenwich	100
##ango	100
ǭ	100
##etes	100
atmosphere	100
kc	100
##圓	100
prints	100
fifteenth	100
mozambique	100
stuff	100
##林	100
√	100
1778	100
stop	100
navy	100
##hy	100
oswald	100
mahar	100
monopoly	100
##怪	100
prison	100
##aling	100
himmler	100
prestige	100
rh	100
##bred	100
metallic	100
»	100
gravel	100
decree	100
den	100
belle	100
correl	100
##ל	100
olive	100
##ُ	100
說	100
saint	100
predator	100
##ocene	100
##elihood	100
defenders	100
##ὲ	100
##etz	100
told	100
##農	100
doctrine	100
##ⴻ	100
##姬	100
מ	100
##inese	100
mercy	100
##otic	100
suburbs	100
##ẻ	100
royalist	100
sweep	100
tar	100
vig	100
##礎	100
##leigh	100
cairo	100
deity	100
bin	100
篇	100
##par	100
somewhat	100
న	100
##卓	100
rick	100
looks	100
##ishna	100
havana	100
杀	100
pounds	100
##ico	100
莎	100
##ateg	100
##椒	100
piper	100
##步	100
淳	100
bore	100
acclaimed	100
eating	100
ᠣ	100
铎	100
呉	100
hin	100
##court	100
介	100
chapter	100
incred	100
##烙	100
漠	100
##义	100
bowlers	100
##erville	100
##orious	100
simulation	100
##ۍ	100
amazing	100
##oh	100
stom	100
surpassed	100
빅	100
##跳	100
strang	100
laure	100
pressure	100
prefers	100
archbishop	100
ammunition	100
163	100
pressed	100
decoration	100
example	100
revenge	100
ches	100
baham	100
ḣ	100
##bone	100
##û	100
emotionally	100
groves	100
##ភ	100
lumin	100
principle	100
dublin	100
##abe	100
ណ	100
lifestyle	100
gilmour	100
lamb	100
bip	100
##berts	100
applies	100
oss	100
朽	100
##非	100
maxwell	100
siege	100
patric	100
hurley	100
peas	100
khalid	100
52nd	100
mobil	100
ֶ	100
##٧	100
assisted	100
napole	100
1966	100
thinks	100
bung	100
beast	100
patch	100
##潜	100
￥	100
fire	100
1st	100
##core	100
dys	100
##enza	100
ო	100
卒	100
pal	100
announce	100
hook	100
cylinders	100
##փ	100
##riage	100
љ	100
綱	100
microsoft	100
horsepower	100
margaret	100
ballads	100
##受	100
proved	100
hug	100
bassist	100
sunsh	100
groups	100
殊	100
##ぅ	100
##국	100
##株	100
hi	100
154	100
curric	100
cyprus	100
disagree	100
##瀬	100
typical	100
willie	100
bella	100
requirements	100
bened	100
##כ	100
慧	100
##辿	100
aberde	100
vernacular	100
intensified	100
cgi	100
easily	100
crafted	100
treasurer	100
sham	100
reports	100
criticisms	100
€	100
tina	100
ว	100
relying	100
vick	100
villains	100
ῳ	100
☄	100
射	100
however	100
exception	100
interpretation	100
rabbi	100
##berht	100
arc	100
荊	100
09	100
highlight	100
刊	100
ో	100
beach	100
web	100
##landers	100
refr	100
power	100
genetic	100
○	100
##ich	100
##屯	100
anti	100
enabling	100
lovely	100
⁺	100
worked	100
ɐ	100
##么	100
bradford	100
202	100
purchase	100
##ivia	100
们	100
½	100
序	100
##词	100
pi	100
busch	100
boots	100
ump	100
ingen	100
tally	100
acres	100
##ister	100
판	100
｢	100
averages	100
cathed	100
bland	100
##ろ	100
caliber	100
##ฬ	100
##rab	100
〒	100
##ａ	100
queen	100
dealer	100
conversations	100
assim	100
##ères	100
stat	100
grateful	100
exhausted	100
##黄	100
demos	100
lup	100
tradem	100
##thodox	100
cw	100
##agasy	100
##彦	100
academics	100
constituted	100
lind	100
##ayette	100
##dd	100
🖕	100
arise	100
ா	100
groove	100
daley	100
benz	100
##တ	100
##leton	100
resurrect	100
##權	100
fed	100
##ongs	100
ɠ	100
grandfather	100
responds	100
##雳	100
##շ	100
viking	100
represented	100
dispersed	100
keyboard	100
corv	100
##antha	100
zoe	100
##gean	100
##功	100
feas	100
smithson	100
devices	100
dick	100
##帮	100
ำ	100
talked	100
##elli	100
machine	100
leads	100
mot	100
april	100
serv	100
thatcher	100
ऽ	100
##ι	100
##atha	100
##ો	100
expression	100
warriors	100
dispar	100
joh	100
##ੁ	100
##财	100
nicol	100
董	100
ľ	100
horns	100
surrounding	100
ཇ	100
wilm	100
spared	100
jupiter	100
henson	100
##現	100
poké	100
##borne	100
泰	100
##囁	100
ⵢ	100
♈	100
prophec	100
宙	100
costa	100
諭	100
1788	100
purported	100
apparent	100
04	100
##asting	100
slick	100
炮	100
courts	100
##ಂ	100
pas	100
intro	100
##瑞	100
ṇ	100
##姦	100
bind	100
廖	100
sioux	100
##歓	100
townsend	100
##uez	100
1803	100
died	100
殿	100
opponents	100
gentlemen	100
shipment	100
##chw	100
messenger	100
unch	100
inform	100
ማ	100
garage	100
actively	100
盗	100
raven	100
こ	100
tricks	100
dumb	100
##ς	100
shoulder	100
##映	100
cutsc	100
wint	100
卐	100
斯	100
##/	100
poker	100
pist	100
entrepreneur	100
##験	100
₤	100
redesign	100
fishermen	100
canceled	100
knockout	100
ル	100
genome	100
##综	100
##ancy	100
baseball	100
mineral	100
barge	100
##ur	100
agreeing	100
1829	100
irving	100
ascension	100
words	100
##breaking	100
##保	100
##als	100
襲	100
##ǵ	100
##ils	100
precip	100
commenting	100
hs	100
സ	100
##塊	100
guil	100
rip	100
##対	100
##asian	100
convert	100
explorer	100
##abil	100
##나	100
one	100
##uration	100
argentina	100
attitudes	100
1821	100
accol	100
magma	100
##quet	100
jag	100
chicks	100
managing	100
laboratories	100
##τ	100
##emi	100
博	100
neolithic	100
ྤ	100
##itism	100
aver	100
cob	100
##all	100
city	100
##irc	100
##namara	100
morm	100
##时	100
榮	100
##정	100
issues	100
극	100
見	100
schne	100
mu	100
rank	100
teeth	100
tourist	100
contempor	100
misc	100
orient	100
unreliable	100
travers	100
##送	100
sum	100
##호	100
壌	100
mercer	100
neurol	100
応	100
2004	100
25th	100
##ands	100
##碼	100
dense	100
hamm	100
consume	100
carter	100
strike	100
threatened	100
shakespeare	100
relationship	100
muscle	100
減	100
##ients	100
##anda	100
𐎠	100
contracts	100
##莱	100
excellent	100
爲	100
doz	100
forum	100
num	100
alexand	100
make	100
ு	100
fun	100
breast	100
##ables	100
深	100
##inc	100
##ธ	100
##ethe	100
##inch	100
dimensions	100
##overs	100
headquar	100
molecules	100
controllers	100
##간	100
85	100
曆	100
##uri	100
governments	100
##kn	100
ѹ	100
memories	100
prosp	100
##iders	100
1880	100
mcn	100
slogan	100
discontent	100
psychedelic	100
##酒	100
flag	100
幽	100
##ç	100
ⵍ	100
card	100
##uster	100
##ropod	100
1845	100
syracuse	100
strugg	100
##tv	100
counties	100
climbs	100
##𒀳	100
racing	100
ensign	100
##養	100
conquest	100
dupl	100
ἒ	100
##aean	100
cz	100
rings	100
distract	100
##rine	100
##ṙ	100
clin	100
advertised	100
choreographed	100
guar	100
胸	100
english	100
菉	100
withd	100
foss	100
partially	100
س	100
strength	100
pter	100
##习	100
reading	100
vit	100
념	100
ono	100
prud	100
behavi	100
marines	100
critique	100
seoul	100
砂	100
dam	100
술	100
inventor	100
lys	100
spiders	100
viable	100
谁	100
manifesto	100
##rey	100
pow	100
swall	100
##ნ	100
roles	100
attracting	100
ѥ	100
summary	100
accent	100
glaz	100
rendering	100
ʱ	100
##陣	100
##oz	100
誦	100
##凤	100
導	100
sunset	100
scor	100
testament	100
emir	100
##ippers	100
roots	100
##寔	100
posting	100
재	100
##rams	100
tant	100
##ヤ	100
ish	100
garnered	100
##占	100
景	100
##v	100
largest	100
bee	100
needle	100
悟	100
ظ	100
jews	100
る	100
imp	100
descend	100
姑	100
♄	100
##肖	100
boards	100
roland	100
桜	100
##acy	100
ft	100
##情	100
紅	100
respons	100
saw	100
##ovich	100
perfectly	100
##ears	100
act	100
gill	100
cobra	100
##緯	100
tools	100
##cock	100
##ር	100
設	100
finally	100
curs	100
amir	100
1935	100
vita	100
malley	100
##托	100
stricken	100
kol	100
공	100
ronald	100
ಾ	100
federer	100
##騎	100
##式	100
##ja	100
##స	100
nicar	100
roofs	100
##論	100
theater	100
區	100
##ument	100
３	100
defense	100
jacob	100
calc	100
hitler	100
##ente	100
##ics	100
takes	100
spher	100
rc	100
bricks	100
handed	100
14th	100
localized	100
村	100
juice	100
specim	100
prophet	100
her	100
##吹	100
##12	100
##rand	100
writers	100
##uy	100
questioned	100
棲	100
54	100
##16	100
##앤	100
renumbered	100
irrigation	100
purana	100
传	100
被	100
##mp	100
tin	100
leisure	100
##orable	100
##ᠯ	100
library	100
attacking	100
huge	100
penguins	100
showing	100
paramount	100
indonesian	100
pedest	100
gau	100
venetian	100
fuselage	100
recorded	100
sank	100
##帥	100
amazon	100
shale	100
deem	100
yucatán	100
subd	100
meh	100
nonetheless	100
extingu	100
hint	100
expressed	100
dul	100
ryan	100
##ppen	100
##rill	100
productive	100
##ሕ	100
##acing	100
lightning	100
##oding	100
wear	100
bunk	100
cater	100
sheriff	100
粁	100
sheffield	100
棗	100
matrix	100
##books	100
ang	100
colleagues	100
analogous	100
##ultimate	100
sled	100
trout	100
monarch	100
neutrality	100
könig	100
scand	100
caesar	100
07	100
zomb	100
syria	100
怨	100
crom	100
##玲	100
##at	100
perform	100
jealous	100
gandhi	100
indication	100
##ectors	100
viv	100
intellig	100
ᵻ	100
writing	100
##och	100
interception	100
瘡	100
occasion	100
propos	100
##rees	100
regulate	100
##ikovsky	100
ti	100
recon	100
ambitious	100
ե	100
##ر	100
discography	100
##完	100
scr	100
neum	100
浦	100
imprisonment	100
猿	100
everything	100
ថ	100
##ms	100
馆	100
︡	100
慈	100
##極	100
##grass	100
##reck	100
##顔	100
strategic	100
epid	100
relatively	100
strauss	100
sejm	100
broader	100
custody	100
##ī	100
수	100
as	100
flashback	100
鱀	100
tail	100
kle	100
wrecked	100
mā	100
updates	100
##闕	100
玉	100
colour	100
̬	100
wave	100
##pa	100
ÿ	100
locals	100
槐	100
locke	100
##fin	100
##潤	100
honored	100
adelaide	100
stela	100
condition	100
sierra	100
户	100
##鶴	100
nile	100
countdown	100
phenom	100
##双	100
彪	100
##ွ	100
saints	100
dif	100
satur	100
indef	100
upt	100
boundaries	100
##ม	100
‑	100
governed	100
antarctica	100
hak	100
ramps	100
halluc	100
readers	100
renov	100
medall	100
mifflin	100
tem	100
dissolution	100
centimet	100
pay	100
##贼	100
เ	100
臭	100
heis	100
pix	100
glenn	100
##ự	100
々	100
χ	100
##瑣	100
ක	100
##itar	100
算	100
2001	100
229	100
kaw	100
ɵ	100
adh	100
gwen	100
relate	100
裂	100
compounds	100
auburn	100
##ص	100
瑜	100
##閨	100
泗	100
##olic	100
##ingham	100
##ayan	100
westward	100
友	100
莴	100
borough	100
margins	100
cong	100
##ま	100
exported	100
ae	100
confession	100
odi	100
international	100
##리	100
##mond	100
##า	100
ones	100
fres	100
blocked	100
##sein	100
qualification	100
額	100
##ศ	100
฿	100
##ε	100
##boat	100
！	100
ﻴ	100
##ollah	100
swimmer	100
##ժ	100
enters	100
悔	100
weston	100
22nd	100
weaponry	100
treas	100
cuisine	100
grasses	100
breeders	100
##anni	100
relent	100
traff	100
##駿	100
##iy	100
bathroom	100
key	100
plaza	100
臺	100
reactions	100
subway	100
æthel	100
anchored	100
expensive	100
##ع	100
宸	100
വ	100
##agher	100
us	100
beaten	100
dodge	100
##𐭉	100
ira	100
##騒	100
benef	100
wil	100
confederacy	100
relay	100
indo	100
comrades	100
##osphere	100
ỗ	100
communities	100
eich	100
sees	100
刹	100
##艺	100
##ections	100
hipp	100
##usions	100
##ļ	100
promoted	100
##omm	100
##ondo	100
##豫	100
tuned	100
树	100
##ป	100
visually	100
ugly	100
187	100
compelled	100
olympics	100
兜	100
##ory	100
poem	100
##vers	100
ips	100
ܠ	100
pers	100
performers	100
##ベ	100
forens	100
##app	100
##iller	100
##hing	100
##概	100
coler	100
alexandria	100
xl	100
science	100
birds	100
万	100
obligation	100
saratoga	100
檳	100
iroqu	100
patriots	100
dylan	100
unsuccessfully	100
contacts	100
sant	100
revolt	100
interred	100
##iew	100
bare	100
chapel	100
neighbourhood	100
##zko	100
debut	100
captaincy	100
barth	100
棍	100
mysql_	100
##வ	100
mayor	100
##iving	100
談	100
donald	100
limitations	100
integr	100
密	100
boxing	100
##bar	100
embraced	100
800	100
charles	100
activ	100
hogan	100
ふ	100
reinstated	100
##ᠠ	100
sign	100
##岬	100
evaluate	100
안	100
odor	100
咲	100
analog	100
harb	100
##arium	100
enterpr	100
study	100
spencer	100
##omorph	100
viewed	100
cotton	100
wyatt	100
宋	100
damon	100
ង	100
##劇	100
islam	100
galleries	100
rooted	100
焔	100
senator	100
##nan	100
george	100
experienced	100
mits	100
cooper	100
scenic	100
hansen	100
##ɐ	100
##be	100
frances	100
鸚	100
tracks	100
scientists	100
inexperienced	100
coch	100
##bye	100
afc	100
##謎	100
italians	100
1920	100
sacr	100
—	100
constitute	100
ƀ	100
##ち	100
##iny	100
##վ	100
dal	100
ὀ	100
spart	100
##mund	100
bullet	100
burnt	100
similarities	100
근	100
urging	100
eggs	100
peat	100
##amination	100
green	100
value	100
##夷	100
nautical	100
渣	100
progressed	100
##ჲ	100
damaging	100
knocking	100
柔	100
arrested	100
managers	100
forms	100
grap	100
phase	100
chef	100
端	100
hanged	100
##gins	100
emi	100
discussion	100
roughly	100
physically	100
subject	100
confirming	100
##aghan	100
##ᡨ	100
helped	100
melissa	100
nash	100
litter	100
##ua	100
indones	100
resembling	100
flexible	100
##烦	100
##ud	100
##loid	100
obituary	100
̝	100
neighbor	100
dix	100
voluntary	100
##熱	100
kad	100
tenn	100
##ler	100
playing	100
fourteen	100
alcoh	100
##病	100
ܔ	100
##開	100
##hot	100
yoga	100
reyes	100
paragu	100
dodd	100
thames	100
cobain	100
bb	100
pip	100
enthusias	100
used	100
##fore	100
reproductive	100
satan	100
##cephal	100
্	100
slip	100
decor	100
lakes	100
喜	100
ج	100
☭	100
客	100
鵬	100
which	100
actress	100
rag	100
blink	100
##ween	100
##ු	100
mem	100
restaur	100
莱	100
eponymous	100
patrol	100
##ਹ	100
ᡠ	100
screen	100
belarus	100
漳	100
existed	100
##uns	100
##ቆ	100
##ാ	100
##載	100
ra	100
isa	100
##芝	100
defined	100
填	100
winston	100
halls	100
1789	100
tuc	100
sunshine	100
misunder	100
guevara	100
audrey	100
##anta	100
pec	100
watt	100
copy	100
seeking	100
##amma	100
christians	100
##버	100
##dock	100
gateway	100
##屑	100
month	100
11th	100
teles	100
##満	100
eventual	100
##千	100
##錄	100
##帝	100
coral	100
##鷺	100
##ጵ	100
manhattan	100
presumed	100
鐘	100
##aj	100
kend	100
pound	100
strikes	100
hed	100
gerald	100
kenya	100
telugu	100
ು	100
引	100
脱	100
##ি	100
witch	100
##鼻	100
1895	100
ಂ	100
പ	100
##태	100
trim	100
##ary	100
##铭	100
duet	100
##鉦	100
##դ	100
rise	100
##imony	100
journey	100
sanct	100
coordinates	100
##cop	100
##法	100
guidelines	100
ramsey	100
himal	100
global	100
ল	100
##ible	100
desirable	100
##suing	100
impacts	100
morph	100
##金	100
##3	100
##attan	100
ḍ	100
咆	100
implementation	100
එ	100
##な	100
韦	100
compete	100
dawson	100
##iveness	100
ู	100
##bel	100
suspend	100
##achment	100
values	100
叠	100
plut	100
##vet	100
counterparts	100
atmospheric	100
energy	100
##uls	100
ac	100
manoe	100
sleeve	100
##誦	100
ѧ	100
wounds	100
gatehouse	100
reck	100
affirm	100
receiver	100
✗	100
matt	100
##ogan	100
entr	100
ჭ	100
##pec	100
azores	100
##anking	100
shoot	100
joseph	100
##pox	100
##ended	100
６	100
mechanics	100
##pus	100
##弁	100
dani	100
飄	100
chall	100
##istol	100
##ゾ	100
##uses	100
##天	100
truman	100
##皇	100
products	100
mil	100
remember	100
jal	100
##ಗ	100
trinidad	100
ت	100
prost	100
brings	100
houses	100
汪	100
ལ	100
髀	100
conf	100
difficult	100
##oyd	100
whitish	100
joa	100
mck	100
sinking	100
stereotypes	100
patriot	100
bosn	100
2	100
veter	100
##acher	100
##lay	100
##坡	100
comedic	100
2000	100
exha	100
##oma	100
inherited	100
mushrooms	100
1957	100
adviser	100
##坚	100
##iliar	100
黃	100
maritime	100
陽	100
comedy	100
##azi	100
breaking	100
##感	100
##anus	100
kud	100
##adian	100
prerog	100
ռ	100
shift	100
sket	100
superf	100
opposing	100
##홀	100
##rison	100
wakes	100
##eme	100
liz	100
唄	100
##aint	100
彦	100
mass	100
alb	100
##bit	100
trial	100
##龙	100
sites	100
示	100
rob	100
恥	100
vr	100
##१	100
vicar	100
蹴	100
##椅	100
恆	100
1910	100
shortened	100
##文	100
##仕	100
##榮	100
ready	100
##py	100
cast	100
establishment	100
##jord	100
ድ	100
efficiency	100
hebrides	100
serb	100
ğ	100
identified	100
裝	100
##wards	100
letter	100
densely	100
pto	100
panel	100
hardly	100
nice	100
bias	100
俳	100
gaining	100
shields	100
姥	100
##家	100
冀	100
##ண	100
creativity	100
##ܢ	100
patrons	100
э	100
##相	100
designated	100
##ji	100
mechanic	100
cowboy	100
abyss	100
classics	100
fancy	100
##ழ	100
plot	100
ard	100
reverse	100
travels	100
##onds	100
##ey	100
##tical	100
##台	100
architect	100
激	100
landsl	100
閣	100
煩	100
sus	100
새	100
屋	100
juan	100
640	100
##gr	100
arabia	100
rhine	100
##ֳ	100
##hel	100
ᠠ	100
贈	100
sitcom	100
guarding	100
##ぉ	100
whatever	100
featuring	100
bursts	100
unfavorable	100
##ẽ	100
cricket	100
neutral	100
path	100
medie	100
chr	100
landing	100
kaiser	100
bede	100
aiming	100
snout	100
##caa	100
fixture	100
evangelical	100
possibilities	100
##有	100
𐎭	100
directory	100
loy	100
jod	100
fo	100
condem	100
pater	100
##amb	100
ב	100
hand	100
targeted	100
##qual	100
desp	100
laurel	100
oasis	100
##ón	100
completion	100
iran	100
##idal	100
rented	100
##ator	100
##葆	100
apollo	100
鉢	100
sepinwall	100
demands	100
##yr	100
twitter	100
##ذ	100
##anch	100
carell	100
belly	100
西	100
remod	100
び	100
execut	100
##ifolia	100
##onshire	100
resolved	100
goss	100
hockey	100
##ケ	100
##uz	100
德	100
acid	100
mcgu	100
throughout	100
metals	100
manh	100
書	100
##pson	100
##开	100
sultan	100
funny	100
expeditionary	100
remastered	100
crust	100
##eler	100
##恒	100
結	100
whole	100
gather	100
͍	100
prepar	100
graduated	100
remar	100
##站	100
##edd	100
##iger	100
apparently	100
conspiracy	100
##業	100
poss	100
wip	100
latest	100
bs	100
between	100
##bi	100
morales	100
##thing	100
##hold	100
dear	100
satisfact	100
##צ	100
mat	100
tempt	100
ශ	100
丸	100
長	100
##rels	100
##ន	100
yugoslavia	100
##gress	100
supply	100
##erne	100
increase	100
zhou	100
##eries	100
##urally	100
daughter	100
suitable	100
eventually	100
莘	100
##용	100
undertaken	100
gates	100
warn	100
##ý	100
marlborough	100
嬢	100
促	100
##ão	100
meter	100
names	100
눈	100
along	100
yar	100
upgrade	100
―	100
##storm	100
jon	100
阁	100
scrol	100
practiced	100
##jud	100
online	100
փ	100
pamphlet	100
influence	100
trainer	100
eg	100
##竜	100
dignity	100
network	100
帶	100
essential	100
##guy	100
hamper	100
unit	100
michigan	100
？	100
mort	100
lash	100
08	100
emblem	100
nadal	100
##jon	100
capcom	100
59	100
marking	100
divas	100
ɤ	100
甽	100
##音	100
ultra	100
##和	100
texts	100
##痴	100
lottery	100
女	100
##센	100
祈	100
tracy	100
leave	100
##ן	100
parameters	100
october	100
andrews	100
valuable	100
invite	100
ភ	100
animal	100
##zhnev	100
verd	100
uprising	100
deposits	100
wolves	100
pieces	100
angry	100
##場	100
##ѡ	100
increasing	100
stingray	100
奎	100
unlikely	100
induction	100
barons	100
问	100
##曾	100
process	100
𐭉	100
essay	100
gam	100
malta	100
disrupt	100
dere	100
reserved	100
ᴺ	100
紋	100
or	100
##aters	100
##itution	100
##គ	100
##odia	100
chaired	100
召	100
1889	100
##beck	100
newborn	100
##illed	100
signific	100
caps	100
##raints	100
arter	100
##zas	100
##nic	100
1989	100
ɴ	100
meg	100
comparison	100
##泉	100
谦	100
##迷	100
pregn	100
indec	100
邵	100
master	100
highly	100
briar	100
griffith	100
忍	100
##$	100
辿	100
##igon	100
wid	100
infantry	100
着	100
##衣	100
prime	100
rivalry	100
儚	100
##强	100
favorably	100
##atsu	100
auxiliary	100
stretching	100
habs	100
legs	100
해	100
authority	100
byrd	100
范	100
resting	100
##者	100
##17	100
bros	100
supersed	100
ἤ	100
jama	100
movie	100
fielding	100
milky	100
苗	100
##衢	100
篚	100
lodge	100
cobb	100
nightcl	100
detach	100
educated	100
##ಠ	100
mir	100
hancock	100
##anca	100
kre	100
abn	100
diabet	100
##ural	100
##street	100
ܬ	100
𝕡	100
圈	100
##咙	100
jeff	100
beaut	100
滋	100
studies	100
moore	100
cin	100
italia	100
fundraising	100
ecclesiastical	100
melt	100
42nd	100
eugen	100
岳	100
##ij	100
mint	100
lesbian	100
preserv	100
如	100
museum	100
feeding	100
elevation	100
##五	100
prelude	100
checked	100
粉	100
vars	100
priority	100
mete	100
##ase	100
celest	100
ễ	100
##합	100
##rang	100
ʡ	100
cinemat	100
pulled	100
oryz	100
彭	100
청	100
colours	100
signals	100
bess	100
maria	100
history	100
beyoncé	100
報	100
operation	100
lyon	100
##鳩	100
bono	100
conn	100
##維	100
##tw	100
bonds	100
overthrow	100
picc	100
eighteen	100
##rection	100
differ	100
##illing	100
汇	100
sheets	100
kir	100
demonstrated	100
signing	100
雅	100
1988	100
monsoon	100
theorem	100
marijuana	100
pinn	100
vot	100
indiana	100
##amming	100
martín	100
obliged	100
nursing	100
roger	100
furniture	100
genius	100
##要	100
⋅	100
##サ	100
tamil	100
##様	100
stretched	100
philharmon	100
prescribed	100
に	100
##itor	100
fuck	100
##ର	100
##母	100
##የ	100
heavyweight	100
mccain	100
kirby	100
deputy	100
assists	100
mc	100
é	100
≡	100
ේ	100
ဲ	100
##leading	100
armored	100
##割	100
plea	100
##ི	100
춘	100
ゲ	100
boulevard	100
agree	100
novelist	100
barriers	100
##bys	100
##堯	100
##ू	100
kane	100
explanations	100
rectangular	100
marriages	100
##anger	100
elaborate	100
##輔	100
reaching	100
##柱	100
africa	100
claws	100
sales	100
##irth	100
吧	100
猫	100
sympt	100
remov	100
liu	100
happening	100
ge	100
韭	100
##iles	100
##acruz	100
ख	100
estate	100
apocaly	100
leather	100
torture	100
ꜫ	100
ƥ	100
dut	100
moist	100
commercially	100
veracruz	100
ritual	100
apartments	100
##閒	100
lynn	100
str	100
resupp	100
[...]
