parth	100
helium	100
songwriting	100
capital	100
pale	100
angel	100
dy	100
##šić	100
##月	100
##il	100
lal	100
##屿	100
続	100
##eth	100
ashton	100
erin	100
##ս	100
frequ	100
##斎	100
##晴	100
coordinator	100
##散	100
##ি	100
norse	100
刺	100
aa	100
mcmahon	100
##ය	100
dupl	100
decision	100
opp	100
veloc	100
ironclads	100
leip	100
310	100
##გ	100
戊	100
成	100
junction	100
##awak	100
##union	100
applications	100
##良	100
resided	100
婁	100
tempo	100
kiel	100
environmental	100
月	100
##부	100
臭	100
generous	100
spaces	100
̮	100
##誦	100
165	100
cw	100
toronto	100
##爭	100
plate	100
dimensions	100
列	100
dav	100
decent	100
##gin	100
460	100
##tec	100
庵	100
讼	100
foster	100
traps	100
archibald	100
##fer	100
##stones	100
stall	100
bristol	100
ŏ	100
secret	100
##oln	100
ballad	100
1866	100
##ぇ	100
hitter	100
abilities	100
##are	100
scripted	100
20	100
for	100
plenty	100
disease	100
ˠ	100
##l	100
թ	100
##uce	100
##獻	100
##坡	100
##蠻	100
inadequate	100
cyan	100
socialist	100
##拳	100
fellows	100
unavailable	100
ice	100
##'	100
ṽ	100
nik	100
賈	100
##像	100
hawks	100
penins	100
bois	100
smithsonian	100
雄	100
潤	100
##9	100
読	100
simp	100
retail	100
sta	100
papers	100
誡	100
sheph	100
discour	100
##芮	100
link	100
holiday	100
208	100
luis	100
nominated	100
deep	100
rhodes	100
currency	100
growth	100
##維	100
##ancy	100
solic	100
millwall	100
nad	100
pie	100
##gun	100
essentially	100
soundtracks	100
##power	100
भ	100
亦	100
##abs	100
solid	100
fus	100
alam	100
弐	100
edith	100
##測	100
њ	100
臨	100
wil	100
sometime	100
##anya	100
합	100
battlecru	100
active	100
camps	100
宮	100
awards	100
stalin	100
hit	100
pradesh	100
sellers	100
kara	100
93	100
satell	100
##桧	100
gue	100
competent	100
##hardt	100
unusually	100
austrians	100
##虫	100
armies	100
am	100
##to	100
collecting	100
succession	100
ki	100
upl	100
鵡	100
窗	100
##ol	100
spherical	100
唱	100
##off	100
##vey	100
ringo	100
pan	100
guitar	100
ɗ	100
酥	100
confederacy	100
翠	100
once	100
facility	100
亜	100
lights	100
##わ	100
##რ	100
route	100
golds	100
##taining	100
chemistry	100
##民	100
##泥	100
cities	100
criticism	100
##hus	100
ೞ	100
col	100
ఖ	100
86	100
##au	100
sometimes	100
##regon	100
rhod	100
dwarfs	100
peloton	100
##inished	100
##亮	100
鴻	100
æ	100
##lam	100
##渦	100
額	100
##厦	100
娘	100
lit	100
employed	100
cheer	100
拟	100
##acle	100
威	100
##acious	100
manage	100
1891	100
##ained	100
##뿐	100
阳	100
佑	100
##ர	100
柚	100
radio	100
##ions	100
消	100
##鍵	100
फ	100
televised	100
##y	100
governance	100
##う	100
悟	100
##琴	100
copy	100
gliders	100
object	100
intending	100
##中	100
regard	100
soccer	100
bosnian	100
cochrane	100
##族	100
page	100
‟	100
resisted	100
亞	100
##u	100
youn	100
sup	100
powers	100
batter	100
fort	100
shan	100
원	100
喚	100
earl	100
chem	100
administered	100
##rain	100
jov	100
督	100
##ying	100
winston	100
##it	100
outl	100
嚣	100
stom	100
kou	100
keeps	100
wet	100
##ｘ	100
laps	100
ं	100
relativity	100
prest	100
invade	100
generation	100
ዛ	100
julius	100
cyclonic	100
##ţ	100
ก	100
凱	100
##º	100
dated	100
##essors	100
quir	100
produced	100
terminal	100
moder	100
##rd	100
fielder	100
短	100
育	100
##着	100
##國	100
dodge	100
thunderbirds	100
壷	100
##門	100
##姚	100
##천	100
##stanbul	100
##lake	100
##augh	100
##affected	100
booked	100
##ض	100
unconstitutional	100
modest	100
##髪	100
lowell	100
##iate	100
##键	100
冴	100
scientology	100
du	100
##icus	100
ყ	100
randall	100
jr	100
ѹ	100
mysore	100
lana	100
##idence	100
rt	100
ള	100
rings	100
##kar	100
##ayer	100
ђ	100
##val	100
##eryl	100
관	100
logistics	100
##ored	100
##wor	100
脈	100
nur	100
parasites	100
suffrage	100
##η	100
##ⵔ	100
##ub	100
whit	100
beams	100
paula	100
継	100
##仪	100
benedict	100
prisoner	100
synthesis	100
recordings	100
toler	100
桑	100
landmark	100
rhet	100
camp	100
undertaking	100
##飾	100
##夷	100
##婆	100
spots	100
850	100
ascension	100
cla	100
华	100
##臘	100
姬	100
##elo	100
alphabet	100
᷇	100
glory	100
inscribed	100
freighter	100
ends	100
##rooms	100
##atham	100
adults	100
##ञ	100
lyrics	100
como	100
balanced	100
shakespear	100
iod	100
ram	100
夷	100
¾	100
皇	100
equation	100
##ශ	100
civic	100
deputies	100
##ending	100
anxious	100
ῐ	100
aur	100
ᛃ	100
stay	100
##ellation	100
##ilib	100
蘭	100
prow	100
showcase	100
pus	100
弁	100
remaining	100
atmospheric	100
##robe	100
smile	100
energetic	100
fungus	100
filmed	100
##д	100
##質	100
bould	100
##opes	100
##aire	100
##ʼ	100
##膀	100
drive	100
##圣	100
##sha	100
consumers	100
##fman	100
ח	100
暁	100
travis	100
martyr	100
refl	100
affect	100
##inted	100
##宵	100
deities	100
pull	100
ệ	100
rams	100
breakdown	100
wwf	100
##itus	100
##郑	100
捷	100
爪	100
간	100
##caa	100
troph	100
dependence	100
corpse	100
hund	100
declar	100
nesting	100
powerful	100
ṉ	100
armor	100
sihanouk	100
⑧	100
##pective	100
excell	100
representations	100
favourites	100
##사	100
##朋	100
##嶼	100
oh	100
##vester	100
..	100
cinemat	100
ꦯ	100
superman	100
innovation	100
ended	100
##uro	100
presidents	100
##fight	100
##乩	100
storms	100
schwart	100
head	100
##gets	100
managing	100
feat	100
vintage	100
波	100
lak	100
##週	100
mates	100
odd	100
designer	100
h	100
憎	100
##standing	100
##whel	100
習	100
##look	100
under	100
ৰ	100
裏	100
assume	100
leopold	100
concern	100
dishes	100
forb	100
ُ	100
郭	100
halo	100
finland	100
chin	100
1799	100
zh	100
烙	100
soap	100
ਉ	100
sc	100
legislative	100
met	100
##oop	100
##cestershire	100
1000	100
##yll	100
緯	100
##entric	100
##vern	100
nat	100
westbound	100
willamette	100
毬	100
strongest	100
带	100
intens	100
雙	100
##斜	100
obliv	100
##ips	100
##丝	100
accidents	100
steadily	100
excavations	100
equipped	100
##술	100
sediment	100
##osphere	100
image	100
勝	100
evans	100
##လ	100
recounted	100
magn	100
var	100
##窓	100
passes	100
##eda	100
7	100
550	100
齋	100
cow	100
illness	100
paths	100
belongs	100
##お	100
##itarian	100
daley	100
臂	100
##steen	100
∅	100
賀	100
##aph	100
airport	100
unpre	100
##20	100
coloured	100
##itled	100
桜	100
##aff	100
disaster	100
markets	100
moral	100
seemingly	100
##両	100
幽	100
whether	100
##fol	100
user	100
asserted	100
forrest	100
defenders	100
supply	100
reconnaissance	100
02	100
iron	100
权	100
rollins	100
ode	100
expect	100
寔	100
##家	100
multipl	100
เ	100
researchers	100
admir	100
controlling	100
descended	100
##ikk	100
##avers	100
point	100
ბ	100
afterward	100
definitive	100
##姬	100
##失	100
##远	100
crystall	100
definition	100
ჟ	100
victims	100
##irable	100
soy	100
鄭	100
series	100
ቈ	100
100	100
immature	100
blunt	100
cortex	100
卓	100
dark	100
##找	100
б	100
commonwealth	100
ῳ	100
##inea	100
œ	100
##ር	100
##ker	100
expeditions	100
trademark	100
sil	100
tet	100
shor	100
sells	100
##ჱ	100
jake	100
transferred	100
nuclei	100
铺	100
##誓	100
##ớ	100
##ont	100
prepare	100
abraham	100
lowered	100
##ancies	100
madh	100
##ivia	100
風	100
repetition	100
civilians	100
##罰	100
sud	100
##g	100
dynam	100
จ	100
local	100
1997	100
##oci	100
reconst	100
republicans	100
physician	100
animal	100
##laim	100
cort	100
1940	100
mercen	100
ত	100
penet	100
exceptions	100
maud	100
##roke	100
expressing	100
bik	100
歪	100
defensive	100
特	100
##卫	100
##q	100
##倉	100
##ᠵ	100
پ	100
fossil	100
##abh	100
warner	100
##ʋ	100
##铜	100
jeffrey	100
ể	100
rowed	100
ោ	100
##ections	100
##悟	100
hint	100
fire	100
inad	100
measures	100
줄	100
##kh	100
conver	100
##芝	100
freezing	100
safe	100
word	100
pip	100
confl	100
affection	100
##inces	100
hierarch	100
tchaikovsky	100
360	100
利	100
cecil	100
##堯	100
chic	100
製	100
##ounding	100
ich	100
visited	100
monsoon	100
##uts	100
##ede	100
礼	100
metall	100
rhodesian	100
pard	100
ю	100
accompanied	100
賢	100
colombia	100
##γ	100
euc	100
##ecki	100
gig	100
defenses	100
gc	100
##ᚻ	100
polish	100
##ገ	100
aguilera	100
ford	100
##標	100
①	100
asyl	100
##भ	100
尋	100
자	100
##grad	100
##齐	100
40th	100
committing	100
##und	100
reused	100
contract	100
##態	100
##元	100
##ecting	100
contention	100
erupted	100
##oc	100
earthquake	100
##c	100
dum	100
levi	100
##ữ	100
##agic	100
workshops	100
cartridge	100
merch	100
subdivision	100
top	100
progressed	100
chat	100
翱	100
button	100
##aj	100
constable	100
kc	100
##onym	100
ᡨ	100
premise	100
ు	100
modifications	100
product	100
##hawks	100
surgery	100
pur	100
meetings	100
ups	100
vision	100
##quez	100
rice	100
rak	100
pent	100
東	100
warb	100
coun	100
bored	100
##rik	100
liu	100
forens	100
responds	100
excluded	100
且	100
fact	100
odi	100
ethiop	100
actual	100
pounder	100
##佳	100
martine	100
##enzie	100
##ware	100
ペ	100
favor	100
##my	100
eager	100
바	100
116	100
times	100
uses	100
औ	100
##ْ	100
љ	100
hel	100
confirming	100
##ц	100
予	100
saddle	100
traverse	100
tourn	100
##erv	100
faces	100
rer	100
##oding	100
weekends	100
##弦	100
impr	100
charged	100
titus	100
耿	100
천	100
grade	100
marine	100
tenth	100
pleasant	100
##綯	100
##iments	100
##ogens	100
undivided	100
1960	100
requ	100
劃	100
##ements	100
##itting	100
่	100
find	100
wait	100
ceased	100
approaches	100
decreased	100
tomatoes	100
trends	100
imposing	100
##限	100
##ours	100
willie	100
scheduled	100
males	100
interceptions	100
kirby	100
雉	100
##ۍ	100
consumer	100
」	100
facilitate	100
waist	100
fairbanks	100
worsh	100
翡	100
incons	100
dislike	100
##ui	100
retros	100
扁	100
destroying	100
rowan	100
ჷ	100
clive	100
露	100
educ	100
fiji	100
嫁	100
口	100
collar	100
plac	100
uranium	100
##么	100
】	100
迦	100
##agasy	100
commercials	100
##崎	100
总	100
許	100
encour	100
sarawak	100
雾	100
hebrew	100
faction	100
##直	100
shield	100
##rec	100
精	100
wig	100
villages	100
##ivid	100
##β	100
##urb	100
##ague	100
descent	100
speer	100
fine	100
chronicle	100
ใ	100
##ocene	100
们	100
busiest	100
1918	100
both	100
##に	100
##範	100
bow	100
េ	100
pand	100
implied	100
##情	100
tour	100
flies	100
problem	100
conquer	100
boyle	100
##奈	100
scuttled	100
ukraine	100
ὗ	100
##ṅ	100
marilyn	100
津	100
rot	100
leonard	100
##极	100
ancestor	100
destination	100
巴	100
eclipse	100
##퍼	100
##ias	100
lund	100
cena	100
globe	100
pitchers	100
ἂ	100
hier	100
ry	100
ု	100
neuro	100
prestige	100
pseudo	100
experiment	100
##pread	100
angered	100
##惑	100
becomes	100
invisible	100
ʝ	100
##야	100
breach	100
while	100
touching	100
##abul	100
speech	100
vene	100
ludwig	100
certainly	100
##alam	100
yes	100
##atha	100
##越	100
##heed	100
royale	100
convenient	100
cord	100
retains	100
thanks	100
zion	100
kud	100
halt	100
villa	100
drake	100
flight	100
monumental	100
##は	100
hyderabad	100
判	100
究	100
##彬	100
##ru	100
揚	100
records	100
聘	100
increased	100
tracks	100
troops	100
patt	100
hostile	100
cur	100
building	100
##毘	100
##icians	100
moll	100
herod	100
懍	100
ė	100
endang	100
planetary	100
##joy	100
succeeded	100
volt	100
secre	100
##开	100
##orted	100
##forth	100
likewise	100
欒	100
چ	100
卸	100
##eters	100
##iks	100
##劃	100
##ary	100
strength	100
new	100
alp	100
溜	100
guadal	100
gu	100
virtually	100
廿	100
dj	100
insert	100
##징	100
ì	100
##蒭	100
opportunities	100
##esco	100
ಱ	100
##斤	100
nin	100
fueled	100
reprodu	100
##ames	100
wu	100
filmm	100
聲	100
ဆ	100
circum	100
bullets	100
successor	100
bankrupt	100
servant	100
räikk	100
##哉	100
waste	100
雕	100
御	100
screenwriter	100
mammoth	100
friction	100
##okee	100
##鉢	100
apparently	100
##घ	100
expos	100
##附	100
sto	100
compr	100
狐	100
posthumously	100
##ฑ	100
##순	100
##ief	100
ashes	100
樊	100
##pole	100
##acre	100
leices	100
scripts	100
ballads	100
confesses	100
shirt	100
侗	100
zepp	100
‘	100
biographies	100
raided	100
淳	100
词	100
##agher	100
##痴	100
uncovered	100
akin	100
##inson	100
##itudes	100
gover	100
titles	100
bel	100
##ument	100
##weight	100
sob	100
aged	100
##iously	100
wooden	100
miz	100
complex	100
dead	100
##gam	100
easter	100
piece	100
nose	100
ze	100
miranda	100
adventure	100
빤	100
gas	100
##dish	100
##ilia	100
anten	100
##state	100
canvas	100
##ccess	100
abel	100
withdrawal	100
overlo	100
shame	100
delayed	100
##zing	100
standout	100
ceas	100
##bands	100
15	100
ranks	100
overs	100
volcanoes	100
##umbered	100
nationalist	100
katrina	100
grandson	100
54	100
##ش	100
##個	100
totaled	100
˨	100
defeating	100
cole	100
mozambique	100
琦	100
theories	100
secretly	100
漠	100
remembers	100
##细	100
週	100
prefecture	100
##emb	100
ַ	100
##양	100
ぴ	100
##ὲ	100
swim	100
openly	100
dev	100
175	100
beat	100
踢	100
fash	100
commissioner	100
##street	100
armstrong	100
config	100
stressed	100
sas	100
貞	100
##inos	100
##kinson	100
sé	100
彬	100
requests	100
drawing	100
treaty	100
ɒ	100
##asts	100
wished	100
wrestlemania	100
dwelling	100
##bern	100
遼	100
steep	100
releasing	100
coloration	100
##ages	100
construction	100
ni	100
composing	100
oro	100
gibson	100
ನ	100
embarked	100
thursday	100
˥	100
55	100
conway	100
##変	100
suffix	100
hm	100
demanding	100
##inks	100
1966	100
##雄	100
##oney	100
##pin	100
於	100
voltage	100
##螺	100
authorities	100
travel	100
##riage	100
guild	100
ten	100
zah	100
friendship	100
syria	100
##uters	100
コ	100
ἔ	100
≡	100
summers	100
superhero	100
rails	100
hereditary	100
adren	100
µ	100
##lands	100
##ser	100
完	100
alleg	100
へ	100
hayes	100
collectively	100
##忘	100
parks	100
ལ	100
owen	100
ը	100
##道	100
saw	100
玉	100
channels	100
ˣ	100
forests	100
features	100
swall	100
##ส	100
partly	100
paperback	100
importance	100
discontin	100
pagan	100
titled	100
פ	100
##蘭	100
hend	100
亚	100
अ	100
magic	100
sheriff	100
43	100
yorktown	100
##quit	100
##aman	100
suz	100
barrow	100
##eston	100
allah	100
ott	100
菜	100
chapters	100
lindsay	100
clothes	100
staging	100
規	100
##ty	100
convert	100
belonging	100
խ	100
aaa	100
##薇	100
public	100
differs	100
prop	100
decorated	100
index	100
ke	100
##orse	100
##填	100
##ϕ	100
role	100
客	100
requires	100
manip	100
smash	100
ml	100
het	100
##illary	100
huff	100
aeros	100
rememb	100
fl	100
raised	100
something	100
conceived	100
renovation	100
혹	100
portable	100
將	100
総	100
佐	100
ʈ	100
uss	100
above	100
##艳	100
prospect	100
ボ	100
occ	100
peninsula	100
elliott	100
xen	100
pipe	100
mores	100
remov	100
upro	100
##dale	100
##yard	100
儡	100
warri	100
consequence	100
##ယ	100
##iley	100
transm	100
regional	100
pile	100
pérez	100
library	100
figures	100
crush	100
betrayed	100
litter	100
##è	100
stars	100
argue	100
comments	100
ne	100
dors	100
han	100
jagu	100
##enders	100
适	100
lakers	100
dean	100
garcia	100
burt	100
##统	100
陛	100
湾	100
spe	100
imagin	100
saratoga	100
ѡ	100
bismarck	100
norwe	100
analog	100
##謡	100
jun	100
hamp	100
moreno	100
##craft	100
kro	100
抄	100
katie	100
	100
語	100
邊	100
vinc	100
drowned	100
mine	100
ପ	100
##icks	100
frequently	100
ᶴ	100
bam	100
##nder	100
allan	100
##ំ	100
締	100
canning	100
##oughs	100
##la	100
##inated	100
pupil	100
bastion	100
breed	100
##pler	100
##ceeded	100
##bean	100
##투	100
##刘	100
supervised	100
cumberland	100
promptly	100
dug	100
##ぜ	100
##dal	100
restart	100
##qual	100
姫	100
1979	100
cyclones	100
loaded	100
face	100
ʒ	100
吸	100
lethal	100
nar	100
sharon	100
guarding	100
summarized	100
ᵘ	100
cultivation	100
es	100
##調	100
minister	100
shakes	100
##ontin	100
lae	100
subpl	100
amar	100
##etime	100
father	100
baseball	100
los	100
pol	100
backs	100
manu	100
archive	100
羊	100
jill	100
nelson	100
dism	100
incurred	100
##尼	100
ant	100
lith	100
transfers	100
rend	100
period	100
hog	100
ề	100
##允	100
revenues	100
derived	100
dickinson	100
##雁	100
mob	100
ramb	100
##aro	100
neighb	100
##さ	100
##解	100
鸭	100
##sch	100
komb	100
ankle	100
shaped	100
doug	100
paleont	100
֫	100
##ership	100
disrupted	100
로	100
##늬	100
杂	100
##ander	100
dag	100
supportive	100
##anne	100
incom	100
scholarship	100
##inet	100
blur	100
issues	100
chartered	100
ܝ	100
##iger	100
bahamas	100
類	100
wavelength	100
premiers	100
bw	100
romney	100
##ੱ	100
##anto	100
conservative	100
graff	100
莱	100
plane	100
##ations	100
##du	100
humanity	100
prison	100
using	100
淹	100
##弁	100
reaching	100
tested	100
柩	100
##색	100
zy	100
##止	100
ɪ	100
contributing	100
##น	100
kids	100
oxford	100
expense	100
morph	100
desert	100
eve	100
ensuring	100
##综	100
everybody	100
路	100
##rington	100
buchan	100
false	100
უ	100
##ament	100
horse	100
extra	100
euras	100
claiming	100
enthus	100
##ache	100
##د	100
molecular	100
こ	100
toxic	100
##檻	100
handic	100
headquartered	100
increas	100
ன	100
tooth	100
scoreless	100
##ances	100
ⵖ	100
their	100
ử	100
aggression	100
eccentric	100
##therly	100
##leaf	100
ᑲ	100
origin	100
telegram	100
##ں	100
##壌	100
ブ	100
opens	100
aquatic	100
ident	100
1999	100
##ailand	100
weaver	100
patriarch	100
药	100
##េ	100
celebration	100
居	100
native	100
##祺	100
##縄	100
‐	100
票	100
##ript	100
believed	100
bombard	100
disputed	100
guess	100
##荷	100
holding	100
崎	100
embassy	100
lans	100
unus	100
suspension	100
vacuum	100
ago	100
never	100
kru	100
marquis	100
te	100
coll	100
##ressed	100
##የ	100
##flu	100
##cess	100
蛍	100
queen	100
ك	100
readers	100
censorship	100
journals	100
##步	100
##皇	100
galax	100
gamespy	100
kle	100
##粥	100
##ン	100
##添	100
##宮	100
##ron	100
tintin	100
dol	100
emancipation	100
themes	100
τ	100
科	100
stead	100
##gus	100
##客	100
mushroom	100
##ewan	100
##tingu	100
replacement	100
pear	100
parach	100
##選	100
casino	100
relate	100
infantry	100
##长	100
influenced	100
1931	100
え	100
##fied	100
mountains	100
saxons	100
dancers	100
chords	100
##ｉ	100
studios	100
nes	100
##werp	100
##izes	100
emission	100
##藤	100
avalanche	100
##장	100
judgement	100
desper	100
fisheries	100
microscopic	100
##sm	100
containing	100
##막	100
teammate	100
assaults	100
##𐎢	100
lap	100
suffering	100
##aken	100
##借	100
jeremy	100
pitted	100
##落	100
friedrich	100
##獅	100
##orn	100
prompt	100
sheen	100
barns	100
proper	100
mak	100
៉	100
##ain	100
harsh	100
屬	100
選	100
honoured	100
hipper	100
##born	100
accepted	100
bacter	100
nok	100
intervened	100
##颗	100
flank	100
##lad	100
##ery	100
jos	100
ና	100
chall	100
wheelchair	100
##atures	100
hers	100
##ٰ	100
##嘘	100
គ	100
led	100
##cu	100
##脂	100
ォ	100
50	100
谭	100
eliminating	100
caste	100
##boards	100
cia	100
1985	100
positioning	100
scale	100
“	100
讓	100
bulld	100
serial	100
bold	100
lass	100
storyt	100
mov	100
kilometers	100
lancash	100
schw	100
##救	100
jim	100
##委	100
din	100
⛢	100
轉	100
##ead	100
assessment	100
聯	100
##onshire	100
constitu	100
pseud	100
hut	100
건	100
ℛ	100
grossed	100
resignation	100
wore	100
##ih	100
誰	100
##ெ	100
blond	100
portsmouth	100
##uez	100
##润	100
ton	100
alternatively	100
happiness	100
spun	100
玲	100
##bourne	100
##ille	100
ꞅ	100
##fest	100
greek	100
expression	100
佃	100
##ogly	100
##办	100
caucus	100
##acruz	100
bombay	100
2008	100
regarded	100
inspir	100
bates	100
treas	100
breckinridge	100
observes	100
##ධ	100
sail	100
##cend	100
zinc	100
rebellion	100
reclaim	100
##matic	100
malta	100
##omp	100
##zhnev	100
sees	100
管	100
##ics	100
transp	100
##ᡵ	100
announcement	100
tiber	100
런	100
##aine	100
##ह	100
##rupt	100
朗	100
cripp	100
curtain	100
fitzger	100
##学	100
cork	100
resigned	100
refr	100
##ese	100
말	100
##집	100
答	100
expanded	100
promotion	100
carried	100
##reated	100
##ols	100
##wan	100
shared	100
perimeter	100
mess	100
pres	100
breaks	100
##庆	100
窓	100
##ظ	100
å	100
executive	100
##问	100
archaeology	100
##ogical	100
collector	100
##望	100
町	100
寧	100
白	100
sid	100
suffers	100
tended	100
practically	100
audition	100
##arya	100
荪	100
##奐	100
##ess	100
##禺	100
centre	100
rug	100
exha	100
bapt	100
zones	100
##inals	100
necess	100
replacements	100
lin	100
random	100
##ash	100
##报	100
件	100
gö	100
170	100
条	100
disguise	100
attain	100
marx	100
声	100
omitted	100
wilderness	100
ப	100
##ከ	100
##健	100
viz	100
##ove	100
immigrants	100
##iji	100
amphibious	100
evan	100
congressional	100
##amination	100
berry	100
eld	100
𐭓	100
by	100
conte	100
investment	100
pixar	100
prosecut	100
architectural	100
engine	100
##rison	100
genev	100
phrases	100
married	100
gear	100
源	100
##ɵ	100
##培	100
dra	100
endangered	100
chile	100
deposed	100
robbie	100
contempor	100
truck	100
spector	100
##olf	100
##侍	100
renamed	100
completion	100
contradict	100
##eling	100
gros	100
##器	100
eyes	100
##魔	100
န	100
moist	100
wi	100
harmon	100
infinity	100
preparing	100
freshman	100
##otus	100
damaged	100
daugh	100
radiation	100
##ն	100
場	100
pray	100
attempting	100
1946	100
##mers	100
maintaining	100
marijuana	100
黑	100
flats	100
##hampton	100
morris	100
days	100
refugees	100
##umes	100
##equ	100
transformed	100
amir	100
##areth	100
１	100
dramatic	100
brack	100
215	100
khan	100
不	100
nations	100
dani	100
operating	100
##국	100
##list	100
张	100
dialogue	100
##蔭	100
蛇	100
mt	100
requesting	100
kad	100
sy	100
muslims	100
iii	100
∩	100
phantom	100
caret	100
yugoslavia	100
哥	100
formidable	100
･	100
heavily	100
instruments	100
̊	100
farmer	100
diff	100
nh	100
aids	100
熙	100
tonight	100
coinage	100
kilogram	100
桀	100
##imb	100
shack	100
##ბ	100
birmingham	100
##hurst	100
ያ	100
##ived	100
nicolas	100
##ibi	100
dana	100
lyon	100
り	100
instituted	100
##enon	100
ص	100
##ocaust	100
ტ	100
##ounced	100
chord	100
غ	100
bran	100
##rawn	100
⁰	100
##ῖ	100
ero	100
cy	100
虎	100
1791	100
##勝	100
resort	100
ិ	100
rescued	100
##ᚹ	100
burn	100
け	100
ু	100
ɡ	100
evaluated	100
##fish	100
timeslot	100
slender	100
october	100
ʋ	100
玩	100
barlow	100
##lem	100
xii	100
author	100
1964	100
朔	100
##ost	100
##aving	100
focus	100
##μ	100
致	100
august	100
19	100
krishna	100
##ਸ	100
38	100
reasoning	100
computer	100
remembered	100
dollars	100
consc	100
choreography	100
sex	100
oasis	100
pel	100
wherein	100
##oan	100
lot	100
complexity	100
univers	100
ɻ	100
##þ	100
##ience	100
package	100
dough	100
clem	100
shu	100
##昭	100
##促	100
roosevelt	100
##akers	100
touches	100
ⴰ	100
orch	100
109	100
ron	100
towns	100
motions	100
♯	100
prepared	100
advent	100
fruits	100
amtrak	100
##idge	100
olive	100
open	100
employ	100
figh	100
bronze	100
porch	100
ล	100
among	100
paul	100
inadequ	100
##fly	100
ゥ	100
scratch	100
spain	100
carte	100
telugu	100
europa	100
gob	100
##udes	100
lease	100
##odore	100
tenants	100
discovers	100
suspected	100
##楚	100
##宫	100
norman	100
##nc	100
##aced	100
⋯	100
walk	100
苣	100
##芬	100
licensing	100
strings	100
cannes	100
cuban	100
eh	100
ontar	100
otter	100
chimney	100
brock	100
134	100
##owski	100
ᡝ	100
##game	100
lodge	100
##ests	100
##珂	100
experiences	100
爵	100
ふ	100
##វ	100
##rock	100
ត	100
然	100
##elyn	100
##mission	100
supplying	100
##ooner	100
##孔	100
##oya	100
gur	100
迄	100
ǃ	100
塚	100
catches	100
albany	100
pred	100
rome	100
racing	100
redes	100
inquiry	100
sketch	100
yield	100
ᴺ	100
walker	100
mortality	100
lacrosse	100
背	100
##about	100
问	100
ሕ	100
inhabit	100
##豊	100
leading	100
dump	100
manif	100
##戎	100
heming	100
##য	100
_	100
qualifying	100
prov	100
sit	100
strict	100
tant	100
翼	100
doctorate	100
toured	100
##frame	100
##稷	100
##oms	100
≢	100
mistakes	100
##);	100
##ơ	100
##ᛇ	100
truly	100
tf	100
綯	100
##齋	100
##ミ	100
scre	100
##ensis	100
fertil	100
site	100
maximum	100
dating	100
##chaikovsky	100
##ὔ	100
##ction	100
𐭕	100
cultiv	100
deadly	100
##nt	100
narratives	100
tune	100
replied	100
##即	100
##stadt	100
##quis	100
paced	100
##oqu	100
##由	100
##hl	100
directly	100
educated	100
##iewicz	100
crypt	100
mig	100
grief	100
lo	100
##ղ	100
##achlan	100
̗	100
寞	100
upright	100
comparatively	100
虫	100
guest	100
tragic	100
look	100
doesn	100
！	100
遊	100
邦	100
##0	100
##雙	100
dal	100
好	100
fired	100
blamey	100
##ils	100
torn	100
advocates	100
disagree	100
##uky	100
delegate	100
##fr	100
ｍ	100
@-	100
favorable	100
lansing	100
consoles	100
toad	100
boom	100
reint	100
fourteenth	100
郑	100
縣	100
##ө	100
##托	100
interpretations	100
hosp	100
##aldi	100
princes	100
structure	100
searching	100
faith	100
輿	100
fal	100
đ	100
inches	100
##ੰ	100
##alk	100
##溢	100
##atorium	100
##py	100
³	100
##bers	100
##bing	100
noon	100
scored	100
pract	100
##체	100
crossing	100
declare	100
##ulous	100
磯	100
吕	100
##tershire	100
comes	100
寇	100
correspond	100
ಾ	100
gambling	100
extratropical	100
獵	100
infamous	100
julie	100
despair	100
##ding	100
##di	100
##anta	100
adv	100
founded	100
ownership	100
unprecedented	100
lockheed	100
pin	100
##玩	100
##邪	100
chuck	100
ordin	100
trophies	100
催	100
氾	100
fix	100
witness	100
caution	100
##erged	100
conven	100
reagan	100
운	100
masts	100
daring	100
poker	100
doct	100
béla	100
問	100
##soft	100
himmler	100
３	100
sharks	100
##기	100
##磨	100
seward	100
organisations	100
##师	100
finalist	100
init	100
documentary	100
entrance	100
interpre	100
138	100
sawyer	100
彭	100
flemish	100
governments	100
##偵	100
measure	100
clar	100
hairs	100
##vre	100
cohes	100
坊	100
jail	100
##ieg	100
##ores	100
ȯ	100
pett	100
asian	100
internationally	100
##ij	100
lock	100
dr	100
鯵	100
1996	100
##iter	100
楯	100
##傳	100
##aha	100
kn	100
max	100
keeper	100
gle	100
ģ	100
փ	100
##acy	100
judgment	100
##utt	100
injection	100
release	100
##完	100
decay	100
rhine	100
##afi	100
specimen	100
influential	100
arcs	100
##申	100
cunning	100
major	100
丞	100
loads	100
gam	100
##聚	100
asia	100
drink	100
##grove	100
struct	100
允	100
az	100
architects	100
mcmah	100
vita	100
recipient	100
joc	100
##ew	100
davies	100
##踊	100
typh	100
##ack	100
telecommun	100
floors	100
##齊	100
acqu	100
tramway	100
combined	100
galveston	100
injuring	100
##\	100
##進	100
lover	100
grades	100
stretches	100
##蛇	100
殿	100
guinea	100
##rific	100
గ	100
weekly	100
online	100
dedication	100
†	100
##舞	100
##ida	100
cooling	100
雅	100
##ú	100
heal	100
nay	100
million	100
soft	100
spear	100
academics	100
680	100
##善	100
##amer	100
birch	100
##aming	100
bey	100
hypothes	100
termin	100
179	100
ecclesiastical	100
##var	100
▲	100
##株	100
mun	100
nissan	100
calif	100
##usc	100
invent	100
semif	100
repe	100
demonstrated	100
al	100
underm	100
蓝	100
##鼠	100
戴	100
thereby	100
堂	100
ළ	100
剩	100
1783	100
baby	100
fault	100
##ష	100
owner	100
##ulator	100
provinc	100
ravens	100
說	100
1807	100
carries	100
##abl	100
พ	100
poison	100
duties	100
spartan	100
touring	100
devast	100
pe	100
漸	100
lab	100
potentially	100
anton	100
##aria	100
royce	100
loops	100
composed	100
##olit	100
initiatives	100
##aceans	100
propaganda	100
idol	100
turns	100
ineff	100
parl	100
6	100
##卜	100
kerrigan	100
justice	100
##isle	100
##ስ	100
ல	100
saturn	100
14th	100
գ	100
convex	100
lucrative	100
ash	100
iroqu	100
archit	100
##ᠣ	100
バ	100
didn	100
dodgers	100
rabaul	100
burgh	100
coffee	100
praises	100
##ź	100
##areness	100
##取	100
riaa	100
dens	100
midfield	100
豹	100
##room	100
vettel	100
nomura	100
railroads	100
##iya	100
##quin	100
rises	100
##uh	100
tat	100
eddy	100
mut	100
##ṟ	100
estim	100
nursing	100
libya	100
げ	100
phelps	100
compuls	100
ore	100
memorials	100
alberto	100
wrest	100
##after	100
trad	100
subt	100
studying	100
observ	100
奐	100
naval	100
##ilis	100
hunts	100
##ulates	100
##function	100
ً	100
timberlake	100
##elda	100
##闘	100
reunion	100
##š	100
withdrew	100
ﻉ	100
్	100
植	100
「	100
##wing	100
death	100
##earing	100
ڈ	100
cherokee	100
##eliness	100
selection	100
alternate	100
diabetes	100
mourning	100
manners	100
点	100
hamburg	100
evaluate	100
##垣	100
kicking	100
##enn	100
andrew	100
1973	100
в	100
է	100
귀	100
bak	100
##朗	100
##ten	100
##喜	100
##ip	100
吴	100
健	100
##圖	100
mcc	100
ו	100
圓	100
non	100
associate	100
摸	100
##idia	100
pearson	100
donations	100
##士	100
##kin	100
anne	100
newer	100
##amas	100
hearted	100
illegitimate	100
hubble	100
軌	100
ii	100
##根	100
construct	100
##験	100
contents	100
judicial	100
##ි	100
geology	100
##apo	100
penetrate	100
献	100
willis	100
♀	100
manchester	100
##kn	100
outskirts	100
##av	100
##义	100
services	100
mineral	100
spac	100
potential	100
moss	100
landlord	100
網	100
hem	100
##狱	100
ⵣ	100
ே	100
##禰	100
carb	100
corners	100
campaign	100
##bow	100
##대	100
백	100
artillery	100
turbines	100
satis	100
##kney	100
蒙	100
##han	100
developmental	100
##延	100
1830s	100
philippine	100
alley	100
server	100
ն	100
##estone	100
##hen	100
centres	100
##决	100
##짓	100
maryland	100
views	100
##ffield	100
ེ	100
astron	100
pressed	100
dimensional	100
intric	100
bol	100
ト	100
腰	100
underground	100
filipino	100
##ల	100
lists	100
air	100
椎	100
concent	100
teams	100
リ	100
delivered	100
##判	100
functioning	100
framed	100
桓	100
purity	100
wanted	100
galactic	100
##itsu	100
爾	100
yuk	100
istanbul	100
他	100
pamphlet	100
portal	100
establishment	100
##orship	100
##滅	100
yan	100
##ך	100
study	100
û	100
ϵ	100
##组	100
module	100
destruct	100
##祥	100
connections	100
rodgers	100
##男	100
street	100
1600	100
nav	100
fa	100
##ghai	100
粍	100
餅	100
##た	100
身	100
teddy	100
deployed	100
##core	100
##urs	100
hd	100
ebert	100
temperature	100
##erie	100
撃	100
aim	100
##합	100
rebuilt	100
canon	100
##ingu	100
events	100
泡	100
hur	100
##houses	100
沈	100
ι	100
誠	100
##ί	100
##希	100
alterations	100
##瑞	100
carniv	100
渣	100
herzegovina	100
##顯	100
##ason	100
##岩	100
比	100
譌	100
accessible	100
ubs	100
keyboard	100
biod	100
ណ	100
郝	100
᷆	100
concentrations	100
hearings	100
鮑	100
restoring	100
confronted	100
##inian	100
lond	100
##aged	100
##秦	100
subst	100
turbine	100
med	100
##hyd	100
##people	100
consisting	100
despite	100
##ᛁ	100
##ド	100
start	100
##ಡ	100
stag	100
tracy	100
standards	100
##詠	100
pengu	100
outward	100
severe	100
rena	100
imprisoned	100
publish	100
olympic	100
programmes	100
awk	100
lady	100
thunderstorm	100
hu	100
hometown	100
unexp	100
overhaul	100
flor	100
usa	100
##鉴	100
noticed	100
修	100
pag	100
##ided	100
わ	100
##integr	100
乌	100
scores	100
autonomous	100
tud	100
amusement	100
epit	100
ો	100
霆	100
##초	100
compet	100
丿	100
colonial	100
uncomfort	100
##啡	100
brain	100
闍	100
lieutenant	100
enhanced	100
ȳ	100
##elf	100
ม	100
bibl	100
##祐	100
anim	100
##명	100
##encer	100
##ⴷ	100
agric	100
𐀈	100
reviewer	100
অ	100
alf	100
inj	100
1850s	100
bill	100
choreograph	100
交	100
##栖	100
wii	100
counterpart	100
鴣	100
##watch	100
famously	100
2003	100
##reen	100
eff	100
##emann	100
popul	100
##ရ	100
decommissioned	100
##imin	100
##ider	100
##列	100
sep	100
238	100
##ses	100
indonesia	100
jurisdiction	100
##uli	100
繼	100
easily	100
medi	100
##旭	100
thor	100
nephew	100
captaincy	100
smith	100
箪	100
ب	100
##ac	100
anywhere	100
ฉ	100
̀	100
lun	100
sends	100
laz	100
##urd	100
##aic	100
keep	100
premiership	100
fastest	100
crucial	100
john	100
ᛇ	100
eden	100
ჶ	100
reflects	100
khrush	100
380	100
felt	100
##all	100
teen	100
⊣	100
瓷	100
somewhat	100
reluctant	100
annoy	100
##ʐ	100
jum	100
territory	100
##ant	100
restriction	100
hind	100
##安	100
##abilities	100
stricken	100
##gary	100
(),	100
deriv	100
eth	100
##jev	100
fred	100
offic	100
outpost	100
difficulty	100
##ธ	100
女	100
##萨	100
##aea	100
legislature	100
##吉	100
accounting	100
answer	100
brewery	100
publicity	100
##蓑	100
##议	100
short	100
##acula	100
##zb	100
mtv	100
##islaus	100
155	100
chronic	100
ረ	100
autobiographical	100
fc	100
between	100
apply	100
##makers	100
##ḫ	100
exhibition	100
##翻	100
##지	100
saint	100
obscure	100
zach	100
##性	100
hydraul	100
ⲧ	100
##濃	100
greeks	100
隣	100
viruses	100
##mon	100
##gem	100
##xy	100
nebraska	100
defe	100
##ky	100
demons	100
輛	100
##恭	100
motif	100
celtic	100
suspic	100
academ	100
regener	100
辿	100
pant	100
jubilee	100
卐	100
##写	100
innings	100
##豬	100
profound	100
emm	100
shopping	100
##表	100
momentum	100
soviets	100
净	100
bride	100
schmid	100
perhaps	100
ื	100
thinking	100
hancock	100
pain	100
allowed	100
gary	100
imagination	100
熊	100
bush	100
砖	100
costing	100
presumed	100
##boat	100
##amily	100
##พ	100
##佐	100
sat	100
daily	100
趙	100
yankee	100
##旅	100
practical	100
reserves	100
悦	100
▼	100
##緒	100
crop	100
depending	100
fraud	100
##總	100
unemploy	100
##駿	100
brun	100
galileo	100
shin	100
arrangement	100
̍	100
##vik	100
sailing	100
eleg	100
shi	100
kentucky	100
fru	100
further	100
endured	100
##omal	100
byrne	100
##載	100
has	100
gravitational	100
rhino	100
luftwaffe	100
spiritual	100
ቆ	100
##ture	100
($	100
conveyed	100
賦	100
mull	100
280	100
arrival	100
##adier	100
##icked	100
1949	100
##st	100
quint	100
carriage	100
##leased	100
streak	100
##ause	100
gunnery	100
critique	100
angle	100
confused	100
##၂	100
accomplishments	100
monuments	100
##ä	100
various	100
yak	100
##hanna	100
མ	100
槻	100
scoring	100
淇	100
##ö	100
円	100
##建	100
becom	100
mesa	100
陸	100
experts	100
eph	100
garcía	100
##ony	100
음	100
premiered	100
graz	100
stack	100
def	100
##the	100
mats	100
austrian	100
phoenix	100
goddess	100
leis	100
1921	100
vuk	100
kens	100
bread	100
pop	100
alleged	100
##騭	100
severity	100
gadd	100
##環	100
wend	100
cardiff	100
damasc	100
exposing	100
禎	100
algor	100
mississ	100
1857	100
dischar	100
##_	100
frank	100
##5	100
dispatched	100
burrow	100
##isms	100
audience	100
starring	100
diversity	100
wooded	100
coincide	100
locate	100
470	100
ἲ	100
reinfor	100
cold	100
heavier	100
agents	100
⅔	100
##滨	100
follows	100
##詞	100
##nel	100
celebr	100
free	100
amster	100
underwood	100
由	100
abduct	100
bruss	100
harder	100
santana	100
thwart	100
townsend	100
redemption	100
板	100
##fc	100
maker	100
##ჯ	100
senior	100
##м	100
welsh	100
平	100
极	100
＝	100
##rol	100
alex	100
prep	100
##ira	100
terminated	100
christina	100
1828	100
unanimous	100
erotic	100
extingu	100
mariners	100
tast	100
cit	100
##reat	100
mcm	100
vend	100
й	100
shot	100
deliberate	100
refers	100
turn	100
loud	100
##ithm	100
##充	100
##ocation	100
shelter	100
##課	100
##ulations	100
75	100
scav	100
##ats	100
excl	100
##ƒ	100
##亜	100
countries	100
rotten	100
##ɦ	100
effort	100
georgia	100
117	100
dam	100
listing	100
knowles	100
vladimir	100
sixteenth	100
unreleased	100
cag	100
##ਜ	100
routes	100
insur	100
except	100
⇪	100
horton	100
আ	100
##牌	100
crawford	100
##ರ	100
holdings	100
##grave	100
jamaica	100
percussion	100
##ɚ	100
interc	100
amidst	100
recovery	100
sung	100
siblings	100
林	100
ɞ	100
basis	100
##ios	100
narrowly	100
召	100
##补	100
##ᚢ	100
old	100
##anche	100
vanguard	100
historic	100
थ	100
batted	100
##berht	100
腐	100
sepinwall	100
##ordination	100
ls	100
prefer	100
irving	100
publ	100
bail	100
##oks	100
চ	100
##ollow	100
demograph	100
##ifiable	100
##그	100
##ignment	100
concludes	100
##叫	100
civilian	100
##廷	100
ပ	100
##べ	100
##oons	100
adopting	100
master	100
franchises	100
emphasized	100
舍	100
platoon	100
卫	100
##进	100
maj	100
unusual	100
300	100
aqu	100
finish	100
##iques	100
merging	100
substitute	100
interviews	100
cigar	100
detention	100
interrog	100
creativity	100
districts	100
nig	100
floyd	100
ᶢ	100
##ology	100
҆	100
penalties	100
patronage	100
shortly	100
borrowed	100
architecture	100
suburban	100
depression	100
##top	100
wolver	100
suite	100
##牛	100
hereford	100
霜	100
ņ	100
orphan	100
interfere	100
mik	100
walked	100
##結	100
herself	100
establishing	100
ฤ	100
cellular	100
10	100
孤	100
##oot	100
unconstitution	100
gne	100
##茸	100
臚	100
##設	100
##柱	100
fey	100
韓	100
basal	100
1777	100
benz	100
ấ	100
souls	100
saxon	100
義	100
symbol	100
shores	100
par	100
##熊	100
##abet	100
灣	100
the	100
revers	100
means	100
##urated	100
祈	100
##imir	100
bom	100
aborigin	100
attractive	100
##aments	100
path	100
lia	100
##oused	100
nme	100
spitfires	100
flowers	100
##쳐	100
##ᚱ	100
navy	100
ắ	100
>	100
recruiting	100
庭	100
sutton	100
kip	100
##鳴	100
##피	100
##place	100
##პ	100
employee	100
##欽	100
cites	100
体	100
processes	100
uneven	100
mystery	100
罠	100
poss	100
decline	100
quiet	100
gest	100
##ֳ	100
##houn	100
₹	100
broadcasting	100
hawaii	100
upheld	100
##apping	100
moly	100
ht	100
reynolds	100
寺	100
ර	100
emp	100
protective	100
더	100
swarm	100
sult	100
name	100
loos	100
leafs	100
##吸	100
tier	100
machine	100
glands	100
候	100
##巖	100
jen	100
##ologic	100
ϕ	100
假	100
##inae	100
1926	100
economics	100
fleeing	100
₨	100
feral	100
##own	100
sv	100
acquiring	100
ܘ	100
applauded	100
wetlands	100
##খ	100
1980s	100
lawsuit	100
##arte	100
漁	100
rogue	100
##ב	100
salon	100
##castle	100
consist	100
rodden	100
landslides	100
##指	100
線	100
##圏	100
belgrade	100
cnn	100
dreadnought	100
lut	100
break	100
##ֹ	100
aberde	100
花	100
##锡	100
##erc	100
antilles	100
##利	100
的	100
cycling	100
清	100
shipped	100
##授	100
গ	100
characters	100
reefs	100
怎	100
preventing	100
twentieth	100
operas	100
##鎧	100
show	100
歷	100
floods	100
clever	100
federer	100
##uded	100
ெ	100
##ounted	100
maurit	100
tenn	100
絵	100
universe	100
revolt	100
##侨	100
##agram	100
##orrh	100
meredith	100
scapa	100
units	100
fac	100
rosen	100
russians	100
杲	100
directed	100
ruin	100
darren	100
west	100
lucas	100
cincinnati	100
##lywood	100
##omon	100
##ỏ	100
connector	100
ܵ	100
##鴻	100
logo	100
planet	100
##季	100
乐	100
##차	100
prostit	100
customer	100
clone	100
tj	100
bolshev	100
saxophone	100
##弓	100
goods	100
豚	100
ﬁ	100
sunk	100
decks	100
webb	100
connie	100
##誘	100
叔	100
##權	100
##減	100
̑	100
hostility	100
mate	100
substit	100
爺	100
##od	100
debut	100
depicts	100
displayed	100
ҳ	100
##ई	100
reached	100
##aper	100
residence	100
preparation	100
##annon	100
bearing	100
˚	100
3d	100
suppress	100
venet	100
##ճ	100
tradition	100
exercised	100
options	100
##爲	100
ċ	100
particularly	100
sust	100
closer	100
乳	100
array	100
use	100
exact	100
obliged	100
##脈	100
##ز	100
##貝	100
amazing	100
motivated	100
recognized	100
##尉	100
bucc	100
##ⴽ	100
film	100
fruit	100
##皿	100
##ateg	100
reverse	100
customers	100
vaugh	100
ges	100
##บ	100
variation	100
road	100
behav	100
麥	100
介	100
1901	100
refuse	100
becoming	100
宴	100
interstate	100
ṇ	100
ce	100
awes	100
curved	100
##侯	100
ensemble	100
sac	100
shawn	100
blowing	100
wehr	100
##鴣	100
montgomery	100
spinal	100
##amine	100
挥	100
anthrop	100
backwards	100
braz	100
abandoned	100
legislation	100
facade	100
varied	100
##ề	100
##閃	100
##wold	100
freeway	100
price	100
finnish	100
virtue	100
todd	100
day	100
##ptic	100
##렬	100
ging	100
##編	100
occup	100
packaging	100
micha	100
##ogenic	100
dragon	100
disc	100
bad	100
louis	100
cancel	100
renaissance	100
reformed	100
hij	100
##iffer	100
kickoff	100
##ེ	100
passage	100
discont	100
##enge	100
vast	100
europ	100
memoirs	100
hamasaki	100
ect	100
##ѡ	100
paintings	100
ョ	100
財	100
條	100
commemorated	100
##ŭ	100
lifes	100
wind	100
forerun	100
businessman	100
smallest	100
##yn	100
geometric	100
bo	100
근	100
シ	100
combining	100
parachute	100
nablus	100
diagn	100
present	100
昌	100
##itable	100
we	100
barkley	100
##丘	100
2015	100
celebrated	100
hastily	100
##brand	100
favour	100
園	100
##霰	100
##gom	100
오	100
##ining	100
japanese	100
somehow	100
##rig	100
##ﬁ	100
reservations	100
performing	100
declares	100
##isc	100
ṭ	100
macedonian	100
ɖ	100
全	100
techn	100
##不	100
ｄ	100
shout	100
nascar	100
reinforce	100
brett	100
statutes	100
win	100
ĉ	100
##镜	100
币	100
##wh	100
suff	100
logical	100
充	100
##も	100
pse	100
--	100
ǂ	100
viet	100
ministers	100
middleton	100
咖	100
judith	100
ル	100
##ት	100
employers	100
landings	100
practice	100
↓	100
##ە	100
##que	100
spring	100
##rac	100
talks	100
dragged	100
carriers	100
successive	100
##裂	100
誘	100
##л	100
forec	100
diar	100
tensions	100
hedgehog	100
##ucle	100
redempt	100
mur	100
##ɔ	100
##ico	100
eugen	100
三	100
#	100
please	100
##imes	100
##彙	100
fancy	100
hutton	100
개	100
sam	100
义	100
ultimately	100
listings	100
遜	100
trout	100
陳	100
咫	100
economic	100
professionally	100
287	100
##到	100
헬	100
菉	100
johor	100
##組	100
##о	100
##領	100
comprised	100
scler	100
##ប	100
##ⵍ	100
##ὴ	100
releas	100
seventeenth	100
formats	100
##pes	100
extract	100
emerg	100
casualties	100
rochester	100
祖	100
##օ	100
pav	100
##[	100
permission	100
薇	100
##po	100
adventures	100
堡	100
martial	100
vince	100
roger	100
じ	100
##ṁ	100
##minster	100
##illas	100
ought	100
##柳	100
##ģ	100
计	100
lust	100
楼	100
birthday	100
hats	100
##圓	100
alumin	100
##ฐ	100
復	100
ongoing	100
##ikes	100
acid	100
ಕ	100
should	100
alpine	100
孔	100
##ལ	100
##ซ	100
tna	100
འ	100
contested	100
conspirators	100
##雳	100
kannada	100
lancashire	100
dennis	100
holt	100
popularity	100
adjusted	100
幸	100
platforms	100
tallest	100
##ibles	100
##otypes	100
masterpiece	100
##貞	100
give	100
verb	100
frust	100
##茶	100
satur	100
immense	100
##tery	100
popular	100
antib	100
##儒	100
zeus	100
jesse	100
ars	100
ڬ	100
##份	100
enam	100
##咙	100
ulyss	100
祀	100
glass	100
##ن	100
##aze	100
##vara	100
澪	100
ulysses	100
壳	100
##bral	100
jok	100
hatred	100
##ل	100
conceal	100
潘	100
屿	100
##号	100
tombs	100
##ostic	100
##utions	100
inexper	100
reformation	100
upward	100
##主	100
picard	100
harold	100
winner	100
troub	100
submerged	100
wiggins	100
households	100
suburbs	100
exceeded	100
gills	100
##འ	100
administration	100
richard	100
##i	100
entering	100
aux	100
spanned	100
坪	100
wee	100
##aukee	100
horace	100
alice	100
ッ	100
gang	100
##utta	100
amino	100
colomb	100
##խ	100
##opot	100
slowly	100
##ャ	100
inspire	100
arctic	100
tyres	100
⅛	100
crab	100
衙	100
bir	100
tyler	100
warn	100
sentenced	100
biden	100
lavish	100
##este	100
##谷	100
chinese	100
##abil	100
##ô	100
ဟ	100
subjects	100
##応	100
pants	100
##elt	100
ḕ	100
##father	100
types	100
towed	100
shak	100
nem	100
##だ	100
feminine	100
2002	100
committed	100
edward	100
confirm	100
additions	100
ต	100
revealed	100
mansfield	100
ꦲ	100
1916	100
##鹿	100
flooded	100
scientists	100
theatres	100
rebuilding	100
coher	100
directors	100
oswald	100
ц	100
##a	100
adviser	100
##ranged	100
rit	100
skel	100
铭	100
驗	100
mind	100
##ologist	100
##inder	100
﻿	100
gibral	100
greco	100
章	100
ă	100
##bie	100
pilgrims	100
prizes	100
blown	100
contrasting	100
ป	100
##３	100
wishes	100
书	100
succ	100
1796	100
prosth	100
stage	100
stylistic	100
destinations	100
hyder	100
##ấ	100
rn	100
##去	100
`	100
captain	100
典	100
temple	100
bradman	100
##colm	100
##õ	100
depths	100
##ფ	100
##teen	100
hobart	100
fro	100
shock	100
##atin	100
指	100
matches	100
##ober	100
ର	100
age	100
ideas	100
reflect	100
sum	100
penal	100
flick	100
onto	100
144	100
##ulin	100
ƒ	100
##ank	100
bosn	100
advocate	100
communist	100
nickelodeon	100
forgot	100
##侠	100
judici	100
dwarf	100
quote	100
puppet	100
##cz	100
##sa	100
250	100
##rent	100
duchess	100
##amped	100
bacterial	100
##万	100
encouraged	100
skies	100
u	100
純	100
attendance	100
apartment	100
bud	100
highlighted	100
陪	100
war	100
강	100
jane	100
worship	100
liquor	100
hungarians	100
neu	100
篋	100
##hand	100
calculated	100
##awa	100
deeply	100
stevenson	100
mammals	100
jacques	100
descend	100
##ያ	100
cris	100
პ	100
challeng	100
##oard	100
nickn	100
shank	100
##econ	100
squadrons	100
oklah	100
##杲	100
##ヅ	100
味	100
##脉	100
wilf	100
justify	100
1868	100
chrono	100
sax	100
moreover	100
dose	100
##其	100
eisenhower	100
italians	100
anniversary	100
arrang	100
nicaragua	100
sleeping	100
1833	100
pride	100
alert	100
##atl	100
##lements	100
explorers	100
##tr	100
報	100
##cy	100
category	100
##world	100
##cr	100
georgian	100
##umont	100
romantic	100
distrib	100
	100
original	100
defeats	100
##靖	100
zero	100
transylvania	100
mutations	100
terrorist	100
monopoly	100
helms	100
동	100
grandfather	100
##ḱ	100
barrels	100
##ŏ	100
principally	100
moderately	100
solution	100
ษ	100
silent	100
stirling	100
boul	100
cant	100
crete	100
donated	100
籌	100
1795	100
##穌	100
staircase	100
##街	100
̯	100
қ	100
##kend	100
##전	100
rescue	100
##熱	100
po	100
presbyterian	100
hundred	100
ྤ	100
##gy	100
lam	100
cas	100
divisions	100
広	100
使	100
##ॆ	100
implying	100
附	100
##ᛗ	100
##ܪ	100
ܔ	100
voy	100
kos	100
25th	100
새	100
evol	100
teenager	100
monitored	100
appalach	100
connection	100
zimmer	100
##oids	100
limit	100
griffin	100
unre	100
unfor	100
##ël	100
outn	100
buses	100
##习	100
##lar	100
박	100
church	100
ﬀ	100
goss	100
##hib	100
##ald	100
musical	100
ܲ	100
##key	100
chap	100
resur	100
catapult	100
း	100
divorce	100
##会	100
ante	100
##ܲ	100
mo	100
espec	100
mantle	100
d	100
##ं	100
##ヴ	100
motorcy	100
bn	100
ṁ	100
symphony	100
gunners	100
substant	100
bind	100
bes	100
models	100
##ཡ	100
swimmer	100
format	100
鳳	100
##iens	100
##р	100
flooding	100
graduation	100
猩	100
senators	100
dinosaurs	100
##ේ	100
comprising	100
ž	100
##咲	100
organising	100
persu	100
yorker	100
neal	100
coming	100
##isely	100
joh	100
interchange	100
標	100
葛	100
##abouts	100
submar	100
reprinted	100
##辭	100
collier	100
interv	100
futuristic	100
届	100
bh	100
boo	100
象	100
gage	100
##侗	100
leaving	100
landown	100
##钦	100
##ree	100
##ဲ	100
labor	100
閨	100
##辉	100
ो	100
narr	100
筑	100
andri	100
complement	100
essential	100
##陵	100
〜	100
##night	100
consequently	100
よ	100
##摸	100
##ines	100
##oring	100
profitable	100
bishops	100
vietn	100
forgotten	100
##ُ	100
larvae	100
著	100
##othy	100
falcon	100
冶	100
threaten	100
references	100
pillars	100
throw	100
芙	100
hits	100
commentary	100
chose	100
electrical	100
##fts	100
ฑ	100
ceremonies	100
##ographer	100
jew	100
pink	100
striker	100
exagger	100
##ite	100
lim	100
monroe	100
chloe	100
##渣	100
sank	100
armament	100
##ae	100
扇	100
wyoming	100
projects	100
trinity	100
ball	100
##asion	100
foraging	100
hack	100
substantial	100
##nels	100
##珙	100
cl	100
think	100
ǎ	100
dar	100
transformers	100
impacts	100
creating	100
迷	100
##iac	100
##君	100
fallen	100
noct	100
results	100
ơ	100
##ama	100
jna	100
rehearsal	100
##rav	100
regret	100
##伟	100
210	100
##図	100
奔	100
intim	100
columns	100
dyer	100
neolithic	100
culminated	100
arkansas	100
##ĭ	100
contain	100
malaria	100
ancient	100
##aceae	100
notor	100
manufacturers	100
##ጵ	100
rufus	100
##orter	100
apartments	100
##恆	100
両	100
welcomed	100
##pitz	100
orn	100
shoulders	100
ብ	100
closing	100
mdot	100
mentally	100
efficient	100
##arts	100
piers	100
炯	100
℥	100
injuries	100
##確	100
##輿	100
##鶴	100
charting	100
胴	100
crown	100
ፍ	100
aeron	100
mercy	100
min	100
optical	100
ely	100
］	100
##暮	100
surviving	100
##住	100
##ⵇ	100
##梭	100
ガ	100
reid	100
enlisted	100
velvet	100
##jina	100
ۍ	100
assembly	100
ocean	100
##track	100
forming	100
##람	100
##ƀ	100
fever	100
##7	100
wollstonecraft	100
stuart	100
contacted	100
ᚩ	100
adap	100
##温	100
契	100
ş	100
尼	100
対	100
survivors	100
##đ	100
##sky	100
##roy	100
portrays	100
剑	100
unsuccessfully	100
established	100
monday	100
repatri	100
recommended	100
funk	100
heis	100
##展	100
##xim	100
恒	100
creation	100
坂	100
술	100
guide	100
kant	100
destructive	100
warming	100
singapore	100
##eldon	100
incon	100
urgent	100
remote	100
mainline	100
oricon	100
殊	100
∝	100
abundance	100
##島	100
archer	100
##uto	100
buchanan	100
usur	100
lure	100
incor	100
smooth	100
musket	100
xx	100
̤	100
##ucing	100
ῇ	100
kash	100
##mer	100
焦	100
portrayed	100
##antine	100
ว	100
kon	100
1876	100
challenger	100
ஃ	100
##ected	100
##iot	100
majors	100
##ে	100
compelling	100
minutes	100
##ova	100
却	100
brink	100
퇴	100
art	100
joey	100
madras	100
happ	100
##納	100
architect	100
side	100
noted	100
logging	100
##ꮃ	100
adam	100
concerts	100
editorial	100
foreigners	100
cart	100
scrut	100
rushing	100
scent	100
magnus	100
bot	100
综	100
resemble	100
##!	100
ᚱ	100
没	100
als	100
##idden	100
##zen	100
bast	100
novak	100
community	100
songwrit	100
mcl	100
##stock	100
##ದ	100
tribun	100
unfortunately	100
##ộ	100
grazing	100
ั	100
钦	100
穗	100
kore	100
##吞	100
inventory	100
壁	100
##iba	100
infinite	100
immediately	100
exploit	100
mistress	100
oversee	100
##aham	100
##目	100
excavated	100
quag	100
discip	100
##ň	100
darius	100
sterling	100
rece	100
circuit	100
##gradation	100
22	100
ᶦ	100
inform	100
##鵡	100
nasa	100
##anti	100
fauna	100
295	100
clarified	100
sacks	100
wer	100
comedian	100
##ring	100
emot	100
irene	100
greenhouse	100
approximate	100
disag	100
municipality	100
alps	100
##0s	100
##藏	100
prospects	100
lew	100
##inis	100
phone	100
о	100
automatically	100
##icides	100
sexes	100
loaned	100
strengthening	100
lp	100
discrimination	100
faded	100
crow	100
pushed	100
celebrity	100
naz	100
ⲛ	100
sulf	100
##奔	100
座	100
ʐ	100
ober	100
1977	100
thanhouser	100
timothy	100
moose	100
ා	100
##考	100
##icking	100
적	100
spheres	100
trails	100
լ	100
建	100
remarks	100
galaxy	100
lightning	100
beau	100
،	100
survived	100
ecw	100
死	100
whole	100
responsible	100
pour	100
dirt	100
che	100
singing	100
blake	100
tongue	100
aerial	100
drugs	100
holocaust	100
frequencies	100
##ür	100
christianity	100
ord	100
teach	100
powered	100
batista	100
vhs	100
##ք	100
porter	100
alfred	100
##ism	100
##ङ	100
ladies	100
别	100
##ardo	100
##ד	100
proceed	100
chaired	100
sustainable	100
##boo	100
ἦ	100
##寿	100
##ρ	100
##ⴰ	100
##霊	100
repeating	100
ceded	100
urine	100
each	100
analysis	100
##ゲ	100
alto	100
##資	100
##跆	100
非	100
##inda	100
milwaukee	100
bb	100
marker	100
##劣	100
scholars	100
muscle	100
com	100
wilfrid	100
燕	100
##aling	100
##漫	100
mer	100
##sey	100
dimin	100
##cot	100
##淇	100
jonas	100
##olt	100
##"	100
phenom	100
equ	100
駿	100
enlar	100
##hole	100
歲	100
##歷	100
##mm	100
叠	100
##aux	100
organs	100
##ching	100
##inating	100
##plant	100
monastery	100
breeding	100
shades	100
accompan	100
##nn	100
arriving	100
pedro	100
##alia	100
horiz	100
franchise	100
##告	100
##پ	100
ɶ	100
##bridge	100
lov	100
lomb	100
trucks	100
ét	100
heels	100
##ђ	100
centimet	100
coordination	100
sink	100
遙	100
李	100
value	100
milford	100
extraction	100
myster	100
##儡	100
homeland	100
ὑ	100
ग	100
fals	100
地	100
kab	100
destroyers	100
adopted	100
1816	100
favorably	100
part	100
##ères	100
##ts	100
exited	100
##迅	100
oslo	100
##ヨ	100
reflected	100
antenna	100
##quito	100
mif	100
##ase	100
holidays	100
duc	100
##脱	100
interactive	100
##organ	100
decisions	100
domain	100
յ	100
candidacy	100
libretto	100
fantastic	100
sphere	100
disagreements	100
captured	100
supporters	100
juliet	100
memoir	100
##技	100
ﷺ	100
cornwall	100
advant	100
hotel	100
foxes	100
consider	100
tent	100
skating	100
委	100
##xide	100
1812	100
earthqu	100
##gae	100
bavaria	100
utilize	100
seeks	100
a3	100
kuch	100
##yards	100
ṳ	100
pawn	100
unst	100
爻	100
##华	100
century	100
elimin	100
א	100
stri	100
harbour	100
observation	100
resum	100
##aean	100
61	100
oakley	100
##런	100
juno	100
▢	100
merely	100
##than	100
maxwell	100
##を	100
##ch	100
##chwitz	100
rovers	100
##耆	100
orion	100
##pse	100
spielberg	100
ぅ	100
accidentally	100
ninja	100
scholarly	100
figur	100
spur	100
்	100
plot	100
islam	100
realised	100
##堆	100
odys	100
##can	100
renewed	100
chrom	100
ሓ	100
##ructure	100
intimate	100
wednesday	100
homestead	100
sign	100
iro	100
character	100
乙	100
##utation	100
similarities	100
##isive	100
made	100
intends	100
literacy	100
ś	100
dining	100
rafael	100
kron	100
##tle	100
focuses	100
contracts	100
##叶	100
respectively	100
##isan	100
tax	100
tricks	100
ros	100
scept	100
kra	100
##풍	100
1986	100
##oded	100
alumni	100
##alling	100
anthology	100
nagasaki	100
奥	100
higgins	100
crosses	100
indu	100
fand	100
##獵	100
outlaw	100
##but	100
##we	100
尚	100
빅	100
seat	100
農	100
shel	100
##aris	100
campaigns	100
##eller	100
##變	100
ｊ	100
iceland	100
##ully	100
()	100
申	100
mines	100
¥	100
]	100
clin	100
hubbard	100
coward	100
ល	100
襲	100
##azz	100
hammers	100
undoubted	100
##ṓ	100
##osaurs	100
negative	100
speedway	100
dess	100
coff	100
chemicals	100
七	100
13	100
υ	100
crack	100
↵	100
##张	100
foli	100
##ј	100
##ས	100
humanitarian	100
rebu	100
carac	100
intellectual	100
proceeds	100
謁	100
discharge	100
wilco	100
screens	100
##港	100
alt	100
publicized	100
furniture	100
mission	100
##idy	100
##achment	100
기	100
##ँ	100
宗	100
russ	100
advantages	100
arte	100
arabia	100
蔡	100
athlete	100
1797	100
submarines	100
confessed	100
waterline	100
##ow	100
pirate	100
##og	100
consulting	100
##wal	100
##ك	100
daylight	100
brittany	100
rivers	100
ɽ	100
irrit	100
##onc	100
mint	100
##詩	100
fisher	100
豪	100
##omac	100
##ť	100
工	100
sway	100
##idays	100
rifle	100
##启	100
##厩	100
##easterly	100
ಖ	100
##ব	100
翹	100
amongst	100
##urally	100
thriller	100
##aguchi	100
variant	100
julia	100
##計	100
fight	100
wulf	100
ヅ	100
truth	100
veteran	100
gen	100
1909	100
哀	100
celebrate	100
##梓	100
w	100
##ণ	100
kun	100
susceptible	100
丽	100
1932	100
##ὕ	100
bowlers	100
mysterious	100
weekend	100
##adowed	100
##att	100
rel	100
themselves	100
tres	100
##ि	100
笹	100
fe	100
triang	100
editing	100
##亀	100
dest	100
macbeth	100
dund	100
friend	100
##uate	100
episcop	100
lesson	100
##vil	100
graduating	100
portug	100
occurrence	100
##using	100
statistics	100
cemetery	100
荒	100
fixtures	100
##illon	100
##asses	100
naked	100
3ds	100
predictions	100
gases	100
စ	100
carpenter	100
권	100
criminals	100
##ỹ	100
##灵	100
##স	100
##識	100
##厚	100
ear	100
hours	100
simultane	100
纲	100
##ct	100
##青	100
rebuild	100
##thor	100
tore	100
portraying	100
lexington	100
donald	100
safer	100
extrav	100
դ	100
stint	100
帮	100
##ï	100
დ	100
canter	100
halifax	100
##ule	100
##itate	100
phi	100
##tures	100
damn	100
steps	100
excessive	100
languages	100
bills	100
❤	100
##vas	100
##禁	100
##ivated	100
visually	100
posthumous	100
squid	100
##dam	100
chronicles	100
jerome	100
busch	100
dres	100
课	100
##遼	100
exile	100
brake	100
##icts	100
镇	100
rites	100
謎	100
assumes	100
hag	100
company	100
##ampa	100
protein	100
spacecraft	100
marg	100
##б	100
99	100
deple	100
恆	100
汗	100
laboratory	100
undergraduate	100
education	100
##ล	100
sn	100
##ares	100
##蔵	100
霖	100
mutual	100
##ari	100
dece	100
y	100
##ฤ	100
barges	100
vague	100
##rod	100
charities	100
hym	100
rab	100
locomotive	100
dream	100
##屯	100
gener	100
##英	100
nw	100
produc	100
ct	100
recip	100
##御	100
jack	100
per	100
splits	100
衣	100
邱	100
sustain	100
expedition	100
##願	100
addressed	100
needs	100
##inations	100
##ု	100
driving	100
ܣ	100
##omed	100
rankings	100
tur	100
educational	100
flew	100
##符	100
christine	100
adverse	100
##ki	100
₧	100
changing	100
共	100
##fu	100
##writer	100
adul	100
帆	100
沃	100
##ق	100
荘	100
##igibility	100
holden	100
ሐ	100
##ʱ	100
stationary	100
burd	100
camera	100
降	100
purchase	100
helmet	100
軍	100
sydney	100
##렌	100
representative	100
hib	100
ѯ	100
encl	100
##escope	100
ecos	100
airways	100
permanently	100
##渡	100
girlfriend	100
ポ	100
ꦂ	100
##idian	100
##usk	100
populace	100
parodies	100
taxa	100
##aru	100
courtship	100
gl	100
a	100
ラ	100
서	100
makes	100
influx	100
##ᛠ	100
ide	100
dismiss	100
##fields	100
##iev	100
relations	100
shortages	100
consecrated	100
joy	100
departed	100
紋	100
capit	100
witnesses	100
xi	100
★	100
##銀	100
male	100
1940s	100
birthplace	100
##ouver	100
択	100
meeting	100
producer	100
controversial	100
relevant	100
owned	100
municipalities	100
amen	100
alle	100
##ą	100
surprise	100
staff	100
selling	100
sover	100
no	100
those	100
揺	100
eliminated	100
##ums	100
##arded	100
ma	100
ን	100
##字	100
muddy	100
##壮	100
alike	100
ồ	100
representation	100
粟	100
violin	100
##名	100
##誠	100
conning	100
##ứ	100
旭	100
pornography	100
tuberculosis	100
paran	100
runs	100
empir	100
thoughts	100
像	100
levy	100
cross	100
saturday	100
nba	100
##灣	100
401	100
tunnels	100
##忠	100
##壷	100
猛	100
##習	100
arizona	100
##ded	100
盟	100
retrospect	100
transporting	100
##ber	100
partis	100
≠	100
##play	100
##onds	100
downs	100
24th	100
disqual	100
##ז	100
star	100
absolute	100
devi	100
dvds	100
administrative	100
##pus	100
姥	100
malays	100
pages	100
gardner	100
banquet	100
marit	100
alloys	100
shop	100
creator	100
ᾳ	100
##수	100
botanist	100
exploits	100
betrayal	100
ref	100
vars	100
##ández	100
⚵	100
60	100
items	100
repeatedly	100
##ual	100
singap	100
##idal	100
calcutta	100
discussion	100
krust	100
remixes	100
印	100
swimming	100
##apolis	100
线	100
标	100
doyle	100
図	100
breckin	100
authorised	100
efficiency	100
tears	100
狡	100
skiing	100
51	100
##igne	100
amate	100
##枝	100
信	100
##ै	100
filters	100
ɤ	100
significantly	100
sec	100
##leum	100
annals	100
詠	100
salvation	100
##eper	100
correct	100
realize	100
letting	100
fis	100
large	100
locks	100
threats	100
##錬	100
册	100
notes	100
spoken	100
greed	100
ambitious	100
forget	100
cab	100
glad	100
##swick	100
periodically	100
ɹ	100
mark	100
##ator	100
##enth	100
declaring	100
水	100
disorder	100
generate	100
operators	100
wellington	100
##驁	100
##fact	100
婷	100
##鎮	100
栖	100
##mus	100
幕	100
substantially	100
1951	100
sounding	100
scarlet	100
ლ	100
snap	100
provide	100
ᠰ	100
〒	100
fifth	100
礁	100
congressman	100
atl	100
epithet	100
ottomans	100
blizz	100
##attan	100
##焦	100
similar	100
arsenal	100
ж	100
costs	100
spitfire	100
##elage	100
return	100
bever	100
resh	100
颜	100
ᶑ	100
multiplayer	100
##kers	100
sansk	100
##omans	100
redesigned	100
観	100
criminal	100
##icient	100
extend	100
194	100
curriculum	100
year	100
##cht	100
dorothy	100
##osen	100
remains	100
あ	100
hockey	100
bomber	100
committee	100
commons	100
stronghold	100
shelf	100
⟨	100
patri	100
sovereign	100
rematch	100
##и	100
flex	100
良	100
hale	100
theory	100
च	100
c	100
ʃ	100
տ	100
##ases	100
cat	100
intensified	100
rebounds	100
藻	100
accompany	100
esc	100
seize	100
calder	100
gord	100
##person	100
稲	100
covered	100
south	100
რ	100
为	100
slight	100
royal	100
##京	100
independence	100
##wer	100
feels	100
mü	100
supreme	100
chee	100
bis	100
##ea	100
abrams	100
option	100
tables	100
digital	100
##刻	100
秒	100
sparrow	100
##arity	100
##ety	100
##卡	100
catholics	100
hampshire	100
ญ	100
##oco	100
##災	100
紺	100
minh	100
##enness	100
##ury	100
##室	100
##roft	100
alter	100
gimm	100
未	100
exclusive	100
ำ	100
##圻	100
##ivals	100
pyg	100
##ˑ	100
tied	100
brooke	100
##itism	100
wides	100
effective	100
##ovakia	100
##更	100
previously	100
gazette	100
##板	100
authored	100
vishnu	100
convection	100
柳	100
frigates	100
kong	100
podium	100
種	100
##案	100
##etical	100
passengers	100
蕉	100
##ժ	100
182	100
##娘	100
##luded	100
hindered	100
ltd	100
macar	100
err	100
historically	100
1855	100
migration	100
nmi	100
fert	100
pennant	100
##formed	100
앤	100
pure	100
landsc	100
coul	100
##梦	100
dressing	100
dundee	100
beijing	100
狩	100
1942	100
attendees	100
compatible	100
歳	100
optional	100
rabbit	100
歓	100
francisco	100
霍	100
##agre	100
ծ	100
journalist	100
参	100
murders	100
flav	100
##ป	100
brown	100
##ych	100
diamond	100
cleared	100
breaking	100
ƛ	100
via	100
ritual	100
##abor	100
providing	100
17	100
vacc	100
陵	100
commem	100
insurance	100
pud	100
buying	100
tenor	100
funnel	100
periods	100
##ɞ	100
even	100
##vised	100
goal	100
backed	100
roots	100
bleeding	100
筆	100
bul	100
of	100
toky	100
##ammy	100
fortun	100
##响	100
##iban	100
increase	100
ψ	100
狀	100
##迷	100
determine	100
adds	100
mikhail	100
諷	100
appearances	100
fare	100
il	100
##ʔ	100
##atos	100
##断	100
##itely	100
##%	100
kemp	100
surreal	100
advancement	100
compact	100
bounty	100
宿	100
shif	100
punk	100
##atops	100
complications	100
##imo	100
happen	100
##ê	100
范	100
reconciliation	100
renovated	100
ਜ	100
志	100
circ	100
hamm	100
##印	100
嶺	100
escalated	100
##eter	100
preferred	100
brought	100
##操	100
##经	100
##ovina	100
epid	100
components	100
##str	100
mill	100
city	100
##zy	100
器	100
brooklyn	100
jaw	100
concert	100
進	100
新	100
northumbria	100
##dt	100
##ᒡ	100
hypothesis	100
norwich	100
repair	100
gaud	100
treatment	100
##饼	100
պ	100
##iform	100
1902	100
antonio	100
dreadn	100
taxation	100
調	100
kitch	100
野	100
##ste	100
##iv	100
ឺ	100
##狩	100
extending	100
##azar	100
transitional	100
financially	100
##权	100
rous	100
deny	100
wicked	100
transparent	100
##ി	100
retiring	100
展	100
simply	100
occupation	100
effects	100
祭	100
interact	100
pyram	100
##共	100
exper	100
##顔	100
##oz	100
##永	100
saskatchewan	100
##ǹ	100
宵	100
slugg	100
察	100
荫	100
money	100
fleming	100
another	100
##na	100
hare	100
shelley	100
ん	100
crowds	100
##lessly	100
upt	100
cigarette	100
劍	100
daw	100
aure	100
whis	100
♇	100
fingers	100
discretion	100
##enz	100
##鬥	100
occupies	100
##rist	100
##ぅ	100
ˢ	100
绍	100
shields	100
asc	100
carey	100
##ⵡ	100
plus	100
stras	100
##ori	100
solidarity	100
medium	100
northwest	100
metamorph	100
camer	100
sympt	100
premiere	100
longest	100
music	100
tele	100
##ional	100
resentment	100
plains	100
angles	100
weighed	100
券	100
##enses	100
ob	100
doub	100
lynn	100
marceline	100
assisted	100
pon	100
screening	100
##mb	100
霹	100
newspaper	100
弱	100
##就	100
kyl	100
cath	100
medie	100
##tingham	100
crist	100
monarchy	100
knockout	100
frog	100
##橚	100
##aline	100
##ὡ	100
傀	100
ܗ	100
##phy	100
sick	100
oppon	100
defences	100
##alth	100
##donald	100
ჱ	100
fires	100
##ario	100
##itude	100
midship	100
campus	100
bayon	100
lynch	100
1907	100
baptist	100
sund	100
̈	100
stretch	100
##cence	100
auth	100
hered	100
warrior	100
##艦	100
hungar	100
instructor	100
devotion	100
##爺	100
##ution	100
omar	100
cooperative	100
劉	100
ジ	100
meter	100
jointly	100
raise	100
boll	100
202	100
##roscop	100
middlesex	100
ׂ	100
surround	100
preserved	100
flet	100
##ars	100
会	100
indic	100
을	100
outside	100
crus	100
1950	100
##lock	100
姦	100
tanks	100
##lore	100
obstacles	100
##mind	100
##rom	100
proced	100
##ished	100
plymouth	100
##话	100
ź	100
told	100
ѝ	100
rhode	100
藏	100
##ก	100
plunder	100
llan	100
tape	100
oliv	100
##master	100
##ル	100
unpop	100
##梁	100
인	100
victories	100
invention	100
lesbian	100
##oto	100
া	100
ᵀ	100
##迈	100
风	100
incre	100
總	100
minim	100
##梅	100
canad	100
ins	100
85	100
acute	100
mono	100
consens	100
consequences	100
##owing	100
arrows	100
1774	100
violation	100
samar	100
##届	100
##駙	100
grid	100
##ating	100
exotic	100
shackleton	100
dams	100
##tic	100
unstable	100
honour	100
thorough	100
##枯	100
##敷	100
develops	100
##io	100
oriental	100
棋	100
domestic	100
##姉	100
ᠨ	100
employment	100
torpedo	100
challenging	100
##ು	100
slate	100
kil	100
##quet	100
skelet	100
区	100
arabian	100
fiction	100
dispar	100
hersh	100
嵐	100
queensland	100
represent	100
experimented	100
##istle	100
listening	100
metre	100
appo	100
subsid	100
shooting	100
##wy	100
##uring	100
mao	100
feast	100
##low	100
thread	100
##ា	100
₂	100
voyager	100
baltimore	100
##乃	100
remastered	100
cha	100
##硝	100
劣	100
pavil	100
faw	100
瀛	100
##レ	100
대	100
##ਂ	100
binding	100
##細	100
tudor	100
cic	100
思	100
alger	100
echoes	100
い	100
##pper	100
##ర	100
cuts	100
ian	100
##ន	100
倭	100
##rees	100
machin	100
攻	100
##丁	100
intense	100
##etto	100
depr	100
personally	100
klein	100
eclips	100
let	100
##불	100
unfinished	100
ꞵ	100
columb	100
high	100
vort	100
十	100
makeup	100
1860s	100
dou	100
seed	100
##uled	100
arc	100
abol	100
valleys	100
tremendous	100
tempor	100
##empo	100
培	100
isabel	100
##aghan	100
armed	100
矯	100
機	100
boarded	100
##apan	100
academic	100
4	100
uefa	100
##ľ	100
exped	100
kag	100
##icated	100
saves	100
##ikovsky	100
##ples	100
devices	100
##葆	100
barr	100
prepar	100
1971	100
fisc	100
##發	100
versions	100
maiden	100
stallion	100
est	100
##ter	100
##lished	100
behave	100
##sole	100
驤	100
##𐎺	100
stereotypes	100
grim	100
guitarist	100
##ellus	100
pleas	100
countryside	100
##จ	100
枝	100
manuel	100
⌋	100
substrate	100
nightclub	100
##ening	100
challenges	100
bav	100
niche	100
devils	100
cassette	100
satisfying	100
ற	100
hierarchy	100
##oncé	100
##ka	100
活	100
##桓	100
mod	100
goes	100
梯	100
observed	100
lions	100
boxes	100
border	100
prague	100
enthusiasm	100
villagers	100
wembley	100
##bor	100
involve	100
hears	100
绮	100
##ਾ	100
endorsed	100
红	100
##韓	100
elizabeth	100
数	100
geography	100
executed	100
##芳	100
端	100
1980	100
limestone	100
behind	100
colin	100
unreal	100
𝕡	100
equal	100
##懷	100
quadruple	100
miracle	100
##ving	100
45	100
die	100
ế	100
##uda	100
mercedes	100
secrets	100
np	100
comparable	100
χ	100
probe	100
peaking	100
##retion	100
ʱ	100
گ	100
##센	100
speaks	100
angelo	100
frankfurt	100
benjamin	100
ed	100
housing	100
1912	100
worse	100
##arr	100
##rified	100
249	100
jenn	100
##ibility	100
sole	100
inundated	100
誕	100
##eg	100
cricketers	100
##umar	100
youth	100
bc	100
cryst	100
馆	100
mead	100
##rick	100
firing	100
##bank	100
favourite	100
deadline	100
ܚ	100
loved	100
musician	100
##imi	100
herds	100
##olid	100
incarn	100
##our	100
omaha	100
airpl	100
岑	100
e3	100
##َ	100
glasses	100
designs	100
##unders	100
##ى	100
slovakia	100
##akh	100
感	100
##є	100
view	100
intr	100
ri	100
1817	100
intersections	100
motivation	100
prosperous	100
##鍋	100
sultan	100
ladder	100
fatig	100
##铭	100
standings	100
treasury	100
##hs	100
plantations	100
1872	100
##oria	100
ռ	100
##蝶	100
semifinals	100
葦	100
older	100
##ྱ	100
##giving	100
##ϟ	100
gameplay	100
chop	100
devised	100
buy	100
2nd	100
lift	100
mutiny	100
ronnie	100
bone	100
leone	100
trains	100
juvenile	100
inducted	100
hooks	100
threatened	100
##els	100
leather	100
trained	100
脚	100
replica	100
笠	100
luk	100
evangelical	100
melody	100
originated	100
millenn	100
shoreline	100
challenge	100
enc	100
terrace	100
trash	100
riot	100
##ic	100
links	100
贺	100
shaw	100
selecting	100
incorrectly	100
maver	100
possessions	100
argues	100
change	100
palat	100
vander	100
스	100
##apers	100
##ᶷ	100
rapper	100
communications	100
控	100
crom	100
yoko	100
／	100
protests	100
fore	100
##ᚩ	100
ǝ	100
##erto	100
stap	100
suddenly	100
##子	100
gather	100
##ilities	100
ambass	100
##り	100
gaming	100
辣	100
clash	100
responsibilities	100
graphics	100
시	100
μ	100
china	100
rework	100
composers	100
mare	100
᷈	100
##湖	100
rodríguez	100
nigel	100
barriers	100
kind	100
tale	100
bernard	100
stor	100
##拾	100
stayed	100
striking	100
##玲	100
erect	100
④	100
switzer	100
ns	100
puzz	100
glo	100
kann	100
dissatisfied	100
##ach	100
##沖	100
imped	100
metroid	100
stevens	100
publisher	100
auburn	100
asymmet	100
##酸	100
damage	100
releg	100
rear	100
98	100
##athered	100
##ổ	100
쌤	100
deceased	100
equest	100
##ud	100
dos	100
##uo	100
檻	100
ň	100
soph	100
gor	100
ם	100
gird	100
明	100
lys	100
##aster	100
瓢	100
certificate	100
intelligence	100
##悠	100
##빙	100
铎	100
clashes	100
halfway	100
ê	100
##ձ	100
ॊ	100
ठ	100
direction	100
afternoon	100
wounds	100
jumping	100
interval	100
ዮ	100
26th	100
г	100
arrange	100
##oir	100
kidn	100
thumb	100
##鮫	100
［	100
patient	100
##eler	100
俭	100
mys	100
columbus	100
collided	100
##鷹	100
abandoning	100
##ಭ	100
##asters	100
retaining	100
rhythms	100
granting	100
atlantic	100
sched	100
assass	100
inspiring	100
mccartney	100
garage	100
##ぞ	100
latter	100
surrounded	100
restrictions	100
voices	100
marqu	100
dunge	100
力	100
when	100
~	100
##ichi	100
domination	100
##abled	100
sided	100
phrase	100
alb	100
sr	100
toil	100
##ifting	100
diagnosis	100
newcom	100
apex	100
##aco	100
齐	100
蘑	100
coy	100
##ḣ	100
draft	100
divine	100
nigeria	100
##rants	100
privilege	100
##威	100
legisl	100
##貓	100
refer	100
##olics	100
鎮	100
deciding	100
fav	100
afterwards	100
##ards	100
##eric	100
筹	100
海	100
5	100
innoc	100
##紹	100
##iday	100
##ぐ	100
sexy	100
implement	100
eldest	100
##cely	100
austin	100
ɸ	100
mach	100
transmission	100
minnesota	100
##人	100
##十	100
agrees	100
養	100
##urers	100
##ested	100
##ersed	100
僕	100
##anim	100
cheese	100
widely	100
##elling	100
commonly	100
bricks	100
vie	100
barrel	100
technological	100
dozens	100
matrix	100
maturity	100
offspring	100
##想	100
熱	100
##아	100
##ah	100
᷽	100
evidence	100
ὡ	100
##奴	100
##eled	100
ί	100
##pre	100
favre	100
慎	100
ipswich	100
yug	100
occurring	100
##chi	100
vu	100
unauthor	100
న	100
##н	100
crews	100
##onymous	100
字	100
##iz	100
lords	100
##定	100
bonaparte	100
compassion	100
claude	100
wednes	100
##昂	100
sexual	100
perform	100
claimed	100
ـ	100
丘	100
##bound	100
activists	100
##anar	100
disappointed	100
##educt	100
##umented	100
ly	100
youtube	100
ộ	100
##aparte	100
kaz	100
jam	100
鹿	100
##ollah	100
superintend	100
thick	100
##utor	100
##riers	100
kamp	100
##ー	100
︡	100
ī	100
繹	100
魂	100
##ｇ	100
2007	100
entries	100
##wi	100
မ	100
（	100
abuse	100
hiring	100
landslide	100
membrane	100
辉	100
prompting	100
leaf	100
hards	100
##alid	100
##rim	100
judge	100
16	100
鋪	100
renovations	100
株	100
hou	100
sigismund	100
premises	100
蠕	100
denoting	100
願	100
rented	100
##ders	100
warns	100
harm	100
antar	100
delays	100
duchy	100
carc	100
139	100
divisional	100
vapor	100
heating	100
cool	100
vs	100
##盟	100
bin	100
volcanic	100
io	100
nominal	100
##gins	100
shifted	100
particular	100
focused	100
maggie	100
##ported	100
##post	100
antiquity	100
chand	100
meditation	100
##岚	100
involvement	100
##ʻ	100
stafford	100
ں	100
crust	100
196	100
##aul	100
法	100
해	100
星	100
�	100
##裳	100
newly	100
##從	100
layered	100
ped	100
leaves	100
##bling	100
##ư	100
1911	100
##ம	100
roost	100
##dd	100
世	100
话	100
landscape	100
##к	100
posture	100
tennessee	100
burton	100
grain	100
##ʊ	100
##acks	100
##racted	100
radi	100
completely	100
##ken	100
arbitration	100
wol	100
##wa	100
shallow	100
120	100
recruit	100
₱	100
##ione	100
chetnik	100
ě	100
officially	100
electro	100
buckingham	100
episodes	100
裳	100
second	100
##塚	100
##ॉ	100
mil	100
danger	100
mistaken	100
##候	100
py	100
##)	100
##ioned	100
ordnance	100
companion	100
lact	100
enjoyed	100
cir	100
announce	100
clair	100
ẹ	100
才	100
##rett	100
ratings	100
ruf	100
✗	100
##բ	100
##边	100
board	100
adult	100
blacks	100
##観	100
borough	100
squadron	100
acquitted	100
傳	100
jupiter	100
1914	100
##unciation	100
arches	100
浮	100
reconna	100
##rice	100
禄	100
oce	100
rouge	100
intimid	100
appear	100
saffir	100
##afts	100
##ation	100
proposition	100
##loe	100
翁	100
problematic	100
pl	100
##akon	100
沌	100
kenya	100
nicknamed	100
metres	100
##ounds	100
strateg	100
ទ	100
life	100
elevation	100
constantin	100
124	100
manufacturer	100
##anka	100
戰	100
ち	100
riv	100
##ield	100
appears	100
portray	100
##ollen	100
ru	100
ow	100
spare	100
1913	100
title	100
fry	100
##ials	100
η	100
##ockets	100
ecl	100
carnegie	100
##ன	100
lenin	100
nep	100
##論	100
undergrad	100
principle	100
billion	100
regul	100
##bel	100
90	100
ṵ	100
californ	100
纵	100
recommendation	100
robertson	100
expert	100
##ician	100
##瑜	100
hawai	100
ɯ	100
傅	100
##ʏ	100
57	100
incomp	100
percy	100
1883	100
##ھ	100
juven	100
##ច	100
##imentary	100
dinner	100
continent	100
ethics	100
ἷ	100
仇	100
##text	100
蹴	100
##宝	100
emer	100
debated	100
bob	100
##ondo	100
kingdom	100
tree	100
##科	100
exhibit	100
##容	100
longh	100
cleveland	100
##ys	100
ძ	100
restoration	100
myself	100
alcoholic	100
subf	100
deteriorated	100
scutt	100
##ſ	100
cockpit	100
##溜	100
at	100
##omi	100
correspondent	100
sealed	100
𐀫	100
講	100
##reeks	100
##held	100
橫	100
inland	100
root	100
tolkien	100
milestone	100
##星	100
ss	100
##咫	100
##省	100
prophet	100
newport	100
complained	100
smugg	100
murderer	100
##life	100
##ayana	100
municipal	100
275	100
kell	100
ꜫ	100
teaching	100
wik	100
##isch	100
hindu	100
estates	100
analy	100
cheshire	100
##瑣	100
stating	100
nicole	100
紅	100
offered	100
##ａ	100
critics	100
##前	100
wanting	100
##髀	100
##כ	100
##ak	100
##ܕ	100
beach	100
mould	100
contrasts	100
audio	100
ǭ	100
慶	100
researcher	100
coast	100
##ommon	100
ex	100
##eb	100
subur	100
twelf	100
ego	100
production	100
##恋	100
##sequ	100
less	100
enl	100
##ñ	100
zerg	100
surprisingly	100
falling	100
riding	100
shortened	100
고	100
##서	100
pupp	100
window	100
illinois	100
##ogs	100
##brough	100
千	100
lambert	100
bath	100
##iler	100
fighting	100
莎	100
feed	100
infer	100
##yss	100
clips	100
canopy	100
₃	100
wallach	100
orth	100
folded	100
kidnapped	100
ballet	100
ug	100
flair	100
ằ	100
断	100
schizophren	100
competing	100
la	100
fork	100
assembled	100
brisbane	100
stations	100
poetic	100
霞	100
transitioned	100
traits	100
ft	100
sri	100
propelled	100
ф	100
##ogenesis	100
advisor	100
戎	100
mexico	100
##釈	100
##ting	100
clan	100
偏	100
destro	100
germans	100
##パ	100
outcome	100
wimb	100
07	100
competitive	100
hust	100
占	100
ਲ	100
unc	100
##ջ	100
ethnic	100
毅	100
##raf	100
##단	100
ᠯ	100
curs	100
蜃	100
##agua	100
stalk	100
materials	100
##백	100
questioning	100
cale	100
##弘	100
##浜	100
##band	100
insight	100
mountainous	100
exposure	100
copper	100
##ங	100
1919	100
##gypt	100
koreans	100
könig	100
massive	100
絶	100
near	100
remar	100
##割	100
against	100
courts	100
homicide	100
2017	100
၁	100
rocks	100
indicates	100
avatar	100
eli	100
qualify	100
后	100
ゆ	100
according	100
rub	100
¢	100
##岛	100
nerv	100
nab	100
##豫	100
##agements	100
##灰	100
coordin	100
230	100
壱	100
temporarily	100
閒	100
##conn	100
worried	100
propag	100
pay	100
taylor	100
্	100
simple	100
mumbai	100
辨	100
gregory	100
encirc	100
illumin	100
董	100
##碼	100
highlights	100
murphy	100
farming	100
##ross	100
wad	100
weaken	100
##陛	100
年	100
guevara	100
##ification	100
britt	100
##omy	100
##pat	100
antioch	100
束	100
barb	100
mold	100
tenness	100
拜	100
𒀳	100
paw	100
yacht	100
і	100
agreements	100
𐎰	100
organisation	100
maneuver	100
widened	100
罸	100
foods	100
midst	100
rican	100
off	100
liverpool	100
linebacker	100
common	100
ŋ	100
1993	100
拥	100
stomach	100
##hous	100
newcastle	100
specialist	100
montana	100
涵	100
encounter	100
commemorate	100
##sl	100
streams	100
洪	100
chips	100
supposed	100
generic	100
sculptures	100
attach	100
wolfgang	100
##eny	100
capac	100
##耕	100
norwegian	100
隊	100
##iation	100
compounds	100
cell	100
##æ	100
aid	100
predators	100
##榮	100
##aya	100
axis	100
surfaces	100
︠	100
são	100
##儀	100
##ad	100
mimic	100
ù	100
cost	100
concrete	100
ヘ	100
göring	100
ө	100
ports	100
titanic	100
reception	100
reviewing	100
wired	100
uruguay	100
lacked	100
raids	100
##고	100
ʇ	100
model	100
##侬	100
learned	100
sisters	100
forms	100
##essor	100
sop	100
豫	100
rates	100
northumberland	100
##机	100
embrace	100
##述	100
##ovar	100
domains	100
##veloped	100
firth	100
5th	100
military	100
̋	100
danube	100
nguy	100
##县	100
温	100
dish	100
―	100
archaeologists	100
##vae	100
𐀁	100
##韶	100
strauss	100
堯	100
painter	100
backdrop	100
convers	100
center	100
touched	100
gravity	100
ታ	100
disappear	100
copyright	100
extras	100
seller	100
##ications	100
##ǣ	100
did	100
employees	100
kapoor	100
##棚	100
##eds	100
admiration	100
ourselves	100
cumb	100
convincing	100
collected	100
代	100
legitimacy	100
ོ	100
教	100
crimin	100
convince	100
attacks	100
176	100
ไ	100
실	100
ak	100
milne	100
dissipating	100
##洲	100
bean	100
147	100
revision	100
rainfor	100
receip	100
##ense	100
巨	100
##ム	100
ः	100
##童	100
brief	100
주	100
##づ	100
eas	100
simon	100
141	100
nottingham	100
午	100
inflamm	100
puff	100
rok	100
##ulent	100
reissue	100
##ren	100
ank	100
depends	100
blanc	100
##札	100
steering	100
##ḕ	100
separating	100
##զ	100
এ	100
interview	100
propose	100
े	100
基	100
doses	100
ぜ	100
reservoir	100
merg	100
##dington	100
reputation	100
memb	100
faculty	100
##bro	100
ruins	100
bacteria	100
煌	100
nichol	100
##iment	100
連	100
benefit	100
##դ	100
京	100
##gn	100
##芒	100
rut	100
tests	100
स	100
hotsp	100
1922	100
struggled	100
##対	100
demolished	100
stops	100
和	100
楠	100
isle	100
##instein	100
##当	100
atmosph	100
##osure	100
gul	100
立	100
##ᠨ	100
density	100
##纲	100
completing	100
mustaine	100
consideration	100
102	100
joshua	100
exchanged	100
樉	100
##aja	100
hect	100
米	100
ambushed	100
audrey	100
woodland	100
##ult	100
1961	100
wildlife	100
dame	100
critically	100
##go	100
reliance	100
rhy	100
independent	100
suspend	100
bordered	100
##ick	100
hide	100
hostages	100
##ύ	100
凪	100
anto	100
እ	100
布	100
耶	100
systematic	100
##渊	100
acids	100
staying	100
bomb	100
regularly	100
chir	100
boundary	100
surveyed	100
raptors	100
징	100
filip	100
依	100
##icted	100
##ifically	100
ක	100
##on	100
terms	100
##gles	100
時	100
honorary	100
##ｰ	100
##pr	100
enqu	100
##居	100
fell	100
democracy	100
##嶋	100
mortar	100
1849	100
☾	100
郷	100
##rative	100
✡	100
disp	100
1957	100
literature	100
hammond	100
##υ	100
襄	100
##fle	100
##issions	100
ruff	100
leipzig	100
##而	100
ῑ	100
##真	100
105	100
이	100
##aining	100
##atively	100
##賓	100
##瘡	100
ira	100
laurence	100
gentlemen	100
ễ	100
rested	100
congr	100
slav	100
##ў	100
cultures	100
##lan	100
lake	100
##蕉	100
formed	100
bed	100
sens	100
vandal	100
trip	100
##oup	100
practicing	100
emb	100
disliked	100
filed	100
roof	100
kennedy	100
rise	100
pater	100
て	100
councillors	100
locations	100
##igs	100
##ऽ	100
##発	100
tin	100
pose	100
터	100
member	100
##翘	100
径	100
variety	100
eastenders	100
origins	100
##able	100
##urnal	100
##mod	100
advertising	100
##塊	100
avoid	100
scattered	100
##anians	100
අ	100
##綾	100
ശ	100
highland	100
##14	100
priv	100
##米	100
extends	100
lloyd	100
##under	100
hardest	100
reducing	100
##reet	100
describe	100
scranton	100
##광	100
sheer	100
ꭳ	100
obituary	100
bu	100
tries	100
extinction	100
mastered	100
cru	100
clown	100
fantasy	100
wrath	100
infl	100
arthur	100
ῷ	100
$	100
stuck	100
寨	100
concurrency	100
##acent	100
stad	100
cypr	100
honorable	100
chalk	100
byzantines	100
##宇	100
civil	100
murd	100
朋	100
cancer	100
##鎖	100
compat	100
##drop	100
##ु	100
brows	100
lesser	100
##olation	100
humid	100
reacted	100
栗	100
##鬪	100
climbs	100
graph	100
energ	100
cock	100
##ユ	100
##蝕	100
foc	100
heart	100
subs	100
123	100
rebellious	100
keats	100
moments	100
##ω	100
##ま	100
disposal	100
ώ	100
companies	100
##nie	100
田	100
##铁	100
kaw	100
rockets	100
glastonbury	100
smoking	100
飄	100
##irk	100
demolition	100
...	100
hub	100
##殊	100
##tt	100
hath	100
ய	100
maine	100
este	100
请	100
steph	100
simpl	100
revisions	100
afl	100
##淘	100
retreat	100
lemur	100
##絵	100
desmond	100
##野	100
##ulture	100
##雷	100
8	100
concept	100
##眼	100
##ם	100
rap	100
cott	100
fier	100
poll	100
tre	100
##θ	100
gasoline	100
ras	100
commented	100
##로	100
acts	100
##inge	100
rost	100
contacts	100
fictional	100
thorn	100
##ility	100
型	100
corporation	100
tide	100
##ploy	100
trou	100
##etsu	100
airports	100
settling	100
아	100
##oyd	100
漳	100
騰	100
##า	100
##女	100
##贞	100
##蛙	100
##可	100
inject	100
downlo	100
governing	100
parc	100
redu	100
accession	100
gorge	100
grant	100
##ev	100
classified	100
candy	100
dread	100
燈	100
##ְ	100
##ancement	100
ﻔ	100
c5	100
##ἶ	100
##補	100
fifteen	100
hailed	100
gaza	100
prime	100
parliamentary	100
identities	100
##oon	100
##千	100
camouflage	100
kafka	100
survive	100
記	100
expired	100
incub	100
includes	100
emerald	100
switching	100
today	100
၈	100
1904	100
lantern	100
sparse	100
河	100
committe	100
elect	100
waterfall	100
##ꮉ	100
돌	100
綁	100
below	100
seymour	100
processed	100
##ii	100
typhoon	100
魔	100
##伴	100
horizontal	100
corporations	100
siv	100
rubble	100
batsmen	100
##ometer	100
gets	100
flanks	100
ḫ	100
lah	100
duet	100
##amm	100
pit	100
##ペ	100
ạ	100
narrow	100
elaborate	100
hiros	100
afc	100
州	100
garbage	100
##orable	100
feminism	100
satire	100
##ti	100
份	100
lanc	100
##cci	100
founding	100
exhibited	100
包	100
parry	100
muc	100
##eye	100
174	100
hypoth	100
reliability	100
놔	100
髪	100
##福	100
mouth	100
1878	100
marshes	100
anth	100
friday	100
189	100
dv	100
inexperienced	100
negotiate	100
clusters	100
acquired	100
predominantly	100
paraguay	100
##號	100
##going	100
attracting	100
編	100
mick	100
treasure	100
padres	100
』	100
attractions	100
slipped	100
敏	100
advertis	100
blessing	100
##虛	100
##吳	100
subm	100
##亚	100
partn	100
137	100
##idium	100
sinatra	100
vig	100
supporter	100
achieving	100
rif	100
anyway	100
##ever	100
harper	100
alliance	100
excellent	100
⑤	100
equivalent	100
fluor	100
emissions	100
ů	100
##嚣	100
tuesday	100
equilib	100
friedman	100
hs	100
strips	100
decades	100
restored	100
smallville	100
##刷	100
rca	100
polar	100
##受	100
increasing	100
controvers	100
willingness	100
苏	100
apache	100
ừ	100
yuan	100
##chw	100
crem	100
炷	100
convey	100
aud	100
gris	100
easier	100
popularized	100
pap	100
feature	100
bergen	100
amn	100
macl	100
በ	100
峰	100
coordinates	100
serge	100
says	100
way	100
chron	100
tuc	100
madrid	100
roberto	100
λ	100
##怎	100
ឥ	100
##ச	100
chair	100
thresh	100
椿	100
opened	100
add	100
system	100
##oni	100
##ী	100
throughout	100
##丸	100
sparked	100
hann	100
mw	100
atp	100
barred	100
dimension	100
net	100
##鷺	100
##ˣ	100
##店	100
proponents	100
cannon	100
relationship	100
##erville	100
genuinely	100
skinner	100
##卿	100
everywhere	100
衢	100
informal	100
retain	100
applies	100
cases	100
鼻	100
arjona	100
nom	100
##妻	100
έ	100
л	100
pace	100
estimates	100
redevelop	100
melting	100
pistols	100
guarantee	100
ے	100
wants	100
昭	100
##봐	100
kern	100
int	100
##በ	100
respiratory	100
norris	100
##兆	100
lee	100
##漢	100
delta	100
##ॊ	100
vickers	100
auckland	100
##銖	100
handling	100
131	100
⁺	100
塞	100
hurley	100
decor	100
ো	100
gent	100
prix	100
##ston	100
ordinary	100
showc	100
bottles	100
guests	100
postponed	100
麗	100
je	100
᷉	100
implemented	100
唐	100
乘	100
byzant	100
mandate	100
有	100
transactions	100
ほ	100
##odia	100
u2	100
liter	100
personnel	100
azerbaijan	100
hond	100
explorer	100
hy	100
compensation	100
waves	100
##ẻ	100
jenkins	100
²	100
illeg	100
hydraulic	100
##ires	100
##ahu	100
raaf	100
##isson	100
fres	100
abolition	100
##zas	100
##oster	100
sherman	100
כ	100
울	100
arrests	100
ν	100
interference	100
kilometres	100
医	100
##shot	100
training	100
sandstone	100
trenches	100
predec	100
##ʁ	100
##ently	100
acres	100
##gren	100
fing	100
pab	100
無	100
##iss	100
##load	100
전	100
¹	100
argued	100
propon	100
プ	100
##ঙ	100
already	100
《	100
contrasted	100
##过	100
##week	100
590	100
##伏	100
##ˤ	100
tina	100
##aved	100
##ternal	100
wolverines	100
ū	100
1939	100
##鵬	100
##ง	100
疾	100
楽	100
響	100
contrast	100
lem	100
ỳ	100
孵	100
fame	100
##幕	100
gra	100
倉	100
compares	100
relatives	100
wolves	100
naturally	100
hear	100
forth	100
##adelph	100
愽	100
whe	100
enig	100
##栗	100
12	100
##ena	100
harald	100
##orts	100
cemet	100
##点	100
##î	100
rights	100
洞	100
##璽	100
co	100
endurance	100
##umbling	100
britain	100
raven	100
debts	100
j	100
auditorium	100
dates	100
heath	100
minute	100
convin	100
##霸	100
##ị	100
stripes	100
syl	100
deficit	100
monarch	100
live	100
custom	100
급	100
95	100
glider	100
sequence	100
diam	100
inner	100
ole	100
##留	100
##占	100
##聘	100
trin	100
estimate	100
##court	100
だ	100
increasingly	100
##och	100
錡	100
装	100
assigned	100
ḱ	100
interred	100
baird	100
stones	100
underside	100
persecution	100
fate	100
hyph	100
underlying	100
⁄	100
##傘	100
##iah	100
jacqu	100
flem	100
slee	100
duch	100
##iner	100
weakness	100
껐	100
admin	100
queens	100
jenner	100
vary	100
##պ	100
interim	100
##壱	100
隴	100
##ୁ	100
diseas	100
throws	100
cody	100
dif	100
##aut	100
merged	100
##景	100
exit	100
instr	100
##郷	100
singh	100
善	100
pioneer	100
茜	100
reasons	100
##ꮿ	100
dud	100
58	100
##ῐ	100
trondheim	100
diseases	100
##く	100
champion	100
bahrain	100
continuous	100
##ಮ	100
춘	100
##ི	100
consort	100
falc	100
ᴰ	100
dougl	100
defeat	100
pruss	100
ld	100
soci	100
##ectors	100
lemurs	100
really	100
admired	100
č	100
guardian	100
heroic	100
##ń	100
bowl	100
chain	100
ethanol	100
merge	100
餓	100
##ortun	100
##bar	100
sight	100
郛	100
barometric	100
crossroads	100
carved	100
guerrero	100
archipelago	100
ang	100
̚	100
ժ	100
##讀	100
graf	100
browns	100
ऋ	100
ව	100
volunteer	100
alerted	100
boer	100
1900s	100
assemble	100
massa	100
##ulate	100
ɘ	100
樹	100
surv	100
belfast	100
camden	100
昂	100
1967	100
strengthened	100
##eer	100
##章	100
##jud	100
nel	100
##ე	100
##lish	100
deport	100
inclusion	100
beloved	100
words	100
wadd	100
##plus	100
preview	100
##з	100
sequ	100
medic	100
welles	100
eastbound	100
##ď	100
grande	100
##そ	100
beginnings	100
##ʃ	100
worldwide	100
musically	100
##飄	100
penetrated	100
##alus	100
solo	100
##κ	100
覇	100
na	100
biographer	100
portrait	100
unsuccessful	100
reginald	100
nature	100
whil	100
8th	100
documentation	100
memorial	100
##riages	100
mounting	100
programming	100
1960s	100
examples	100
bowie	100
conquered	100
##re	100
⊕	100
##aug	100
calibre	100
層	100
##rection	100
##tar	100
leased	100
contemporary	100
discouraged	100
牡	100
declaration	100
lara	100
auxiliary	100
gj	100
cope	100
davidson	100
turret	100
salaries	100
hick	100
##west	100
庆	100
##ដ	100
ւ	100
stein	100
shattered	100
ी	100
wrestling	100
ण	100
堆	100
call	100
##ṛ	100
stanford	100
clarkson	100
trevor	100
##ե	100
##icle	100
entr	100
7th	100
##積	100
cairo	100
##iam	100
rewarded	100
peat	100
##avi	100
identifies	100
dion	100
尾	100
##극	100
coch	100
dungeon	100
sejm	100
##ergy	100
suther	100
refuel	100
pump	100
emotional	100
skirm	100
mits	100
走	100
1845	100
ridge	100
franco	100
loyalty	100
##模	100
repertoire	100
芳	100
dorset	100
metallica	100
os	100
騒	100
primetime	100
概	100
##ubs	100
boarding	100
##riet	100
websites	100
##聯	100
##泣	100
farm	100
##ylvania	100
##ɡ	100
##ς	100
supervision	100
ु	100
⸨	100
##控	100
tox	100
conced	100
ὤ	100
##ৰ	100
lava	100
##ხ	100
##有	100
##rael	100
skills	100
##溫	100
##bury	100
##emia	100
highway	100
##喬	100
staple	100
extrater	100
munitions	100
situated	100
##煙	100
promin	100
eyew	100
sciences	100
⇌	100
sne	100
voter	100
##ὐ	100
jes	100
##虐	100
creature	100
reward	100
cz	100
answered	100
sunsh	100
obstruct	100
##ura	100
spores	100
##錄	100
##ception	100
guaranteed	100
shir	100
biz	100
##rust	100
芹	100
##oughton	100
##广	100
ɷ	100
闯	100
##achus	100
exposed	100
ّ	100
##春	100
cf	100
extensions	100
invaders	100
readings	100
compiled	100
inhib	100
horror	100
##urai	100
##ý	100
##ど	100
##ಸ	100
oly	100
chiefs	100
peasants	100
집	100
##uan	100
##oncile	100
ᚾ	100
収	100
聰	100
罗	100
weakened	100
canceled	100
vag	100
instinct	100
exacerbated	100
hills	100
und	100
nicholas	100
inaugurated	100
eggs	100
瑙	100
##跟	100
pumps	100
linc	100
adri	100
trailing	100
程	100
ི	100
madness	100
⌊	100
##ξ	100
slow	100
##ぺ	100
mechanism	100
sunshine	100
坡	100
悔	100
initiative	100
castle	100
##om	100
##ჲ	100
魄	100
export	100
fay	100
entire	100
₴	100
vot	100
alg	100
戈	100
ἕ	100
studio	100
ნ	100
##説	100
##行	100
##ß	100
surpass	100
flames	100
##请	100
pius	100
resid	100
##ylv	100
##uma	100
throwing	100
bays	100
##宿	100
##ែ	100
anal	100
진	100
paying	100
wool	100
譜	100
##独	100
reconstruct	100
##stein	100
buzz	100
springfield	100
##拐	100
intensity	100
##ǚ	100
##ocket	100
illegal	100
psyched	100
##录	100
##ʙ	100
mist	100
##borne	100
##極	100
persona	100
軽	100
mirr	100
assuming	100
interaction	100
integrity	100
##ishing	100
ioc	100
ker	100
##oufl	100
獅	100
##fast	100
##ト	100
ų	100
burning	100
##gart	100
##red	100
watches	100
crusaders	100
centaur	100
##ข	100
pinfall	100
wald	100
charity	100
##ぃ	100
##ynth	100
##庵	100
##종	100
precise	100
flotilla	100
expeditionary	100
无	100
11	100
secondary	100
##asing	100
scar	100
chopra	100
footage	100
##ર	100
司	100
investigation	100
metabolism	100
intermediate	100
schwarz	100
dak	100
tasked	100
setup	100
◦	100
antarctica	100
trigger	100
impressed	100
jaguar	100
##mons	100
ึ	100
##lee	100
sailors	100
##네	100
##ension	100
##por	100
conting	100
##icating	100
lithium	100
##漂	100
mythological	100
##.	100
##anc	100
阁	100
##ito	100
perspective	100
##例	100
ugly	100
evening	100
un	100
伸	100
jury	100
1814	100
##mas	100
brom	100
clich	100
charters	100
guerr	100
##eries	100
##ྥ	100
##壯	100
slick	100
whom	100
corpor	100
feas	100
##uns	100
tank	100
續	100
herr	100
##onder	100
##ye	100
i	100
imported	100
##ulating	100
vocal	100
unav	100
debris	100
##て	100
##ೇ	100
sepin	100
exerc	100
⁠	100
##係	100
##本	100
wrought	100
garde	100
distinguishing	100
au	100
habits	100
rifles	100
##騰	100
##虹	100
challenged	100
珂	100
##旋	100
ǹ	100
霧	100
sentence	100
analysts	100
clock	100
##病	100
inactive	100
webber	100
##靂	100
∈	100
cruisers	100
168	100
azerb	100
relatively	100
hamper	100
##uls	100
ღ	100
tod	100
ale	100
部	100
marble	100
tob	100
##ced	100
sympath	100
1839	100
##atty	100
methodist	100
supervisor	100
##ál	100
moody	100
mel	100
ฐ	100
protest	100
realm	100
变	100
ئ	100
朱	100
钱	100
##ὗ	100
##appropri	100
铜	100
narrative	100
refugee	100
##isd	100
fool	100
highways	100
##影	100
##ֱ	100
troy	100
叫	100
富	100
myers	100
unint	100
##թ	100
him	100
##ened	100
bris	100
ti	100
##hound	100
##ivo	100
supplied	100
plea	100
소	100
##گ	100
awareness	100
臘	100
##iable	100
pt	100
canadian	100
##pow	100
蕩	100
attention	100
ᛟ	100
puck	100
vault	100
contribute	100
##易	100
ई	100
kick	100
sets	100
hidden	100
geographical	100
oclc	100
remarkably	100
restaurants	100
panic	100
tuber	100
tard	100
invincible	100
representing	100
imp	100
cameras	100
##fl	100
##lyss	100
corruption	100
##鈍	100
内	100
3rd	100
acre	100
gull	100
##essa	100
丶	100
invasive	100
廉	100
clouds	100
##oves	100
pedest	100
##anson	100
##ን	100
ள	100
##arians	100
small	100
隸	100
dance	100
snowfall	100
hijack	100
##ures	100
1910	100
obligation	100
蘇	100
dividing	100
##itational	100
soundtrack	100
individ	100
片	100
vernacular	100
瑪	100
肖	100
沐	100
##lying	100
smaller	100
arist	100
169	100
invitation	100
##ani	100
ĕ	100
notices	100
controlled	100
##eason	100
bullet	100
wehrmacht	100
這	100
starr	100
1874	100
##ellers	100
strugg	100
forthcoming	100
winters	100
acceptance	100
props	100
dul	100
dual	100
ory	100
##略	100
##弱	100
consid	100
##rically	100
##aneous	100
rejoin	100
especially	100
群	100
蝉	100
##ump	100
##油	100
兒	100
1920	100
##爽	100
hon	100
gym	100
proc	100
pompe	100
##apeake	100
urban	100
conceded	100
unsc	100
plasma	100
surgeon	100
##笛	100
##ulated	100
ut	100
enlightenment	100
##men	100
colbert	100
##營	100
calvin	100
##r	100
pioneered	100
র	100
##wide	100
five	100
mounts	100
covent	100
##odynam	100
immigration	100
jedi	100
ὅ	100
呼	100
declining	100
##pack	100
##trak	100
##govern	100
##精	100
chan	100
antibodies	100
##と	100
florence	100
hoff	100
##owitz	100
wealth	100
##ilus	100
限	100
god	100
##ophy	100
ɣ	100
##ぉ	100
##馆	100
##char	100
lecture	100
bab	100
breck	100
##burg	100
fleet	100
grind	100
##մ	100
##ŷ	100
##kamp	100
rah	100
simpler	100
stories	100
björ	100
##篤	100
hitler	100
moons	100
##ˠ	100
##landers	100
bree	100
louise	100
##ivided	100
inaugural	100
pole	100
balance	100
abandon	100
motorcycle	100
坝	100
toy	100
##ados	100
cousins	100
太	100
##inate	100
##霹	100
##ok	100
fet	100
combines	100
strike	100
##agara	100
少	100
appointments	100
야	100
##ი	100
titanium	100
dist	100
astronom	100
conception	100
ゾ	100
beauty	100
❄	100
##aji	100
approve	100
centred	100
気	100
##mingham	100
pharaoh	100
##ono	100
冬	100
away	100
##撒	100
oct	100
芭	100
蝶	100
mistake	100
seiz	100
##級	100
remixed	100
flourished	100
kot	100
trans	100
mail	100
apart	100
##ッ	100
regained	100
##hausen	100
##ῷ	100
##age	100
spoke	100
##grass	100
drowning	100
##ily	100
400	100
rh	100
1936	100
romans	100
hollywood	100
macmillan	100
morning	100
gerald	100
dorm	100
mont	100
##adder	100
hitting	100
##頭	100
transform	100
devot	100
cull	100
self	100
princip	100
worthy	100
##ecca	100
incomplete	100
##itzer	100
professionals	100
brazil	100
##膺	100
##round	100
采	100
terrible	100
ị	100
∕	100
##rote	100
ultrav	100
##紙	100
諭	100
ambiguous	100
##四	100
パ	100
ʌ	100
underc	100
##pike	100
##江	100
canada	100
納	100
##ḷ	100
##豐	100
##銳	100
poké	100
cataly	100
##fires	100
##mare	100
mn	100
tourist	100
industries	100
gy	100
anglia	100
##zt	100
˞	100
##ḑ	100
pointing	100
ឋ	100
anast	100
aut	100
processing	100
rav	100
།	100
##甘	100
yards	100
restr	100
係	100
drain	100
merlin	100
mets	100
涼	100
escorting	100
##綺	100
combination	100
comprehensive	100
thous	100
##萍	100
##ways	100
experimental	100
marion	100
confiscated	100
##kas	100
tones	100
##rab	100
ὰ	100
##ck	100
theme	100
起	100
cc	100
knowledge	100
isabella	100
secular	100
ʖ	100
ecology	100
獄	100
##rog	100
圈	100
relie	100
移	100
flame	100
subd	100
fuel	100
crime	100
容	100
##sted	100
monster	100
proof	100
whitish	100
##ɛ	100
##驗	100
enforced	100
functional	100
hinted	100
players	100
##プ	100
dome	100
kat	100
archie	100
contracted	100
grey	100
deton	100
1775	100
formations	100
韋	100
nether	100
weaponry	100
##ิ	100
##imer	100
expend	100
redesignated	100
##ס	100
්	100
munich	100
elvis	100
##ꭶ	100
hydro	100
##ā	100
commenting	100
demonstrating	100
##６	100
polit	100
駒	100
helena	100
levin	100
̪	100
ዕ	100
##ゃ	100
銀	100
perished	100
exhaust	100
recognizing	100
##ベ	100
upgrade	100
rec	100
초	100
proves	100
spokesman	100
##ara	100
brooks	100
##backs	100
critical	100
herzeg	100
leeds	100
##irect	100
玄	100
1805	100
##ο	100
##宅	100
decorative	100
lois	100
怨	100
consulted	100
ឹ	100
##盒	100
##ath	100
##aden	100
賓	100
replay	100
amend	100
station	100
neum	100
lang	100
theoretical	100
auditor	100
bra	100
ท	100
##estation	100
suggested	100
狭	100
mean	100
32	100
##oting	100
ware	100
confederate	100
havilland	100
spit	100
graphical	100
confisc	100
є	100
##帝	100
ordn	100
lungs	100
element	100
hill	100
衡	100
beet	100
mor	100
##漁	100
瞳	100
##ocative	100
##itors	100
spongebob	100
lat	100
stanza	100
group	100
ext	100
鐵	100
##苑	100
##ク	100
association	100
alum	100
lime	100
turkey	100
teeth	100
besie	100
##guez	100
̖	100
kanye	100
##electric	100
##ⵢ	100
gre	100
encoun	100
##case	100
gard	100
boring	100
##ño	100
二	100
ಶ	100
tired	100
conform	100
##ص	100
graham	100
afric	100
kilogr	100
1881	100
##頃	100
sophomore	100
蕃	100
deemed	100
victorian	100
##炮	100
courses	100
lips	100
ុ	100
etty	100
loyalist	100
repetitive	100
##ং	100
malaysia	100
タ	100
plaster	100
##irmed	100
##ç	100
coc	100
##희	100
़	100
希	100
prolific	100
យ	100
愁	100
夤	100
##瑠	100
##隣	100
ome	100
蓀	100
##friend	100
jason	100
charted	100
##肃	100
##pling	100
spy	100
corinth	100
β	100
##雜	100
##段	100
台	100
##ited	100
發	100
historical	100
eastwood	100
buddhist	100
##ו	100
##貴	100
極	100
ć	100
rep	100
慰	100
ⴃ	100
amid	100
負	100
excav	100
##con	100
ḍ	100
extended	100
ib	100
feeds	100
alcoh	100
hotels	100
##ppen	100
guardians	100
carlisle	100
calm	100
glaz	100
##anie	100
schools	100
fischer	100
勅	100
##van	100
vine	100
paradox	100
artifacts	100
##ผ	100
steel	100
greeted	100
##ourg	100
21	100
shen	100
꺼	100
national	100
圣	100
##ɬ	100
subl	100
##漏	100
彪	100
continue	100
##wards	100
electoral	100
monkey	100
combs	100
icons	100
negotiating	100
renumbered	100
prospective	100
oss	100
macdonald	100
##何	100
crane	100
套	100
barth	100
恋	100
##軍	100
##ester	100
christians	100
##kan	100
storm	100
##读	100
##ce	100
thorpe	100
##pants	100
arlington	100
barbettes	100
ripley	100
##ahl	100
##ementioned	100
ʻ	100
investigated	100
mackenzie	100
ᛋ	100
##苺	100
ベ	100
cup	100
優	100
143	100
meters	100
壟	100
##挑	100
##协	100
##isk	100
overhead	100
multip	100
radical	100
##ဝ	100
tag	100
̞	100
renov	100
foll	100
angl	100
ხ	100
islands	100
##מ	100
fence	100
clap	100
superstructure	100
##izer	100
ll	100
zoo	100
satisfied	100
鷺	100
rem	100
##inus	100
ridden	100
poul	100
##湯	100
monarchs	100
##nas	100
ɉ	100
craters	100
tack	100
nationalism	100
ţ	100
##cept	100
waited	100
consec	100
##asive	100
##ת	100
##游	100
##mond	100
##ills	100
##ficial	100
pronunciation	100
balloon	100
legacy	100
ɛ	100
彼	100
伴	100
designated	100
sophia	100
nancy	100
dorsal	100
促	100
黎	100
950	100
panthers	100
revised	100
ಃ	100
shoes	100
74	100
vocals	100
##ı	100
neighbours	100
reflection	100
呉	100
##opoly	100
revival	100
overlooking	100
loop	100
wash	100
##黒	100
##晋	100
##rano	100
brave	100
ü	100
pollution	100
inauguration	100
caldwell	100
##apa	100
naming	100
##ò	100
candidate	100
##ே	100
##sex	100
getting	100
##過	100
cr	100
catastroph	100
##agen	100
荊	100
specialized	100
navigation	100
##デ	100
ە	100
sorry	100
aft	100
fitzgerald	100
exploited	100
shipbuilding	100
##lines	100
##appa	100
樱	100
egypt	100
switzerland	100
仙	100
than	100
victory	100
athenian	100
##itan	100
##pless	100
election	100
marian	100
##bur	100
built	100
lobb	100
ⱱ	100
##cent	100
##rys	100
falcons	100
cambridge	100
caval	100
ǜ	100
ब	100
♅	100
稷	100
仮	100
cro	100
dissolution	100
detected	100
leader	100
assistant	100
##onian	100
##rat	100
wright	100
categ	100
##艶	100
memories	100
crowned	100
activation	100
##ো	100
bras	100
sporadic	100
##bard	100
雲	100
stu	100
infections	100
극	100
##肉	100
loan	100
receptor	100
handle	100
typical	100
schwartz	100
due	100
娜	100
늬	100
##与	100
forward	100
emphasis	100
joyce	100
##棘	100
holders	100
knox	100
human	100
sak	100
@.@	100
eponymous	100
grammar	100
silk	100
##ek	100
significance	100
belg	100
igu	100
updates	100
##ṃ	100
##ܘ	100
vote	100
amidships	100
birth	100
persist	100
##竺	100
candle	100
amassed	100
maw	100
nhc	100
scrol	100
vigil	100
biology	100
##ull	100
adopt	100
##ܡ	100
pian	100
megal	100
믿	100
organic	100
drif	100
thermal	100
noah	100
genesis	100
트	100
##凤	100
angelou	100
΄	100
â	100
監	100
hearts	100
예	100
drinking	100
ket	100
##ord	100
##ge	100
hain	100
hypn	100
##汤	100
candidates	100
##hing	100
rag	100
rihanna	100
##草	100
disappeared	100
protagonists	100
挂	100
);	100
##ū	100
conductor	100
received	100
renown	100
legitim	100
degree	100
ツ	100
##uted	100
¯	100
hardcore	100
fill	100
##消	100
##fig	100
##帥	100
掲	100
cuba	100
ದ	100
nurs	100
##berg	100
關	100
structural	100
##對	100
personality	100
continental	100
琪	100
##ement	100
##ake	100
surn	100
1854	100
lowe	100
杀	100
dudley	100
ral	100
”	100
initi	100
食	100
buck	100
##ណ	100
実	100
suspects	100
1862	100
stain	100
inv	100
尹	100
##ቆ	100
##襄	100
##ai	100
##issioned	100
gunner	100
ჵ	100
ィ	100
forc	100
##閒	100
薔	100
ق	100
ter	100
tactical	100
##more	100
container	100
bowler	100
restricted	100
sic	100
谁	100
##サ	100
##oda	100
dances	100
macarthur	100
##osl	100
credit	100
##坝	100
salv	100
##ates	100
##nar	100
⁡	100
##三	100
犯	100
brut	100
willam	100
announcing	100
##讐	100
館	100
activated	100
재	100
referee	100
pak	100
朽	100
##厂	100
swedish	100
cinema	100
##를	100
##ɒ	100
dipl	100
##point	100
1933	100
胞	100
jtwc	100
airbus	100
outlook	100
##少	100
coached	100
##歩	100
moisture	100
영	100
latt	100
‿	100
##ạ	100
##艺	100
underneath	100
paper	100
櫓	100
austen	100
relying	100
magma	100
developments	100
屍	100
damages	100
項	100
recon	100
##馬	100
##清	100
69	100
##व	100
argentine	100
に	100
##ɤ	100
€	100
68	100
network	100
worry	100
ि	100
edition	100
stoke	100
journal	100
induced	100
ɾ	100
separation	100
mothers	100
swept	100
unfav	100
sports	100
안	100
ļ	100
warrant	100
##cast	100
ruther	100
##unc	100
airplay	100
wessex	100
de	100
gaz	100
heid	100
##ʕ	100
ahmad	100
nicholson	100
##ぱ	100
venice	100
馬	100
##aries	100
rpg	100
gymn	100
pays	100
旅	100
##升	100
##က	100
discarded	100
##ust	100
1870	100
kv	100
header	100
contend	100
breathing	100
日	100
disturb	100
缽	100
##opter	100
##せ	100
##ère	100
jut	100
寄	100
kratos	100
precursor	100
ʀ	100
##theless	100
gifts	100
##enc	100
##ノ	100
linking	100
ស	100
demonstrates	100
ses	100
##ges	100
wherever	100
listen	100
767	100
殻	100
warships	100
##ざ	100
##迄	100
##七	100
##art	100
mangal	100
wasn	100
##邊	100
terminus	100
explicit	100
indo	100
repeat	100
560	100
prior	100
‒	100
կ	100
triangle	100
陶	100
符	100
ethn	100
##oline	100
insp	100
##onal	100
q	100
##ಿ	100
laurel	100
##莊	100
pregnancy	100
##break	100
##ibilities	100
inter	100
⋅	100
伪	100
##pi	100
eleven	100
thank	100
##ṵ	100
arrived	100
##nem	100
孛	100
generally	100
conserv	100
mexican	100
椛	100
ho	100
mentioned	100
nebr	100
墙	100
經	100
collins	100
wise	100
purp	100
ﮭ	100
ӣ	100
##赭	100
##uz	100
albanian	100
න	100
interviewed	100
length	100
alc	100
##inski	100
prevented	100
##ূ	100
ibra	100
##erty	100
##ᵿ	100
##gru	100
rä	100
##勒	100
titular	100
searched	100
agricult	100
191	100
quadru	100
##ir	100
idaho	100
accordingly	100
turtle	100
dic	100
ὲ	100
touchdowns	100
lunch	100
counsel	100
relocated	100
##ꦲ	100
venezuel	100
##њ	100
grab	100
integral	100
chick	100
marched	100
intercontinental	100
garrison	100
##燃	100
gall	100
reorganized	100
mb	100
1953	100
resulted	100
##zone	100
imprisonment	100
corn	100
quoted	100
hallow	100
##ף	100
facing	100
loyal	100
##rovers	100
瓜	100
ally	100
gallons	100
fan	100
vivid	100
laden	100
credits	100
ユ	100
##ਿ	100
sm	100
##ou	100
姑	100
battlefield	100
farmland	100
##ό	100
##ַ	100
민	100
##ption	100
fluct	100
##സ	100
aff	100
stup	100
##向	100
actions	100
inact	100
citizens	100
mascul	100
undoub	100
aberdeen	100
##k	100
turmoil	100
##却	100
episode	100
14	100
accepting	100
##raine	100
hp	100
ascend	100
unveiled	100
harvest	100
1848	100
roughly	100
##hog	100
##bourg	100
97	100
baham	100
送	100
dissatis	100
##閏	100
##恼	100
rudder	100
expressed	100
ip	100
∴	100
##翱	100
partially	100
concurrent	100
担	100
elevations	100
interfered	100
knock	100
falun	100
pointed	100
becket	100
##ees	100
##岡	100
omega	100
ported	100
skill	100
cancellation	100
1893	100
bun	100
##im	100
app	100
charges	100
瓦	100
fits	100
wallace	100
consolidated	100
##onse	100
delivering	100
syndicate	100
##ili	100
libr	100
hail	100
charleston	100
##ک	100
##與	100
袈	100
##el	100
tuned	100
horizont	100
submit	100
arid	100
gm	100
coinc	100
yah	100
wing	100
guatemala	100
集	100
##com	100
sle	100
elderly	100
childhood	100
mong	100
hey	100
june	100
forever	100
##協	100
withdrawing	100
##ு	100
##剑	100
extinct	100
ậ	100
impair	100
anticipated	100
ה	100
##fted	100
properly	100
torch	100
傷	100
relegation	100
##炎	100
mechan	100
sunset	100
weaker	100
卡	100
overshadowed	100
athletes	100
centered	100
##estern	100
輔	100
applic	100
shep	100
##語	100
##estock	100
oppenheim	100
##ilian	100
##ouk	100
enclosure	100
##担	100
counter	100
meaning	100
height	100
field	100
wars	100
dign	100
jean	100
drove	100
##imp	100
##ܔ	100
chassis	100
suit	100
##mire	100
colon	100
飯	100
hab	100
盤	100
##滿	100
provincial	100
solely	100
##ฟ	100
toss	100
spice	100
places	100
1841	100
traff	100
##ja	100
unanim	100
156	100
##朝	100
need	100
emper	100
central	100
1895	100
columnist	100
fortifications	100
ਂ	100
40	100
迪	100
1955	100
##ataka	100
invest	100
pest	100
coined	100
勇	100
fear	100
commit	100
##oise	100
duke	100
鎧	100
disturbed	100
trigg	100
##帖	100
doctrine	100
lucky	100
沛	100
wealthy	100
诺	100
##小	100
relates	100
moscow	100
melissa	100
ર	100
remn	100
chie	100
morale	100
偽	100
interst	100
##铺	100
joined	100
窟	100
catchy	100
ֹ	100
blocks	100
離	100
exclud	100
urugu	100
##asting	100
𒀯	100
鄧	100
constraints	100
##ភ	100
ignored	100
##co	100
##iving	100
##崖	100
121	100
humidity	100
welcom	100
confirmed	100
banking	100
monmouth	100
sony	100
##$	100
paralymp	100
ύ	100
fried	100
bulgaria	100
9	100
##න	100
##қ	100
##kary	100
wom	100
##ṇ	100
cowboy	100
##신	100
leisure	100
shocked	100
sell	100
真	100
辆	100
loving	100
syndrome	100
##甫	100
##ural	100
##gas	100
##aughter	100
##nda	100
##writ	100
seoul	100
replacing	100
gould	100
##apy	100
##파	100
m2	100
据	100
穎	100
requirement	100
offs	100
1974	100
tunnel	100
sensitivity	100
epile	100
lafayette	100
thing	100
subfamily	100
storytelling	100
ἱ	100
##尊	100
religion	100
mant	100
afford	100
##怀	100
bests	100
prevention	100
plague	100
dialect	100
jas	100
##rise	100
",	100
##थ	100
financing	100
문	100
##寂	100
##kes	100
custody	100
ス	100
compartment	100
銅	100
##痘	100
fuselage	100
graduates	100
village	100
方	100
scout	100
picks	100
vegas	100
dominance	100
handsome	100
maintenance	100
ms	100
detachment	100
##ሀ	100
ˀ	100
##illo	100
诚	100
fern	100
##桐	100
socio	100
grand	100
##met	100
##cliffe	100
passer	100
高	100
##tles	100
arm	100
nu	100
equipment	100
priority	100
exercise	100
rooms	100
zeppelin	100
gat	100
д	100
rapid	100
212	100
1810	100
ᛠ	100
cologne	100
sir	100
##aints	100
bount	100
##ospace	100
##pending	100
walking	100
快	100
##先	100
##棵	100
##能	100
##acles	100
к	100
presence	100
paid	100
稔	100
hod	100
##స	100
写	100
prevalent	100
wreck	100
##早	100
clarence	100
unrelated	100
##vant	100
1972	100
##ilo	100
aided	100
##ṣ	100
这	100
jama	100
1884	100
##anteed	100
##anna	100
planning	100
pi	100
reli	100
homest	100
##oit	100
##那	100
bal	100
##otes	100
illegally	100
disappears	100
茸	100
design	100
##ories	100
specially	100
##well	100
ฝ	100
##ᠯ	100
aren	100
з	100
farms	100
location	100
##似	100
##gen	100
##illy	100
shar	100
##itted	100
##esi	100
##hawk	100
juice	100
illustrated	100
subspecies	100
term	100
##ⵃ	100
##uth	100
psp	100
^	100
bar	100
þ	100
##蘄	100
doubts	100
出	100
##leading	100
risen	100
invaded	100
hurricane	100
enforce	100
vlad	100
myths	100
newfoundland	100
dair	100
meal	100
control	100
tyrann	100
##star	100
pupils	100
ゃ	100
marcel	100
##ǎ	100
resolution	100
偵	100
argon	100
paratro	100
theater	100
##之	100
deleted	100
##tenstein	100
championship	100
authent	100
comedic	100
##焼	100
maya	100
silence	100
##front	100
##unt	100
asserting	100
##ш	100
烈	100
##rete	100
##溪	100
myc	100
pastoral	100
chilean	100
క	100
ง	100
##联	100
##oning	100
synag	100
examining	100
pension	100
##ḥ	100
perl	100
clyde	100
success	100
extre	100
1989	100
cham	100
bangladesh	100
cricketer	100
##副	100
const	100
declined	100
##dh	100
easy	100
mls	100
captains	100
業	100
barrage	100
##주	100
medley	100
cinc	100
flown	100
##,	100
pitching	100
yank	100
conscription	100
victor	100
별	100
tendency	100
厦	100
michaels	100
municip	100
##zo	100
##gil	100
defer	100
##ists	100
##faction	100
explanation	100
ோ	100
示	100
##ở	100
##ৈ	100
ὃ	100
web	100
kahn	100
share	100
limb	100
cups	100
##ro	100
kap	100
hes	100
홀	100
infr	100
থ	100
accident	100
subordin	100
##舍	100
##ace	100
项	100
counts	100
councils	100
피	100
##연	100
rally	100
traum	100
##ა	100
orkney	100
↗	100
雁	100
incurs	100
む	100
е	100
predict	100
trap	100
kw	100
busy	100
##ন	100
##வ	100
madagascar	100
愛	100
草	100
eleph	100
버	100
linna	100
protected	100
cet	100
whenever	100
global	100
artists	100
fellow	100
ng	100
秤	100
辰	100
##록	100
factors	100
choir	100
hostilities	100
##abad	100
##ნ	100
beng	100
ぉ	100
weakening	100
pledged	100
萝	100
wharf	100
##far	100
##itter	100
##ggy	100
##arted	100
ჺ	100
1941	100
frustrated	100
symb	100
celeb	100
##ね	100
general	100
nebula	100
##anish	100
transpar	100
hid	100
1880	100
chosen	100
comparison	100
footballer	100
chairs	100
rendered	100
##utes	100
##intosh	100
glen	100
450	100
elementary	100
journeys	100
##鈴	100
domes	100
badly	100
ramp	100
comedy	100
opener	100
##鸟	100
128	100
##buster	100
platform	100
promises	100
yourself	100
##ku	100
##ี	100
objects	100
bakshi	100
sinking	100
regions	100
spect	100
##lies	100
##ión	100
fashionable	100
##櫓	100
phillies	100
histories	100
spar	100
##返	100
arch	100
java	100
iraqi	100
##ogy	100
##s	100
##ails	100
relax	100
kombat	100
judiciary	100
방	100
ol	100
ⵔ	100
毘	100
##sters	100
nod	100
som	100
superstar	100
ᠮ	100
hollow	100
##kson	100
ག	100
pleaded	100
taller	100
attachment	100
##inking	100
possibilities	100
kod	100
comprise	100
colleague	100
telling	100
pilgrim	100
ਦ	100
lack	100
disemb	100
己	100
suits	100
必	100
##ide	100
##ট	100
achie	100
##omys	100
pemb	100
ast	100
ⴈ	100
recovered	100
assign	100
strengthen	100
incarnation	100
mos	100
expected	100
##局	100
功	100
痛	100
facult	100
numbered	100
##葵	100
competitors	100
hunger	100
comrades	100
docks	100
abn	100
comets	100
施	100
##ガ	100
subgen	100
##業	100
##ed	100
created	100
buccane	100
炬	100
矩	100
足	100
tales	100
uncertainty	100
programs	100
cul	100
菱	100
defender	100
##ਹ	100
##ཁ	100
lawsuits	100
extraterrestrial	100
ross	100
derby	100
##rant	100
prototypes	100
ঢ	100
circles	100
##抵	100
mining	100
lumin	100
##ピ	100
cmll	100
several	100
muzzle	100
##勇	100
##悲	100
##ῇ	100
absol	100
##auc	100
##leigh	100
##争	100
##wall	100
russell	100
exceptional	100
whose	100
roch	100
##iston	100
梦	100
##odont	100
料	100
anc	100
駆	100
burke	100
##通	100
rule	100
震	100
windows	100
bog	100
##elines	100
ẖ	100
reintrodu	100
northbound	100
liqu	100
##ompression	100
taxonomy	100
agricultural	100
middles	100
domin	100
##海	100
##엔	100
bosses	100
warned	100
##遠	100
battle	100
##雇	100
銘	100
##ident	100
offices	100
glorious	100
##ɣ	100
cop	100
101	100
shane	100
hate	100
，	100
fleets	100
engaging	100
up	100
debuting	100
telec	100
corpses	100
ⴂ	100
breakthrough	100
邁	100
napole	100
##坚	100
existing	100
cons	100
fail	100
##ত	100
##alty	100
consumed	100
good	100
##闕	100
difficult	100
##ờ	100
##ledge	100
affects	100
repl	100
pasc	100
ə	100
ь	100
隠	100
statesman	100
…	100
pri	100
interven	100
soundsc	100
viking	100
plain	100
athletic	100
##mo	100
generating	100
isotope	100
nolan	100
bike	100
##內	100
##鸡	100
legit	100
##ello	100
rebels	100
grasses	100
follow	100
opt	100
reference	100
tiss	100
##asm	100
stere	100
refined	100
##突	100
##hail	100
̆	100
president	100
ば	100
##arez	100
pinned	100
nationals	100
##泾	100
1798	100
auton	100
commando	100
滅	100
莲	100
##ゑ	100
sacrifices	100
olaf	100
淵	100
长	100
pigs	100
ｃ	100
ridic	100
##ᾰ	100
খ	100
miner	100
过	100
##edon	100
neon	100
counteratt	100
trips	100
luther	100
brighton	100
卿	100
digitally	100
##ث	100
concerns	100
shares	100
bram	100
##ano	100
运	100
##ict	100
き	100
dir	100
kosovo	100
dro	100
o	100
el	100
whig	100
gubernatorial	100
paint	100
unique	100
deeds	100
recognize	100
##羅	100
exchange	100
tract	100
hunters	100
##了	100
palmy	100
≥	100
##壁	100
16th	100
translated	100
bell	100
indicate	100
marl	100
notified	100
愍	100
##村	100
mackay	100
jud	100
##ido	100
hort	100
ɢ	100
acquire	100
##boats	100
experiencing	100
financial	100
gr	100
##oros	100
adaptation	100
約	100
茶	100
##oper	100
穂	100
鳩	100
##ledon	100
##の	100
##essed	100
prohibition	100
ح	100
네	100
perpendicular	100
##択	100
mac	100
→	100
##kef	100
hyp	100
senate	100
target	100
shakira	100
##enheim	100
痘	100
luck	100
##base	100
cruise	100
lean	100
franç	100
sympathetic	100
##illus	100
yd	100
sampling	100
colonies	100
poster	100
##iend	100
mam	100
validity	100
etym	100
ს	100
opus	100
ret	100
gradual	100
##ot	100
##asis	100
matth	100
comfort	100
✱	100
abruptly	100
##oss	100
ք	100
bann	100
nervous	100
styled	100
泉	100
车	100
薩	100
alan	100
jamie	100
iz	100
related	100
exists	100
shrine	100
relay	100
glut	100
faust	100
參	100
eighteen	100
turmo	100
world	100
1886	100
book	100
越	100
146	100
seth	100
groups	100
ং	100
digest	100
intensive	100
herd	100
millennium	100
gn	100
##王	100
‡	100
emphas	100
seal	100
##sea	100
laugh	100
ֶ	100
##供	100
23	100
ド	100
##翹	100
可	100
##ី	100
stranger	100
scorer	100
釈	100
ት	100
pipeline	100
##棟	100
moves	100
enfor	100
biological	100
interfer	100
openings	100
propriet	100
younger	100
conventional	100
sul	100
barber	100
##ม	100
ɑ	100
wes	100
assault	100
psychedelic	100
artistic	100
##ely	100
##sts	100
##aton	100
....	100
财	100
徹	100
15th	100
##man	100
梶	100
protesters	100
returns	100
##ful	100
mered	100
carne	100
##階	100
summar	100
vow	100
cohen	100
feminist	100
helen	100
縊	100
##ela	100
ḿ	100
顔	100
your	100
carrier	100
luft	100
supposedly	100
artic	100
testing	100
directory	100
ἢ	100
##gression	100
घ	100
cutting	100
stab	100
##ment	100
suez	100
##ռ	100
brad	100
disgu	100
凌	100
稚	100
##ិ	100
raises	100
##uses	100
sweep	100
##maker	100
vir	100
inherent	100
overland	100
##থ	100
##날	100
70	100
oxid	100
ɐ	100
atoms	100
california	100
spectrum	100
legally	100
飞	100
09	100
byrd	100
hides	100
##丞	100
##ellar	100
kess	100
cove	100
passenger	100
aden	100
##iny	100
##lain	100
dunder	100
diverse	100
include	100
琴	100
统	100
##veland	100
##maid	100
accomp	100
##enh	100
rama	100
dreams	100
punished	100
facilities	100
cald	100
1915	100
mounted	100
steven	100
reproduce	100
ែ	100
navigate	100
clad	100
##rup	100
##andon	100
##lined	100
prevailed	100
者	100
blackburn	100
learn	100
頌	100
库	100
##津	100
king	100
connects	100
espn	100
buddha	100
##assis	100
继	100
84	100
##ی	100
unlike	100
writings	100
bacon	100
##iem	100
##rupted	100
tic	100
amounted	100
utilized	100
shorts	100
##ध	100
lifting	100
brah	100
priestley	100
degenerated	100
##linary	100
ʂ	100
displaced	100
##nemouth	100
##ŵ	100
lasted	100
spawned	100
tung	100
syrac	100
angela	100
##洋	100
##zeg	100
coloss	100
##kshire	100
##orrow	100
帰	100
ע	100
##耶	100
phys	100
semic	100
forg	100
wolf	100
monthly	100
ⵎ	100
pass	100
vocabulary	100
econom	100
fewer	100
##guard	100
##沙	100
baroque	100
sinclair	100
archaeologist	100
skull	100
airmen	100
##ˌ	100
##ط	100
chart	100
pamph	100
iq	100
resulting	100
bip	100
reasonably	100
savannah	100
reass	100
filling	100
got	100
insufficient	100
escape	100
neut	100
exclusion	100
actively	100
圻	100
emotions	100
along	100
tu	100
kok	100
daniels	100
rerouted	100
predecessor	100
##rag	100
masses	100
editors	100
1825	100
##仔	100
隆	100
##ishop	100
##lights	100
##ר	100
##牢	100
ka	100
##裁	100
thirds	100
ϊ	100
steelers	100
##ient	100
##志	100
lied	100
paulo	100
tailed	100
ƍ	100
##ene	100
upgr	100
holloway	100
##٧	100
##再	100
##ably	100
volumes	100
##screen	100
bursts	100
##ǒ	100
retained	100
google	100
##enue	100
née	100
##ina	100
chambers	100
##원	100
blaine	100
0	100
ἰ	100
protocol	100
musc	100
strip	100
##ⵉ	100
sophom	100
jeop	100
clans	100
prostitute	100
##cle	100
##uj	100
吉	100
miami	100
surplus	100
organised	100
ף	100
cs	100
##関	100
•	100
societies	100
##á	100
northumb	100
savings	100
santi	100
hall	100
offshore	100
##zon	100
cliff	100
artefact	100
##mitte	100
steams	100
ono	100
highlighting	100
ʍ	100
屠	100
ine	100
chol	100
corner	100
rink	100
conceptual	100
##ワ	100
ᾶ	100
##夜	100
店	100
意	100
hanc	100
##iko	100
梁	100
ў	100
##ż	100
recorded	100
flora	100
##稔	100
usage	100
illusion	100
ိ	100
##esses	100
##兜	100
##anger	100
locally	100
elm	100
##enberg	100
黙	100
440	100
lenn	100
unsuccess	100
dat	100
plag	100
beating	100
##isers	100
medical	100
royalists	100
luc	100
repaired	100
sk	100
mercury	100
barrier	100
##ef	100
边	100
ell	100
inclined	100
great	100
##ax	100
迈	100
ὣ	100
果	100
hero	100
mechanic	100
1905	100
aqueduct	100
uncom	100
##jected	100
melbourne	100
colleagues	100
sharply	100
1847	100
dealing	100
##ख	100
##悦	100
auction	100
##康	100
observers	100
talbot	100
characterized	100
##orious	100
electorate	100
脉	100
##忍	100
##ヒ	100
westward	100
cooke	100
econ	100
##;	100
matt	100
civ	100
##pled	100
recipes	100
숫	100
spiral	100
lev	100
##ǔ	100
##博	100
##shire	100
text	100
output	100
表	100
实	100
##酷	100
ᡳ	100
airplane	100
fifa	100
abst	100
##grade	100
harb	100
disadvant	100
xiv	100
barker	100
yankovic	100
閃	100
raymond	100
篇	100
crossed	100
靂	100
##غ	100
##际	100
##ra	100
rowland	100
1965	100
ordering	100
prod	100
points	100
zoe	100
##碗	100
food	100
檳	100
meas	100
satir	100
##islav	100
seg	100
##orp	100
vice	100
fund	100
ring	100
zelda	100
##義	100
khalid	100
##ban	100
xbox	100
棚	100
manual	100
saints	100
att	100
agent	100
upper	100
sculpture	100
trustees	100
objected	100
visible	100
艦	100
ฮ	100
midnight	100
##現	100
legends	100
##欣	100
legitimate	100
##rating	100
##မ	100
expans	100
##ecess	100
sheridan	100
##80	100
manufact	100
rarely	100
爽	100
confined	100
##anded	100
##apped	100
보	100
##uld	100
swift	100
decisive	100
nasal	100
just	100
##ulus	100
patrolling	100
laurent	100
wartime	100
ت	100
∉	100
prosper	100
disguised	100
turrets	100
appearing	100
##lav	100
interacting	100
installations	100
##ucks	100
clergy	100
##處	100
flows	100
orator	100
month	100
orlando	100
sho	100
vatic	100
ᛝ	100
yosh	100
wein	100
threatening	100
topp	100
##翠	100
bah	100
faults	100
164	100
##ா	100
shrewsbury	100
homosexuality	100
##acter	100
track	100
##jack	100
trit	100
##oles	100
roster	100
##杏	100
₄	100
##etes	100
unlik	100
##beck	100
rift	100
##enched	100
##ysis	100
deliveries	100
allies	100
尺	100
crim	100
##ÿ	100
##olic	100
ŗ	100
##mal	100
cust	100
eighteenth	100
actually	100
fir	100
##aid	100
thailand	100
consistency	100
##aus	100
百	100
当	100
dismant	100
婚	100
ages	100
impedance	100
patron	100
鎖	100
寵	100
witchcraft	100
gwen	100
1935	100
resembles	100
patterns	100
religions	100
appropri	100
transports	100
nichols	100
precip	100
texts	100
ｒ	100
##级	100
##換	100
des	100
骸	100
everyday	100
singer	100
ent	100
penc	100
southampton	100
procedures	100
paired	100
parents	100
maintained	100
##-	100
treason	100
##ton	100
chang	100
kid	100
裟	100
manh	100
##유	100
stands	100
stake	100
##呪	100
회	100
##架	100
manages	100
##icity	100
知	100
##诺	100
dunstan	100
❆	100
##φ	100
ම	100
colt	100
supre	100
reissued	100
##ocre	100
stretched	100
##保	100
spine	100
boon	100
country	100
##ofsky	100
##ec	100
prophec	100
##champ	100
##布	100
##盏	100
everyone	100
alab	100
eighth	100
ա	100
255	100
ac	100
##あ	100
nass	100
metac	100
market	100
build	100
難	100
wilkinson	100
elaborated	100
ặ	100
##川	100
⑦	100
##self	100
conditions	100
gown	100
##命	100
##动	100
slovak	100
mascot	100
programme	100
##க	100
##je	100
unconscious	100
##etz	100
silly	100
losses	100
omn	100
bitter	100
##ès	100
locke	100
apoc	100
believe	100
forested	100
##6	100
##府	100
##sp	100
caen	100
##祚	100
woods	100
nwa	100
##祿	100
표	100
##罠	100
##idents	100
sized	100
##長	100
aug	100
virgin	100
details	100
##istol	100
sons	100
overl	100
wiz	100
visuals	100
befriend	100
abortion	100
1829	100
seminary	100
collaborators	100
stood	100
dan	100
bic	100
conclude	100
##ulu	100
michelle	100
everett	100
kne	100
flower	100
諸	100
manag	100
young	100
motor	100
program	100
printing	100
uprising	100
##ল	100
clause	100
thunderstorms	100
insane	100
ή	100
lithu	100
th	100
directive	100
redisc	100
caut	100
herb	100
##omorph	100
##노	100
##涵	100
killing	100
##ោ	100
laboratories	100
replace	100
annex	100
venge	100
ɭ	100
hermit	100
##rand	100
##若	100
specimens	100
viad	100
跑	100
##深	100
cruc	100
agency	100
species	100
tennis	100
herman	100
thought	100
identifying	100
intellig	100
##odes	100
̺	100
soup	100
climbing	100
beneficial	100
prair	100
##ᶴ	100
##thing	100
liberty	100
##ailed	100
compensate	100
porto	100
accur	100
##ự	100
cus	100
##waukee	100
viewing	100
jin	100
harding	100
haiti	100
ჳ	100
primates	100
##令	100
constitution	100
benson	100
##ockey	100
allmusic	100
adequ	100
bubble	100
trenton	100
guilty	100
왜	100
maple	100
unfavorable	100
##irc	100
##幣	100
conservatives	100
obsc	100
phillip	100
##踢	100
##rates	100
##繹	100
spokane	100
darwin	100
unse	100
unw	100
##mouth	100
##ׁ	100
##雾	100
##ẵ	100
ar	100
dispute	100
ranges	100
##ジ	100
tenure	100
acknow	100
電	100
scen	100
punct	100
ij	100
1846	100
##atem	100
angus	100
##ǐ	100
back	100
##fully	100
arter	100
gallagher	100
##ⲱ	100
inver	100
botan	100
史	100
##stop	100
laurie	100
##ห	100
##hi	100
勃	100
##icut	100
stems	100
ゼ	100
depicting	100
##unch	100
ukrainian	100
##遺	100
霸	100
kal	100
##締	100
ܐ	100
coastline	100
##興	100
##opy	100
##outh	100
భ	100
staged	100
consultant	100
bund	100
toby	100
##aking	100
斬	100
mild	100
##mes	100
survival	100
棺	100
##品	100
##루	100
tun	100
my	100
sag	100
enclosed	100
malt	100
##屋	100
assistants	100
southern	100
sab	100
蝴	100
boun	100
avon	100
輝	100
##孝	100
##こ	100
ザ	100
tools	100
randy	100
##rina	100
į	100
partition	100
spelling	100
箱	100
zam	100
vietnamese	100
##ogan	100
勳	100
酸	100
##ugh	100
荻	100
異	100
beaver	100
角	100
##纪	100
##ｄ	100
##ᛏ	100
trapped	100
##ivers	100
innov	100
newfound	100
quater	100
cer	100
promotional	100
ש	100
ὺ	100
langu	100
decompression	100
disrupt	100
డ	100
乃	100
##实	100
famil	100
charlton	100
establish	100
收	100
##port	100
##ley	100
branded	100
##medi	100
overth	100
marty	100
##esty	100
##vana	100
榮	100
indication	100
speak	100
business	100
partnered	100
##nia	100
thanksgiving	100
ả	100
##ዛ	100
byz	100
##љ	100
holy	100
kits	100
##orney	100
spot	100
reality	100
lines	100
奈	100
storyline	100
pope	100
##ois	100
students	100
##ita	100
pal	100
##々	100
##ects	100
132	100
##lu	100
operator	100
呂	100
dere	100
##etamine	100
flu	100
causeway	100
displ	100
་	100
##क	100
immun	100
組	100
bassist	100
obsole	100
##奉	100
don	100
either	100
##inald	100
wedd	100
チ	100
disruption	100
exterior	100
今	100
pathway	100
126	100
northwestern	100
貓	100
edin	100
##echn	100
pont	100
##chem	100
influ	100
800	100
regime	100
narc	100
outfield	100
exaggerated	100
liaison	100
allev	100
綸	100
recommendations	100
彖	100
continuation	100
blast	100
antoine	100
##amming	100
신	100
ad	100
empire	100
##惠	100
1958	100
predecessors	100
targeted	100
空	100
subsequent	100
##ூ	100
distorted	100
得	100
count	100
immedi	100
ข	100
hindi	100
indigen	100
weighing	100
segregation	100
insurgents	100
recru	100
reporters	100
##ܚ	100
crystal	100
##너	100
delhi	100
prisoners	100
gloss	100
##走	100
oper	100
##ula	100
compare	100
##word	100
briar	100
1824	100
psychiat	100
team	100
outflow	100
occupied	100
我	100
hammer	100
relieved	100
proud	100
balk	100
sparta	100
##icho	100
imag	100
##houser	100
gauge	100
wip	100
##ans	100
imposs	100
墓	100
##誡	100
gly	100
transport	100
berkeley	100
mul	100
歡	100
stripped	100
inconsistent	100
性	100
resting	100
mya	100
##ball	100
distance	100
shooter	100
commitments	100
hunting	100
somers	100
brian	100
morocco	100
##chwader	100
ty	100
severed	100
resupp	100
dylan	100
payment	100
clutch	100
prediction	100
unification	100
universities	100
report	100
##agn	100
vigorous	100
어	100
##ぼ	100
dedicated	100
feud	100
schum	100
pro	100
##build	100
##ophon	100
skyscr	100
caled	100
games	100
coral	100
surface	100
fresh	100
garn	100
mps	100
即	100
##iva	100
following	100
administer	100
##者	100
##騎	100
##広	100
massachusetts	100
hau	100
##sis	100
rewrite	100
還	100
吞	100
##瓜	100
##欠	100
##璉	100
commanding	100
bres	100
water	100
writes	100
voice	100
1700	100
gt	100
##棍	100
compart	100
justin	100
habit	100
fearing	100
1200	100
descendants	100
lanthan	100
comm	100
lacking	100
郡	100
##v	100
complaints	100
##chen	100
nazis	100
geneva	100
attested	100
argument	100
anzac	100
jardine	100
##erve	100
wholes	100
aspects	100
big	100
care	100
##継	100
##era	100
tas	100
黨	100
##cer	100
ⲥ	100
causing	100
##nut	100
##bage	100
appeals	100
##ni	100
録	100
constituency	100
##ride	100
politically	100
millionaire	100
##視	100
##orman	100
##ya	100
##gh	100
continued	100
=	100
鵬	100
gray	100
have	100
ỉ	100
崇	100
##在	100
##간	100
wonder	100
revel	100
uter	100
aires	100
##ွ	100
compton	100
eps	100
time	100
wyn	100
africa	100
松	100
barcelona	100
##pped	100
amended	100
립	100
##rows	100
consume	100
likelihood	100
##ate	100
cave	100
remod	100
parties	100
##為	100
咸	100
inf	100
ryan	100
##icip	100
chorus	100
##하	100
headed	100
##ras	100
rach	100
##bery	100
communism	100
underworld	100
紡	100
anj	100
35th	100
because	100
##弥	100
鶴	100
hector	100
negotiations	100
rectangular	100
achievement	100
—	100
##osexual	100
ran	100
alk	100
1820	100
census	100
暗	100
six	100
wainwright	100
紀	100
什	100
villain	100
##cles	100
00	100
##yan	100
reviewers	100
##坊	100
constitute	100
##olk	100
race	100
defend	100
##ǜ	100
feared	100
##]	100
##avery	100
percentage	100
##indy	100
urged	100
performs	100
pulp	100
combust	100
earned	100
ji	100
end	100
##related	100
##rack	100
criter	100
##校	100
imagery	100
巫	100
##ἳ	100
bedford	100
##甜	100
##oration	100
spor	100
wisdom	100
ប	100
##س	100
##繼	100
cornish	100
札	100
亅	100
sept	100
mural	100
##祀	100
##alan	100
鳥	100
网	100
benn	100
@	100
##uit	100
了	100
ⲩ	100
iw	100
otto	100
m	100
##ና	100
##osed	100
shanghai	100
payne	100
exter	100
simplified	100
##ẓ	100
都	100
regency	100
##緯	100
thinks	100
banana	100
渡	100
ⵓ	100
holland	100
##än	100
##駆	100
岭	100
clinton	100
livestock	100
antibiot	100
satisf	100
##bin	100
##ote	100
journ	100
expr	100
plaque	100
paramount	100
等	100
##guy	100
연	100
rebell	100
lt	100
registry	100
resume	100
##悫	100
վ	100
der	100
##έ	100
inspired	100
𐎹	100
frequent	100
##apor	100
factories	100
##法	100
clinic	100
inadvert	100
##灼	100
##柏	100
##mir	100
braw	100
soil	100
deception	100
phill	100
##墓	100
necessity	100
##uble	100
##quer	100
ហ	100
informer	100
separate	100
##玄	100
deg	100
styles	100
determ	100
wearing	100
marketing	100
loading	100
jakarta	100
ぐ	100
preserving	100
榛	100
ֽ	100
boy	100
dull	100
##如	100
##ौ	100
향	100
mid	100
ⵙ	100
82	100
bulgarian	100
##asc	100
存	100
1925	100
ou	100
←	100
rbi	100
##iang	100
rul	100
##30	100
here	100
41	100
##喝	100
barnes	100
ீ	100
？	100
斩	100
andy	100
imm	100
##bee	100
render	100
qualities	100
lion	100
勾	100
##逆	100
byzantine	100
cooked	100
甘	100
man	100
##ibly	100
convicted	100
dense	100
##say	100
magnificent	100
locked	100
環	100
cindy	100
話	100
figure	100
informed	100
hiv	100
め	100
##需	100
having	100
##mund	100
ren	100
ferry	100
interf	100
kir	100
ϝ	100
innocence	100
凶	100
acquisition	100
submitted	100
犬	100
dollar	100
mississippi	100
centers	100
whitehead	100
introduced	100
flatt	100
##ȟ	100
##ៀ	100
shy	100
语	100
papal	100
1998	100
##ϑ	100
ွ	100
philanthrop	100
提	100
##弾	100
rhin	100
expectation	100
attitude	100
振	100
駢	100
bland	100
developed	100
##imented	100
##ista	100
defendants	100
penned	100
⋆	100
nut	100
局	100
lyrically	100
society	100
メ	100
subsequ	100
emph	100
##廿	100
remainder	100
farn	100
goodman	100
ج	100
##猫	100
mom	100
respond	100
供	100
offence	100
м	100
##票	100
artist	100
##aught	100
##堤	100
neptune	100
ớ	100
shankar	100
酱	100
里	100
opposite	100
巂	100
1st	100
栄	100
consciousness	100
filmmakers	100
ā	100
tea	100
inserted	100
contemporaries	100
##ီ	100
croat	100
ambul	100
east	100
##any	100
##oba	100
##mel	100
##得	100
##isy	100
穌	100
##ब	100
##uter	100
ⵕ	100
##ppe	100
##差	100
ด	100
franc	100
stim	100
hyper	100
fulfill	100
said	100
modernization	100
が	100
spotlight	100
funeral	100
添	100
chamberlain	100
disband	100
门	100
##晉	100
##ught	100
##ua	100
sov	100
amazon	100
mis	100
浦	100
##odies	100
comparisons	100
weap	100
accomplished	100
terror	100
outlined	100
##ế	100
last	100
elevated	100
patent	100
##elly	100
calc	100
鷹	100
anchored	100
朏	100
##দ	100
##fort	100
##encies	100
plank	100
confession	100
301	100
shun	100
synthes	100
opposed	100
returning	100
##child	100
affairs	100
neighbor	100
##form	100
residency	100
ⲫ	100
四	100
ax	100
lig	100
##分	100
jal	100
ro	100
庫	100
gandhi	100
##鞋	100
brings	100
femin	100
##anned	100
沉	100
##怒	100
nineteenth	100
厥	100
pulled	100
ditch	100
segreg	100
done	100
##光	100
sheep	100
##marine	100
##ifully	100
jaws	100
louisiana	100
##igon	100
experiments	100
##堀	100
synthetic	100
putting	100
turb	100
magnet	100
##ounded	100
tyre	100
overwhelming	100
oilers	100
disl	100
behavior	100
muss	100
##banks	100
##綜	100
bowman	100
homet	100
taxon	100
nadal	100
滋	100
parall	100
chestnut	100
vind	100
susque	100
revealing	100
##å	100
vic	100
nico	100
##ゅ	100
mozamb	100
##ilated	100
vertebra	100
ndh	100
reinforcements	100
formerly	100
monasteries	100
##호	100
##kind	100
wisden	100
บ	100
individually	100
tap	100
ensured	100
##other	100
ℤ	100
九	100
intention	100
vas	100
ヌ	100
talking	100
##rob	100
吾	100
immunity	100
男	100
##uing	100
翘	100
unnecessary	100
remove	100
shells	100
##ఠ	100
粥	100
##ox	100
kes	100
heinrich	100
盒	100
oscar	100
slave	100
constantinople	100
鸿	100
##ⴳ	100
##oral	100
##ا	100
sandy	100
##ince	100
explo	100
mckinley	100
登	100
plan	100
greatest	100
upwards	100
diva	100
以	100
し	100
##iano	100
커	100
neutrons	100
##沫	100
く	100
ire	100
prev	100
320	100
螺	100
lifetime	100
ali	100
塩	100
舞	100
privileges	100
gir	100
1947	100
wonderful	100
mistakenly	100
##德	100
prayers	100
##thood	100
氏	100
눈	100
stir	100
ェ	100
##icles	100
stable	100
##vol	100
nixon	100
bru	100
##oric	100
sunder	100
guard	100
狂	100
##orous	100
protested	100
##arms	100
ʞ	100
##犖	100
##蠕	100
procedure	100
unified	100
cavalry	100
unexpected	100
perman	100
ʁ	100
##ត	100
purs	100
tunes	100
##utory	100
##昌	100
##atorial	100
piercing	100
##廟	100
##jord	100
##径	100
帕	100
##ms	100
fanny	100
weren	100
moroc	100
factory	100
astronomers	100
##ブ	100
displaying	100
best	100
cyt	100
bigger	100
⸩	100
來	100
fortification	100
寻	100
##atics	100
least	100
gal	100
is	100
seals	100
midway	100
##향	100
outfits	100
elevator	100
utah	100
##istry	100
andre	100
ḵ	100
play	100
hook	100
풍	100
ធ	100
smell	100
nomen	100
##mor	100
頒	100
duration	100
එ	100
gender	100
##柆	100
blade	100
aunt	100
réunion	100
orr	100
contr	100
facebook	100
marks	100
汤	100
sabbath	100
indec	100
kappa	100
reprised	100
汰	100
lieut	100
fairy	100
##ings	100
磲	100
ᶷ	100
mugh	100
shootout	100
empower	100
natalie	100
mediter	100
兵	100
rainfall	100
##gage	100
換	100
beginning	100
##osition	100
##注	100
welding	100
onset	100
conv	100
torture	100
dunk	100
ceremony	100
vl	100
##籌	100
signing	100
stockholm	100
collaps	100
computing	100
transformation	100
stereo	100
##ể	100
ans	100
ศ	100
##င	100
盏	100
hay	100
1838	100
catherine	100
landfall	100
##gamer	100
ideology	100
ཆ	100
student	100
desc	100
&	100
##whe	100
nitrogen	100
moved	100
##難	100
##ኲ	100
##repr	100
marcus	100
750	100
independ	100
##fia	100
phyll	100
norton	100
##elle	100
gospel	100
possesses	100
towers	100
equilibrium	100
assy	100
attained	100
##ಬ	100
lingu	100
##isha	100
19th	100
absorbed	100
##inem	100
franz	100
##ှ	100
ind	100
lib	100
poles	100
##enzo	100
bro	100
wrist	100
##usalem	100
禰	100
##stem	100
enemy	100
strictly	100
trafford	100
steamer	100
rna	100
halls	100
pete	100
mfr	100
泗	100
公	100
trilogy	100
dropping	100
##w	100
##alt	100
laying	100
##ylon	100
valid	100
gallip	100
eliminate	100
載	100
##ner	100
##per	100
graves	100
­	100
,	100
录	100
currents	100
null	100
##ů	100
fowler	100
##은	100
ʔ	100
cutsc	100
jackie	100
shots	100
##rah	100
stranded	100
turner	100
evolved	100
wide	100
##â	100
equip	100
hyde	100
located	100
iranian	100
defunct	100
spok	100
甜	100
stealing	100
mitchell	100
##廻	100
mon	100
sigma	100
acting	100
##omm	100
standing	100
arv	100
skins	100
##币	100
however	100
##복	100
##給	100
後	100
choosing	100
##achi	100
ǐ	100
独	100
##关	100
##ୀ	100
houses	100
brien	100
crops	100
##鋼	100
##𐎠	100
##oro	100
##래	100
145	100
gott	100
ń	100
undefe	100
##股	100
incoming	100
por	100
perc	100
##達	100
##lla	100
scheme	100
pdf	100
hug	100
737	100
ᛁ	100
뿐	100
##판	100
##ön	100
##mitt	100
unwilling	100
persian	100
unbeat	100
pref	100
participation	100
foul	100
wemb	100
δ	100
##ན	100
columbia	100
##outed	100
##eses	100
198	100
alexander	100
2d	100
denying	100
ensemb	100
squares	100
執	100
##enger	100
ర	100
le	100
pocket	100
##ogist	100
##rodu	100
¿	100
唄	100
freeze	100
1801	100
##otle	100
宣	100
##ps	100
##ම	100
highly	100
huss	100
usher	100
illustrations	100
martin	100
spend	100
carroll	100
##ş	100
guidelines	100
nocturnal	100
lying	100
physic	100
burnt	100
##dle	100
payments	100
化	100
biographers	100
##生	100
ingredients	100
##够	100
approached	100
##tor	100
##phal	100
セ	100
贝	100
week	100
##hold	100
##ⵕ	100
##erse	100
ో	100
internal	100
topics	100
basil	100
amal	100
prairie	100
삼	100
amounts	100
donnell	100
spaced	100
貫	100
victorious	100
hold	100
##外	100
##chy	100
hemingway	100
krie	100
script	100
碩	100
##ared	100
rede	100
influenza	100
##ለ	100
extr	100
goldberg	100
̠	100
listeners	100
bl	100
volunte	100
##沌	100
smallpox	100
eroded	100
emerges	100
茅	100
e	100
##菱	100
##anca	100
##老	100
##pers	100
nadu	100
pitches	100
##ɖ	100
rumors	100
korean	100
##leton	100
wings	100
149	100
₩	100
reviews	100
comb	100
92	100
ξ	100
raising	100
##ܵ	100
##ading	100
1948	100
considerable	100
diesel	100
fab	100
##横	100
purported	100
##살	100
poly	100
czech	100
identify	100
tight	100
kön	100
##で	100
layers	100
moran	100
obtaining	100
scot	100
##athan	100
##ィ	100
ko	100
生	100
憶	100
cylinder	100
##odied	100
carol	100
##ogle	100
##側	100
領	100
ital	100
harvard	100
฿	100
59	100
##面	100
mobility	100
annie	100
rac	100
##ǭ	100
enh	100
bug	100
seattle	100
##陈	100
majesty	100
usaf	100
##浪	100
posters	100
finalists	100
##éd	100
boron	100
색	100
##ns	100
##炯	100
##airo	100
italia	100
castro	100
1994	100
ʿ	100
allocated	100
driver	100
ܪ	100
渥	100
வ	100
commentators	100
abund	100
torped	100
str	100
##opp	100
spontaneous	100
oversaw	100
summon	100
area	100
ு	100
poland	100
alias	100
ov	100
batteries	100
##lett	100
জ	100
kin	100
##enas	100
##aped	100
em	100
ragn	100
aquar	100
##isted	100
fees	100
royals	100
ầ	100
danielle	100
昔	100
##密	100
pitt	100
屑	100
##ʰ	100
posted	100
##점	100
##id	100
##ජ	100
sask	100
ƥ	100
##step	100
##vers	100
wrapped	100
机	100
deploy	100
##through	100
筍	100
accol	100
within	100
instance	100
outages	100
）	100
fixture	100
anatom	100
binary	100
paranormal	100
楚	100
##妙	100
##land	100
newton	100
antig	100
roller	100
hamilton	100
dil	100
position	100
##olo	100
juvent	100
##ensen	100
capt	100
##熙	100
mariah	100
##ird	100
chant	100
overthrow	100
marines	100
shear	100
##anity	100
##놔	100
寝	100
traveling	100
##won	100
##ictions	100
totals	100
arrangements	100
anime	100
pitched	100
certain	100
respected	100
ẫ	100
entirety	100
announ	100
##isp	100
막	100
hooper	100
gained	100
peripher	100
##沒	100
uncredited	100
bombarded	100
freeman	100
##os	100
opted	100
stewart	100
##elect	100
rex	100
drag	100
##介	100
##鳥	100
塔	100
老	100
finger	100
fertile	100
泊	100
ʘ	100
crying	100
tribes	100
deteriorating	100
ะ	100
resist	100
馒	100
victoria	100
gateshead	100
##usions	100
##ray	100
verse	100
sweeping	100
rodrigues	100
hilarious	100
recorder	100
severn	100
reloc	100
g	100
##strong	100
mating	100
##itian	100
旺	100
kaiser	100
streets	100
##用	100
jerry	100
##wind	100
shipbuild	100
generators	100
battery	100
gad	100
euph	100
激	100
amalgam	100
jumps	100
reading	100
enrollment	100
intox	100
##隱	100
mele	100
inscriptions	100
##uge	100
speaker	100
##borough	100
##交	100
delaying	100
##group	100
outright	100
尔	100
ą	100
taste	100
##enes	100
##ung	100
all	100
##底	100
freed	100
03	100
belonged	100
contrary	100
##itory	100
jade	100
atlant	100
triggered	100
referendum	100
+	100
p	100
weird	100
laws	100
鴉	100
##istan	100
graded	100
engage	100
gatehouse	100
hybrids	100
hispanic	100
humorous	100
##岳	100
cattle	100
ᒡ	100
##ុ	100
矮	100
orbiting	100
intell	100
##inia	100
able	100
mag	100
寶	100
margin	100
##edd	100
cuis	100
descending	100
incorporating	100
##円	100
impl	100
casual	100
##始	100
fringe	100
mason	100
paragu	100
sp	100
lear	100
commander	100
serves	100
skeptical	100
unanimously	100
##ancing	100
##ֵ	100
##桑	100
whitman	100
##區	100
trend	100
enlarged	100
岐	100
knowing	100
曼	100
lup	100
motto	100
patches	100
slope	100
ᛒ	100
##aces	100
##ów	100
ga	100
##lie	100
antic	100
divor	100
plut	100
manufacture	100
satirical	100
聚	100
gerry	100
consecutive	100
marked	100
nutri	100
##ៈ	100
ⵇ	100
publications	100
光	100
gramm	100
yorkshire	100
住	100
妹	100
ம	100
##譚	100
136	100
儀	100
diameter	100
strains	100
fen	100
##商	100
justices	100
hungry	100
##rill	100
some	100
technologies	100
parsons	100
##ortion	100
suffered	100
knee	100
si	100
raced	100
##ሰ	100
pairing	100
taxi	100
humble	100
regiment	100
ら	100
##ier	100
saga	100
kills	100
mcclellan	100
thousands	100
positively	100
josé	100
団	100
neutrality	100
austral	100
忍	100
oz	100
颖	100
##bre	100
163	100
horn	100
##ც	100
sand	100
physicist	100
physicians	100
formid	100
하	100
##震	100
奴	100
##표	100
wasp	100
牙	100
chelsea	100
riffs	100
mass	100
epsilon	100
address	100
mard	100
刹	100
nurse	100
rbis	100
repet	100
children	100
aj	100
##raph	100
escorts	100
habitats	100
##ennial	100
##涙	100
actin	100
pioneering	100
허	100
##剛	100
##anth	100
danc	100
##iseries	100
##iron	100
№	100
弔	100
篤	100
eats	100
淑	100
donation	100
ς	100
釣	100
##誕	100
disappoint	100
##煜	100
##ṙ	100
##@	100
1970	100
absolut	100
##rif	100
sophie	100
spokesperson	100
##aps	100
inability	100
keith	100
##幽	100
merchant	100
methods	100
##istically	100
dried	100
ূ	100
永	100
bay	100
café	100
##put	100
緬	100
stern	100
tens	100
tribe	100
棗	100
recalls	100
reluctantly	100
1937	100
##美	100
coler	100
201	100
返	100
燃	100
heb	100
donna	100
29	100
2	100
先	100
雷	100
##ropol	100
52	100
started	100
farther	100
ط	100
作	100
covenant	100
정	100
##atta	100
vertical	100
document	100
natives	100
probability	100
梏	100
美	100
exceptionally	100
hig	100
ἤ	100
##ée	100
auditioned	100
swallow	100
##ồ	100
actors	100
sass	100
##hamm	100
͘	100
rodriguez	100
clover	100
豆	100
skeletal	100
submission	100
ý	100
ǽ	100
モ	100
tempt	100
1952	100
##ٍ	100
##勳	100
##uits	100
##ranes	100
##iated	100
finance	100
rosa	100
hous	100
kany	100
##ɻ	100
##綸	100
##rich	100
##als	100
confuc	100
ĵ	100
malaya	100
ves	100
##athing	100
##ネ	100
spell	100
##ets	100
raiders	100
compose	100
##porary	100
argentina	100
##aud	100
##𐏁	100
absence	100
favoured	100
375	100
morgan	100
硨	100
##uable	100
琬	100
##oft	100
##hn	100
decided	100
posthum	100
hanging	100
1831	100
##eros	100
f	100
chains	100
drop	100
relig	100
ᛄ	100
secretary	100
##ites	100
rus	100
past	100
ి	100
yas	100
relev	100
bott	100
corps	100
policies	100
football	100
published	100
pup	100
tapes	100
煜	100
chamber	100
im	100
relies	100
##素	100
や	100
inflation	100
clayton	100
ῥ	100
##oys	100
clues	100
pierce	100
ɕ	100
底	100
##с	100
##opers	100
motives	100
therapy	100
ា	100
ꜭ	100
finals	100
종	100
concord	100
batch	100
##aniel	100
respective	100
aligned	100
receptions	100
bloom	100
º	100
enact	100
define	100
స	100
##iled	100
哮	100
mixing	100
‚	100
total	100
亰	100
refin	100
##ettes	100
chak	100
cont	100
##ʂ	100
sulfur	100
##血	100
kink	100
dys	100
##ř	100
these	100
rowling	100
bian	100
shoo	100
altitude	100
segment	100
trick	100
##rews	100
1934	100
cn	100
mlb	100
##营	100
1938	100
##work	100
##ampton	100
interests	100
naples	100
ञ	100
sau	100
##ilton	100
sailor	100
asset	100
shine	100
ensign	100
margar	100
accidental	100
predominant	100
##ascular	100
nevada	100
sued	100
caesar	100
nomenclature	100
##葉	100
attrib	100
##istical	100
##osh	100
俄	100
광	100
##乘	100
ver	100
മ	100
##terly	100
##၇	100
##igo	100
presbyter	100
ဗ	100
lewis	100
gore	100
##wning	100
ants	100
couples	100
##ass	100
chit	100
##ains	100
1840	100
surpassing	100
sicily	100
梨	100
##ode	100
##沂	100
nominee	100
hostage	100
##ined	100
ზ	100
catholic	100
ẽ	100
seeking	100
##グ	100
##itch	100
discusses	100
outsk	100
backing	100
##掲	100
adj	100
な	100
cg	100
##ci	100
##ayan	100
lithuanian	100
ibrahim	100
writing	100
##근	100
##負	100
dor	100
nate	100
fianc	100
twin	100
53	100
uru	100
translations	100
vishn	100
##nell	100
##una	100
metric	100
engineered	100
##ros	100
bur	100
hen	100
##煌	100
attorney	100
##cill	100
blaz	100
eul	100
meets	100
ray	100
ữ	100
curtis	100
groening	100
##eded	100
passages	100
telegraph	100
##thod	100
affected	100
##処	100
troop	100
operation	100
##unk	100
convinced	100
##ტ	100
##燈	100
presidential	100
ೇ	100
teamed	100
remnants	100
upstream	100
##牙	100
improved	100
##潤	100
ཀ	100
##ming	100
gift	100
欽	100
strange	100
ן	100
marshal	100
harp	100
entered	100
sierra	100
sampled	100
融	100
rio	100
晉	100
##elli	100
plum	100
explains	100
obviously	100
kate	100
24	100
videos	100
##悪	100
90s	100
##ri	100
ved	100
welcome	100
lifted	100
irre	100
filmmaker	100
anders	100
awarded	100
sighted	100
scrap	100
##orters	100
objections	100
☄	100
2011	100
static	100
1870s	100
meng	100
##ّ	100
democratic	100
##hard	100
唯	100
mermaid	100
ham	100
ı	100
wyatt	100
tourism	100
##irus	100
insistence	100
務	100
扶	100
performers	100
flat	100
mund	100
西	100
insign	100
debates	100
orbits	100
##箱	100
questions	100
magnetic	100
junta	100
plural	100
indust	100
pick	100
masks	100
halftime	100
##aws	100
pounds	100
stabil	100
gael	100
steals	100
herring	100
inhabitants	100
catholicism	100
##raw	100
俊	100
##th	100
kang	100
parliam	100
俳	100
##映	100
##ഹ	100
cis	100
injured	100
cape	100
lottery	100
nobel	100
##tym	100
##唱	100
reaches	100
mort	100
##yth	100
actress	100
apollo	100
emig	100
khal	100
##ovak	100
muhammad	100
##ማ	100
nautical	100
detect	100
buccaneers	100
##anium	100
tender	100
profile	100
healthcare	100
chino	100
##牡	100
##ji	100
riverside	100
compar	100
##ube	100
rookie	100
agree	100
##arked	100
ways	100
write	100
browning	100
づ	100
##jection	100
cds	100
desperate	100
##礼	100
conscience	100
曲	100
ｰ	100
determined	100
形	100
nash	100
anterior	100
exchequer	100
1860	100
parental	100
disk	100
intellect	100
mes	100
palm	100
##辆	100
procl	100
mankind	100
heaven	100
deposits	100
##uates	100
2006	100
##增	100
ꭶ	100
##正	100
experi	100
算	100
locomot	100
secured	100
##amma	100
##鐸	100
777	100
290	100
些	100
disagre	100
org	100
湯	100
##ဘ	100
##辨	100
ken	100
op	100
negatively	100
兔	100
弧	100
竹	100
##aser	100
ḑ	100
foot	100
thin	100
entrepr	100
##ֽ	100
##mill	100
##rid	100
abs	100
##象	100
attraction	100
selections	100
generals	100
さ	100
灯	100
meteor	100
##箇	100
debt	100
##ᛚ	100
alco	100
ivy	100
migrate	100
##avia	100
行	100
##ʲ	100
##rian	100
ward	100
»	100
prejud	100
glacier	100
##zh	100
ʲ	100
##agar	100
##ones	100
##း	100
##戦	100
##zep	100
blind	100
##ql	100
½	100
恥	100
##keeper	100
焔	100
matter	100
circle	100
##aca	100
stepped	100
1890s	100
tit	100
手	100
八	100
immediate	100
worlds	100
##ically	100
bailey	100
totally	100
oxygen	100
##rep	100
島	100
zack	100
stock	100
measured	100
##chair	100
##初	100
downloads	100
pressure	100
implementation	100
put	100
##息	100
yel	100
night	100
fam	100
aircraft	100
sch	100
##邁	100
鲁	100
signals	100
##omatic	100
##run	100
blood	100
##آ	100
##ã	100
discrimin	100
莫	100
##瓦	100
友	100
타	100
春	100
blow	100
mack	100
##quel	100
retaliation	100
寗	100
##ᚦ	100
unit	100
lester	100
odor	100
##oly	100
##句	100
publication	100
davenport	100
cafe	100
jones	100
##ix	100
ὦ	100
serbs	100
besieged	100
##encing	100
##gest	100
##ple	100
##瑋	100
goldman	100
枯	100
tiles	100
齉	100
##詔	100
account	100
ˌ	100
邵	100
barcel	100
accus	100
##内	100
##胡	100
relative	100
ios	100
##辰	100
##ibald	100
猫	100
canber	100
subc	100
crowd	100
atari	100
ፈ	100
ங	100
carl	100
霊	100
returned	100
volunteers	100
##夏	100
cavity	100
ashley	100
catalog	100
lineup	100
cruel	100
曆	100
##揺	100
##iker	100
butterfly	100
numerical	100
interpret	100
##ection	100
2010	100
reads	100
decreasing	100
baro	100
mg	100
裁	100
##fic	100
##pres	100
exacerb	100
plant	100
unaware	100
marvel	100
ireland	100
capsized	100
teachings	100
consistent	100
畜	100
kr	100
ご	100
transc	100
##finger	100
unfair	100
marginal	100
割	100
marseille	100
blue	100
arrested	100
##ά	100
encountering	100
##丈	100
match	100
emin	100
configuration	100
underg	100
卦	100
##ட	100
ra	100
bobby	100
penny	100
travers	100
制	100
pardon	100
##ecuted	100
pleist	100
cables	100
##ฝ	100
hus	100
standard	100
curse	100
ὥ	100
##妹	100
deput	100
ृ	100
presented	100
privately	100
fluid	100
##itud	100
##rae	100
consisted	100
ven	100
##eres	100
##erl	100
refuses	100
pros	100
一	100
薯	100
##盘	100
##炼	100
##ocks	100
grew	100
hated	100
supplemented	100
retired	100
##ogene	100
koch	100
1842	100
punj	100
accord	100
samus	100
##歓	100
individuals	100
1826	100
meyer	100
##蓮	100
milan	100
hex	100
broader	100
ɮ	100
儚	100
disco	100
toxicity	100
penn	100
brotherhood	100
paraly	100
ż	100
warwick	100
##應	100
mete	100
綜	100
matters	100
weld	100
##eni	100
##rial	100
orientation	100
##斬	100
##baum	100
##rb	100
pix	100
occasions	100
virginia	100
##ardi	100
breakfast	100
gaelic	100
newark	100
##ipher	100
甲	100
文	100
cosmic	100
manga	100
tends	100
2013	100
緑	100
analogous	100
kraków	100
variants	100
nursery	100
ƀ	100
ᵻ	100
杖	100
musl	100
lobby	100
##경	100
ʹ	100
##財	100
##ged	100
fragment	100
philosophers	100
brezhnev	100
扉	100
advertisement	100
##ņ	100
410	100
##援	100
killer	100
mars	100
wells	100
epith	100
ideological	100
marse	100
##护	100
intern	100
cush	100
̝	100
retrie	100
eleanor	100
irregular	100
incorrect	100
⇄	100
ę	100
nation	100
ུ	100
knight	100
顯	100
parker	100
##eles	100
dealer	100
superin	100
229	100
tulsa	100
exploded	100
prosecution	100
er	100
##ѥ	100
∖	100
##雅	100
marsh	100
partnership	100
溢	100
tej	100
andrews	100
壮	100
compens	100
##acon	100
##hops	100
lamp	100
transit	100
mainstream	100
呪	100
幻	100
suggesting	100
31st	100
##უ	100
##ỉ	100
ْ	100
##asi	100
##jevo	100
⊢	100
浚	100
repeated	100
##edict	100
##oned	100
postseason	100
系	100
choice	100
##別	100
秦	100
##ink	100
別	100
℞	100
##撲	100
disintegr	100
##agu	100
chronicler	100
2016	100
射	100
##pa	100
wor	100
##pendicular	100
malcolm	100
##pp	100
recomm	100
nir	100
##ingly	100
disagreed	100
originating	100
##颊	100
races	100
region	100
##ium	100
lé	100
##ⵖ	100
work	100
hawkins	100
##曜	100
festivals	100
哲	100
slayer	100
##ĩ	100
depict	100
pearl	100
##察	100
rod	100
existence	100
silva	100
tend	100
overtime	100
##irs	100
애	100
worn	100
lets	100
##抓	100
##liest	100
geometry	100
gilmour	100
沽	100
enrol	100
沫	100
##tended	100
lou	100
##oen	100
##み	100
instant	100
largest	100
rat	100
extraordinary	100
programm	100
##ử	100
bradford	100
obama	100
pluto	100
degradation	100
ὀ	100
ワ	100
sel	100
competitor	100
原	100
baltim	100
렌	100
ီ	100
enorm	100
peak	100
quietly	100
debate	100
valentine	100
layer	100
implies	100
interp	100
##riptions	100
pilgrimage	100
comparing	100
്	100
wigan	100
considerably	100
冫	100
##塞	100
prize	100
refres	100
thrill	100
mvp	100
reverend	100
brush	100
##己	100
apr	100
##ų	100
expresses	100
rounded	100
##公	100
圏	100
ᚢ	100
##狀	100
he	100
##din	100
龙	100
音	100
abolished	100
##ga	100
stam	100
lu	100
canadiens	100
ʳ	100
##ishi	100
reporter	100
##棋	100
paris	100
##仲	100
greece	100
johann	100
reyn	100
facial	100
traded	100
intensification	100
recipients	100
粁	100
samples	100
advocated	100
oryz	100
##巫	100
##ず	100
##梨	100
buddy	100
cultivated	100
unoff	100
overd	100
aust	100
governed	100
phylogenetic	100
mainly	100
netherlands	100
1871	100
̲	100
trent	100
aurora	100
##affe	100
̧	100
毎	100
##bird	100
swed	100
spiders	100
transl	100
蕨	100
ǣ	100
##邦	100
expand	100
petition	100
##億	100
堅	100
void	100
publishers	100
fm	100
defens	100
baseman	100
##ine	100
acet	100
荥	100
投	100
enterpr	100
bale	100
##cers	100
persuaded	100
maria	100
infilt	100
##娜	100
##引	100
ظ	100
也	100
designing	100
##ems	100
asp	100
镜	100
##乌	100
##lington	100
##old	100
import	100
arkham	100
##uck	100
residents	100
winding	100
##ཛ	100
##ample	100
why	100
bright	100
cran	100
stripe	100
##eder	100
garden	100
simpsons	100
ہ	100
cruz	100
aluminium	100
mobil	100
blank	100
crewmen	100
##併	100
angeles	100
##eck	100
1803	100
##է	100
braun	100
lincolnshire	100
tom	100
lc	100
ellie	100
greenwich	100
regardless	100
ஈ	100
阿	100
monit	100
##碩	100
sacr	100
##一	100
ዘ	100
females	100
diplom	100
nich	100
correspondence	100
##quar	100
equestrian	100
mud	100
jan	100
##ata	100
##ğ	100
##殿	100
venom	100
visions	100
successful	100
##뱅	100
organization	100
騎	100
n	100
nob	100
allot	100
##ave	100
onward	100
fasc	100
μm	100
seventeen	100
##ulsion	100
rural	100
ϑ	100
performances	100
organized	100
referenced	100
gau	100
如	100
##好	100
desp	100
orange	100
airborne	100
##umen	100
##夕	100
basin	100
pau	100
补	100
夫	100
##atic	100
##four	100
情	100
edges	100
ย	100
##uta	100
rich	100
altern	100
diagnosed	100
آ	100
globally	100
##iting	100
gardens	100
##ะ	100
##asia	100
資	100
##erg	100
granite	100
ム	100
admiral	100
독	100
##律	100
states	100
##antha	100
##ayette	100
##顏	100
install	100
##ⵓ	100
##dles	100
exclusively	100
##isations	100
##吧	100
藩	100
ד	100
##徹	100
began	100
prem	100
청	100
forty	100
渾	100
緩	100
command	100
##ques	100
hints	100
chapel	100
##束	100
213	100
tube	100
yielded	100
reactors	100
##ped	100
ꞎ	100
##岐	100
living	100
##yer	100
##疾	100
damascus	100
##び	100
masters	100
##en	100
sapph	100
amy	100
enzyme	100
bench	100
lowland	100
磁	100
##σ	100
員	100
mathem	100
row	100
##ndon	100
##圧	100
pleased	100
##haven	100
transition	100
stur	100
impose	100
##gate	100
bern	100
廣	100
fuller	100
##叉	100
∑	100
##aping	100
長	100
莘	100
margaret	100
vid	100
##iar	100
appreciate	100
reportedly	100
cancell	100
##annah	100
eras	100
williams	100
refrain	100
##waters	100
è	100
balls	100
##astroph	100
neither	100
##ѧ	100
##城	100
observatory	100
advisories	100
introducing	100
anarchist	100
ai	100
accusations	100
藝	100
dvd	100
unm	100
entitled	100
ﺒ	100
─	100
advance	100
describing	100
genres	100
mcg	100
wheel	100
nbc	100
trium	100
earthquakes	100
demon	100
genome	100
headquarters	100
americ	100
vij	100
贞	100
voyage	100
##nde	100
defeated	100
push	100
emmy	100
castles	100
##祈	100
##pec	100
##nal	100
default	100
##ric	100
##狸	100
abc	100
disapp	100
attempted	100
spends	100
yellowstone	100
extensively	100
hil	100
虹	100
cond	100
restore	100
tremend	100
nationalists	100
usual	100
ⵏ	100
violated	100
numer	100
wilhelms	100
since	100
2014	100
industry	100
##ava	100
ruling	100
##献	100
ニ	100
conce	100
##楽	100
08	100
##edo	100
##wave	100
ﬂ	100
ag	100
enemies	100
katherine	100
forest	100
ꜛ	100
happened	100
jagd	100
rout	100
sier	100
minimal	100
##俊	100
ana	100
1809	100
there	100
##li	100
##翔	100
ess	100
explored	100
##aird	100
glou	100
##acs	100
ustaše	100
麼	100
thoroughly	100
鉢	100
##准	100
彩	100
sarah	100
isot	100
##iop	100
660	100
wimbledon	100
##妖	100
phil	100
ឆ	100
chlor	100
demise	100
controller	100
단	100
##ひ	100
dog	100
shepherd	100
##si	100
endors	100
##enary	100
defines	100
humph	100
dow	100
improvement	100
##飛	100
folk	100
beaut	100
brownlee	100
wonders	100
##osph	100
##ʀ	100
middle	100
crimes	100
##宴	100
danish	100
曾	100
minaj	100
##డ	100
boxing	100
##ἵ	100
##ম	100
ever	100
prec	100
needed	100
bedroom	100
novelist	100
##ought	100
bishop	100
peace	100
mouse	100
guys	100
##ña	100
咙	100
extrem	100
##ler	100
‰	100
rico	100
movie	100
1840s	100
##orton	100
枚	100
ori	100
cooking	100
register	100
fant	100
captivity	100
##в	100
resistant	100
thigh	100
schl	100
##isto	100
ฟ	100
##arm	100
抓	100
差	100
##教	100
errone	100
廖	100
##hammad	100
##다	100
boss	100
##pox	100
##ify	100
spines	100
岬	100
merit	100
depth	100
reperto	100
##ശ	100
governor	100
myst	100
##roph	100
##屍	100
takeover	100
panc	100
stewie	100
186	100
ர	100
##aily	100
augustus	100
theod	100
发	100
##eche	100
oldest	100
recent	100
reaction	100
ꭓ	100
removal	100
ѥ	100
casualty	100
scor	100
##ivan	100
ṅ	100
comr	100
・	100
interesting	100
ṝ	100
ḹ	100
sled	100
##須	100
bypass	100
unlimited	100
affili	100
##謀	100
story	100
fol	100
##ු	100
quickly	100
##za	100
erik	100
ambitions	100
stature	100
1790	100
ᡵ	100
sz	100
review	100
joa	100
##ears	100
discussed	100
##ب	100
olympics	100
homes	100
corporal	100
pp	100
pressures	100
absorption	100
##yle	100
ate	100
##elin	100
applaud	100
perfectly	100
cron	100
##over	100
##說	100
sidney	100
籵	100
domest	100
spongeb	100
232	100
##burn	100
vel	100
##首	100
robson	100
ε	100
##श	100
##ulation	100
arguing	100
traces	100
eust	100
##ɥ	100
##你	100
##ome	100
deliber	100
##anced	100
respir	100
capped	100
##չ	100
##eme	100
pair	100
analys	100
叢	100
##憂	100
##unction	100
haven	100
ironclad	100
photograph	100
dc	100
萧	100
⊥	100
因	100
ɦ	100
inhabited	100
oriented	100
##ɮ	100
##erb	100
過	100
踏	100
ៈ	100
supplies	100
sed	100
desire	100
13th	100
dismantled	100
explosion	100
schemes	100
vass	100
eruptions	100
##१	100
ៀ	100
侍	100
妙	100
holder	100
悪	100
##ぽ	100
ř	100
##挥	100
##icates	100
ṧ	100
periodic	100
browne	100
oklahoma	100
quarters	100
##개	100
serv	100
surre	100
beij	100
142	100
ḗ	100
汐	100
##iza	100
須	100
yor	100
¼	100
circuits	100
speaking	100
##idas	100
##aiman	100
rendering	100
scient	100
headlining	100
hermann	100
370	100
lancaster	100
##de	100
typically	100
overwhel	100
港	100
wic	100
##wned	100
杨	100
##ance	100
billie	100
frames	100
defin	100
争	100
##folk	100
##ression	100
hopkins	100
27th	100
depressed	100
army	100
battalions	100
immig	100
frame	100
##zed	100
kiss	100
reproduction	100
rhys	100
##pton	100
##uka	100
backl	100
battlec	100
charitable	100
340	100
에	100
entertain	100
amendments	100
##ỵ	100
william	100
viral	100
##白	100
##也	100
expanding	100
blair	100
nan	100
seap	100
retract	100
ϟ	100
theatre	100
appointment	100
kylie	100
⥇	100
attempt	100
spart	100
independently	100
##æd	100
achieve	100
disappo	100
##騷	100
exam	100
nap	100
ben	100
aclu	100
##efa	100
急	100
##ruction	100
##袈	100
lur	100
早	100
stel	100
scholar	100
unlo	100
producers	100
##sten	100
supervis	100
##osoph	100
ష	100
reversed	100
転	100
unfamiliar	100
##划	100
undertake	100
惠	100
edit	100
##uria	100
ᚼ	100
over	100
commerce	100
messenger	100
传	100
israeli	100
bac	100
エ	100
##reh	100
樛	100
冥	100
##數	100
lennon	100
kelley	100
1898	100
##istani	100
mccorm	100
山	100
##ador	100
##微	100
##assment	100
electronics	100
##ラ	100
蕭	100
kan	100
richardson	100
ᠠ	100
##ris	100
febru	100
##ariat	100
uncertain	100
##elope	100
cement	100
repeal	100
georges	100
fright	100
minor	100
gaga	100
##tra	100
preseason	100
##司	100
1945	100
ኲ	100
##e	100
laughs	100
##ě	100
sha	100
##ѹ	100
lyrical	100
##ծ	100
##jav	100
centenary	100
##信	100
##牧	100
compared	100
芝	100
reported	100
##產	100
significant	100
hudson	100
##aly	100
cease	100
ᵑ	100
fou	100
났	100
reveals	100
speakers	100
##囁	100
எ	100
##畫	100
fem	100
platinum	100
yong	100
breath	100
triangular	100
obligations	100
2000	100
da	100
##珠	100
킨	100
byron	100
1834	100
wall	100
parking	100
obvious	100
bene	100
為	100
bae	100
♩	100
##entine	100
##tain	100
##𐎰	100
doing	100
222	100
auschwitz	100
owed	100
̐	100
indiana	100
travelled	100
##ises	100
##强	100
##icia	100
蘄	100
##roads	100
##ो	100
inc	100
artifact	100
##zhn	100
killings	100
##ion	100
colonists	100
##ณ	100
elongated	100
grateful	100
侠	100
ἡ	100
ruined	100
fraternity	100
##勢	100
##ご	100
##土	100
eleventh	100
together	100
sequel	100
96	100
ambrose	100
identical	100
##ress	100
불	100
energy	100
enjoying	100
ư	100
##ailing	100
##atz	100
floor	100
modification	100
筐	100
̩	100
##odeon	100
##ြ	100
##ய	100
##umble	100
lived	100
tobacco	100
tribute	100
ཡ	100
dut	100
refused	100
##bra	100
breakout	100
##ε	100
hos	100
ነ	100
##ɨ	100
##ゆ	100
bare	100
billboard	100
♉	100
individual	100
##anga	100
1844	100
##ulative	100
##庭	100
abbot	100
objectives	100
denn	100
chocolate	100
##筍	100
冷	100
md	100
##niks	100
veronica	100
menu	100
identity	100
diane	100
##mat	100
フ	100
spite	100
arab	100
depos	100
poorly	100
cage	100
marketed	100
##ụ	100
clashed	100
elabor	100
vampire	100
##慧	100
##rate	100
parad	100
forwards	100
##fs	100
質	100
lemon	100
unreliable	100
virus	100
鮮	100
##寔	100
crippled	100
bamboo	100
##wr	100
##麾	100
##気	100
미	100
alabama	100
lowest	100
##栽	100
屯	100
recogn	100
ventilation	100
explosives	100
restaur	100
1927	100
sense	100
irr	100
winners	100
priory	100
byrds	100
relent	100
sworn	100
malley	100
discovering	100
ග	100
重	100
demonstrate	100
baja	100
recruited	100
ះ	100
ḣ	100
vess	100
##匹	100
##殺	100
dungeons	100
buttons	100
##琮	100
highlands	100
ּ	100
元	100
chasing	100
sein	100
ead	100
formal	100
phenomenon	100
competitions	100
##greg	100
liver	100
注	100
##烙	100
##蝉	100
deck	100
inn	100
蒿	100
mentions	100
牌	100
brandenburg	100
white	100
editor	100
##ō	100
木	100
##国	100
temperatures	100
engagement	100
about	100
prob	100
skept	100
heroes	100
##ǰ	100
gamec	100
##监	100
##ज	100
##問	100
##烦	100
cruising	100
hartford	100
##marks	100
commemor	100
瑞	100
##残	100
dismay	100
##戯	100
tate	100
richmond	100
everton	100
sage	100
feudal	100
wenger	100
##泗	100
spurred	100
dh	100
connecticut	100
reflecting	100
pauline	100
catching	100
archaeological	100
靼	100
##毬	100
blamed	100
criticisms	100
stard	100
defining	100
luxury	100
xer	100
內	100
revenue	100
##breaker	100
sophistic	100
##殻	100
##uesday	100
hebrides	100
හ	100
量	100
walls	100
##ija	100
synonym	100
cin	100
##鱼	100
##anted	100
##衛	100
〈	100
impact	100
theor	100
cact	100
反	100
siege	100
##alom	100
한	100
dur	100
1808	100
makers	100
apprentice	100
##rib	100
靖	100
##agers	100
##恒	100
##窟	100
hoy	100
诶	100
##壳	100
predator	100
morrison	100
转	100
04	100
harris	100
##將	100
##父	100
advocacy	100
##ｐ	100
testified	100
apprent	100
ʟ	100
en	100
##말	100
芬	100
aman	100
ʢ	100
jain	100
##న	100
constantly	100
sexually	100
them	100
shoulder	100
##ø	100
buff	100
hemisphere	100
leonardo	100
आ	100
##ള	100
气	100
failed	100
##セ	100
##撃	100
ἐ	100
other	100
nintendo	100
genuine	100
235	100
gland	100
ట	100
##rie	100
##mere	100
##策	100
##任	100
ô	100
##舟	100
endow	100
♄	100
synopsis	100
inflicted	100
##omin	100
勘	100
##ðr	100
デ	100
幡	100
tall	100
##oso	100
dress	100
magnific	100
##յ	100
##ಂ	100
1851	100
attributes	100
alarm	100
exploitation	100
##atoes	100
詩	100
##min	100
isolation	100
1856	100
胠	100
vac	100
merry	100
missou	100
ende	100
##歳	100
##cements	100
resurrection	100
rib	100
hybr	100
##bet	100
curr	100
##第	100
棲	100
##च	100
ski	100
regulation	100
commerc	100
冯	100
##古	100
himself	100
wand	100
##olith	100
加	100
166	100
##ast	100
##anda	100
maus	100
溪	100
tri	100
petty	100
##ல	100
##staff	100
根	100
##བ	100
ਸ	100
edinburgh	100
jews	100
ridges	100
cor	100
taft	100
##ｒ	100
force	100
邑	100
##ـ	100
jar	100
overwhelmed	100
′	100
膀	100
vari	100
籠	100
##ῠ	100
encourage	100
contempl	100
류	100
beer	100
girl	100
##座	100
剧	100
north	100
留	100
孙	100
sufficiently	100
152	100
wales	100
##検	100
mention	100
oppose	100
holmes	100
##ष	100
##ქ	100
mulder	100
trem	100
##λ	100
##ork	100
##most	100
disillusion	100
##nick	100
მ	100
ч	100
albums	100
emperor	100
suggestion	100
implications	100
macfarlane	100
ΐ	100
plaza	100
viewed	100
歩	100
##ivity	100
boilers	100
anything	100
静	100
decim	100
drummond	100
raja	100
##piece	100
hir	100
##heim	100
insuff	100
kubrick	100
崖	100
rev	100
##velt	100
date	100
inappropri	100
鍵	100
explicitly	100
##with	100
tram	100
hilar	100
jokes	100
heavy	100
云	100
##adow	100
森	100
##vis	100
thomson	100
intensify	100
reminiscent	100
顾	100
##答	100
table	100
##regular	100
stamp	100
mix	100
##ication	100
atroc	100
codes	100
画	100
礎	100
##ench	100
##題	100
##changed	100
##右	100
##ective	100
blocking	100
schwar	100
equival	100
##禮	100
鸡	100
蒼	100
조	100
recur	100
γ	100
which	100
##ream	100
products	100
hutch	100
ぞ	100
mathematics	100
剛	100
repres	100
화	100
##學	100
di	100
ᾓ	100
viv	100
confusion	100
cinematographer	100
##iciently	100
ecclesiast	100
developing	100
tran	100
##旺	100
imagine	100
mum	100
##雉	100
##spec	100
slopes	100
##alo	100
##寧	100
moderate	100
gathered	100
猪	100
tides	100
tomorrow	100
herm	100
##ble	100
midfielder	100
豬	100
airing	100
moul	100
##pine	100
examine	100
##拉	100
";	100
##oe	100
nc	100
⚳	100
campaigned	100
##租	100
度	100
rescues	100
泣	100
divorced	100
ौ	100
##abit	100
tower	100
hors	100
##ogr	100
itv	100
responded	100
dolphins	100
무	100
##โ	100
aside	100
##険	100
murder	100
reprise	100
dictator	100
##庇	100
edge	100
opponents	100
vit	100
##ala	100
hurricanes	100
segments	100
##kien	100
56	100
91	100
accomplish	100
baker	100
ornament	100
ぇ	100
berg	100
player	100
##bn	100
ᡥ	100
ీ	100
##籃	100
##ŗ	100
revolver	100
progressive	100
kicked	100
艺	100
##ifies	100
peaks	100
generated	100
ask	100
groove	100
entertainment	100
robots	100
ူ	100
rejects	100
##宙	100
##anus	100
sabb	100
superiority	100
##origin	100
##rical	100
桎	100
##hor	100
spore	100
demos	100
thompson	100
decomp	100
boot	100
issuing	100
onstage	100
ted	100
doors	100
continually	100
##ney	100
beatles	100
airfield	100
dig	100
penguin	100
genoc	100
##阳	100
draw	100
leicester	100
##eal	100
##esy	100
turtles	100
qing	100
explanations	100
ӯ	100
##汉	100
rapt	100
chapp	100
willow	100
kill	100
##緩	100
unnamed	100
##ne	100
strat	100
境	100
##igated	100
kerry	100
algorithm	100
##iew	100
tow	100
monetary	100
##jj	100
history	100
zhou	100
##缽	100
moving	100
hik	100
##斉	100
##uru	100
待	100
kensington	100
bombed	100
148	100
ᴷ	100
coron	100
qf	100
belts	100
berlin	100
##ination	100
spat	100
踊	100
##椅	100
hern	100
genu	100
concerning	100
##rane	100
景	100
ׁ	100
ổ	100
##icious	100
看	100
↪	100
葵	100
reproductive	100
belt	100
膺	100
subsidies	100
##約	100
pyr	100
ɺ	100
viewers	100
ranch	100
giant	100
drawn	100
what	100
jacksonville	100
veto	100
prescribed	100
##վ	100
cd	100
囁	100
trades	100
sold	100
theat	100
##樉	100
수	100
pushing	100
gamer	100
operative	100
##irl	100
manner	100
##劍	100
particip	100
milit	100
贤	100
judg	100
##uary	100
ூ	100
##ə	100
spray	100
snakes	100
შ	100
##pl	100
ĩ	100
shortest	100
中	100
metab	100
##鞠	100
wood	100
backgrounds	100
##olog	100
أ	100
##战	100
indigenous	100
colleges	100
양	100
pneum	100
​	100
course	100
finding	100
謙	100
reviewed	100
bum	100
##sta	100
brazilian	100
guid	100
##力	100
beyond	100
##哮	100
royalist	100
annih	100
connecting	100
##ashi	100
##兔	100
##体	100
##ء	100
waiting	100
dominican	100
aforementioned	100
##ළ	100
蝕	100
zool	100
such	100
ˇ	100
move	100
causes	100
banksia	100
nit	100
theodore	100
##otte	100
recognised	100
##鸿	100
##ène	100
##照	100
colloqu	100
##ke	100
gothic	100
whistle	100
##rush	100
yanke	100
fel	100
ones	100
##半	100
ernst	100
戯	100
22nd	100
##禎	100
##keep	100
响	100
calcium	100
智	100
##19	100
ｐ	100
permit	100
##憎	100
barracks	100
college	100
##拏	100
##wn	100
##ி	100
claus	100
postp	100
tense	100
##liner	100
##頌	100
##最	100
astronaut	100
##eroy	100
rowing	100
##莱	100
##选	100
spike	100
bs	100
painful	100
哉	100
pursuing	100
peers	100
brent	100
ஒ	100
ャ	100
盼	100
46	100
loch	100
及	100
syll	100
goals	100
护	100
gives	100
booth	100
endless	100
lau	100
1992	100
##zi	100
192	100
exh	100
產	100
##aled	100
campbell	100
shelby	100
wishing	100
##rops	100
ћ	100
##ദ	100
151	100
##ʒ	100
蓮	100
##龍	100
##ange	100
counties	100
eyed	100
##eno	100
丨	100
夢	100
竇	100
trouble	100
1882	100
치	100
逆	100
##uc	100
officer	100
##atar	100
##adium	100
##楠	100
##ired	100
characteristic	100
ʰ	100
may	100
ⁿ	100
anec	100
##न	100
##쇼	100
deals	100
##asp	100
drift	100
ⴳ	100
propulsion	100
wilm	100
griev	100
##果	100
##ក	100
투	100
##ovan	100
##à	100
##ֻ	100
severely	100
playable	100
aground	100
flattened	100
its	100
##籠	100
ថ	100
lj	100
策	100
##gend	100
progr	100
progression	100
》	100
special	100
##二	100
##ice	100
院	100
##ipped	100
##via	100
##ζ	100
##ⲧ	100
town	100
冠	100
##led	100
straits	100
##one	100
##醫	100
390	100
ⲱ	100
##frey	100
management	100
yam	100
relaxed	100
vor	100
##颖	100
##thouse	100
britann	100
@-@	100
##န	100
##50	100
##ctions	100
punishment	100
sebastian	100
###	100
ridiculous	100
##문	100
廟	100
rejo	100
kurt	100
chicken	100
fins	100
compliment	100
november	100
different	100
articles	100
hitch	100
镗	100
cane	100
##stage	100
##ik	100
approaching	100
べ	100
shapes	100
市	100
?	100
ಿ	100
##备	100
born	100
francis	100
1859	100
dew	100
satellite	100
l	100
80s	100
##ស	100
ј	100
億	100
abra	100
析	100
apology	100
tab	100
##inese	100
##ocar	100
##ሕ	100
##舎	100
##വ	100
##ﮮ	100
ť	100
##ruct	100
ful	100
host	100
##ruption	100
კ	100
deliver	100
##র	100
##rets	100
true	100
##ֿ	100
seeing	100
##cha	100
intersecting	100
resemb	100
沼	100
##荻	100
ⴌ	100
##昏	100
buoy	100
##ǽ	100
transportation	100
scan	100
##腐	100
##vine	100
exhausted	100
cargo	100
founder	100
delegates	100
##ν	100
父	100
appreciated	100
tasks	100
县	100
1861	100
germanic	100
skin	100
ἅ	100
ǵ	100
differing	100
bowling	100
zu	100
د	100
academy	100
##anthrop	100
riders	100
threatens	100
proportions	100
bend	100
180	100
weapons	100
transmit	100
##ius	100
legendary	100
##rard	100
tink	100
job	100
站	100
emerged	100
瑠	100
##觀	100
骨	100
appropriate	100
ķ	100
宏	100
##宣	100
weaknesses	100
か	100
##秘	100
tatt	100
##ige	100
incorporate	100
discs	100
harmful	100
##oslav	100
##ong	100
joins	100
স	100
ǔ	100
다	100
interrupt	100
interactions	100
##aston	100
intent	100
secure	100
lis	100
물	100
cobb	100
besides	100
❅	100
industrial	100
bengal	100
fixed	100
shoot	100
investigate	100
##铎	100
peru	100
haun	100
ڠ	100
强	100
孩	100
중	100
##ly	100
genre	100
pec	100
##ett	100
craw	100
##inter	100
ី	100
##瓊	100
##shaw	100
environ	100
mahler	100
⅓	100
哈	100
cem	100
##権	100
preceding	100
ellip	100
lumber	100
nect	100
chicago	100
gay	100
ʠ	100
##인	100
drained	100
vick	100
ʎ	100
controls	100
kimber	100
##gress	100
##essive	100
conclus	100
associations	100
consensus	100
rivalry	100
位	100
α	100
ג	100
특	100
404	100
republ	100
nostalg	100
67	100
1835	100
hol	100
activity	100
##ằ	100
##ppers	100
parkway	100
沂	100
mother	100
渠	100
zone	100
##aval	100
embark	100
evolution	100
enabled	100
怖	100
takes	100
goat	100
mushrooms	100
##uala	100
enthusi	100
arise	100
##ention	100
184	100
polygon	100
##朱	100
depended	100
rare	100
ម	100
##閣	100
##ultural	100
assets	100
upanish	100
gong	100
unfortun	100
橿	100
portfol	100
##廊	100
##enant	100
mush	100
##set	100
conrad	100
resolutions	100
zo	100
mv	100
bbc	100
hulk	100
gh	100
ы	100
##鳩	100
conferences	100
depend	100
little	100
##ug	100
kg	100
hiding	100
atlanta	100
laid	100
gale	100
steamed	100
##ṝ	100
ɟ	100
institute	100
##粟	100
多	100
vc	100
華	100
hurt	100
ང	100
conscious	100
##購	100
ソ	100
跟	100
ꜩ	100
##ent	100
##mec	100
們	100
assist	100
##boy	100
watts	100
##襲	100
##刊	100
detained	100
216	100
depiction	100
ⅱ	100
reduce	100
initiated	100
entrepreneur	100
permitted	100
progress	100
mcgill	100
##拍	100
cards	100
premature	100
外	100
spl	100
retreating	100
sandra	100
##ard	100
##倭	100
footh	100
number	100
errors	100
##do	100
##妮	100
retro	100
cyber	100
營	100
##eaux	100
seizures	100
眞	100
##40	100
melodic	100
crowded	100
fourteen	100
parrot	100
體	100
metallic	100
sits	100
bcs	100
lengths	100
enth	100
arose	100
##še	100
##idus	100
snake	100
coincided	100
gunn	100
、	100
德	100
carefully	100
32nd	100
700	100
choral	100
cunningham	100
increases	100
organism	100
##gon	100
patrols	100
sister	100
ridd	100
collaborator	100
compilation	100
##illion	100
##worm	100
##holm	100
1900	100
reorgan	100
##ieu	100
geor	100
sus	100
dale	100
considered	100
advice	100
る	100
catch	100
##池	100
teacher	100
byzantium	100
assum	100
##ab	100
門	100
an	100
manor	100
##足	100
vincent	100
帖	100
coen	100
poisoning	100
roman	100
hands	100
uematsu	100
duty	100
applicable	100
动	100
cherry	100
bure	100
ṙ	100
##執	100
##ologies	100
monaster	100
archb	100
##明	100
##essions	100
##罗	100
##ਝ	100
karen	100
ὖ	100
genera	100
##oes	100
rode	100
bets	100
forestry	100
##宜	100
miners	100
ducks	100
zen	100
##tains	100
portland	100
power	100
mirrors	100
olivier	100
rox	100
culture	100
舟	100
lgbt	100
aaron	100
##yright	100
intersection	100
##tel	100
southbound	100
##oor	100
sen	100
reminded	100
深	100
narrator	100
歌	100
dahl	100
arj	100
mechanics	100
##usion	100
trim	100
##魂	100
relocation	100
manoe	100
狸	100
reopened	100
activision	100
circumstances	100
examinations	100
##les	100
phenomena	100
structured	100
meg	100
##ritic	100
skiers	100
##vision	100
##uf	100
##脚	100
轩	100
anybody	100
spread	100
tv	100
sociology	100
adjoining	100
##絡	100
##遊	100
##樓	100
persuade	100
##will	100
names	100
pilots	100
eat	100
##ܼ	100
##嬢	100
jup	100
1821	100
@.	100
##zyn	100
1978	100
dockyard	100
monica	100
##ྡ	100
##ato	100
prostitution	100
designed	100
bound	100
detached	100
##ほ	100
nina	100
instit	100
ensure	100
abdul	100
hardware	100
##ח	100
gods	100
zan	100
monte	100
mend	100
柏	100
arsen	100
liked	100
frances	100
##outs	100
报	100
##鑒	100
governors	100
texture	100
calais	100
chen	100
蛙	100
mongols	100
husband	100
次	100
##桥	100
á	100
₤	100
gren	100
dix	100
argu	100
##砲	100
1982	100
##ү	100
cloud	100
incred	100
serb	100
省	100
temp	100
label	100
riff	100
婆	100
freight	100
hampton	100
##stone	100
ጵ	100
##inc	100
honest	100
pos	100
hutchinson	100
shell	100
##án	100
##ũ	100
##atural	100
##iii	100
試	100
##킨	100
scary	100
river	100
stub	100
misc	100
၇	100
ὁ	100
##acity	100
##feld	100
châ	100
##rier	100
ղ	100
##aters	100
commissioners	100
merced	100
##淑	100
versailles	100
obv	100
##론	100
suppl	100
##eta	100
##eu	100
##质	100
##out	100
rud	100
stained	100
map	100
undergone	100
##ಕ	100
warfare	100
##慶	100
carrying	100
complaint	100
reach	100
furthermore	100
signatures	100
##employ	100
##tter	100
##虎	100
vrs	100
##nik	100
metropolitan	100
lovers	100
puzzle	100
outbreak	100
##urred	100
boundaries	100
ょ	100
who	100
##ecutive	100
begin	100
cabinet	100
tool	100
evangel	100
ᠵ	100
racco	100
夜	100
##uel	100
bod	100
favorite	100
denied	100
cruiser	100
ir	100
apost	100
offensive	100
##tz	100
thrash	100
##ener	100
employing	100
##=	100
##ifa	100
müller	100
##read	100
２	100
##卦	100
##iff	100
limiting	100
propos	100
alonso	100
regimental	100
feet	100
temper	100
twins	100
淡	100
散	100
韦	100
##隊	100
varying	100
earp	100
clos	100
boost	100
locals	100
icon	100
laure	100
balkan	100
##ame	100
funny	100
observer	100
throat	100
koh	100
計	100
ign	100
swiss	100
molec	100
unex	100
singles	100
component	100
planting	100
organ	100
澤	100
##ismatic	100
ṃ	100
##怖	100
grounds	100
flood	100
pairs	100
##isbury	100
testimony	100
egyptians	100
斉	100
comic	100
archives	100
naruto	100
glasgow	100
持	100
unseen	100
의	100
symphonic	100
∇	100
hot	100
differed	100
embr	100
##erd	100
yucatán	100
##lin	100
泾	100
motors	100
playstation	100
zimbabwe	100
##én	100
##罪	100
dancing	100
elegant	100
##荪	100
avi	100
ships	100
##衝	100
##ners	100
mgm	100
costly	100
titan	100
subsc	100
葉	100
##up	100
dru	100
supplement	100
##ern	100
maurice	100
colours	100
ӷ	100
miller	100
##芦	100
abandonment	100
utc	100
hok	100
##ῦ	100
打	100
abe	100
グ	100
##ḏ	100
ख	100
##ẽ	100
##iliar	100
chesapeake	100
skate	100
injury	100
##heimer	100
advoc	100
##reek	100
whereby	100
##iors	100
璉	100
伯	100
beverly	100
##oses	100
##ٔ	100
##aka	100
##域	100
##inch	100
realigned	100
turf	100
could	100
##杖	100
##დ	100
##ྣ	100
↦	100
##상	100
courage	100
russo	100
millimeter	100
reasonable	100
truce	100
turks	100
奇	100
wizard	100
coordinate	100
gates	100
memphis	100
informing	100
1920s	100
conson	100
530	100
##fare	100
well	100
adjo	100
necessary	100
在	100
##inn	100
fundra	100
assassinated	100
借	100
realized	100
constellation	100
diocese	100
prophecy	100
meaningful	100
ay	100
powder	100
(	100
##日	100
slot	100
hepburn	100
##rator	100
hbo	100
eliot	100
उ	100
walt	100
##付	100
landed	100
##ψ	100
franklin	100
##鐘	100
略	100
forecasts	100
diabet	100
1843	100
love	100
hotspur	100
cp	100
laser	100
sticky	100
禦	100
耳	100
playwright	100
quarterly	100
disturbance	100
assistance	100
wires	100
##亡	100
wrong	100
bird	100
烏	100
unlock	100
द	100
##辯	100
regina	100
##ties	100
grace	100
loses	100
medicine	100
glaston	100
debuted	100
sources	100
revolutionary	100
newspapers	100
榆	100
ignor	100
disg	100
橚	100
convention	100
vernon	100
2012	100
讀	100
without	100
corp	100
鉦	100
##velop	100
walter	100
dent	100
nk	100
smackdown	100
bang	100
##ឹ	100
dod	100
zagre	100
translation	100
worth	100
##화	100
##americ	100
魚	100
killed	100
surrounding	100
acclaimed	100
truss	100
relinqu	100
130	100
taiwan	100
mcdonald	100
祿	100
##iary	100
lay	100
distract	100
cadet	100
exiled	100
absent	100
상	100
##篇	100
襟	100
那	100
##rs	100
##午	100
caus	100
pla	100
piano	100
##蓝	100
popularly	100
dynasty	100
##五	100
##esc	100
stone	100
et	100
advocating	100
rely	100
##leman	100
##eting	100
##雕	100
broke	100
##蒲	100
barbados	100
switch	100
egyptian	100
unl	100
hokies	100
reason	100
proved	100
對	100
##wen	100
urs	100
latin	100
contributions	100
髀	100
##嘉	100
canals	100
eu	100
philharmonic	100
beaches	100
そ	100
׳	100
effect	100
theorem	100
landscapes	100
thurs	100
nicol	100
僧	100
bear	100
sleep	100
##ಾ	100
##occup	100
mbar	100
##birds	100
accompanying	100
##ਘ	100
##ells	100
collaborations	100
plaint	100
ὕ	100
ュ	100
ǚ	100
file	100
stro	100
##road	100
̱	100
jon	100
gate	100
節	100
##ín	100
calendar	100
##elles	100
1837	100
##onic	100
defl	100
##worthy	100
croft	100
finalized	100
##urgical	100
gathering	100
lg	100
##unct	100
##ΐ	100
##uk	100
whilst	100
##igious	100
ŧ	100
cobra	100
ե	100
觳	100
##勃	100
质	100
would	100
snow	100
remake	100
service	100
##aint	100
##ta	100
sty	100
workers	100
neville	100
toul	100
·	100
##려	100
seventh	100
##essing	100
distances	100
concealed	100
additional	100
##桜	100
@,	100
capabilities	100
##リ	100
became	100
##식	100
br	100
sovereignty	100
frederic	100
##𒀳	100
prove	100
鐘	100
henderson	100
me	100
huron	100
psychiatric	100
怪	100
prestigious	100
selena	100
morm	100
咲	100
bhar	100
serp	100
invented	100
darker	100
aggreg	100
賊	100
cater	100
##ahan	100
visitor	100
nun	100
registration	100
goose	100
proteins	100
##agon	100
##ora	100
intelligent	100
decoration	100
##瓢	100
expose	100
##arty	100
##ᚨ	100
拘	100
not	100
vital	100
proportion	100
##idan	100
##扇	100
specified	100
premium	100
##ូ	100
fortress	100
##행	100
intake	100
nou	100
##ennes	100
##pping	100
##izz	100
歴	100
leigh	100
##ineas	100
reconcil	100
bism	100
particles	100
torres	100
崔	100
160	100
।	100
##lec	100
##olas	100
possessed	100
woodstock	100
##ċ	100
mas	100
##ribed	100
capture	100
##ente	100
##ibal	100
gunfire	100
thereafter	100
̣	100
终	100
##cock	100
himm	100
ὠ	100
fuse	100
##音	100
##愛	100
sacrament	100
hist	100
ク	100
enhance	100
faster	100
合	100
falk	100
exploring	100
america	100
combat	100
##豪	100
maxim	100
director	100
roose	100
penguins	100
##iken	100
憑	100
atlas	100
##clair	100
type	100
cree	100
lamb	100
progresses	100
litigation	100
禺	100
##kie	100
broadcaster	100
ჭ	100
##ლ	100
##药	100
charlotte	100
belle	100
witnessed	100
##鋒	100
iran	100
rö	100
pig	100
##後	100
private	100
¶	100
sunderland	100
rendez	100
twel	100
2009	100
veter	100
internet	100
##icing	100
suzuki	100
dec	100
敬	100
fut	100
vi	100
plent	100
[	100
ջ	100
ম	100
molecule	100
favourable	100
##let	100
ゑ	100
72	100
offense	100
disabled	100
##ugu	100
inherit	100
backstory	100
reveal	100
separ	100
蘅	100
##artney	100
outnumbered	100
བ	100
१	100
sik	100
暦	100
証	100
desires	100
northward	100
laura	100
桐	100
ষ	100
##커	100
diss	100
fashion	100
##woman	100
1890	100
county	100
##p	100
principal	100
ჰ	100
blew	100
tribal	100
celest	100
##エ	100
##ali	100
##eness	100
##羊	100
list	100
核	100
職	100
始	100
seab	100
labeled	100
노	100
normal	100
develop	100
rabbi	100
sie	100
##ゼ	100
##ヘ	100
##itage	100
##season	100
pokémon	100
mechanisms	100
lawn	100
nest	100
##agh	100
##eral	100
##enza	100
##ḩ	100
meth	100
sett	100
tributary	100
journalists	100
サ	100
matric	100
##块	100
spectacular	100
techniques	100
##坤	100
侨	100
살	100
ಚ	100
information	100
relationships	100
##앙	100
require	100
absolutely	100
##uchi	100
##ati	100
滑	100
recall	100
韶	100
ceo	100
dispers	100
黛	100
sensation	100
distinction	100
ď	100
̥	100
甫	100
niss	100
milton	100
playboy	100
ã	100
scand	100
##powder	100
substance	100
֤	100
##電	100
generator	100
spearhead	100
act	100
##mn	100
bands	100
敵	100
phillips	100
##emy	100
lub	100
perceived	100
grossing	100
弥	100
##ો	100
synch	100
##چ	100
examination	100
madonna	100
aftern	100
usd	100
datab	100
##alm	100
##夢	100
replen	100
embedd	100
『	100
##ⵣ	100
rehearsals	100
greenland	100
rhetoric	100
princess	100
緋	100
migrated	100
##簿	100
薛	100
inaug	100
sect	100
provision	100
lotus	100
##wise	100
scotland	100
矢	100
runners	100
階	100
around	100
administrator	100
conn	100
precedent	100
penultimate	100
pra	100
##格	100
bid	100
桥	100
uniqu	100
浜	100
£	100
##tis	100
fig	100
til	100
猿	100
蔭	100
##isse	100
towards	100
##ftime	100
heading	100
у	100
最	100
##타	100
##ȳ	100
ja	100
permits	100
purana	100
extreme	100
counterattack	100
distributor	100
##ipping	100
ɠ	100
universally	100
##urbed	100
##河	100
##bit	100
petroleum	100
##傅	100
tibet	100
##ale	100
korea	100
literal	100
megan	100
nucleus	100
上	100
lifestyle	100
##µ	100
grants	100
dubai	100
vocalist	100
notable	100
##oki	100
sanchez	100
険	100
п	100
ر	100
opin	100
storey	100
provisional	100
##미	100
2000s	100
bark	100
驰	100
##attering	100
突	100
warsaw	100
slower	100
##orial	100
suggestions	100
eva	100
贵	100
orbit	100
golden	100
neighborhood	100
jesuit	100
friendly	100
##暖	100
tortured	100
offerings	100
envelop	100
##փ	100
moe	100
池	100
beside	100
songwriters	100
sava	100
duff	100
coleman	100
layout	100
##ę	100
##传	100
meals	100
lost	100
ⵢ	100
deployment	100
##幻	100
钢	100
lav	100
adriatic	100
##𐭉	100
##జ	100
##estyle	100
##ᡠ	100
bradley	100
ｘ	100
##是	100
拐	100
##ift	100
##bs	100
roles	100
topping	100
enacted	100
searches	100
买	100
##end	100
mand	100
莞	100
advis	100
calgary	100
##卖	100
confer	100
defence	100
##nd	100
##ා	100
interface	100
##放	100
frontal	100
##球	100
棟	100
luke	100
肥	100
barbar	100
##uese	100
panels	100
influences	100
eaton	100
ostensibly	100
##of	100
##arch	100
##回	100
godd	100
##ević	100
jod	100
welf	100
##adin	100
##arre	100
##fold	100
embedded	100
運	100
##ering	100
##acement	100
regiments	100
expelled	100
ș	100
µm	100
bung	100
##总	100
##ients	100
b	100
nominations	100
##ょ	100
fernando	100
license	100
conventions	100
months	100
ב	100
##聞	100
ion	100
represents	100
##ilon	100
influence	100
evil	100
##ight	100
##iness	100
usually	100
lasting	100
parv	100
伏	100
閣	100
terry	100
marie	100
↑	100
patrons	100
ヒ	100
藍	100
##鼎	100
finds	100
somewhere	100
prad	100
gangster	100
accurately	100
minnes	100
##鐵	100
rig	100
虔	100
irish	100
clean	100
##occupied	100
##f	100
##le	100
undertaken	100
##盼	100
##aby	100
ᚦ	100
##m	100
punish	100
playoff	100
robot	100
##比	100
ĺ	100
inade	100
soul	100
charts	100
가	100
ჹ	100
letter	100
colony	100
statues	100
##芸	100
apparatus	100
克	100
廬	100
ハ	100
ٍ	100
foundation	100
賞	100
geoffrey	100
##狗	100
krak	100
twitter	100
subplot	100
tournament	100
##lob	100
ਖ	100
##ⵜ	100
ṣ	100
on	100
##尾	100
tib	100
pleasure	100
altogether	100
##த	100
adher	100
prejudice	100
practitioners	100
protection	100
hipp	100
##lo	100
##軽	100
withdrawn	100
##ussion	100
gi	100
##quest	100
grate	100
concerned	100
##滋	100
##itar	100
renewal	100
ley	100
bombing	100
##ripp	100
អ	100
aging	100
pa	100
nero	100
missed	100
##花	100
fitted	100
200	100
hair	100
##ma	100
##osaur	100
republic	100
reigning	100
##lessness	100
ખ	100
embraced	100
##耳	100
ː	100
celt	100
rendezvous	100
##ör	100
卒	100
assassin	100
##3	100
##ometry	100
slaves	100
subtropical	100
sear	100
citizenship	100
อ	100
͜	100
shipyard	100
incorporation	100
availability	100
centuries	100
ƣ	100
leslie	100
performer	100
sun	100
##区	100
sullivan	100
washed	100
##gean	100
meadow	100
constitutional	100
plastic	100
jul	100
illuminated	100
鉴	100
mr	100
reserve	100
導	100
##lyn	100
atoll	100
級	100
##へ	100
celebrating	100
writers	100
pike	100
##gan	100
##qu	100
claws	100
ern	100
task	100
##ാ	100
toledo	100
enzy	100
weights	100
bent	100
surprised	100
##ifax	100
飛	100
##chev	100
counterp	100
ironcl	100
开	100
helps	100
##车	100
capcom	100
##iliation	100
augusta	100
##ᾳ	100
##ធ	100
##隠	100
##lud	100
inher	100
react	100
marrying	100
##ap	100
##í	100
unions	100
wine	100
丝	100
ซ	100
藥	100
##屬	100
＜	100
aspect	100
##社	100
##堅	100
guinness	100
妍	100
##acher	100
壽	100
garrett	100
##၈	100
##otype	100
commissions	100
##ührer	100
mongol	100
practition	100
##ark	100
朵	100
shorter	100
banner	100
you	100
gustav	100
salem	100
tara	100
##画	100
##尚	100
##ば	100
determination	100
##们	100
ѣ	100
piet	100
☆	100
sioux	100
ὐ	100
黒	100
285	100
sanctuary	100
##onduct	100
delight	100
ace	100
璽	100
approach	100
##rin	100
##aded	100
chanc	100
̟	100
mixture	100
##ᵻ	100
accepts	100
##itas	100
π	100
possibly	100
variations	100
quantities	100
asked	100
ಗ	100
spells	100
kart	100
exits	100
ⵡ	100
rao	100
ֱ	100
thief	100
purple	100
hoffman	100
##ential	100
trump	100
sanction	100
fre	100
菊	100
cerv	100
ló	100
wed	100
ল	100
historia	100
焼	100
twe	100
documents	100
stip	100
##零	100
##opsy	100
˦	100
##ဇ	100
遥	100
み	100
ꦠ	100
front	100
kuala	100
ship	100
propeller	100
cauc	100
rows	100
and	100
##憑	100
crocod	100
su	100
fish	100
キ	100
longitud	100
divide	100
organisms	100
las	100
conversion	100
##感	100
complimented	100
ဲ	100
cardinals	100
##`	100
fossils	100
listened	100
chun	100
##illusion	100
invading	100
tai	100
radar	100
condemned	100
ე	100
tire	100
amus	100
filmfare	100
##ʹ	100
pneumonia	100
##umin	100
##ization	100
颪	100
##울	100
alignment	100
insisted	100
ǰ	100
‖	100
გ	100
##े	100
##ertain	100
##ዕ	100
seating	100
bede	100
stamps	100
favorites	100
animations	100
subtle	100
ble	100
realistic	100
115	100
her	100
guin	100
mansion	100
recession	100
pigeon	100
twist	100
##ycl	100
ef	100
explained	100
##foot	100
epstein	100
##amb	100
champ	100
##oted	100
approxim	100
ロ	100
##抜	100
ᚺ	100
curves	100
##aret	100
##eons	100
wond	100
guides	100
ങ	100
斎	100
upon	100
##ries	100
nails	100
economically	100
##erne	100
र	100
enabling	100
jay	100
##ishes	100
sib	100
ethical	100
##ĺ	100
join	100
##urn	100
hew	100
wickets	100
provided	100
pitts	100
##菉	100
upr	100
curve	100
andr	100
shore	100
ִ	100
jour	100
amman	100
♭	100
##nings	100
initial	100
##pend	100
##hrer	100
학	100
russia	100
##rators	100
rockef	100
pu	100
吟	100
sites	100
know	100
##ched	100
covers	100
##caster	100
rosberg	100
mal	100
##irm	100
guidance	100
凹	100
딱	100
##净	100
##颜	100
patrol	100
⅞	100
##itis	100
##ъ	100
knights	100
stanton	100
首	100
compartments	100
failing	100
recently	100
kor	100
齊	100
remix	100
songs	100
zagreb	100
cambodia	100
孝	100
馮	100
douglas	100
swamp	100
shap	100
bye	100
fif	100
sugar	100
##加	100
jennings	100
漏	100
##ڬ	100
##iant	100
##leutnant	100
ఠ	100
laughing	100
ピ	100
distributed	100
吧	100
considers	100
ಂ	100
##ked	100
ḭ	100
##戈	100
brew	100
fragile	100
parallel	100
##isions	100
always	100
eccles	100
##ষ	100
oppos	100
store	100
joker	100
bestowed	100
维	100
赤	100
##派	100
repr	100
investigating	100
booker	100
dangers	100
hoping	100
consists	100
##ose	100
식	100
jeff	100
##ꦸ	100
nielsen	100
focal	100
##ham	100
凯	100
rumours	100
ⴕ	100
##ql_	100
ae	100
##示	100
ந	100
ceram	100
earnings	100
瑾	100
accompaniment	100
य	100
##ensive	100
novel	100
##采	100
wrecked	100
closes	100
arrow	100
灵	100
torpedoed	100
died	100
proclaim	100
##홀	100
##uries	100
##esh	100
hunt	100
pond	100
explosions	100
margins	100
mahar	100
##ueger	100
lisbon	100
养	100
##症	100
##arius	100
armist	100
burst	100
crossover	100
ｇ	100
##运	100
hood	100
draws	100
য	100
##opus	100
強	100
##瀬	100
##礎	100
##vel	100
genocide	100
增	100
##沼	100
##工	100
##adi	100
screaming	100
##horst	100
##bu	100
springs	100
决	100
##inity	100
rhe	100
cam	100
flo	100
wounded	100
vr	100
pillar	100
##只	100
##ܠ	100
##ォ	100
sina	100
duncan	100
mot	100
##eing	100
##ถ	100
assent	100
diaries	100
cathed	100
##ju	100
dove	100
政	100
刻	100
≫	100
郊	100
tone	100
##功	100
mediocre	100
leave	100
吳	100
时	100
##라	100
പ	100
ؤ	100
##ڠ	100
憲	100
so	100
invertebrates	100
##imate	100
荷	100
##凯	100
aber	100
##亞	100
旗	100
##isons	100
pret	100
순	100
ws	100
##삿	100
minne	100
秋	100
commentator	100
ris	100
ద	100
##融	100
pyramid	100
玖	100
note	100
parent	100
ल	100
##巻	100
##典	100
lacks	100
##開	100
援	100
slant	100
inception	100
θ	100
humans	100
modeled	100
annual	100
syracuse	100
reyes	100
ẻ	100
##ศ	100
##ashed	100
dying	100
dex	100
##pt	100
##濞	100
对	100
agriculture	100
evergl	100
called	100
boys	100
ruby	100
croatia	100
brend	100
desirable	100
敷	100
##姑	100
seen	100
orders	100
porn	100
##ute	100
explores	100
biblical	100
##ropical	100
##ision	100
kenn	100
erosion	100
##九	100
quar	100
uncomfortable	100
##onium	100
spectral	100
reciproc	100
men	100
requiem	100
cretaceous	100
##illand	100
れ	100
reunited	100
##探	100
305	100
ስ	100
詞	100
##榔	100
##阪	100
訳	100
##stan	100
speculation	100
î	100
##rew	100
##aring	100
朧	100
##駒	100
german	100
##sc	100
念	100
hospital	100
1944	100
interior	100
slavery	100
leopard	100
printed	100
##ml	100
vis	100
invite	100
33	100
specialised	100
##urch	100
щ	100
sound	100
evac	100
##敦	100
therefore	100
behavi	100
plates	100
厄	100
##ulk	100
investments	100
##ovo	100
##諭	100
remember	100
臺	100
ἳ	100
鹅	100
##hy	100
intersects	100
穢	100
michele	100
旋	100
袖	100
comet	100
铁	100
##notes	100
##cip	100
##麼	100
survives	100
marvin	100
ƙ	100
##壽	100
##糸	100
##塔	100
##ere	100
##ѣ	100
雛	100
##gether	100
presumably	100
crusade	100
patrick	100
valued	100
給	100
wain	100
##isa	100
helicopters	100
##賀	100
regulars	100
gotten	100
##ami	100
##zac	100
rational	100
##umbering	100
177	100
overcome	100
scher	100
does	100
constantine	100
thrust	100
dallas	100
瘡	100
##keeping	100
subjected	100
merc	100
psych	100
transf	100
butt	100
albion	100
##徽	100
破	100
meridian	100
abstract	100
plays	100
barack	100
chicks	100
lyd	100
nor	100
##孟	100
rest	100
astronomy	100
貝	100
aw	100
lengthy	100
##ure	100
relegated	100
tam	100
广	100
##breaking	100
beech	100
##cul	100
hellen	100
harness	100
团	100
間	100
悲	100
worm	100
base	100
##alg	100
fake	100
visit	100
##莎	100
ক	100
speeches	100
biggest	100
nicar	100
france	100
1776	100
official	100
complexes	100
direct	100
##hed	100
##hm	100
psychology	100
families	100
##ough	100
incompet	100
六	100
shift	100
virt	100
##redited	100
likes	100
ᚹ	100
rall	100
compulsory	100
hobbs	100
passive	100
dramas	100
withdraw	100
##farlane	100
hels	100
demanded	100
త	100
##athers	100
coaching	100
undertook	100
##網	100
拉	100
##~	100
seaw	100
disappro	100
ᚣ	100
paterson	100
蒭	100
##ican	100
synthesizer	100
ភ	100
簡	100
birds	100
summary	100
alison	100
burg	100
transact	100
culver	100
豊	100
linguistic	100
	100
surf	100
trees	100
eligibility	100
diplomat	100
##甲	100
antio	100
commission	100
learning	100
researched	100
contact	100
္	100
urging	100
from	100
ね	100
罪	100
##lane	100
##lex	100
kaf	100
dap	100
commonwe	100
genetically	100
result	100
##ος	100
resent	100
surrey	100
##rest	100
保	100
fbi	100
recapt	100
courier	100
companions	100
權	100
comprises	100
directions	100
ig	100
obey	100
絆	100
preserv	100
agreeing	100
##cil	100
##鼓	100
jose	100
burr	100
gamers	100
##took	100
##tical	100
germ	100
목	100
dismissal	100
暮	100
##奇	100
cres	100
##會	100
meantime	100
privacy	100
##岸	100
quality	100
笑	100
style	100
runway	100
##ayne	100
rhythmic	100
carnival	100
inacc	100
##マ	100
##勅	100
pam	100
硝	100
seas	100
lies	100
檜	100
dispatch	100
hansen	100
spotted	100
pub	100
tops	100
##urst	100
wanna	100
shepard	100
##eign	100
ع	100
夕	100
sanskrit	100
somebody	100
ferrari	100
had	100
##无	100
color	100
mutation	100
傭	100
ɱ	100
弘	100
兜	100
labels	100
##aw	100
raid	100
nfl	100
巻	100
1896	100
minorities	100
##eri	100
americans	100
堀	100
ḏ	100
⊂	100
##kr	100
decomm	100
ਵ	100
##ẩ	100
##raged	100
##ặ	100
gut	100
theoph	100
asylum	100
melodies	100
nuclear	100
##图	100
nets	100
shah	100
;	100
##ⲛ	100
molecules	100
introduces	100
tactic	100
movies	100
皿	100
ix	100
休	100
feder	100
„	100
promo	100
underway	100
slogan	100
##est	100
##養	100
deeper	100
##j	100
perth	100
∗	100
formula	100
mamm	100
amsterdam	100
proposal	100
thornton	100
verde	100
##愚	100
width	100
sinc	100
叛	100
revital	100
盈	100
1781	100
pet	100
facilitated	100
breast	100
reworked	100
其	100
##00	100
granted	100
disappearance	100
fury	100
gabri	100
conducting	100
succumb	100
hybrid	100
advisers	100
supern	100
burden	100
gust	100
destined	100
sitcom	100
helic	100
##unning	100
kov	100
##beat	100
uniform	100
seconds	100
hand	100
勞	100
prote	100
jazz	100
##bec	100
borne	100
菇	100
##ւ	100
̄	100
carp	100
joe	100
dis	100
##層	100
torchwood	100
##amoto	100
##hou	100
single	100
划	100
correl	100
popmatters	100
裂	100
虐	100
##wood	100
mangalore	100
##res	100
##립	100
##ᠠ	100
tornado	100
limitations	100
193	100
##ภ	100
##迪	100
interrupted	100
##een	100
##ħ	100
chaotic	100
槤	100
olig	100
级	100
gene	100
funn	100
鞠	100
astrol	100
convective	100
frost	100
播	100
och	100
##ェ	100
##ith	100
dispro	100
rodrig	100
##assing	100
associated	100
bryan	100
linked	100
ard	100
##ette	100
ὴ	100
versa	100
##及	100
capability	100
smithson	100
september	100
##地	100
proclamation	100
uniforms	100
皮	100
archipel	100
##水	100
1990	100
belly	100
michigan	100
fur	100
##lings	100
ए	100
que	100
railroad	100
batman	100
藤	100
infection	100
ｉ	100
healthy	100
freak	100
lw	100
re	100
itself	100
enjoys	100
泰	100
##reg	100
alive	100
血	100
匠	100
krist	100
hoped	100
vulcan	100
reinst	100
function	100
##med	100
亡	100
##ill	100
signs	100
warriors	100
##ram	100
mé	100
##ters	100
##upp	100
न	100
sponsorship	100
洛	100
ek	100
anonymous	100
##atas	100
departing	100
misch	100
##后	100
suggest	100
1923	100
##pop	100
井	100
manpower	100
##uct	100
##ect	100
aph	100
activ	100
##어	100
compositions	100
談	100
nam	100
bash	100
##山	100
reappear	100
serve	100
trailers	100
necessitated	100
##itz	100
constructing	100
##録	100
##ἷ	100
sponsor	100
##ba	100
exp	100
##ecut	100
vein	100
prelude	100
##irth	100
drummer	100
##ability	100
niger	100
195	100
cors	100
reform	100
blocked	100
##憲	100
肚	100
ᚻ	100
religious	100
侬	100
lonely	100
##iveness	100
coaster	100
σ	100
visitors	100
monitor	100
##olithic	100
♥	100
buc	100
ricky	100
tons	100
vehicles	100
余	100
ties	100
##ṉ	100
bachelor	100
##ear	100
ġ	100
settled	100
fed	100
images	100
ancest	100
action	100
sentiments	100
thickness	100
##ɳ	100
碗	100
ambassador	100
褒	100
坑	100
ꜜ	100
absurd	100
reinforced	100
贼	100
##omes	100
ယ	100
kar	100
stra	100
estimated	100
##記	100
##ado	100
jg	100
axe	100
ខ	100
kenneth	100
##fork	100
##ῳ	100
##ignant	100
successes	100
moses	100
battal	100
##oust	100
##der	100
muse	100
kane	100
feather	100
暂	100
##istic	100
armenia	100
##nan	100
區	100
soprano	100
##棲	100
wo	100
portrayal	100
本	100
惟	100
##ules	100
lionel	100
plann	100
picked	100
##pan	100
##etics	100
roberts	100
imposed	100
˧	100
undefeated	100
讐	100
contributed	100
painting	100
perf	100
jennifer	100
policy	100
braves	100
##atory	100
pacific	100
strained	100
209	100
unknown	100
panel	100
防	100
gateway	100
悠	100
constituted	100
rum	100
##ᡨ	100
destroys	100
downgraded	100
##ち	100
unf	100
範	100
followers	100
tails	100
##槻	100
looking	100
expansion	100
##ἱ	100
raph	100
##ng	100
noise	100
##한	100
cand	100
attended	100
##stown	100
accompl	100
panzer	100
yus	100
woo	100
牵	100
kelly	100
zomb	100
racist	100
ñ	100
theaters	100
solved	100
allegian	100
berth	100
김	100
25	100
solving	100
preval	100
yo	100
comics	100
bowled	100
owens	100
##ᾶ	100
##ounts	100
##rition	100
rebecca	100
tor	100
##cing	100
song	100
၂	100
messages	100
communal	100
##ὑ	100
semi	100
ⴀ	100
乛	100
morales	100
lessons	100
salary	100
corv	100
mathematic	100
philharmon	100
չ	100
jess	100
hogan	100
ک	100
reflections	100
moor	100
̳	100
levine	100
become	100
mm	100
##oo	100
vegetables	100
eug	100
entities	100
ณ	100
##ძ	100
##支	100
infectious	100
##iat	100
lars	100
##ᠪ	100
व	100
doll	100
sb	100
peac	100
organize	100
error	100
##愁	100
bunch	100
醒	100
##ᛟ	100
inde	100
rough	100
##课	100
appoint	100
##opol	100
逯	100
oxide	100
respects	100
##umbled	100
块	100
trinidad	100
unofficial	100
timber	100
##琬	100
砍	100
វ	100
##iti	100
##ormal	100
utterly	100
cautious	100
trust	100
proposing	100
##诉	100
weeks	100
currently	100
invited	100
gol	100
##喚	100
congression	100
##召	100
##ع	100
ರ	100
fug	100
gop	100
##예	100
##ώ	100
ጉ	100
bour	100
##berts	100
tul	100
detonated	100
##iper	100
ῶ	100
箇	100
##ใ	100
tracked	100
##珍	100
危	100
##iden	100
론	100
##风	100
定	100
##iolet	100
##相	100
ordinance	100
dolphin	100
occasionally	100
##渠	100
ranked	100
49	100
reader	100
santos	100
rans	100
イ	100
##lets	100
᷅	100
purpose	100
##ट	100
##沽	100
stingray	100
##究	100
range	100
##ann	100
##𐎹	100
claim	100
seem	100
ottawa	100
##滑	100
edgar	100
destroy	100
##贼	100
##ื	100
##uting	100
ヤ	100
瞬	100
unhappy	100
waugh	100
longer	100
magist	100
advisory	100
##leen	100
ཛ	100
远	100
mersey	100
feel	100
billy	100
cel	100
恭	100
sacrifice	100
##olan	100
corridor	100
moore	100
hour	100
bf	100
berm	100
teammates	100
sms	100
弟	100
##ぷ	100
drops	100
deity	100
noun	100
utility	100
simmons	100
trough	100
picc	100
concentration	100
##eshire	100
述	100
confederates	100
shirley	100
체	100
commod	100
zombie	100
venus	100
鼉	100
③	100
##atore	100
orph	100
##使	100
28	100
frig	100
##oku	100
island	100
edu	100
##礮	100
##yl	100
##rect	100
reconcile	100
troubled	100
brothers	100
##identified	100
##时	100
##终	100
細	100
tonnes	100
unreli	100
##ints	100
##死	100
cm	100
trig	100
hergé	100
ش	100
nerve	100
treehouse	100
安	100
eye	100
praise	100
##ั	100
##b	100
exclus	100
demonst	100
nomination	100
etymology	100
knew	100
##ho	100
diffic	100
grams	100
venues	100
agreement	100
##金	100
bull	100
糸	100
##bon	100
randolph	100
##uber	100
##izers	100
##lance	100
##tenham	100
peggy	100
##andro	100
直	100
##11	100
wrestler	100
spears	100
conspicuous	100
endings	100
sebast	100
銃	100
##iest	100
##mented	100
brewer	100
cu	100
##ardy	100
毫	100
entity	100
promised	100
ἃ	100
mercer	100
khrushchev	100
räikkönen	100
ca	100
ꮃ	100
users	100
mighty	100
ὔ	100
accolades	100
spa	100
feld	100
79	100
##部	100
##fall	100
calig	100
ৈ	100
now	100
sox	100
##ֲ	100
shoots	100
ark	100
##소	100
lex	100
salt	100
nag	100
豐	100
##ieth	100
enix	100
annexation	100
united	100
misunder	100
{	100
confir	100
準	100
磐	100
##바	100
section	100
##节	100
##forward	100
excavation	100
瓩	100
##紀	100
##atches	100
##abling	100
caud	100
##姿	100
雇	100
lif	100
##eton	100
marathon	100
autom	100
##ople	100
##ニ	100
voters	100
ɳ	100
clara	100
##nes	100
87	100
bust	100
##uations	100
##छ	100
##ports	100
sim	100
reactions	100
armen	100
狗	100
##hem	100
esteem	100
##에	100
diving	100
lineage	100
후	100
behaviour	100
recons	100
##鲤	100
eisenh	100
##rez	100
fortified	100
199	100
defendant	100
##毛	100
respons	100
farewell	100
promotions	100
phon	100
##秀	100
ǀ	100
pun	100
##化	100
pens	100
ᡠ	100
仪	100
##ུ	100
##ɟ	100
interpreted	100
discovered	100
sheffield	100
##超	100
tut	100
##భ	100
##agger	100
reinstated	100
continuously	100
##okes	100
beautiful	100
choose	100
carson	100
と	100
ding	100
knife	100
sham	100
if	100
##旗	100
##har	100
philip	100
sounds	100
underwent	100
昏	100
##ellor	100
kevin	100
##輝	100
일	100
went	100
nave	100
trams	100
##gg	100
synth	100
##uation	100
ැ	100
reiss	100
clearing	100
##holders	100
android	100
##ῆ	100
￥	100
commercial	100
alexandria	100
##ይ	100
##ches	100
##erted	100
vaccine	100
beast	100
leap	100
##గ	100
엔	100
##}	100
lily	100
##拟	100
##itti	100
hydrogen	100
##ault	100
enrolled	100
practices	100
720	100
millimeters	100
paus	100
kendrick	100
bringing	100
oxy	100
ܬ	100
capsule	100
churches	100
walled	100
abroad	100
upgrades	100
##yah	100
corrupt	100
##岬	100
comfortable	100
borg	100
##र	100
浩	100
普	100
relat	100
1892	100
സ	100
zx	100
树	100
##ks	100
unac	100
iber	100
##bes	100
strait	100
modeling	100
##け	100
紹	100
tan	100
reluct	100
ecosystem	100
ul	100
pilot	100
concer	100
##ァ	100
licence	100
liberals	100
##aven	100
照	100
emble	100
departments	100
congreg	100
##ais	100
ὂ	100
napoleonic	100
virtual	100
functions	100
##ild	100
belarus	100
##私	100
relics	100
stop	100
superior	100
堤	100
included	100
institutional	100
##water	100
achievements	100
##淵	100
wheat	100
##gence	100
successors	100
228	100
##я	100
##ハ	100
wh	100
细	100
##inct	100
imprison	100
మ	100
kriegs	100
dumb	100
includ	100
mentor	100
##n	100
literary	100
publicly	100
athenians	100
##pm	100
williamson	100
##rict	100
bahá	100
师	100
##ensing	100
尧	100
##moor	100
crashed	100
፡	100
##宁	100
puzzles	100
vicious	100
comp	100
##igny	100
sant	100
岸	100
161	100
sixty	100
prohibited	100
bought	100
##학	100
leng	100
certifications	100
quant	100
subject	100
ariz	100
upset	100
##berger	100
##es	100
ဂ	100
##amed	100
##頒	100
basic	100
elections	100
gav	100
specific	100
##aran	100
bruce	100
到	100
cheap	100
acknowled	100
cluster	100
##寨	100
superb	100
museum	100
swe	100
¡	100
被	100
##ences	100
銓	100
gavin	100
1	100
너	100
ẓ	100
cry	100
##rage	100
甽	100
brussels	100
衆	100
seld	100
aerospace	100
professors	100
wy	100
誌	100
्	100
consuming	100
josef	100
keyboards	100
adop	100
watson	100
dental	100
##閨	100
flexibility	100
‍	100
庇	100
disney	100
1887	100
blu	100
##iga	100
imperson	100
wah	100
help	100
heritage	100
johannes	100
technique	100
♆	100
sire	100
portion	100
beck	100
##友	100
芽	100
༌	100
##შ	100
insists	100
bruins	100
gilbert	100
##理	100
remained	100
closure	100
protagonist	100
proto	100
##樹	100
averages	100
##ward	100
##爵	100
save	100
explos	100
ban	100
##eted	100
analogy	100
wesley	100
##gel	100
wholly	100
quest	100
pattern	100
few	100
dragons	100
##世	100
khmer	100
马	100
spin	100
##esis	100
梅	100
革	100
성	100
attributed	100
sig	100
oblig	100
eventual	100
plug	100
project	100
reports	100
##ior	100
##衢	100
wear	100
stem	100
##zzi	100
michel	100
mph	100
##onscious	100
##ʎ	100
뱅	100
1880s	100
affinity	100
packed	100
soviet	100
##rosion	100
##鬼	100
͍	100
orchestral	100
##mour	100
detective	100
氣	100
##等	100
fighters	100
cous	100
##跖	100
mifflin	100
প	100
securing	100
transported	100
scenery	100
symmet	100
篚	100
ờ	100
##ss	100
ostens	100
观	100
math	100
qualified	100
sin	100
榊	100
dioxide	100
suck	100
uttar	100
鱼	100
ỏ	100
##ante	100
lectures	100
melee	100
bard	100
##해	100
retreated	100
cour	100
liberation	100
##破	100
sugg	100
側	100
far	100
##ắ	100
vert	100
state	100
golf	100
叶	100
##rose	100
##hire	100
installment	100
james	100
¤	100
lect	100
##龙	100
video	100
##pool	100
pir	100
graphic	100
##依	100
venezuela	100
cycles	100
##寺	100
##臣	100
jeal	100
sophisticated	100
獣	100
ens	100
picture	100
damp	100
ぽ	100
splitting	100
fog	100
##nh	100
edwards	100
emir	100
rodney	100
##ko	100
##lend	100
##iversary	100
##翼	100
hin	100
vicinity	100
peop	100
northwestward	100
##vie	100
rockwell	100
##瓷	100
sym	100
chef	100
##appers	100
disorders	100
whip	100
jackets	100
##坪	100
##iven	100
marath	100
査	100
acad	100
ܙ	100
reds	100
##ோ	100
mumb	100
##ff	100
originally	100
望	100
loy	100
##磅	100
engineer	100
western	100
ny	100
##lement	100
visual	100
삿	100
nile	100
drawings	100
worcester	100
celebrities	100
tae	100
##哲	100
yorke	100
##gé	100
##만	100
discl	100
##스	100
掛	100
َ	100
heads	100
understand	100
萬	100
ℝ	100
af	100
noel	100
though	100
armour	100
agenda	100
⑥	100
##ꮝ	100
##ives	100
1869	100
##方	100
##asa	100
uninter	100
##ဟ	100
nev	100
plaintiff	100
overlap	100
isn	100
horsepower	100
regain	100
vulnerable	100
digit	100
##keys	100
mck	100
pitch	100
johnson	100
americas	100
##洞	100
our	100
##務	100
1917	100
##打	100
glaciers	100
##靈	100
ger	100
fatal	100
postal	100
##具	100
added	100
1888	100
##at	100
full	100
bombardment	100
##員	100
俱	100
disputes	100
support	100
##iki	100
1779	100
##華	100
optim	100
守	100
port	100
likened	100
bankruptcy	100
simplicity	100
##妇	100
ጅ	100
cartoon	100
##1	100
##him	100
##agonists	100
duchovny	100
moff	100
##house	100
partner	100
173	100
##愍	100
##empt	100
##elsen	100
massacre	100
aggregate	100
wireless	100
aggressive	100
read	100
featured	100
##hips	100
ariel	100
##穎	100
ec	100
aar	100
##п	100
##阿	100
っ	100
transmitted	100
indians	100
##트	100
hastings	100
cen	100
##ⴻ	100
##yp	100
extension	100
##optera	100
neighbors	100
##砖	100
##orph	100
desired	100
athletics	100
occurred	100
##ැ	100
眼	100
family	100
##stidia	100
lebanon	100
treat	100
chip	100
encycl	100
adoption	100
亀	100
whereas	100
observe	100
lag	100
柆	100
##宏	100
dissipated	100
spreading	100
##ǫ	100
##zes	100
sins	100
fat	100
hak	100
bono	100
capitals	100
bros	100
defense	100
駙	100
##rine	100
##官	100
alexandra	100
aristocracy	100
pict	100
elimination	100
involves	100
##aurus	100
immigrant	100
界	100
mole	100
oval	100
##ood	100
1959	100
manhattan	100
##इ	100
scottish	100
##読	100
releases	100
hull	100
##orne	100
谷	100
豌	100
##刃	100
1836	100
convoy	100
##ᵝ	100
conf	100
hom	100
delivery	100
formally	100
ჩ	100
producing	100
seb	100
lovely	100
ammunition	100
resour	100
strick	100
vacation	100
##ὣ	100
schizoph	100
restaurant	100
煩	100
創	100
novels	100
hello	100
retirement	100
occur	100
##oshi	100
遮	100
rock	100
1930	100
albeit	100
aspir	100
##izing	100
garner	100
going	100
radial	100
arts	100
##除	100
difference	100
nights	100
##要	100
chor	100
expressway	100
lots	100
##ಶ	100
##𐎼	100
pere	100
##લ	100
authentic	100
挑	100
tours	100
peasant	100
##athi	100
bella	100
##朏	100
soon	100
romance	100
ॆ	100
remain	100
stipe	100
ր	100
shrub	100
describ	100
boil	100
bry	100
庖	100
sympathy	100
##iosity	100
##事	100
cooled	100
ញ	100
greatly	100
rape	100
##ada	100
texas	100
highlight	100
gond	100
shiva	100
casc	100
envelope	100
##adh	100
##南	100
occult	100
##富	100
send	100
round	100
operate	100
hyphae	100
##వ	100
seriously	100
脂	100
##程	100
##霖	100
##know	100
##남	100
##泊	100
deaths	100
钊	100
##庚	100
animation	100
coin	100
scrapped	100
sap	100
番	100
spr	100
##ish	100
parts	100
##erver	100
pen	100
∤	100
guitars	100
##宗	100
動	100
zur	100
##am	100
##church	100
拱	100
თ	100
##澄	100
paralympic	100
##iman	100
connected	100
philippines	100
##antic	100
##aku	100
healing	100
tourists	100
preference	100
realms	100
##way	100
surroundings	100
##real	100
ฆ	100
##ny	100
##apest	100
ﻋ	100
##色	100
##osaurus	100
unn	100
##oj	100
rij	100
coach	100
mediterranean	100
trait	100
kay	100
欠	100
faint	100
guer	100
##here	100
##恢	100
##sburg	100
##asaki	100
spartans	100
wwe	100
dalton	100
stair	100
planted	100
##位	100
刀	100
##ola	100
crowley	100
##obile	100
forehead	100
militia	100
courty	100
##awi	100
referring	100
##ケ	100
desk	100
\	100
complaining	100
제	100
##導	100
guy	100
##ysical	100
hubert	100
suspicious	100
007	100
##ib	100
butter	100
##(	100
rust	100
##炸	100
##祖	100
basement	100
##rop	100
uk	100
##isl	100
##andy	100
symmetry	100
杜	100
##創	100
insurg	100
paradise	100
preferring	100
傘	100
execut	100
1819	100
与	100
placed	100
english	100
festival	100
glacial	100
ƈ	100
sequences	100
##cel	100
##idae	100
remnant	100
exceed	100
relieve	100
##adors	100
ending	100
recognise	100
priest	100
##い	100
bost	100
末	100
florida	100
gentle	100
cert	100
rko	100
batting	100
##郁	100
##ister	100
metaph	100
##ܝ	100
##芙	100
๊	100
##バ	100
英	100
##for	100
neigh	100
issued	100
##arta	100
bliss	100
瓊	100
resolved	100
刊	100
瘤	100
ỗ	100
rapids	100
##陣	100
##瀛	100
nothing	100
tickets	100
commitment	100
ceasef	100
denial	100
invites	100
ọ	100
requiring	100
regulate	100
orland	100
politician	100
萍	100
ධ	100
##{	100
##mun	100
cloverleaf	100
amanda	100
ॐ	100
格	100
contem	100
征	100
釋	100
鋼	100
##ᾷ	100
ண	100
##秋	100
corresponds	100
negoti	100
caric	100
##enne	100
ḥ	100
##oll	100
##light	100
1897	100
guil	100
##manship	100
emerging	100
prints	100
harrison	100
##条	100
ק	100
ר	100
應	100
mary	100
woman	100
opportun	100
##ಲ	100
pled	100
les	100
stability	100
影	100
forbidden	100
fr	100
blues	100
房	100
anderson	100
stolen	100
蓑	100
strong	100
φ	100
surfaced	100
ᠪ	100
flanked	100
##登	100
碍	100
##kill	100
##𐀁	100
indeed	100
advised	100
厩	100
##六	100
spinning	100
expo	100
##inka	100
sensitive	100
succeeding	100
ܒ	100
engines	100
##ur	100
ł	100
leo	100
##iph	100
##uve	100
##rama	100
纯	100
##udi	100
quantum	100
sculpted	100
ner	100
gains	100
dash	100
monsters	100
ო	100
subscription	100
ن	100
楊	100
翔	100
##剧	100
heaviest	100
structures	100
##咆	100
##臨	100
##mid	100
veracruz	100
line	100
trail	100
wagner	100
emily	100
##as	100
council	100
criticized	100
##对	100
##bach	100
##arf	100
reich	100
##uen	100
thrown	100
103	100
##agus	100
batavia	100
fungi	100
##黙	100
unpreced	100
但	100
jumped	100
خ	100
ria	100
babies	100
##jo	100
london	100
ぎ	100
ង	100
##found	100
convened	100
repulsed	100
##फ	100
honors	100
monument	100
##ᡥ	100
peppers	100
caul	100
fountain	100
bos	100
louisville	100
左	100
australian	100
##edience	100
lanth	100
registered	100
rehabil	100
徽	100
##貫	100
conquest	100
##墙	100
event	100
language	100
แ	100
restric	100
##ifolia	100
##ledo	100
ḻ	100
##冉	100
international	100
rim	100
pack	100
正	100
##ษ	100
##arn	100
venue	100
bayern	100
leaders	100
托	100
sunny	100
ත	100
##ġ	100
棍	100
forbes	100
##竜	100
##優	100
kras	100
phant	100
waterloo	100
##ither	100
1975	100
beneath	100
##emate	100
including	100
##萬	100
##etts	100
admits	100
紫	100
##椰	100
san	100
##町	100
uns	100
indefinitely	100
##iae	100
⊙	100
bond	100
traditions	100
medieval	100
##iser	100
1813	100
##eld	100
ួ	100
1879	100
幣	100
quartet	100
forecast	100
##夫	100
##oun	100
car	100
detroit	100
ṓ	100
##的	100
tying	100
bolton	100
##gu	100
bonus	100
fil	100
amendment	100
mab	100
ǒ	100
rooted	100
demand	100
jurassic	100
intervene	100
afor	100
##ansas	100
##ت	100
bungie	100
炼	100
disability	100
##rosse	100
##:	100
ড	100
159	100
ে	100
designation	100
spher	100
攝	100
##ʌ	100
##how	100
flaws	100
ἒ	100
##ropod	100
鏡	100
lec	100
110	100
seizure	100
##峰	100
introduction	100
brunswick	100
bax	100
december	100
bias	100
squall	100
塘	100
##da	100
recre	100
survey	100
cens	100
##ⲥ	100
iraq	100
##头	100
##iances	100
gradient	100
bags	100
manch	100
third	100
inh	100
##路	100
based	100
concession	100
##チ	100
##ɫ	100
executives	100
taxonomic	100
bor	100
manoeuv	100
##統	100
fold	100
saigon	100
airfields	100
##ไ	100
bizarre	100
tart	100
actresses	100
##臺	100
cells	100
欣	100
allison	100
備	100
ര	100
##hall	100
##퇴	100
##禄	100
##geschwader	100
##aho	100
enormous	100
rotation	100
catal	100
chim	100
##材	100
nud	100
##य	100
brenn	100
divas	100
##𐭕	100
##iver	100
evident	100
earnest	100
sentiment	100
yucat	100
좋	100
##thel	100
coaches	100
##樂	100
harvey	100
ɲ	100
##fta	100
##onte	100
歸	100
machinery	100
lindwall	100
anticip	100
bosnia	100
ᛏ	100
晋	100
improvements	100
playoffs	100
formation	100
checked	100
##碍	100
profits	100
##uity	100
##თ	100
##我	100
zealand	100
topic	100
車	100
##abeth	100
vacu	100
wilhelm	100
artwork	100
professor	100
##ular	100
software	100
##12	100
dreadnoughts	100
starcraft	100
assignment	100
wilde	100
negotiated	100
okinawa	100
traced	100
teaser	100
##rel	100
##急	100
dublin	100
micro	100
aub	100
arg	100
smoke	100
ō	100
envisioned	100
§	100
microsoft	100
##iamen	100
minneapolis	100
##ẖ	100
##爱	100
##ቲ	100
ध	100
but	100
sol	100
possible	100
ꮉ	100
valuable	100
va	100
brest	100
̏	100
useless	100
fashioned	100
larry	100
patriots	100
fu	100
##ams	100
##蕨	100
françois	100
ܼ	100
羽	100
matched	100
para	100
##lay	100
defenceman	100
｢	100
alternatives	100
oil	100
drew	100
schne	100
葆	100
advances	100
##ረ	100
emotionally	100
barn	100
faithful	100
redsh	100
106	100
brick	100
boone	100
division	100
##鉦	100
##イ	100
##ス	100
doctor	100
morrow	100
##acies	100
溶	100
developers	100
buildings	100
##ous	100
twisted	100
刷	100
curving	100
76	100
##o	100
[...]
