{
  "version": "1.0",
  "truncation": null,
  "padding": null,
  "added_tokens": [
    {
      "id": 0,
      "special": true,
      "content": "[UNK]",
      "single_word": false,
      "lstrip": false,
      "rstrip": false,
      "normalized": false
    }
  ],
  "normalizer": {
    "type": "Sequence",
    "normalizers": [
      {
        "type": "Lowercase"
      }
    ]
  },
  "pre_tokenizer": {
    "type": "Whitespace"
  },
  "post_processor": null,
  "decoder": null,
  "model": {
    "type": "WordPiece",
    "unk_token": "[UNK]",
    "continuing_subword_prefix": "##",
    "max_input_chars_per_word": 100,
    "vocab": {
      "[UNK]": 0,
      "!": 1,
      "\"": 2,
      "#": 3,
      "$": 4,
      "%": 5,
      "&": 6,
      "'": 7,
      "(": 8,
      ")": 9,
      "*": 10,
      "+": 11,
      ",": 12,
      "-": 13,
      ".": 14,
      "/": 15,
      "0": 16,
      "1": 17,
      "2": 18,
      "3": 19,
      "4": 20,
      "5": 21,
      "6": 22,
      "7": 23,
      "8": 24,
      "9": 25,
      ":": 26,
      ";": 27,
      "<": 28,
      "=": 29,
      ">": 30,
      "?": 31,
      "@": 32,
      "[": 33,
      "\\": 34,
      "]": 35,
      "^": 36,
      "_": 37,
      "`": 38,
      "a": 39,
      "b": 40,
      "c": 41,
      "d": 42,
      "e": 43,
      "f": 44,
      "g": 45,
      "h": 46,
      "i": 47,
      "j": 48,
      "k": 49,
      "l": 50,
      "m": 51,
      "n": 52,
      "o": 53,
      "p": 54,
      "q": 55,
      "r": 56,
      "s": 57,
      "t": 58,
      "u": 59,
      "v": 60,
      "w": 61,
      "x": 62,
      "y": 63,
      "z": 64,
      "{": 65,
      "|": 66,
      "}": 67,
      "~": 68,
      "": 69,
      "": 70,
      "": 71,
      "": 72,
      "": 73,
      "": 74,
      "¡": 75,
      "¢": 76,
      "£": 77,
      "¤": 78,
      "¥": 79,
      "§": 80,
      "©": 81,
      "«": 82,
      "­": 83,
      "®": 84,
      "¯": 85,
      "°": 86,
      "±": 87,
      "²": 88,
      "³": 89,
      "´": 90,
      "µ": 91,
      "¶": 92,
      "·": 93,
      "¹": 94,
      "º": 95,
      "»": 96,
      "¼": 97,
      "½": 98,
      "¾": 99,
      "¿": 100,
      "×": 101,
      "ß": 102,
      "à": 103,
      "á": 104,
      "â": 105,
      "ã": 106,
      "ä": 107,
      "å": 108,
      "æ": 109,
      "ç": 110,
      "è": 111,
      "é": 112,
      "ê": 113,
      "ë": 114,
      "ì": 115,
      "í": 116,
      "î": 117,
      "ï": 118,
      "ð": 119,
      "ñ": 120,
      "ò": 121,
      "ó": 122,
      "ô": 123,
      "õ": 124,
      "ö": 125,
      "÷": 126,
      "ø": 127,
      "ù": 128,
      "ú": 129,
      "û": 130,
      "ü": 131,
      "ý": 132,
      "þ": 133,
      "ÿ": 134,
      "ā": 135,
      "ă": 136,
      "ą": 137,
      "ć": 138,
      "ĉ": 139,
      "ċ": 140,
      "č": 141,
      "ď": 142,
      "đ": 143,
      "ē": 144,
      "ĕ": 145,
      "ė": 146,
      "ę": 147,
      "ě": 148,
      "ğ": 149,
      "ġ": 150,
      "ģ": 151,
      "ĥ": 152,
      "ħ": 153,
      "ĩ": 154,
      "ī": 155,
      "ĭ": 156,
      "į": 157,
      "ı": 158,
      "ĵ": 159,
      "ķ": 160,
      "ĸ": 161,
      "ĺ": 162,
      "ļ": 163,
      "ľ": 164,
      "ł": 165,
      "ń": 166,
      "ņ": 167,
      "ň": 168,
      "ŋ": 169,
      "ō": 170,
      "ŏ": 171,
      "ő": 172,
      "œ": 173,
      "ŗ": 174,
      "ř": 175,
      "ś": 176,
      "ŝ": 177,
      "ş": 178,
      "š": 179,
      "ţ": 180,
      "ť": 181,
      "ŧ": 182,
      "ũ": 183,
      "ū": 184,
      "ŭ": 185,
      "ů": 186,
      "ű": 187,
      "ų": 188,
      "ŵ": 189,
      "ŷ": 190,
      "ź": 191,
      "ż": 192,
      "ž": 193,
      "ſ": 194,
      "ƀ": 195,
      "ƈ": 196,
      "ƍ": 197,
      "ƒ": 198,
      "ƙ": 199,
      "ƛ": 200,
      "ơ": 201,
      "ƣ": 202,
      "ƥ": 203,
      "ƭ": 204,
      "ư": 205,
      "ƿ": 206,
      "ǀ": 207,
      "ǁ": 208,
      "ǂ": 209,
      "ǃ": 210,
      "ǎ": 211,
      "ǐ": 212,
      "ǒ": 213,
      "ǔ": 214,
      "ǚ": 215,
      "ǜ": 216,
      "ǝ": 217,
      "ǣ": 218,
      "ǧ": 219,
      "ǫ": 220,
      "ǭ": 221,
      "ǰ": 222,
      "ǵ": 223,
      "ǹ": 224,
      "ǽ": 225,
      "ș": 226,
      "ț": 227,
      "ȝ": 228,
      "ȟ": 229,
      "ȯ": 230,
      "ȳ": 231,
      "ȷ": 232,
      "ȼ": 233,
      "ɉ": 234,
      "ɐ": 235,
      "ɑ": 236,
      "ɒ": 237,
      "ɓ": 238,
      "ɔ": 239,
      "ɕ": 240,
      "ɖ": 241,
      "ɗ": 242,
      "ɘ": 243,
      "ə": 244,
      "ɚ": 245,
      "ɛ": 246,
      "ɜ": 247,
      "ɞ": 248,
      "ɟ": 249,
      "ɠ": 250,
      "ɡ": 251,
      "ɢ": 252,
      "ɣ": 253,
      "ɤ": 254,
      "ɥ": 255,
      "ɦ": 256,
      "ɧ": 257,
      "ɨ": 258,
      "ɪ": 259,
      "ɫ": 260,
      "ɬ": 261,
      "ɭ": 262,
      "ɮ": 263,
      "ɯ": 264,
      "ɰ": 265,
      "ɱ": 266,
      "ɲ": 267,
      "ɳ": 268,
      "ɴ": 269,
      "ɵ": 270,
      "ɶ": 271,
      "ɷ": 272,
      "ɸ": 273,
      "ɹ": 274,
      "ɺ": 275,
      "ɻ": 276,
      "ɽ": 277,
      "ɾ": 278,
      "ʀ": 279,
      "ʁ": 280,
      "ʂ": 281,
      "ʃ": 282,
      "ʄ": 283,
      "ʇ": 284,
      "ʈ": 285,
      "ʉ": 286,
      "ʊ": 287,
      "ʋ": 288,
      "ʌ": 289,
      "ʍ": 290,
      "ʎ": 291,
      "ʏ": 292,
      "ʐ": 293,
      "ʑ": 294,
      "ʒ": 295,
      "ʔ": 296,
      "ʕ": 297,
      "ʖ": 298,
      "ʗ": 299,
      "ʘ": 300,
      "ʙ": 301,
      "ʛ": 302,
      "ʝ": 303,
      "ʞ": 304,
      "ʟ": 305,
      "ʠ": 306,
      "ʡ": 307,
      "ʢ": 308,
      "ʰ": 309,
      "ʱ": 310,
      "ʲ": 311,
      "ʳ": 312,
      "ʷ": 313,
      "ʹ": 314,
      "ʻ": 315,
      "ʼ": 316,
      "ʽ": 317,
      "ʾ": 318,
      "ʿ": 319,
      "ˀ": 320,
      "ˁ": 321,
      "ˆ": 322,
      "ˇ": 323,
      "ˈ": 324,
      "ˌ": 325,
      "ː": 326,
      "ˑ": 327,
      "˔": 328,
      "˕": 329,
      "˖": 330,
      "˘": 331,
      "˚": 332,
      "˜": 333,
      "˞": 334,
      "ˠ": 335,
      "ˢ": 336,
      "ˣ": 337,
      "ˤ": 338,
      "˥": 339,
      "˦": 340,
      "˧": 341,
      "˨": 342,
      "˩": 343,
      "̀": 344,
      "́": 345,
      "̂": 346,
      "̃": 347,
      "̄": 348,
      "̆": 349,
      "̇": 350,
      "̈": 351,
      "̊": 352,
      "̋": 353,
      "̌": 354,
      "̍": 355,
      "̏": 356,
      "̐": 357,
      "̑": 358,
      "̖": 359,
      "̗": 360,
      "̚": 361,
      "̝": 362,
      "̞": 363,
      "̟": 364,
      "̠": 365,
      "̣": 366,
      "̤": 367,
      "̥": 368,
      "̧": 369,
      "̩": 370,
      "̪": 371,
      "̬": 372,
      "̮": 373,
      "̯": 374,
      "̰": 375,
      "̱": 376,
      "̲": 377,
      "̳": 378,
      "̺": 379,
      "̽": 380,
      "͌": 381,
      "͍": 382,
      "͘": 383,
      "͜": 384,
      "͡": 385,
      "΄": 386,
      "ΐ": 387,
      "ά": 388,
      "έ": 389,
      "ή": 390,
      "ί": 391,
      "α": 392,
      "β": 393,
      "γ": 394,
      "δ": 395,
      "ε": 396,
      "ζ": 397,
      "η": 398,
      "θ": 399,
      "ι": 400,
      "κ": 401,
      "λ": 402,
      "μ": 403,
      "ν": 404,
      "ξ": 405,
      "ο": 406,
      "π": 407,
      "ρ": 408,
      "ς": 409,
      "σ": 410,
      "τ": 411,
      "υ": 412,
      "φ": 413,
      "χ": 414,
      "ψ": 415,
      "ω": 416,
      "ϊ": 417,
      "ό": 418,
      "ύ": 419,
      "ώ": 420,
      "ϑ": 421,
      "ϕ": 422,
      "ϝ": 423,
      "ϟ": 424,
      "ϵ": 425,
      "а": 426,
      "б": 427,
      "в": 428,
      "г": 429,
      "д": 430,
      "е": 431,
      "ж": 432,
      "з": 433,
      "и": 434,
      "й": 435,
      "к": 436,
      "л": 437,
      "м": 438,
      "н": 439,
      "о": 440,
      "п": 441,
      "р": 442,
      "с": 443,
      "т": 444,
      "у": 445,
      "ф": 446,
      "х": 447,
      "ц": 448,
      "ч": 449,
      "ш": 450,
      "щ": 451,
      "ъ": 452,
      "ы": 453,
      "ь": 454,
      "э": 455,
      "ю": 456,
      "я": 457,
      "ё": 458,
      "ђ": 459,
      "є": 460,
      "і": 461,
      "ї": 462,
      "ј": 463,
      "љ": 464,
      "њ": 465,
      "ћ": 466,
      "ѝ": 467,
      "ў": 468,
      "ѡ": 469,
      "ѣ": 470,
      "ѥ": 471,
      "ѧ": 472,
      "ѯ": 473,
      "ѹ": 474,
      "҆": 475,
      "ғ": 476,
      "қ": 477,
      "ү": 478,
      "ҳ": 479,
      "ҷ": 480,
      "ӣ": 481,
      "ө": 482,
      "ӯ": 483,
      "ӷ": 484,
      "ա": 485,
      "բ": 486,
      "գ": 487,
      "դ": 488,
      "ե": 489,
      "զ": 490,
      "է": 491,
      "ը": 492,
      "թ": 493,
      "ժ": 494,
      "ի": 495,
      "լ": 496,
      "խ": 497,
      "ծ": 498,
      "կ": 499,
      "հ": 500,
      "ձ": 501,
      "ղ": 502,
      "ճ": 503,
      "մ": 504,
      "յ": 505,
      "ն": 506,
      "շ": 507,
      "ո": 508,
      "չ": 509,
      "պ": 510,
      "ջ": 511,
      "ռ": 512,
      "ս": 513,
      "վ": 514,
      "տ": 515,
      "ր": 516,
      "ց": 517,
      "ւ": 518,
      "փ": 519,
      "ք": 520,
      "օ": 521,
      "և": 522,
      "֤": 523,
      "֫": 524,
      "ְ": 525,
      "ֱ": 526,
      "ֲ": 527,
      "ֳ": 528,
      "ִ": 529,
      "ֵ": 530,
      "ֶ": 531,
      "ַ": 532,
      "ָ": 533,
      "ֹ": 534,
      "ֻ": 535,
      "ּ": 536,
      "ֽ": 537,
      "ֿ": 538,
      "ׁ": 539,
      "ׂ": 540,
      "א": 541,
      "ב": 542,
      "ג": 543,
      "ד": 544,
      "ה": 545,
      "ו": 546,
      "ז": 547,
      "ח": 548,
      "ט": 549,
      "י": 550,
      "ך": 551,
      "כ": 552,
      "ל": 553,
      "ם": 554,
      "מ": 555,
      "ן": 556,
      "נ": 557,
      "ס": 558,
      "ע": 559,
      "ף": 560,
      "פ": 561,
      "ץ": 562,
      "צ": 563,
      "ק": 564,
      "ר": 565,
      "ש": 566,
      "ת": 567,
      "ױ": 568,
      "׳": 569,
      "،": 570,
      "ء": 571,
      "آ": 572,
      "أ": 573,
      "ؤ": 574,
      "إ": 575,
      "ئ": 576,
      "ا": 577,
      "ب": 578,
      "ة": 579,
      "ت": 580,
      "ث": 581,
      "ج": 582,
      "ح": 583,
      "خ": 584,
      "د": 585,
      "ذ": 586,
      "ر": 587,
      "ز": 588,
      "س": 589,
      "ش": 590,
      "ص": 591,
      "ض": 592,
      "ط": 593,
      "ظ": 594,
      "ع": 595,
      "غ": 596,
      "ـ": 597,
      "ف": 598,
      "ق": 599,
      "ك": 600,
      "ل": 601,
      "م": 602,
      "ن": 603,
      "ه": 604,
      "و": 605,
      "ى": 606,
      "ي": 607,
      "ً": 608,
      "ٌ": 609,
      "ٍ": 610,
      "َ": 611,
      "ُ": 612,
      "ِ": 613,
      "ّ": 614,
      "ْ": 615,
      "ٔ": 616,
      "١": 617,
      "٧": 618,
      "ٰ": 619,
      "پ": 620,
      "چ": 621,
      "ڈ": 622,
      "ڠ": 623,
      "ک": 624,
      "ڬ": 625,
      "گ": 626,
      "ں": 627,
      "ھ": 628,
      "ہ": 629,
      "ی": 630,
      "ۍ": 631,
      "ے": 632,
      "ە": 633,
      "ܐ": 634,
      "ܒ": 635,
      "ܔ": 636,
      "ܕ": 637,
      "ܗ": 638,
      "ܘ": 639,
      "ܙ": 640,
      "ܚ": 641,
      "ܛ": 642,
      "ܝ": 643,
      "ܠ": 644,
      "ܡ": 645,
      "ܢ": 646,
      "ܣ": 647,
      "ܥ": 648,
      "ܦ": 649,
      "ܪ": 650,
      "ܬ": 651,
      "ܲ": 652,
      "ܵ": 653,
      "ܼ": 654,
      "݂": 655,
      "ँ": 656,
      "ं": 657,
      "ः": 658,
      "अ": 659,
      "आ": 660,
      "इ": 661,
      "ई": 662,
      "उ": 663,
      "ऋ": 664,
      "ए": 665,
      "ऐ": 666,
      "औ": 667,
      "क": 668,
      "ख": 669,
      "ग": 670,
      "घ": 671,
      "ङ": 672,
      "च": 673,
      "छ": 674,
      "ज": 675,
      "ञ": 676,
      "ट": 677,
      "ठ": 678,
      "ड": 679,
      "ण": 680,
      "त": 681,
      "थ": 682,
      "द": 683,
      "ध": 684,
      "न": 685,
      "प": 686,
      "फ": 687,
      "ब": 688,
      "भ": 689,
      "म": 690,
      "य": 691,
      "र": 692,
      "ल": 693,
      "व": 694,
      "श": 695,
      "ष": 696,
      "स": 697,
      "ह": 698,
      "़": 699,
      "ऽ": 700,
      "ा": 701,
      "ि": 702,
      "ी": 703,
      "ु": 704,
      "ू": 705,
      "ृ": 706,
      "ॆ": 707,
      "े": 708,
      "ै": 709,
      "ॉ": 710,
      "ॊ": 711,
      "ो": 712,
      "ौ": 713,
      "्": 714,
      "ॐ": 715,
      "।": 716,
      "॥": 717,
      "१": 718,
      "२": 719,
      "३": 720,
      "ং": 721,
      "অ": 722,
      "আ": 723,
      "ই": 724,
      "এ": 725,
      "ক": 726,
      "খ": 727,
      "গ": 728,
      "ঙ": 729,
      "চ": 730,
      "জ": 731,
      "ট": 732,
      "ড": 733,
      "ঢ": 734,
      "ণ": 735,
      "ত": 736,
      "থ": 737,
      "দ": 738,
      "ন": 739,
      "প": 740,
      "ব": 741,
      "ভ": 742,
      "ম": 743,
      "য": 744,
      "র": 745,
      "ল": 746,
      "শ": 747,
      "ষ": 748,
      "স": 749,
      "হ": 750,
      "়": 751,
      "া": 752,
      "ি": 753,
      "ী": 754,
      "ু": 755,
      "ূ": 756,
      "ে": 757,
      "ৈ": 758,
      "ো": 759,
      "্": 760,
      "ৰ": 761,
      "ਂ": 762,
      "ਅ": 763,
      "ਉ": 764,
      "ਖ": 765,
      "ਘ": 766,
      "ਜ": 767,
      "ਝ": 768,
      "ਦ": 769,
      "ਲ": 770,
      "ਵ": 771,
      "ਸ": 772,
      "ਹ": 773,
      "਼": 774,
      "ਾ": 775,
      "ਿ": 776,
      "ੁ": 777,
      "ੇ": 778,
      "ੰ": 779,
      "ੱ": 780,
      "ખ": 781,
      "ફ": 782,
      "બ": 783,
      "ર": 784,
      "લ": 785,
      "સ": 786,
      "ા": 787,
      "ો": 788,
      "ପ": 789,
      "ର": 790,
      "ୀ": 791,
      "ୁ": 792,
      "ஃ": 793,
      "அ": 794,
      "ஆ": 795,
      "இ": 796,
      "ஈ": 797,
      "எ": 798,
      "ஒ": 799,
      "க": 800,
      "ங": 801,
      "ச": 802,
      "ட": 803,
      "ண": 804,
      "த": 805,
      "ந": 806,
      "ன": 807,
      "ப": 808,
      "ம": 809,
      "ய": 810,
      "ர": 811,
      "ற": 812,
      "ல": 813,
      "ள": 814,
      "ழ": 815,
      "வ": 816,
      "ஸ": 817,
      "ா": 818,
      "ி": 819,
      "ீ": 820,
      "ு": 821,
      "ூ": 822,
      "ெ": 823,
      "ே": 824,
      "ை": 825,
      "ோ": 826,
      "்": 827,
      "ం": 828,
      "క": 829,
      "ఖ": 830,
      "గ": 831,
      "జ": 832,
      "ట": 833,
      "ఠ": 834,
      "డ": 835,
      "త": 836,
      "థ": 837,
      "ద": 838,
      "న": 839,
      "ప": 840,
      "బ": 841,
      "భ": 842,
      "మ": 843,
      "య": 844,
      "ర": 845,
      "ల": 846,
      "వ": 847,
      "ష": 848,
      "స": 849,
      "ా": 850,
      "ి": 851,
      "ీ": 852,
      "ు": 853,
      "ై": 854,
      "ో": 855,
      "్": 856,
      "ಂ": 857,
      "ಃ": 858,
      "ಕ": 859,
      "ಖ": 860,
      "ಗ": 861,
      "ಚ": 862,
      "ಟ": 863,
      "ಠ": 864,
      "ಡ": 865,
      "ತ": 866,
      "ದ": 867,
      "ನ": 868,
      "ಪ": 869,
      "ಬ": 870,
      "ಭ": 871,
      "ಮ": 872,
      "ಯ": 873,
      "ರ": 874,
      "ಱ": 875,
      "ಲ": 876,
      "ಳ": 877,
      "ವ": 878,
      "ಶ": 879,
      "ಸ": 880,
      "ಹ": 881,
      "ಾ": 882,
      "ಿ": 883,
      "ು": 884,
      "ೇ": 885,
      "ೋ": 886,
      "್": 887,
      "ೞ": 888,
      "അ": 889,
      "ങ": 890,
      "ദ": 891,
      "ന": 892,
      "പ": 893,
      "മ": 894,
      "യ": 895,
      "ര": 896,
      "ള": 897,
      "വ": 898,
      "ശ": 899,
      "സ": 900,
      "ഹ": 901,
      "ാ": 902,
      "ി": 903,
      "്": 904,
      "අ": 905,
      "එ": 906,
      "ක": 907,
      "ග": 908,
      "ජ": 909,
      "ත": 910,
      "ධ": 911,
      "න": 912,
      "ප": 913,
      "ම": 914,
      "ය": 915,
      "ර": 916,
      "ල": 917,
      "ව": 918,
      "ශ": 919,
      "හ": 920,
      "ළ": 921,
      "්": 922,
      "ා": 923,
      "ැ": 924,
      "ි": 925,
      "ු": 926,
      "ේ": 927,
      "ෝ": 928,
      "ก": 929,
      "ข": 930,
      "ค": 931,
      "ฆ": 932,
      "ง": 933,
      "จ": 934,
      "ฉ": 935,
      "ช": 936,
      "ซ": 937,
      "ญ": 938,
      "ฎ": 939,
      "ฏ": 940,
      "ฐ": 941,
      "ฑ": 942,
      "ณ": 943,
      "ด": 944,
      "ต": 945,
      "ถ": 946,
      "ท": 947,
      "ธ": 948,
      "น": 949,
      "บ": 950,
      "ป": 951,
      "ผ": 952,
      "ฝ": 953,
      "พ": 954,
      "ฟ": 955,
      "ภ": 956,
      "ม": 957,
      "ย": 958,
      "ร": 959,
      "ฤ": 960,
      "ล": 961,
      "ว": 962,
      "ศ": 963,
      "ษ": 964,
      "ส": 965,
      "ห": 966,
      "ฬ": 967,
      "อ": 968,
      "ฮ": 969,
      "ะ": 970,
      "ั": 971,
      "า": 972,
      "ำ": 973,
      "ิ": 974,
      "ี": 975,
      "ึ": 976,
      "ื": 977,
      "ุ": 978,
      "ู": 979,
      "฿": 980,
      "เ": 981,
      "แ": 982,
      "โ": 983,
      "ใ": 984,
      "ไ": 985,
      "็": 986,
      "่": 987,
      "้": 988,
      "๊": 989,
      "์": 990,
      "་": 991,
      "༌": 992,
      "།": 993,
      "ཀ": 994,
      "ཁ": 995,
      "ག": 996,
      "ང": 997,
      "ཆ": 998,
      "ཇ": 999,
      "ཐ": 1000,
      "ད": 1001,
      "ན": 1002,
      "པ": 1003,
      "བ": 1004,
      "མ": 1005,
      "ཙ": 1006,
      "ཚ": 1007,
      "ཛ": 1008,
      "འ": 1009,
      "ཡ": 1010,
      "ར": 1011,
      "ལ": 1012,
      "ས": 1013,
      "ཧ": 1014,
      "ི": 1015,
      "ུ": 1016,
      "ེ": 1017,
      "ོ": 1018,
      "ྟ": 1019,
      "ྡ": 1020,
      "ྣ": 1021,
      "ྤ": 1022,
      "ྥ": 1023,
      "ྱ": 1024,
      "ྲ": 1025,
      "က": 1026,
      "ဂ": 1027,
      "င": 1028,
      "စ": 1029,
      "ဆ": 1030,
      "ဇ": 1031,
      "တ": 1032,
      "န": 1033,
      "ပ": 1034,
      "ဗ": 1035,
      "ဘ": 1036,
      "မ": 1037,
      "ယ": 1038,
      "ရ": 1039,
      "လ": 1040,
      "ဝ": 1041,
      "ဟ": 1042,
      "အ": 1043,
      "ာ": 1044,
      "ိ": 1045,
      "ီ": 1046,
      "ု": 1047,
      "ူ": 1048,
      "ဲ": 1049,
      "း": 1050,
      "္": 1051,
      "်": 1052,
      "ျ": 1053,
      "ြ": 1054,
      "ွ": 1055,
      "ှ": 1056,
      "၁": 1057,
      "၂": 1058,
      "၇": 1059,
      "၈": 1060,
      "ა": 1061,
      "ბ": 1062,
      "გ": 1063,
      "დ": 1064,
      "ე": 1065,
      "ვ": 1066,
      "ზ": 1067,
      "თ": 1068,
      "ი": 1069,
      "კ": 1070,
      "ლ": 1071,
      "მ": 1072,
      "ნ": 1073,
      "ო": 1074,
      "პ": 1075,
      "ჟ": 1076,
      "რ": 1077,
      "ს": 1078,
      "ტ": 1079,
      "უ": 1080,
      "ფ": 1081,
      "ქ": 1082,
      "ღ": 1083,
      "ყ": 1084,
      "შ": 1085,
      "ჩ": 1086,
      "ც": 1087,
      "ძ": 1088,
      "წ": 1089,
      "ჭ": 1090,
      "ხ": 1091,
      "ჯ": 1092,
      "ჰ": 1093,
      "ჱ": 1094,
      "ჲ": 1095,
      "ჳ": 1096,
      "ჴ": 1097,
      "ჵ": 1098,
      "ჶ": 1099,
      "ჷ": 1100,
      "ჸ": 1101,
      "ჹ": 1102,
      "ჺ": 1103,
      "჻": 1104,
      "ሀ": 1105,
      "ለ": 1106,
      "ሐ": 1107,
      "ሓ": 1108,
      "ሕ": 1109,
      "መ": 1110,
      "ማ": 1111,
      "ሥ": 1112,
      "ረ": 1113,
      "ር": 1114,
      "ሰ": 1115,
      "ስ": 1116,
      "ቆ": 1117,
      "ቈ": 1118,
      "በ": 1119,
      "ብ": 1120,
      "ቲ": 1121,
      "ታ": 1122,
      "ት": 1123,
      "ነ": 1124,
      "ና": 1125,
      "ን": 1126,
      "ኖ": 1127,
      "አ": 1128,
      "ኢ": 1129,
      "እ": 1130,
      "ከ": 1131,
      "ኲ": 1132,
      "ዕ": 1133,
      "ዘ": 1134,
      "ዛ": 1135,
      "የ": 1136,
      "ያ": 1137,
      "ይ": 1138,
      "ዮ": 1139,
      "ደ": 1140,
      "ድ": 1141,
      "ጅ": 1142,
      "ገ": 1143,
      "ጉ": 1144,
      "ጵ": 1145,
      "ፈ": 1146,
      "ፍ": 1147,
      "፡": 1148,
      "ᏹ": 1149,
      "ᐊ": 1150,
      "ᑲ": 1151,
      "ᒡ": 1152,
      "ᓘ": 1153,
      "ᚢ": 1154,
      "ᚣ": 1155,
      "ᚦ": 1156,
      "ᚨ": 1157,
      "ᚩ": 1158,
      "ᚬ": 1159,
      "ᚱ": 1160,
      "ᚷ": 1161,
      "ᚹ": 1162,
      "ᚺ": 1163,
      "ᚻ": 1164,
      "ᚼ": 1165,
      "ᚾ": 1166,
      "ᛁ": 1167,
      "ᛃ": 1168,
      "ᛄ": 1169,
      "ᛇ": 1170,
      "ᛋ": 1171,
      "ᛏ": 1172,
      "ᛒ": 1173,
      "ᛗ": 1174,
      "ᛚ": 1175,
      "ᛝ": 1176,
      "ᛞ": 1177,
      "ᛟ": 1178,
      "ᛠ": 1179,
      "ក": 1180,
      "ខ": 1181,
      "គ": 1182,
      "ង": 1183,
      "ច": 1184,
      "ឆ": 1185,
      "ជ": 1186,
      "ញ": 1187,
      "ដ": 1188,
      "ឋ": 1189,
      "ណ": 1190,
      "ត": 1191,
      "ថ": 1192,
      "ទ": 1193,
      "ធ": 1194,
      "ន": 1195,
      "ប": 1196,
      "ព": 1197,
      "ភ": 1198,
      "ម": 1199,
      "យ": 1200,
      "រ": 1201,
      "ល": 1202,
      "វ": 1203,
      "ស": 1204,
      "ហ": 1205,
      "អ": 1206,
      "ឥ": 1207,
      "ឪ": 1208,
      "ឫ": 1209,
      "ឯ": 1210,
      "឵": 1211,
      "ា": 1212,
      "ិ": 1213,
      "ី": 1214,
      "ឹ": 1215,
      "ឺ": 1216,
      "ុ": 1217,
      "ូ": 1218,
      "ួ": 1219,
      "ៀ": 1220,
      "េ": 1221,
      "ែ": 1222,
      "ៃ": 1223,
      "ោ": 1224,
      "ៅ": 1225,
      "ំ": 1226,
      "ះ": 1227,
      "ៈ": 1228,
      "៉": 1229,
      "់": 1230,
      "្": 1231,
      "ᠠ": 1232,
      "ᠣ": 1233,
      "ᠨ": 1234,
      "ᠪ": 1235,
      "ᠮ": 1236,
      "ᠯ": 1237,
      "ᠰ": 1238,
      "ᠴ": 1239,
      "ᠵ": 1240,
      "ᠸ": 1241,
      "ᡝ": 1242,
      "ᡠ": 1243,
      "ᡥ": 1244,
      "ᡨ": 1245,
      "ᡳ": 1246,
      "ᡴ": 1247,
      "ᡵ": 1248,
      "ᴰ": 1249,
      "ᴷ": 1250,
      "ᴺ": 1251,
      "ᵀ": 1252,
      "ᵊ": 1253,
      "ᵑ": 1254,
      "ᵗ": 1255,
      "ᵘ": 1256,
      "ᵝ": 1257,
      "ᵻ": 1258,
      "ᵿ": 1259,
      "ᶑ": 1260,
      "ᶢ": 1261,
      "ᶦ": 1262,
      "ᶴ": 1263,
      "ᶷ": 1264,
      "᷄": 1265,
      "᷅": 1266,
      "᷆": 1267,
      "᷇": 1268,
      "᷈": 1269,
      "᷉": 1270,
      "᷽": 1271,
      "ḍ": 1272,
      "ḏ": 1273,
      "ḑ": 1274,
      "ḕ": 1275,
      "ḗ": 1276,
      "ḣ": 1277,
      "ḥ": 1278,
      "ḩ": 1279,
      "ḫ": 1280,
      "ḭ": 1281,
      "ḱ": 1282,
      "ḳ": 1283,
      "ḵ": 1284,
      "ḷ": 1285,
      "ḹ": 1286,
      "ḻ": 1287,
      "ḿ": 1288,
      "ṁ": 1289,
      "ṃ": 1290,
      "ṅ": 1291,
      "ṇ": 1292,
      "ṉ": 1293,
      "ṓ": 1294,
      "ṙ": 1295,
      "ṛ": 1296,
      "ṝ": 1297,
      "ṟ": 1298,
      "ṣ": 1299,
      "ṧ": 1300,
      "ṫ": 1301,
      "ṭ": 1302,
      "ṯ": 1303,
      "ṳ": 1304,
      "ṵ": 1305,
      "ṽ": 1306,
      "ẃ": 1307,
      "ẓ": 1308,
      "ẖ": 1309,
      "ạ": 1310,
      "ả": 1311,
      "ấ": 1312,
      "ầ": 1313,
      "ẩ": 1314,
      "ẫ": 1315,
      "ậ": 1316,
      "ắ": 1317,
      "ằ": 1318,
      "ẵ": 1319,
      "ặ": 1320,
      "ẹ": 1321,
      "ẻ": 1322,
      "ẽ": 1323,
      "ế": 1324,
      "ề": 1325,
      "ể": 1326,
      "ễ": 1327,
      "ệ": 1328,
      "ỉ": 1329,
      "ị": 1330,
      "ọ": 1331,
      "ỏ": 1332,
      "ố": 1333,
      "ồ": 1334,
      "ổ": 1335,
      "ỗ": 1336,
      "ộ": 1337,
      "ớ": 1338,
      "ờ": 1339,
      "ở": 1340,
      "ợ": 1341,
      "ụ": 1342,
      "ủ": 1343,
      "ứ": 1344,
      "ừ": 1345,
      "ử": 1346,
      "ữ": 1347,
      "ự": 1348,
      "ỳ": 1349,
      "ỵ": 1350,
      "ỹ": 1351,
      "ἀ": 1352,
      "ἁ": 1353,
      "ἂ": 1354,
      "ἃ": 1355,
      "ἄ": 1356,
      "ἅ": 1357,
      "ἐ": 1358,
      "ἑ": 1359,
      "ἒ": 1360,
      "ἔ": 1361,
      "ἕ": 1362,
      "ἠ": 1363,
      "ἡ": 1364,
      "ἢ": 1365,
      "ἤ": 1366,
      "ἥ": 1367,
      "ἦ": 1368,
      "ἧ": 1369,
      "ἰ": 1370,
      "ἱ": 1371,
      "ἲ": 1372,
      "ἳ": 1373,
      "ἴ": 1374,
      "ἵ": 1375,
      "ἶ": 1376,
      "ἷ": 1377,
      "ὀ": 1378,
      "ὁ": 1379,
      "ὂ": 1380,
      "ὃ": 1381,
      "ὄ": 1382,
      "ὅ": 1383,
      "ὐ": 1384,
      "ὑ": 1385,
      "ὔ": 1386,
      "ὕ": 1387,
      "ὖ": 1388,
      "ὗ": 1389,
      "ὠ": 1390,
      "ὡ": 1391,
      "ὣ": 1392,
      "ὤ": 1393,
      "ὥ": 1394,
      "ὦ": 1395,
      "ὰ": 1396,
      "ὲ": 1397,
      "ὴ": 1398,
      "ὶ": 1399,
      "ὸ": 1400,
      "ὺ": 1401,
      "ὼ": 1402,
      "ᾓ": 1403,
      "ᾰ": 1404,
      "ᾳ": 1405,
      "ᾶ": 1406,
      "ᾷ": 1407,
      "᾿": 1408,
      "ῆ": 1409,
      "ῇ": 1410,
      "ῐ": 1411,
      "ῑ": 1412,
      "ῖ": 1413,
      "ῠ": 1414,
      "ῥ": 1415,
      "ῦ": 1416,
      "ῳ": 1417,
      "ῶ": 1418,
      "ῷ": 1419,
      "​": 1420,
      "‌": 1421,
      "‍": 1422,
      "‐": 1423,
      "‑": 1424,
      "‒": 1425,
      "–": 1426,
      "—": 1427,
      "―": 1428,
      "‖": 1429,
      "‘": 1430,
      "’": 1431,
      "‚": 1432,
      "‛": 1433,
      "“": 1434,
      "”": 1435,
      "„": 1436,
      "‟": 1437,
      "†": 1438,
      "‡": 1439,
      "•": 1440,
      "…": 1441,
      "‰": 1442,
      "′": 1443,
      "″": 1444,
      "※": 1445,
      "‼": 1446,
      "‿": 1447,
      "⁄": 1448,
      "⁊": 1449,
      "⁠": 1450,
      "⁡": 1451,
      "⁰": 1452,
      "⁺": 1453,
      "ⁿ": 1454,
      "₁": 1455,
      "₂": 1456,
      "₃": 1457,
      "₄": 1458,
      "₡": 1459,
      "₣": 1460,
      "₤": 1461,
      "₦": 1462,
      "₧": 1463,
      "₨": 1464,
      "₩": 1465,
      "₫": 1466,
      "€": 1467,
      "₱": 1468,
      "₴": 1469,
      "₹": 1470,
      "ℂ": 1471,
      "℃": 1472,
      "ℓ": 1473,
      "ℕ": 1474,
      "№": 1475,
      "ℛ": 1476,
      "ℝ": 1477,
      "℞": 1478,
      "™": 1479,
      "ℤ": 1480,
      "℥": 1481,
      "ℵ": 1482,
      "⅓": 1483,
      "⅔": 1484,
      "⅙": 1485,
      "⅛": 1486,
      "⅜": 1487,
      "⅝": 1488,
      "⅞": 1489,
      "ⅱ": 1490,
      "←": 1491,
      "↑": 1492,
      "→": 1493,
      "↓": 1494,
      "↔": 1495,
      "↗": 1496,
      "↘": 1497,
      "↦": 1498,
      "↪": 1499,
      "↵": 1500,
      "⇄": 1501,
      "⇌": 1502,
      "⇒": 1503,
      "⇪": 1504,
      "∀": 1505,
      "∂": 1506,
      "∅": 1507,
      "∆": 1508,
      "∇": 1509,
      "∈": 1510,
      "∉": 1511,
      "∊": 1512,
      "∑": 1513,
      "−": 1514,
      "∕": 1515,
      "∖": 1516,
      "∗": 1517,
      "∘": 1518,
      "√": 1519,
      "∝": 1520,
      "∞": 1521,
      "∤": 1522,
      "∩": 1523,
      "∪": 1524,
      "∫": 1525,
      "∴": 1526,
      "∼": 1527,
      "≈": 1528,
      "≠": 1529,
      "≡": 1530,
      "≢": 1531,
      "≤": 1532,
      "≥": 1533,
      "≪": 1534,
      "≫": 1535,
      "≲": 1536,
      "⊂": 1537,
      "⊕": 1538,
      "⊗": 1539,
      "⊙": 1540,
      "⊞": 1541,
      "⊢": 1542,
      "⊣": 1543,
      "⊥": 1544,
      "⋅": 1545,
      "⋆": 1546,
      "⋯": 1547,
      "⌊": 1548,
      "⌋": 1549,
      "⌘": 1550,
      "①": 1551,
      "②": 1552,
      "③": 1553,
      "④": 1554,
      "⑤": 1555,
      "⑥": 1556,
      "⑦": 1557,
      "⑧": 1558,
      "─": 1559,
      "█": 1560,
      "▢": 1561,
      "▲": 1562,
      "▼": 1563,
      "○": 1564,
      "●": 1565,
      "◦": 1566,
      "☄": 1567,
      "★": 1568,
      "☆": 1569,
      "☉": 1570,
      "☧": 1571,
      "☫": 1572,
      "☭": 1573,
      "☽": 1574,
      "☾": 1575,
      "♀": 1576,
      "♂": 1577,
      "♄": 1578,
      "♅": 1579,
      "♆": 1580,
      "♇": 1581,
      "♈": 1582,
      "♉": 1583,
      "♠": 1584,
      "♣": 1585,
      "♥": 1586,
      "♦": 1587,
      "♩": 1588,
      "♪": 1589,
      "♭": 1590,
      "♮": 1591,
      "♯": 1592,
      "⚳": 1593,
      "⚴": 1594,
      "⚵": 1595,
      "⛢": 1596,
      "✗": 1597,
      "✡": 1598,
      "✱": 1599,
      "❄": 1600,
      "❅": 1601,
      "❆": 1602,
      "❤": 1603,
      "⟦": 1604,
      "⟧": 1605,
      "⟨": 1606,
      "⟩": 1607,
      "⥇": 1608,
      "⩽": 1609,
      "⫶": 1610,
      "ⱱ": 1611,
      "ⲁ": 1612,
      "ⲛ": 1613,
      "ⲥ": 1614,
      "ⲧ": 1615,
      "ⲩ": 1616,
      "ⲫ": 1617,
      "ⲱ": 1618,
      "ⴀ": 1619,
      "ⴂ": 1620,
      "ⴃ": 1621,
      "ⴈ": 1622,
      "ⴌ": 1623,
      "ⴕ": 1624,
      "ⴟ": 1625,
      "ⴰ": 1626,
      "ⴳ": 1627,
      "ⴷ": 1628,
      "ⴻ": 1629,
      "ⴼ": 1630,
      "ⴽ": 1631,
      "ⵃ": 1632,
      "ⵇ": 1633,
      "ⵉ": 1634,
      "ⵍ": 1635,
      "ⵎ": 1636,
      "ⵏ": 1637,
      "ⵓ": 1638,
      "ⵔ": 1639,
      "ⵕ": 1640,
      "ⵖ": 1641,
      "ⵙ": 1642,
      "ⵛ": 1643,
      "ⵜ": 1644,
      "ⵡ": 1645,
      "ⵢ": 1646,
      "ⵣ": 1647,
      "⸨": 1648,
      "⸩": 1649,
      "、": 1650,
      "。": 1651,
      "々": 1652,
      "〈": 1653,
      "〉": 1654,
      "《": 1655,
      "》": 1656,
      "「": 1657,
      "」": 1658,
      "『": 1659,
      "』": 1660,
      "【": 1661,
      "】": 1662,
      "〒": 1663,
      "〜": 1664,
      "あ": 1665,
      "ぃ": 1666,
      "い": 1667,
      "ぅ": 1668,
      "う": 1669,
      "ぇ": 1670,
      "え": 1671,
      "ぉ": 1672,
      "お": 1673,
      "か": 1674,
      "が": 1675,
      "き": 1676,
      "ぎ": 1677,
      "く": 1678,
      "ぐ": 1679,
      "け": 1680,
      "げ": 1681,
      "こ": 1682,
      "ご": 1683,
      "さ": 1684,
      "ざ": 1685,
      "し": 1686,
      "じ": 1687,
      "す": 1688,
      "ず": 1689,
      "せ": 1690,
      "ぜ": 1691,
      "そ": 1692,
      "ぞ": 1693,
      "た": 1694,
      "だ": 1695,
      "ち": 1696,
      "っ": 1697,
      "つ": 1698,
      "づ": 1699,
      "て": 1700,
      "で": 1701,
      "と": 1702,
      "ど": 1703,
      "な": 1704,
      "に": 1705,
      "ぬ": 1706,
      "ね": 1707,
      "の": 1708,
      "は": 1709,
      "ば": 1710,
      "ぱ": 1711,
      "ひ": 1712,
      "び": 1713,
      "ぴ": 1714,
      "ふ": 1715,
      "ぶ": 1716,
      "ぷ": 1717,
      "へ": 1718,
      "べ": 1719,
      "ぺ": 1720,
      "ほ": 1721,
      "ぼ": 1722,
      "ぽ": 1723,
      "ま": 1724,
      "み": 1725,
      "む": 1726,
      "め": 1727,
      "も": 1728,
      "ゃ": 1729,
      "や": 1730,
      "ゅ": 1731,
      "ゆ": 1732,
      "ょ": 1733,
      "よ": 1734,
      "ら": 1735,
      "り": 1736,
      "る": 1737,
      "れ": 1738,
      "ろ": 1739,
      "わ": 1740,
      "ゑ": 1741,
      "を": 1742,
      "ん": 1743,
      "ァ": 1744,
      "ア": 1745,
      "ィ": 1746,
      "イ": 1747,
      "ゥ": 1748,
      "ウ": 1749,
      "ェ": 1750,
      "エ": 1751,
      "ォ": 1752,
      "オ": 1753,
      "カ": 1754,
      "ガ": 1755,
      "キ": 1756,
      "ギ": 1757,
      "ク": 1758,
      "グ": 1759,
      "ケ": 1760,
      "ゲ": 1761,
      "コ": 1762,
      "ゴ": 1763,
      "サ": 1764,
      "ザ": 1765,
      "シ": 1766,
      "ジ": 1767,
      "ス": 1768,
      "ズ": 1769,
      "セ": 1770,
      "ゼ": 1771,
      "ソ": 1772,
      "ゾ": 1773,
      "タ": 1774,
      "ダ": 1775,
      "チ": 1776,
      "ヂ": 1777,
      "ッ": 1778,
      "ツ": 1779,
      "ヅ": 1780,
      "テ": 1781,
      "デ": 1782,
      "ト": 1783,
      "ド": 1784,
      "ナ": 1785,
      "ニ": 1786,
      "ヌ": 1787,
      "ネ": 1788,
      "ノ": 1789,
      "ハ": 1790,
      "バ": 1791,
      "パ": 1792,
      "ヒ": 1793,
      "ビ": 1794,
      "ピ": 1795,
      "フ": 1796,
      "ブ": 1797,
      "プ": 1798,
      "ヘ": 1799,
      "ベ": 1800,
      "ペ": 1801,
      "ホ": 1802,
      "ボ": 1803,
      "ポ": 1804,
      "マ": 1805,
      "ミ": 1806,
      "ム": 1807,
      "メ": 1808,
      "モ": 1809,
      "ャ": 1810,
      "ヤ": 1811,
      "ュ": 1812,
      "ユ": 1813,
      "ョ": 1814,
      "ヨ": 1815,
      "ラ": 1816,
      "リ": 1817,
      "ル": 1818,
      "レ": 1819,
      "ロ": 1820,
      "ワ": 1821,
      "ヲ": 1822,
      "ン": 1823,
      "ヴ": 1824,
      "ヶ": 1825,
      "・": 1826,
      "ー": 1827,
      "一": 1828,
      "丁": 1829,
      "七": 1830,
      "万": 1831,
      "丈": 1832,
      "三": 1833,
      "上": 1834,
      "下": 1835,
      "不": 1836,
      "与": 1837,
      "丑": 1838,
      "且": 1839,
      "世": 1840,
      "丘": 1841,
      "丙": 1842,
      "东": 1843,
      "丝": 1844,
      "丞": 1845,
      "両": 1846,
      "丨": 1847,
      "个": 1848,
      "中": 1849,
      "丶": 1850,
      "丸": 1851,
      "丹": 1852,
      "为": 1853,
      "主": 1854,
      "丽": 1855,
      "丿": 1856,
      "乃": 1857,
      "久": 1858,
      "么": 1859,
      "义": 1860,
      "之": 1861,
      "乌": 1862,
      "乎": 1863,
      "乐": 1864,
      "乘": 1865,
      "乙": 1866,
      "乚": 1867,
      "乛": 1868,
      "九": 1869,
      "也": 1870,
      "习": 1871,
      "书": 1872,
      "乩": 1873,
      "买": 1874,
      "乱": 1875,
      "乳": 1876,
      "乾": 1877,
      "亀": 1878,
      "亅": 1879,
      "了": 1880,
      "予": 1881,
      "争": 1882,
      "事": 1883,
      "二": 1884,
      "云": 1885,
      "五": 1886,
      "井": 1887,
      "亚": 1888,
      "些": 1889,
      "亜": 1890,
      "亞": 1891,
      "亡": 1892,
      "交": 1893,
      "亦": 1894,
      "亨": 1895,
      "京": 1896,
      "亮": 1897,
      "亰": 1898,
      "人": 1899,
      "什": 1900,
      "仁": 1901,
      "仇": 1902,
      "今": 1903,
      "介": 1904,
      "仔": 1905,
      "仕": 1906,
      "他": 1907,
      "付": 1908,
      "仙": 1909,
      "代": 1910,
      "令": 1911,
      "以": 1912,
      "仪": 1913,
      "们": 1914,
      "仮": 1915,
      "仰": 1916,
      "仲": 1917,
      "件": 1918,
      "任": 1919,
      "份": 1920,
      "伊": 1921,
      "伏": 1922,
      "伐": 1923,
      "休": 1924,
      "会": 1925,
      "伝": 1926,
      "伟": 1927,
      "传": 1928,
      "伪": 1929,
      "伯": 1930,
      "伴": 1931,
      "伸": 1932,
      "似": 1933,
      "佃": 1934,
      "但": 1935,
      "位": 1936,
      "住": 1937,
      "佐": 1938,
      "佑": 1939,
      "体": 1940,
      "何": 1941,
      "余": 1942,
      "佛": 1943,
      "作": 1944,
      "你": 1945,
      "佳": 1946,
      "併": 1947,
      "使": 1948,
      "來": 1949,
      "例": 1950,
      "侍": 1951,
      "侗": 1952,
      "供": 1953,
      "依": 1954,
      "侠": 1955,
      "侨": 1956,
      "侬": 1957,
      "侯": 1958,
      "係": 1959,
      "促": 1960,
      "俄": 1961,
      "俊": 1962,
      "保": 1963,
      "信": 1964,
      "俭": 1965,
      "修": 1966,
      "俱": 1967,
      "俳": 1968,
      "倉": 1969,
      "個": 1970,
      "們": 1971,
      "候": 1972,
      "借": 1973,
      "倪": 1974,
      "倫": 1975,
      "倭": 1976,
      "偃": 1977,
      "假": 1978,
      "偏": 1979,
      "健": 1980,
      "側": 1981,
      "偵": 1982,
      "偽": 1983,
      "傀": 1984,
      "傅": 1985,
      "傑": 1986,
      "傘": 1987,
      "備": 1988,
      "催": 1989,
      "傭": 1990,
      "傳": 1991,
      "傷": 1992,
      "像": 1993,
      "僑": 1994,
      "僕": 1995,
      "僧": 1996,
      "儀": 1997,
      "億": 1998,
      "儒": 1999,
      "儚": 2000,
      "儡": 2001,
      "優": 2002,
      "儿": 2003,
      "允": 2004,
      "元": 2005,
      "充": 2006,
      "兆": 2007,
      "先": 2008,
      "光": 2009,
      "克": 2010,
      "免": 2011,
      "兒": 2012,
      "兔": 2013,
      "兜": 2014,
      "入": 2015,
      "內": 2016,
      "全": 2017,
      "兩": 2018,
      "八": 2019,
      "公": 2020,
      "六": 2021,
      "兰": 2022,
      "共": 2023,
      "关": 2024,
      "兵": 2025,
      "其": 2026,
      "具": 2027,
      "典": 2028,
      "养": 2029,
      "冀": 2030,
      "内": 2031,
      "円": 2032,
      "冉": 2033,
      "册": 2034,
      "再": 2035,
      "冒": 2036,
      "写": 2037,
      "军": 2038,
      "冠": 2039,
      "冥": 2040,
      "冫": 2041,
      "冬": 2042,
      "冯": 2043,
      "决": 2044,
      "冴": 2045,
      "冶": 2046,
      "冷": 2047,
      "净": 2048,
      "准": 2049,
      "凌": 2050,
      "凤": 2051,
      "処": 2052,
      "凪": 2053,
      "凯": 2054,
      "凰": 2055,
      "凱": 2056,
      "凶": 2057,
      "凹": 2058,
      "出": 2059,
      "刀": 2060,
      "刃": 2061,
      "分": 2062,
      "切": 2063,
      "刊": 2064,
      "划": 2065,
      "列": 2066,
      "刘": 2067,
      "初": 2068,
      "判": 2069,
      "別": 2070,
      "利": 2071,
      "别": 2072,
      "到": 2073,
      "制": 2074,
      "刷": 2075,
      "券": 2076,
      "刹": 2077,
      "刺": 2078,
      "刻": 2079,
      "則": 2080,
      "前": 2081,
      "剑": 2082,
      "剛": 2083,
      "剣": 2084,
      "剧": 2085,
      "剩": 2086,
      "副": 2087,
      "割": 2088,
      "創": 2089,
      "劃": 2090,
      "劇": 2091,
      "劉": 2092,
      "劍": 2093,
      "力": 2094,
      "办": 2095,
      "功": 2096,
      "加": 2097,
      "劣": 2098,
      "动": 2099,
      "助": 2100,
      "劳": 2101,
      "勃": 2102,
      "勅": 2103,
      "勇": 2104,
      "勒": 2105,
      "動": 2106,
      "勘": 2107,
      "務": 2108,
      "勝": 2109,
      "勞": 2110,
      "勢": 2111,
      "勳": 2112,
      "勾": 2113,
      "包": 2114,
      "化": 2115,
      "北": 2116,
      "匠": 2117,
      "匹": 2118,
      "区": 2119,
      "医": 2120,
      "區": 2121,
      "十": 2122,
      "千": 2123,
      "升": 2124,
      "午": 2125,
      "半": 2126,
      "华": 2127,
      "协": 2128,
      "卐": 2129,
      "卒": 2130,
      "卓": 2131,
      "協": 2132,
      "单": 2133,
      "卖": 2134,
      "南": 2135,
      "博": 2136,
      "卜": 2137,
      "占": 2138,
      "卡": 2139,
      "卢": 2140,
      "卦": 2141,
      "卫": 2142,
      "印": 2143,
      "危": 2144,
      "即": 2145,
      "却": 2146,
      "卸": 2147,
      "卿": 2148,
      "厂": 2149,
      "厄": 2150,
      "历": 2151,
      "厘": 2152,
      "厚": 2153,
      "原": 2154,
      "厥": 2155,
      "厦": 2156,
      "厩": 2157,
      "去": 2158,
      "县": 2159,
      "参": 2160,
      "參": 2161,
      "叉": 2162,
      "及": 2163,
      "友": 2164,
      "双": 2165,
      "反": 2166,
      "収": 2167,
      "发": 2168,
      "叔": 2169,
      "取": 2170,
      "受": 2171,
      "变": 2172,
      "叛": 2173,
      "叠": 2174,
      "叡": 2175,
      "叢": 2176,
      "口": 2177,
      "古": 2178,
      "句": 2179,
      "只": 2180,
      "叫": 2181,
      "召": 2182,
      "可": 2183,
      "台": 2184,
      "史": 2185,
      "右": 2186,
      "叶": 2187,
      "号": 2188,
      "司": 2189,
      "合": 2190,
      "吉": 2191,
      "同": 2192,
      "名": 2193,
      "后": 2194,
      "向": 2195,
      "吕": 2196,
      "君": 2197,
      "吞": 2198,
      "吟": 2199,
      "吧": 2200,
      "启": 2201,
      "吳": 2202,
      "吴": 2203,
      "吸": 2204,
      "吹": 2205,
      "吾": 2206,
      "呂": 2207,
      "呉": 2208,
      "告": 2209,
      "周": 2210,
      "呪": 2211,
      "味": 2212,
      "呼": 2213,
      "命": 2214,
      "咆": 2215,
      "和": 2216,
      "咖": 2217,
      "咙": 2218,
      "咫": 2219,
      "咲": 2220,
      "咸": 2221,
      "哀": 2222,
      "品": 2223,
      "哈": 2224,
      "哉": 2225,
      "响": 2226,
      "員": 2227,
      "哥": 2228,
      "哮": 2229,
      "哲": 2230,
      "唄": 2231,
      "唐": 2232,
      "唯": 2233,
      "唱": 2234,
      "商": 2235,
      "問": 2236,
      "啓": 2237,
      "啟": 2238,
      "啡": 2239,
      "善": 2240,
      "喇": 2241,
      "喋": 2242,
      "喚": 2243,
      "喜": 2244,
      "喝": 2245,
      "喬": 2246,
      "嘉": 2247,
      "嘘": 2248,
      "噛": 2249,
      "器": 2250,
      "嚣": 2251,
      "嚴": 2252,
      "囁": 2253,
      "囂": 2254,
      "囃": 2255,
      "囚": 2256,
      "四": 2257,
      "回": 2258,
      "因": 2259,
      "团": 2260,
      "団": 2261,
      "図": 2262,
      "国": 2263,
      "图": 2264,
      "圈": 2265,
      "國": 2266,
      "圍": 2267,
      "圏": 2268,
      "園": 2269,
      "圓": 2270,
      "圖": 2271,
      "土": 2272,
      "圣": 2273,
      "圧": 2274,
      "在": 2275,
      "地": 2276,
      "圻": 2277,
      "坂": 2278,
      "均": 2279,
      "坊": 2280,
      "坑": 2281,
      "块": 2282,
      "坚": 2283,
      "坝": 2284,
      "坡": 2285,
      "坤": 2286,
      "坪": 2287,
      "型": 2288,
      "垣": 2289,
      "城": 2290,
      "埔": 2291,
      "域": 2292,
      "執": 2293,
      "培": 2294,
      "基": 2295,
      "堀": 2296,
      "堂": 2297,
      "堅": 2298,
      "堆": 2299,
      "堡": 2300,
      "堤": 2301,
      "堯": 2302,
      "報": 2303,
      "場": 2304,
      "塊": 2305,
      "塔": 2306,
      "塘": 2307,
      "塚": 2308,
      "塞": 2309,
      "塩": 2310,
      "填": 2311,
      "塵": 2312,
      "境": 2313,
      "墓": 2314,
      "墙": 2315,
      "增": 2316,
      "壁": 2317,
      "壌": 2318,
      "壓": 2319,
      "壟": 2320,
      "壤": 2321,
      "士": 2322,
      "壬": 2323,
      "壮": 2324,
      "壯": 2325,
      "声": 2326,
      "壱": 2327,
      "売": 2328,
      "壳": 2329,
      "壷": 2330,
      "壽": 2331,
      "处": 2332,
      "备": 2333,
      "変": 2334,
      "复": 2335,
      "夏": 2336,
      "夕": 2337,
      "外": 2338,
      "多": 2339,
      "夜": 2340,
      "够": 2341,
      "夢": 2342,
      "夤": 2343,
      "大": 2344,
      "天": 2345,
      "太": 2346,
      "夫": 2347,
      "央": 2348,
      "失": 2349,
      "头": 2350,
      "夷": 2351,
      "奇": 2352,
      "奈": 2353,
      "奉": 2354,
      "奎": 2355,
      "奏": 2356,
      "奐": 2357,
      "契": 2358,
      "奔": 2359,
      "套": 2360,
      "奥": 2361,
      "奧": 2362,
      "奪": 2363,
      "女": 2364,
      "奴": 2365,
      "好": 2366,
      "如": 2367,
      "妃": 2368,
      "妇": 2369,
      "妍": 2370,
      "妖": 2371,
      "妙": 2372,
      "妮": 2373,
      "妹": 2374,
      "妻": 2375,
      "姉": 2376,
      "姊": 2377,
      "始": 2378,
      "姑": 2379,
      "委": 2380,
      "姚": 2381,
      "姥": 2382,
      "姦": 2383,
      "姫": 2384,
      "姬": 2385,
      "姿": 2386,
      "威": 2387,
      "娘": 2388,
      "娜": 2389,
      "婁": 2390,
      "婆": 2391,
      "婚": 2392,
      "婷": 2393,
      "嫁": 2394,
      "嬢": 2395,
      "嬴": 2396,
      "子": 2397,
      "孔": 2398,
      "字": 2399,
      "存": 2400,
      "孙": 2401,
      "孛": 2402,
      "孝": 2403,
      "孟": 2404,
      "季": 2405,
      "孤": 2406,
      "学": 2407,
      "孩": 2408,
      "孫": 2409,
      "孵": 2410,
      "學": 2411,
      "宁": 2412,
      "宅": 2413,
      "宇": 2414,
      "守": 2415,
      "安": 2416,
      "宋": 2417,
      "完": 2418,
      "宏": 2419,
      "宗": 2420,
      "官": 2421,
      "宙": 2422,
      "定": 2423,
      "宜": 2424,
      "宝": 2425,
      "实": 2426,
      "実": 2427,
      "客": 2428,
      "宣": 2429,
      "室": 2430,
      "宫": 2431,
      "宮": 2432,
      "宴": 2433,
      "宵": 2434,
      "家": 2435,
      "宸": 2436,
      "容": 2437,
      "宿": 2438,
      "寂": 2439,
      "寄": 2440,
      "密": 2441,
      "寇": 2442,
      "富": 2443,
      "寔": 2444,
      "寗": 2445,
      "寛": 2446,
      "寝": 2447,
      "寞": 2448,
      "察": 2449,
      "寧": 2450,
      "寨": 2451,
      "審": 2452,
      "寬": 2453,
      "寵": 2454,
      "寶": 2455,
      "寸": 2456,
      "对": 2457,
      "寺": 2458,
      "寻": 2459,
      "対": 2460,
      "寿": 2461,
      "封": 2462,
      "射": 2463,
      "将": 2464,
      "將": 2465,
      "尉": 2466,
      "尊": 2467,
      "尋": 2468,
      "對": 2469,
      "導": 2470,
      "小": 2471,
      "少": 2472,
      "尔": 2473,
      "尚": 2474,
      "尧": 2475,
      "就": 2476,
      "尸": 2477,
      "尹": 2478,
      "尺": 2479,
      "尼": 2480,
      "尽": 2481,
      "尾": 2482,
      "局": 2483,
      "居": 2484,
      "届": 2485,
      "屋": 2486,
      "屍": 2487,
      "屑": 2488,
      "展": 2489,
      "屠": 2490,
      "層": 2491,
      "屬": 2492,
      "屯": 2493,
      "山": 2494,
      "屿": 2495,
      "岐": 2496,
      "岑": 2497,
      "岚": 2498,
      "岛": 2499,
      "岡": 2500,
      "岩": 2501,
      "岬": 2502,
      "岭": 2503,
      "岳": 2504,
      "岸": 2505,
      "峰": 2506,
      "島": 2507,
      "崇": 2508,
      "崎": 2509,
      "崔": 2510,
      "崖": 2511,
      "嵐": 2512,
      "嶋": 2513,
      "嶺": 2514,
      "嶼": 2515,
      "巂": 2516,
      "巖": 2517,
      "川": 2518,
      "州": 2519,
      "巡": 2520,
      "工": 2521,
      "左": 2522,
      "巨": 2523,
      "巫": 2524,
      "差": 2525,
      "己": 2526,
      "巳": 2527,
      "巴": 2528,
      "巻": 2529,
      "币": 2530,
      "市": 2531,
      "布": 2532,
      "帆": 2533,
      "师": 2534,
      "希": 2535,
      "帕": 2536,
      "帖": 2537,
      "帝": 2538,
      "帥": 2539,
      "带": 2540,
      "師": 2541,
      "帮": 2542,
      "帰": 2543,
      "帶": 2544,
      "常": 2545,
      "幕": 2546,
      "幡": 2547,
      "幣": 2548,
      "干": 2549,
      "平": 2550,
      "年": 2551,
      "幸": 2552,
      "幻": 2553,
      "幽": 2554,
      "广": 2555,
      "庁": 2556,
      "広": 2557,
      "庄": 2558,
      "庆": 2559,
      "庇": 2560,
      "序": 2561,
      "库": 2562,
      "底": 2563,
      "庖": 2564,
      "店": 2565,
      "庙": 2566,
      "庚": 2567,
      "府": 2568,
      "度": 2569,
      "座": 2570,
      "庫": 2571,
      "庭": 2572,
      "庵": 2573,
      "康": 2574,
      "廉": 2575,
      "廊": 2576,
      "廖": 2577,
      "廟": 2578,
      "廣": 2579,
      "廬": 2580,
      "延": 2581,
      "廷": 2582,
      "建": 2583,
      "廻": 2584,
      "廿": 2585,
      "开": 2586,
      "弁": 2587,
      "式": 2588,
      "弐": 2589,
      "弓": 2590,
      "弔": 2591,
      "引": 2592,
      "弘": 2593,
      "弟": 2594,
      "张": 2595,
      "弥": 2596,
      "弦": 2597,
      "弧": 2598,
      "弱": 2599,
      "張": 2600,
      "強": 2601,
      "弹": 2602,
      "强": 2603,
      "弾": 2604,
      "彌": 2605,
      "当": 2606,
      "录": 2607,
      "彖": 2608,
      "彙": 2609,
      "形": 2610,
      "彦": 2611,
      "彩": 2612,
      "彪": 2613,
      "彬": 2614,
      "彭": 2615,
      "影": 2616,
      "役": 2617,
      "彼": 2618,
      "征": 2619,
      "径": 2620,
      "待": 2621,
      "律": 2622,
      "後": 2623,
      "徐": 2624,
      "徒": 2625,
      "得": 2626,
      "從": 2627,
      "御": 2628,
      "復": 2629,
      "微": 2630,
      "徳": 2631,
      "德": 2632,
      "徹": 2633,
      "徽": 2634,
      "心": 2635,
      "必": 2636,
      "忍": 2637,
      "志": 2638,
      "忘": 2639,
      "応": 2640,
      "忠": 2641,
      "快": 2642,
      "念": 2643,
      "怀": 2644,
      "怎": 2645,
      "怒": 2646,
      "怖": 2647,
      "思": 2648,
      "怡": 2649,
      "急": 2650,
      "性": 2651,
      "怨": 2652,
      "怪": 2653,
      "总": 2654,
      "恆": 2655,
      "恋": 2656,
      "恐": 2657,
      "恒": 2658,
      "恢": 2659,
      "恥": 2660,
      "恩": 2661,
      "恭": 2662,
      "息": 2663,
      "恵": 2664,
      "恼": 2665,
      "悔": 2666,
      "悟": 2667,
      "悠": 2668,
      "悦": 2669,
      "悪": 2670,
      "悫": 2671,
      "悲": 2672,
      "悼": 2673,
      "情": 2674,
      "惑": 2675,
      "惟": 2676,
      "惠": 2677,
      "惡": 2678,
      "想": 2679,
      "愁": 2680,
      "愍": 2681,
      "意": 2682,
      "愚": 2683,
      "愛": 2684,
      "感": 2685,
      "愽": 2686,
      "慈": 2687,
      "態": 2688,
      "慎": 2689,
      "慧": 2690,
      "慰": 2691,
      "慶": 2692,
      "憂": 2693,
      "憎": 2694,
      "憑": 2695,
      "憲": 2696,
      "憶": 2697,
      "應": 2698,
      "懍": 2699,
      "懷": 2700,
      "戈": 2701,
      "戊": 2702,
      "戎": 2703,
      "成": 2704,
      "我": 2705,
      "战": 2706,
      "戦": 2707,
      "戯": 2708,
      "戰": 2709,
      "戴": 2710,
      "户": 2711,
      "戸": 2712,
      "房": 2713,
      "所": 2714,
      "扁": 2715,
      "扇": 2716,
      "扈": 2717,
      "扉": 2718,
      "手": 2719,
      "才": 2720,
      "打": 2721,
      "托": 2722,
      "扶": 2723,
      "找": 2724,
      "承": 2725,
      "技": 2726,
      "抄": 2727,
      "抓": 2728,
      "投": 2729,
      "抜": 2730,
      "択": 2731,
      "护": 2732,
      "报": 2733,
      "披": 2734,
      "抱": 2735,
      "抵": 2736,
      "担": 2737,
      "拉": 2738,
      "拍": 2739,
      "拏": 2740,
      "拐": 2741,
      "拖": 2742,
      "拘": 2743,
      "招": 2744,
      "拜": 2745,
      "拟": 2746,
      "拥": 2747,
      "括": 2748,
      "拱": 2749,
      "拳": 2750,
      "拾": 2751,
      "持": 2752,
      "挂": 2753,
      "指": 2754,
      "挑": 2755,
      "挥": 2756,
      "振": 2757,
      "据": 2758,
      "捷": 2759,
      "授": 2760,
      "掛": 2761,
      "採": 2762,
      "探": 2763,
      "控": 2764,
      "掲": 2765,
      "描": 2766,
      "提": 2767,
      "揚": 2768,
      "換": 2769,
      "援": 2770,
      "揺": 2771,
      "摂": 2772,
      "摩": 2773,
      "摸": 2774,
      "撃": 2775,
      "撒": 2776,
      "撞": 2777,
      "播": 2778,
      "撲": 2779,
      "操": 2780,
      "攝": 2781,
      "支": 2782,
      "收": 2783,
      "改": 2784,
      "攻": 2785,
      "放": 2786,
      "政": 2787,
      "故": 2788,
      "敏": 2789,
      "救": 2790,
      "教": 2791,
      "敢": 2792,
      "散": 2793,
      "敦": 2794,
      "敬": 2795,
      "数": 2796,
      "敵": 2797,
      "敷": 2798,
      "數": 2799,
      "文": 2800,
      "斉": 2801,
      "斎": 2802,
      "斗": 2803,
      "料": 2804,
      "斜": 2805,
      "斤": 2806,
      "斩": 2807,
      "斬": 2808,
      "断": 2809,
      "斯": 2810,
      "新": 2811,
      "方": 2812,
      "於": 2813,
      "施": 2814,
      "旅": 2815,
      "旋": 2816,
      "族": 2817,
      "旗": 2818,
      "无": 2819,
      "日": 2820,
      "旦": 2821,
      "旧": 2822,
      "早": 2823,
      "旭": 2824,
      "时": 2825,
      "旺": 2826,
      "昂": 2827,
      "昇": 2828,
      "昌": 2829,
      "明": 2830,
      "昏": 2831,
      "易": 2832,
      "昔": 2833,
      "星": 2834,
      "映": 2835,
      "春": 2836,
      "昭": 2837,
      "是": 2838,
      "昼": 2839,
      "時": 2840,
      "晉": 2841,
      "晋": 2842,
      "晒": 2843,
      "普": 2844,
      "景": 2845,
      "晴": 2846,
      "晶": 2847,
      "智": 2848,
      "暁": 2849,
      "暂": 2850,
      "暖": 2851,
      "暗": 2852,
      "暦": 2853,
      "暮": 2854,
      "暴": 2855,
      "曆": 2856,
      "曜": 2857,
      "曦": 2858,
      "曲": 2859,
      "更": 2860,
      "書": 2861,
      "曹": 2862,
      "曼": 2863,
      "曾": 2864,
      "最": 2865,
      "會": 2866,
      "月": 2867,
      "有": 2868,
      "朋": 2869,
      "服": 2870,
      "朏": 2871,
      "朔": 2872,
      "朗": 2873,
      "望": 2874,
      "朝": 2875,
      "期": 2876,
      "朧": 2877,
      "木": 2878,
      "未": 2879,
      "末": 2880,
      "本": 2881,
      "札": 2882,
      "朱": 2883,
      "朴": 2884,
      "朵": 2885,
      "机": 2886,
      "朽": 2887,
      "杀": 2888,
      "杂": 2889,
      "权": 2890,
      "李": 2891,
      "杏": 2892,
      "材": 2893,
      "村": 2894,
      "杖": 2895,
      "杜": 2896,
      "束": 2897,
      "条": 2898,
      "来": 2899,
      "杨": 2900,
      "杯": 2901,
      "東": 2902,
      "杲": 2903,
      "松": 2904,
      "板": 2905,
      "极": 2906,
      "析": 2907,
      "林": 2908,
      "枚": 2909,
      "果": 2910,
      "枝": 2911,
      "枭": 2912,
      "枯": 2913,
      "架": 2914,
      "柆": 2915,
      "柏": 2916,
      "柔": 2917,
      "柚": 2918,
      "柩": 2919,
      "柱": 2920,
      "柳": 2921,
      "柴": 2922,
      "査": 2923,
      "栄": 2924,
      "标": 2925,
      "栈": 2926,
      "树": 2927,
      "栖": 2928,
      "栗": 2929,
      "栞": 2930,
      "校": 2931,
      "株": 2932,
      "样": 2933,
      "核": 2934,
      "根": 2935,
      "格": 2936,
      "栽": 2937,
      "栾": 2938,
      "桀": 2939,
      "桂": 2940,
      "桃": 2941,
      "案": 2942,
      "桎": 2943,
      "桐": 2944,
      "桑": 2945,
      "桓": 2946,
      "桜": 2947,
      "桥": 2948,
      "桧": 2949,
      "梁": 2950,
      "梅": 2951,
      "梏": 2952,
      "梓": 2953,
      "條": 2954,
      "梦": 2955,
      "梨": 2956,
      "梭": 2957,
      "梯": 2958,
      "械": 2959,
      "梵": 2960,
      "梶": 2961,
      "棋": 2962,
      "棍": 2963,
      "棗": 2964,
      "棘": 2965,
      "棚": 2966,
      "棟": 2967,
      "森": 2968,
      "棲": 2969,
      "棵": 2970,
      "棺": 2971,
      "椅": 2972,
      "植": 2973,
      "椎": 2974,
      "椒": 2975,
      "椛": 2976,
      "検": 2977,
      "椰": 2978,
      "椿": 2979,
      "楊": 2980,
      "楚": 2981,
      "楠": 2982,
      "業": 2983,
      "楯": 2984,
      "極": 2985,
      "楼": 2986,
      "楽": 2987,
      "概": 2988,
      "榆": 2989,
      "榊": 2990,
      "榔": 2991,
      "榛": 2992,
      "榮": 2993,
      "榴": 2994,
      "槐": 2995,
      "様": 2996,
      "槤": 2997,
      "槻": 2998,
      "樂": 2999,
      "樉": 3000,
      "樊": 3001,
      "樓": 3002,
      "樗": 3003,
      "標": 3004,
      "樛": 3005,
      "模": 3006,
      "権": 3007,
      "横": 3008,
      "樱": 3009,
      "樸": 3010,
      "樹": 3011,
      "橋": 3012,
      "橘": 3013,
      "橚": 3014,
      "機": 3015,
      "橫": 3016,
      "橿": 3017,
      "檀": 3018,
      "檜": 3019,
      "檳": 3020,
      "檻": 3021,
      "櫓": 3022,
      "櫻": 3023,
      "權": 3024,
      "欒": 3025,
      "欠": 3026,
      "次": 3027,
      "欣": 3028,
      "欲": 3029,
      "欽": 3030,
      "歌": 3031,
      "歓": 3032,
      "歡": 3033,
      "止": 3034,
      "正": 3035,
      "步": 3036,
      "武": 3037,
      "歩": 3038,
      "歪": 3039,
      "歲": 3040,
      "歳": 3041,
      "歴": 3042,
      "歷": 3043,
      "歸": 3044,
      "死": 3045,
      "殊": 3046,
      "残": 3047,
      "段": 3048,
      "殺": 3049,
      "殻": 3050,
      "殿": 3051,
      "毅": 3052,
      "母": 3053,
      "毎": 3054,
      "每": 3055,
      "比": 3056,
      "毕": 3057,
      "毘": 3058,
      "毛": 3059,
      "毫": 3060,
      "毬": 3061,
      "氏": 3062,
      "民": 3063,
      "气": 3064,
      "気": 3065,
      "氣": 3066,
      "水": 3067,
      "氷": 3068,
      "永": 3069,
      "氾": 3070,
      "汇": 3071,
      "汉": 3072,
      "汐": 3073,
      "汗": 3074,
      "汝": 3075,
      "江": 3076,
      "池": 3077,
      "汤": 3078,
      "汪": 3079,
      "汰": 3080,
      "汶": 3081,
      "決": 3082,
      "汽": 3083,
      "沂": 3084,
      "沃": 3085,
      "沈": 3086,
      "沉": 3087,
      "沌": 3088,
      "沐": 3089,
      "沒": 3090,
      "沖": 3091,
      "沙": 3092,
      "沛": 3093,
      "没": 3094,
      "沢": 3095,
      "沫": 3096,
      "河": 3097,
      "沸": 3098,
      "油": 3099,
      "治": 3100,
      "沼": 3101,
      "沽": 3102,
      "泉": 3103,
      "泊": 3104,
      "法": 3105,
      "泗": 3106,
      "泡": 3107,
      "波": 3108,
      "泣": 3109,
      "泥": 3110,
      "注": 3111,
      "泰": 3112,
      "泾": 3113,
      "洁": 3114,
      "洋": 3115,
      "洛": 3116,
      "洞": 3117,
      "津": 3118,
      "洪": 3119,
      "洲": 3120,
      "活": 3121,
      "派": 3122,
      "流": 3123,
      "浅": 3124,
      "浙": 3125,
      "浚": 3126,
      "浜": 3127,
      "浦": 3128,
      "浩": 3129,
      "浪": 3130,
      "浮": 3131,
      "海": 3132,
      "消": 3133,
      "涙": 3134,
      "润": 3135,
      "涵": 3136,
      "涼": 3137,
      "淇": 3138,
      "淑": 3139,
      "淘": 3140,
      "淡": 3141,
      "淨": 3142,
      "深": 3143,
      "淳": 3144,
      "淵": 3145,
      "淹": 3146,
      "添": 3147,
      "清": 3148,
      "渊": 3149,
      "渚": 3150,
      "減": 3151,
      "渠": 3152,
      "渡": 3153,
      "渣": 3154,
      "渥": 3155,
      "渦": 3156,
      "温": 3157,
      "測": 3158,
      "港": 3159,
      "游": 3160,
      "渾": 3161,
      "湊": 3162,
      "湖": 3163,
      "湯": 3164,
      "湾": 3165,
      "満": 3166,
      "源": 3167,
      "準": 3168,
      "溜": 3169,
      "溢": 3170,
      "溪": 3171,
      "溫": 3172,
      "溶": 3173,
      "滅": 3174,
      "滋": 3175,
      "滑": 3176,
      "滨": 3177,
      "滿": 3178,
      "漁": 3179,
      "漂": 3180,
      "漆": 3181,
      "漏": 3182,
      "漠": 3183,
      "漢": 3184,
      "漫": 3185,
      "漳": 3186,
      "漸": 3187,
      "潘": 3188,
      "潜": 3189,
      "潤": 3190,
      "澄": 3191,
      "澤": 3192,
      "澪": 3193,
      "激": 3194,
      "濃": 3195,
      "濞": 3196,
      "濟": 3197,
      "瀛": 3198,
      "瀬": 3199,
      "灣": 3200,
      "火": 3201,
      "灯": 3202,
      "灰": 3203,
      "灵": 3204,
      "灶": 3205,
      "灼": 3206,
      "災": 3207,
      "灾": 3208,
      "炎": 3209,
      "炬": 3210,
      "炮": 3211,
      "炯": 3212,
      "炷": 3213,
      "炸": 3214,
      "点": 3215,
      "為": 3216,
      "炼": 3217,
      "烈": 3218,
      "烏": 3219,
      "烙": 3220,
      "烟": 3221,
      "烦": 3222,
      "烧": 3223,
      "焉": 3224,
      "焔": 3225,
      "無": 3226,
      "焦": 3227,
      "然": 3228,
      "焼": 3229,
      "煌": 3230,
      "煙": 3231,
      "煜": 3232,
      "照": 3233,
      "煩": 3234,
      "煮": 3235,
      "熊": 3236,
      "熔": 3237,
      "熙": 3238,
      "熟": 3239,
      "熱": 3240,
      "燃": 3241,
      "燈": 3242,
      "燕": 3243,
      "營": 3244,
      "爆": 3245,
      "爪": 3246,
      "爭": 3247,
      "爱": 3248,
      "爲": 3249,
      "爵": 3250,
      "父": 3251,
      "爺": 3252,
      "爻": 3253,
      "爽": 3254,
      "爾": 3255,
      "片": 3256,
      "版": 3257,
      "牌": 3258,
      "牙": 3259,
      "牛": 3260,
      "牡": 3261,
      "牢": 3262,
      "牧": 3263,
      "物": 3264,
      "牵": 3265,
      "特": 3266,
      "犖": 3267,
      "犬": 3268,
      "犯": 3269,
      "狀": 3270,
      "狂": 3271,
      "狐": 3272,
      "狗": 3273,
      "狛": 3274,
      "狡": 3275,
      "狩": 3276,
      "独": 3277,
      "狭": 3278,
      "狱": 3279,
      "狸": 3280,
      "狼": 3281,
      "猛": 3282,
      "猩": 3283,
      "猪": 3284,
      "猫": 3285,
      "献": 3286,
      "猿": 3287,
      "獄": 3288,
      "獅": 3289,
      "獣": 3290,
      "獵": 3291,
      "獻": 3292,
      "玄": 3293,
      "玉": 3294,
      "王": 3295,
      "玖": 3296,
      "玩": 3297,
      "玲": 3298,
      "珂": 3299,
      "珍": 3300,
      "珙": 3301,
      "珠": 3302,
      "現": 3303,
      "球": 3304,
      "理": 3305,
      "琦": 3306,
      "琪": 3307,
      "琬": 3308,
      "琮": 3309,
      "琴": 3310,
      "瑋": 3311,
      "瑙": 3312,
      "瑜": 3313,
      "瑞": 3314,
      "瑠": 3315,
      "瑣": 3316,
      "瑪": 3317,
      "瑾": 3318,
      "璉": 3319,
      "環": 3320,
      "璽": 3321,
      "瓊": 3322,
      "瓜": 3323,
      "瓢": 3324,
      "瓦": 3325,
      "瓩": 3326,
      "瓷": 3327,
      "甘": 3328,
      "甜": 3329,
      "生": 3330,
      "產": 3331,
      "産": 3332,
      "用": 3333,
      "甫": 3334,
      "田": 3335,
      "由": 3336,
      "甲": 3337,
      "申": 3338,
      "男": 3339,
      "町": 3340,
      "画": 3341,
      "甽": 3342,
      "界": 3343,
      "畑": 3344,
      "留": 3345,
      "畜": 3346,
      "畢": 3347,
      "略": 3348,
      "番": 3349,
      "畫": 3350,
      "異": 3351,
      "疆": 3352,
      "疾": 3353,
      "病": 3354,
      "症": 3355,
      "痘": 3356,
      "痛": 3357,
      "痴": 3358,
      "瘡": 3359,
      "瘤": 3360,
      "発": 3361,
      "登": 3362,
      "發": 3363,
      "白": 3364,
      "百": 3365,
      "的": 3366,
      "皇": 3367,
      "皙": 3368,
      "皮": 3369,
      "皿": 3370,
      "盆": 3371,
      "盈": 3372,
      "益": 3373,
      "盏": 3374,
      "盐": 3375,
      "监": 3376,
      "盒": 3377,
      "盗": 3378,
      "盘": 3379,
      "盛": 3380,
      "盟": 3381,
      "監": 3382,
      "盤": 3383,
      "盧": 3384,
      "目": 3385,
      "直": 3386,
      "相": 3387,
      "盼": 3388,
      "省": 3389,
      "看": 3390,
      "県": 3391,
      "眞": 3392,
      "真": 3393,
      "眼": 3394,
      "着": 3395,
      "督": 3396,
      "瞬": 3397,
      "瞳": 3398,
      "矢": 3399,
      "知": 3400,
      "矩": 3401,
      "短": 3402,
      "矮": 3403,
      "矯": 3404,
      "石": 3405,
      "砂": 3406,
      "砍": 3407,
      "研": 3408,
      "砖": 3409,
      "砲": 3410,
      "破": 3411,
      "硕": 3412,
      "硝": 3413,
      "硨": 3414,
      "碍": 3415,
      "碗": 3416,
      "碩": 3417,
      "確": 3418,
      "碼": 3419,
      "磁": 3420,
      "磅": 3421,
      "磐": 3422,
      "磨": 3423,
      "磯": 3424,
      "磲": 3425,
      "礁": 3426,
      "礎": 3427,
      "礮": 3428,
      "示": 3429,
      "礼": 3430,
      "社": 3431,
      "祀": 3432,
      "祈": 3433,
      "祐": 3434,
      "祖": 3435,
      "祚": 3436,
      "神": 3437,
      "祠": 3438,
      "祥": 3439,
      "票": 3440,
      "祭": 3441,
      "祺": 3442,
      "祿": 3443,
      "禁": 3444,
      "禄": 3445,
      "禎": 3446,
      "福": 3447,
      "禦": 3448,
      "禮": 3449,
      "禰": 3450,
      "禺": 3451,
      "禾": 3452,
      "秀": 3453,
      "私": 3454,
      "秋": 3455,
      "科": 3456,
      "秒": 3457,
      "秘": 3458,
      "租": 3459,
      "秤": 3460,
      "秦": 3461,
      "移": 3462,
      "程": 3463,
      "稔": 3464,
      "稚": 3465,
      "種": 3466,
      "稲": 3467,
      "稷": 3468,
      "稽": 3469,
      "穂": 3470,
      "穌": 3471,
      "積": 3472,
      "穎": 3473,
      "穗": 3474,
      "穢": 3475,
      "究": 3476,
      "空": 3477,
      "突": 3478,
      "窓": 3479,
      "窗": 3480,
      "窟": 3481,
      "竇": 3482,
      "立": 3483,
      "站": 3484,
      "竜": 3485,
      "章": 3486,
      "童": 3487,
      "端": 3488,
      "竹": 3489,
      "竺": 3490,
      "笑": 3491,
      "笔": 3492,
      "笛": 3493,
      "笠": 3494,
      "符": 3495,
      "笨": 3496,
      "第": 3497,
      "笹": 3498,
      "筆": 3499,
      "等": 3500,
      "筋": 3501,
      "筍": 3502,
      "筐": 3503,
      "筑": 3504,
      "答": 3505,
      "策": 3506,
      "筹": 3507,
      "箇": 3508,
      "箋": 3509,
      "算": 3510,
      "管": 3511,
      "箪": 3512,
      "箭": 3513,
      "箱": 3514,
      "節": 3515,
      "範": 3516,
      "篇": 3517,
      "篋": 3518,
      "篚": 3519,
      "篤": 3520,
      "簡": 3521,
      "簿": 3522,
      "籃": 3523,
      "籌": 3524,
      "籍": 3525,
      "籠": 3526,
      "米": 3527,
      "籵": 3528,
      "粁": 3529,
      "粉": 3530,
      "粍": 3531,
      "粟": 3532,
      "粥": 3533,
      "粨": 3534,
      "精": 3535,
      "糊": 3536,
      "糎": 3537,
      "糖": 3538,
      "糸": 3539,
      "系": 3540,
      "紀": 3541,
      "約": 3542,
      "紅": 3543,
      "紋": 3544,
      "納": 3545,
      "純": 3546,
      "紘": 3547,
      "紙": 3548,
      "級": 3549,
      "素": 3550,
      "紡": 3551,
      "紫": 3552,
      "細": 3553,
      "紹": 3554,
      "紺": 3555,
      "終": 3556,
      "組": 3557,
      "絆": 3558,
      "経": 3559,
      "結": 3560,
      "絡": 3561,
      "給": 3562,
      "統": 3563,
      "絵": 3564,
      "絶": 3565,
      "綁": 3566,
      "經": 3567,
      "継": 3568,
      "続": 3569,
      "綜": 3570,
      "綠": 3571,
      "維": 3572,
      "綯": 3573,
      "綱": 3574,
      "網": 3575,
      "綸": 3576,
      "綺": 3577,
      "綾": 3578,
      "緋": 3579,
      "総": 3580,
      "緑": 3581,
      "緒": 3582,
      "線": 3583,
      "締": 3584,
      "編": 3585,
      "緩": 3586,
      "緬": 3587,
      "緯": 3588,
      "縄": 3589,
      "縊": 3590,
      "縣": 3591,
      "總": 3592,
      "繋": 3593,
      "織": 3594,
      "繹": 3595,
      "繼": 3596,
      "續": 3597,
      "红": 3598,
      "级": 3599,
      "纪": 3600,
      "纯": 3601,
      "纲": 3602,
      "纵": 3603,
      "线": 3604,
      "组": 3605,
      "绅": 3606,
      "细": 3607,
      "终": 3608,
      "绍": 3609,
      "经": 3610,
      "给": 3611,
      "统": 3612,
      "继": 3613,
      "绮": 3614,
      "维": 3615,
      "综": 3616,
      "缽": 3617,
      "网": 3618,
      "罗": 3619,
      "罠": 3620,
      "罪": 3621,
      "置": 3622,
      "罰": 3623,
      "罸": 3624,
      "羅": 3625,
      "羊": 3626,
      "美": 3627,
      "群": 3628,
      "義": 3629,
      "羽": 3630,
      "翁": 3631,
      "習": 3632,
      "翔": 3633,
      "翘": 3634,
      "翠": 3635,
      "翡": 3636,
      "翱": 3637,
      "翹": 3638,
      "翻": 3639,
      "翼": 3640,
      "老": 3641,
      "考": 3642,
      "者": 3643,
      "耆": 3644,
      "而": 3645,
      "耕": 3646,
      "耳": 3647,
      "耶": 3648,
      "耿": 3649,
      "聃": 3650,
      "联": 3651,
      "聖": 3652,
      "聘": 3653,
      "聚": 3654,
      "聞": 3655,
      "聡": 3656,
      "聯": 3657,
      "聰": 3658,
      "聲": 3659,
      "職": 3660,
      "肃": 3661,
      "肉": 3662,
      "肖": 3663,
      "肚": 3664,
      "股": 3665,
      "肥": 3666,
      "肩": 3667,
      "育": 3668,
      "背": 3669,
      "胞": 3670,
      "胠": 3671,
      "胡": 3672,
      "胤": 3673,
      "胴": 3674,
      "胸": 3675,
      "能": 3676,
      "脂": 3677,
      "脇": 3678,
      "脈": 3679,
      "脉": 3680,
      "脚": 3681,
      "脩": 3682,
      "脱": 3683,
      "脳": 3684,
      "腎": 3685,
      "腐": 3686,
      "腰": 3687,
      "腹": 3688,
      "腿": 3689,
      "膀": 3690,
      "膺": 3691,
      "臂": 3692,
      "臘": 3693,
      "臚": 3694,
      "臣": 3695,
      "臨": 3696,
      "自": 3697,
      "臭": 3698,
      "至": 3699,
      "致": 3700,
      "臺": 3701,
      "與": 3702,
      "興": 3703,
      "舍": 3704,
      "舎": 3705,
      "舞": 3706,
      "舟": 3707,
      "航": 3708,
      "船": 3709,
      "艦": 3710,
      "良": 3711,
      "色": 3712,
      "艳": 3713,
      "艶": 3714,
      "艺": 3715,
      "节": 3716,
      "芒": 3717,
      "芙": 3718,
      "芝": 3719,
      "芥": 3720,
      "芦": 3721,
      "芬": 3722,
      "芭": 3723,
      "芮": 3724,
      "芯": 3725,
      "花": 3726,
      "芳": 3727,
      "芸": 3728,
      "芹": 3729,
      "芽": 3730,
      "苏": 3731,
      "苑": 3732,
      "苗": 3733,
      "苣": 3734,
      "若": 3735,
      "英": 3736,
      "苺": 3737,
      "茂": 3738,
      "范": 3739,
      "茅": 3740,
      "茜": 3741,
      "茶": 3742,
      "茸": 3743,
      "草": 3744,
      "荊": 3745,
      "荒": 3746,
      "荔": 3747,
      "荘": 3748,
      "荥": 3749,
      "荪": 3750,
      "荫": 3751,
      "药": 3752,
      "荷": 3753,
      "荻": 3754,
      "荼": 3755,
      "莉": 3756,
      "莊": 3757,
      "莎": 3758,
      "莘": 3759,
      "莞": 3760,
      "莫": 3761,
      "莱": 3762,
      "莲": 3763,
      "莴": 3764,
      "菇": 3765,
      "菉": 3766,
      "菊": 3767,
      "菜": 3768,
      "華": 3769,
      "菱": 3770,
      "菲": 3771,
      "萌": 3772,
      "萍": 3773,
      "萝": 3774,
      "营": 3775,
      "萧": 3776,
      "萨": 3777,
      "萬": 3778,
      "落": 3779,
      "葆": 3780,
      "葉": 3781,
      "著": 3782,
      "葛": 3783,
      "董": 3784,
      "葦": 3785,
      "葫": 3786,
      "葵": 3787,
      "蒙": 3788,
      "蒭": 3789,
      "蒲": 3790,
      "蒼": 3791,
      "蒿": 3792,
      "蓀": 3793,
      "蓑": 3794,
      "蓝": 3795,
      "蓮": 3796,
      "蔡": 3797,
      "蔭": 3798,
      "蔵": 3799,
      "蕃": 3800,
      "蕉": 3801,
      "蕨": 3802,
      "蕩": 3803,
      "蕭": 3804,
      "薇": 3805,
      "薊": 3806,
      "薔": 3807,
      "薙": 3808,
      "薛": 3809,
      "薩": 3810,
      "薫": 3811,
      "薯": 3812,
      "藍": 3813,
      "藏": 3814,
      "藕": 3815,
      "藝": 3816,
      "藤": 3817,
      "藥": 3818,
      "藩": 3819,
      "藻": 3820,
      "蘄": 3821,
      "蘅": 3822,
      "蘇": 3823,
      "蘑": 3824,
      "蘭": 3825,
      "蘿": 3826,
      "虎": 3827,
      "虐": 3828,
      "虔": 3829,
      "處": 3830,
      "虚": 3831,
      "虛": 3832,
      "號": 3833,
      "虫": 3834,
      "虹": 3835,
      "蛇": 3836,
      "蛍": 3837,
      "蛙": 3838,
      "蛭": 3839,
      "蜃": 3840,
      "蜡": 3841,
      "蝉": 3842,
      "蝕": 3843,
      "蝴": 3844,
      "蝶": 3845,
      "融": 3846,
      "螺": 3847,
      "蟲": 3848,
      "蠕": 3849,
      "蠻": 3850,
      "血": 3851,
      "衆": 3852,
      "行": 3853,
      "術": 3854,
      "街": 3855,
      "衙": 3856,
      "衛": 3857,
      "衝": 3858,
      "衡": 3859,
      "衢": 3860,
      "衣": 3861,
      "补": 3862,
      "表": 3863,
      "袁": 3864,
      "袈": 3865,
      "袖": 3866,
      "被": 3867,
      "裁": 3868,
      "裂": 3869,
      "装": 3870,
      "裏": 3871,
      "裔": 3872,
      "裕": 3873,
      "補": 3874,
      "裝": 3875,
      "裟": 3876,
      "裳": 3877,
      "裸": 3878,
      "製": 3879,
      "褒": 3880,
      "襄": 3881,
      "襟": 3882,
      "襲": 3883,
      "西": 3884,
      "要": 3885,
      "覇": 3886,
      "見": 3887,
      "規": 3888,
      "視": 3889,
      "覚": 3890,
      "親": 3891,
      "観": 3892,
      "覺": 3893,
      "觀": 3894,
      "观": 3895,
      "角": 3896,
      "解": 3897,
      "触": 3898,
      "觳": 3899,
      "言": 3900,
      "計": 3901,
      "記": 3902,
      "設": 3903,
      "許": 3904,
      "訳": 3905,
      "証": 3906,
      "詔": 3907,
      "詞": 3908,
      "詠": 3909,
      "試": 3910,
      "詩": 3911,
      "話": 3912,
      "誌": 3913,
      "誐": 3914,
      "誒": 3915,
      "誓": 3916,
      "誕": 3917,
      "誘": 3918,
      "語": 3919,
      "誠": 3920,
      "誡": 3921,
      "誦": 3922,
      "說": 3923,
      "説": 3924,
      "読": 3925,
      "誰": 3926,
      "課": 3927,
      "調": 3928,
      "談": 3929,
      "論": 3930,
      "諭": 3931,
      "諷": 3932,
      "諸": 3933,
      "謀": 3934,
      "謁": 3935,
      "謎": 3936,
      "謙": 3937,
      "講": 3938,
      "謝": 3939,
      "謡": 3940,
      "譌": 3941,
      "識": 3942,
      "譚": 3943,
      "譜": 3944,
      "警": 3945,
      "議": 3946,
      "護": 3947,
      "讀": 3948,
      "變": 3949,
      "讐": 3950,
      "讓": 3951,
      "计": 3952,
      "让": 3953,
      "议": 3954,
      "许": 3955,
      "论": 3956,
      "讼": 3957,
      "诉": 3958,
      "词": 3959,
      "诗": 3960,
      "诚": 3961,
      "话": 3962,
      "语": 3963,
      "诶": 3964,
      "请": 3965,
      "诺": 3966,
      "读": 3967,
      "课": 3968,
      "谁": 3969,
      "谦": 3970,
      "谭": 3971,
      "谷": 3972,
      "豆": 3973,
      "豊": 3974,
      "豌": 3975,
      "豐": 3976,
      "豚": 3977,
      "象": 3978,
      "豪": 3979,
      "豫": 3980,
      "豬": 3981,
      "豹": 3982,
      "貓": 3983,
      "貝": 3984,
      "貞": 3985,
      "負": 3986,
      "財": 3987,
      "貫": 3988,
      "貴": 3989,
      "費": 3990,
      "賀": 3991,
      "資": 3992,
      "賈": 3993,
      "賊": 3994,
      "賓": 3995,
      "賞": 3996,
      "賢": 3997,
      "賦": 3998,
      "質": 3999,
      "購": 4000,
      "贈": 4001,
      "贝": 4002,
      "贞": 4003,
      "财": 4004,
      "贤": 4005,
      "质": 4006,
      "贵": 4007,
      "贺": 4008,
      "贼": 4009,
      "资": 4010,
      "赤": 4011,
      "赭": 4012,
      "走": 4013,
      "赵": 4014,
      "起": 4015,
      "超": 4016,
      "越": 4017,
      "趙": 4018,
      "足": 4019,
      "跆": 4020,
      "跑": 4021,
      "跖": 4022,
      "跟": 4023,
      "跡": 4024,
      "路": 4025,
      "跳": 4026,
      "踊": 4027,
      "踏": 4028,
      "踢": 4029,
      "蹴": 4030,
      "身": 4031,
      "車": 4032,
      "軌": 4033,
      "軍": 4034,
      "軒": 4035,
      "転": 4036,
      "軽": 4037,
      "載": 4038,
      "輔": 4039,
      "輛": 4040,
      "輝": 4041,
      "輪": 4042,
      "輿": 4043,
      "轉": 4044,
      "车": 4045,
      "轩": 4046,
      "转": 4047,
      "辆": 4048,
      "辉": 4049,
      "辛": 4050,
      "辣": 4051,
      "辨": 4052,
      "辭": 4053,
      "辯": 4054,
      "辰": 4055,
      "農": 4056,
      "边": 4057,
      "辺": 4058,
      "辽": 4059,
      "达": 4060,
      "辿": 4061,
      "迄": 4062,
      "迅": 4063,
      "过": 4064,
      "迈": 4065,
      "运": 4066,
      "近": 4067,
      "返": 4068,
      "这": 4069,
      "进": 4070,
      "远": 4071,
      "迦": 4072,
      "迪": 4073,
      "述": 4074,
      "迷": 4075,
      "追": 4076,
      "送": 4077,
      "适": 4078,
      "逆": 4079,
      "选": 4080,
      "這": 4081,
      "通": 4082,
      "造": 4083,
      "逢": 4084,
      "連": 4085,
      "逯": 4086,
      "週": 4087,
      "進": 4088,
      "遁": 4089,
      "遇": 4090,
      "遊": 4091,
      "運": 4092,
      "遍": 4093,
      "過": 4094,
      "道": 4095,
      "達": 4096,
      "遗": 4097,
      "遙": 4098,
      "遜": 4099,
      "遠": 4100,
      "遥": 4101,
      "遮": 4102,
      "選": 4103,
      "遺": 4104,
      "遼": 4105,
      "避": 4106,
      "邁": 4107,
      "還": 4108,
      "邊": 4109,
      "邑": 4110,
      "邓": 4111,
      "那": 4112,
      "邦": 4113,
      "邪": 4114,
      "邱": 4115,
      "邵": 4116,
      "郁": 4117,
      "郊": 4118,
      "郎": 4119,
      "郑": 4120,
      "郛": 4121,
      "郝": 4122,
      "郡": 4123,
      "部": 4124,
      "郭": 4125,
      "郷": 4126,
      "都": 4127,
      "鄧": 4128,
      "鄭": 4129,
      "酈": 4130,
      "酉": 4131,
      "酒": 4132,
      "酔": 4133,
      "酥": 4134,
      "酱": 4135,
      "酷": 4136,
      "酸": 4137,
      "醋": 4138,
      "醒": 4139,
      "醫": 4140,
      "采": 4141,
      "釈": 4142,
      "釋": 4143,
      "里": 4144,
      "重": 4145,
      "野": 4146,
      "量": 4147,
      "金": 4148,
      "釗": 4149,
      "釣": 4150,
      "鈍": 4151,
      "鈴": 4152,
      "鉄": 4153,
      "鉢": 4154,
      "鉦": 4155,
      "鉱": 4156,
      "鉴": 4157,
      "銀": 4158,
      "銃": 4159,
      "銅": 4160,
      "銓": 4161,
      "銖": 4162,
      "銘": 4163,
      "銳": 4164,
      "鋒": 4165,
      "鋪": 4166,
      "鋼": 4167,
      "錄": 4168,
      "錡": 4169,
      "錦": 4170,
      "錬": 4171,
      "録": 4172,
      "鍋": 4173,
      "鍵": 4174,
      "鎖": 4175,
      "鎧": 4176,
      "鎮": 4177,
      "鏡": 4178,
      "鐘": 4179,
      "鐵": 4180,
      "鐸": 4181,
      "鑒": 4182,
      "钊": 4183,
      "钢": 4184,
      "钦": 4185,
      "钱": 4186,
      "铁": 4187,
      "铎": 4188,
      "铜": 4189,
      "铭": 4190,
      "铺": 4191,
      "锡": 4192,
      "键": 4193,
      "镇": 4194,
      "镗": 4195,
      "镜": 4196,
      "長": 4197,
      "长": 4198,
      "門": 4199,
      "閃": 4200,
      "開": 4201,
      "閏": 4202,
      "閒": 4203,
      "間": 4204,
      "関": 4205,
      "閣": 4206,
      "閨": 4207,
      "闇": 4208,
      "闍": 4209,
      "闕": 4210,
      "闘": 4211,
      "關": 4212,
      "门": 4213,
      "问": 4214,
      "闯": 4215,
      "阁": 4216,
      "阪": 4217,
      "防": 4218,
      "阳": 4219,
      "阿": 4220,
      "陀": 4221,
      "附": 4222,
      "际": 4223,
      "陈": 4224,
      "降": 4225,
      "限": 4226,
      "陛": 4227,
      "院": 4228,
      "陣": 4229,
      "除": 4230,
      "陪": 4231,
      "陳": 4232,
      "陵": 4233,
      "陶": 4234,
      "陸": 4235,
      "険": 4236,
      "陽": 4237,
      "隆": 4238,
      "隊": 4239,
      "階": 4240,
      "隔": 4241,
      "隗": 4242,
      "隠": 4243,
      "隣": 4244,
      "隱": 4245,
      "隴": 4246,
      "隸": 4247,
      "隻": 4248,
      "隼": 4249,
      "雀": 4250,
      "雁": 4251,
      "雄": 4252,
      "雅": 4253,
      "集": 4254,
      "雇": 4255,
      "雉": 4256,
      "雎": 4257,
      "雕": 4258,
      "雙": 4259,
      "雛": 4260,
      "雜": 4261,
      "雞": 4262,
      "離": 4263,
      "難": 4264,
      "雨": 4265,
      "雪": 4266,
      "雲": 4267,
      "雳": 4268,
      "零": 4269,
      "雷": 4270,
      "電": 4271,
      "雾": 4272,
      "需": 4273,
      "霆": 4274,
      "震": 4275,
      "霊": 4276,
      "霍": 4277,
      "霖": 4278,
      "霜": 4279,
      "霞": 4280,
      "霧": 4281,
      "霰": 4282,
      "露": 4283,
      "霸": 4284,
      "霹": 4285,
      "靂": 4286,
      "靈": 4287,
      "青": 4288,
      "靖": 4289,
      "静": 4290,
      "非": 4291,
      "靠": 4292,
      "面": 4293,
      "革": 4294,
      "靴": 4295,
      "靼": 4296,
      "鞋": 4297,
      "鞍": 4298,
      "鞠": 4299,
      "韃": 4300,
      "韋": 4301,
      "韓": 4302,
      "韦": 4303,
      "韩": 4304,
      "韭": 4305,
      "音": 4306,
      "韶": 4307,
      "響": 4308,
      "頃": 4309,
      "項": 4310,
      "順": 4311,
      "須": 4312,
      "頌": 4313,
      "頒": 4314,
      "領": 4315,
      "頭": 4316,
      "顆": 4317,
      "題": 4318,
      "額": 4319,
      "顏": 4320,
      "顔": 4321,
      "願": 4322,
      "類": 4323,
      "顯": 4324,
      "项": 4325,
      "顾": 4326,
      "颂": 4327,
      "颊": 4328,
      "颖": 4329,
      "颗": 4330,
      "颜": 4331,
      "風": 4332,
      "颪": 4333,
      "颱": 4334,
      "飄": 4335,
      "风": 4336,
      "飛": 4337,
      "飞": 4338,
      "食": 4339,
      "飯": 4340,
      "飾": 4341,
      "餅": 4342,
      "養": 4343,
      "餓": 4344,
      "館": 4345,
      "饼": 4346,
      "饾": 4347,
      "馆": 4348,
      "馒": 4349,
      "首": 4350,
      "香": 4351,
      "馬": 4352,
      "馮": 4353,
      "駆": 4354,
      "駐": 4355,
      "駒": 4356,
      "駙": 4357,
      "駢": 4358,
      "駿": 4359,
      "騎": 4360,
      "騒": 4361,
      "験": 4362,
      "騭": 4363,
      "騰": 4364,
      "騷": 4365,
      "驁": 4366,
      "驗": 4367,
      "驚": 4368,
      "驤": 4369,
      "马": 4370,
      "驰": 4371,
      "骨": 4372,
      "骸": 4373,
      "髀": 4374,
      "體": 4375,
      "高": 4376,
      "髪": 4377,
      "鬘": 4378,
      "鬥": 4379,
      "鬪": 4380,
      "鬼": 4381,
      "魂": 4382,
      "魄": 4383,
      "魔": 4384,
      "魚": 4385,
      "魯": 4386,
      "鮑": 4387,
      "鮫": 4388,
      "鮮": 4389,
      "鯖": 4390,
      "鯵": 4391,
      "鰐": 4392,
      "鱀": 4393,
      "鱼": 4394,
      "鲁": 4395,
      "鲤": 4396,
      "鳥": 4397,
      "鳩": 4398,
      "鳳": 4399,
      "鳴": 4400,
      "鳶": 4401,
      "鴉": 4402,
      "鴣": 4403,
      "鴨": 4404,
      "鴻": 4405,
      "鵡": 4406,
      "鵩": 4407,
      "鵬": 4408,
      "鶍": 4409,
      "鶴": 4410,
      "鷓": 4411,
      "鷹": 4412,
      "鷺": 4413,
      "鸚": 4414,
      "鸟": 4415,
      "鸡": 4416,
      "鸭": 4417,
      "鸿": 4418,
      "鹅": 4419,
      "鹹": 4420,
      "鹼": 4421,
      "鹽": 4422,
      "鹿": 4423,
      "麗": 4424,
      "麥": 4425,
      "麵": 4426,
      "麻": 4427,
      "麼": 4428,
      "麾": 4429,
      "黃": 4430,
      "黄": 4431,
      "黎": 4432,
      "黑": 4433,
      "黒": 4434,
      "黙": 4435,
      "黛": 4436,
      "黨": 4437,
      "鼉": 4438,
      "鼎": 4439,
      "鼓": 4440,
      "鼠": 4441,
      "鼻": 4442,
      "齉": 4443,
      "齊": 4444,
      "齋": 4445,
      "齐": 4446,
      "龍": 4447,
      "龙": 4448,
      "ꜛ": 4449,
      "ꜜ": 4450,
      "ꜣ": 4451,
      "ꜩ": 4452,
      "ꜫ": 4453,
      "ꜭ": 4454,
      "ꞅ": 4455,
      "ꞎ": 4456,
      "ꞵ": 4457,
      "ꦂ": 4458,
      "ꦠ": 4459,
      "ꦯ": 4460,
      "ꦲ": 4461,
      "ꦸ": 4462,
      "ꭓ": 4463,
      "ꭰ": 4464,
      "ꭳ": 4465,
      "ꭶ": 4466,
      "ꭸ": 4467,
      "ꭹ": 4468,
      "ꮀ": 4469,
      "ꮃ": 4470,
      "ꮉ": 4471,
      "ꮝ": 4472,
      "ꮿ": 4473,
      "가": 4474,
      "간": 4475,
      "강": 4476,
      "개": 4477,
      "거": 4478,
      "건": 4479,
      "경": 4480,
      "계": 4481,
      "고": 4482,
      "공": 4483,
      "관": 4484,
      "광": 4485,
      "구": 4486,
      "국": 4487,
      "권": 4488,
      "귀": 4489,
      "그": 4490,
      "극": 4491,
      "근": 4492,
      "글": 4493,
      "금": 4494,
      "급": 4495,
      "기": 4496,
      "김": 4497,
      "꺼": 4498,
      "껐": 4499,
      "나": 4500,
      "날": 4501,
      "남": 4502,
      "났": 4503,
      "내": 4504,
      "너": 4505,
      "네": 4506,
      "념": 4507,
      "노": 4508,
      "놔": 4509,
      "눈": 4510,
      "늬": 4511,
      "다": 4512,
      "단": 4513,
      "대": 4514,
      "더": 4515,
      "도": 4516,
      "독": 4517,
      "돌": 4518,
      "동": 4519,
      "디": 4520,
      "딱": 4521,
      "라": 4522,
      "람": 4523,
      "래": 4524,
      "런": 4525,
      "렌": 4526,
      "려": 4527,
      "렬": 4528,
      "로": 4529,
      "록": 4530,
      "론": 4531,
      "루": 4532,
      "류": 4533,
      "르": 4534,
      "를": 4535,
      "리": 4536,
      "립": 4537,
      "마": 4538,
      "막": 4539,
      "만": 4540,
      "말": 4541,
      "명": 4542,
      "목": 4543,
      "무": 4544,
      "문": 4545,
      "물": 4546,
      "미": 4547,
      "민": 4548,
      "믿": 4549,
      "바": 4550,
      "박": 4551,
      "방": 4552,
      "백": 4553,
      "뱅": 4554,
      "버": 4555,
      "범": 4556,
      "법": 4557,
      "별": 4558,
      "병": 4559,
      "보": 4560,
      "복": 4561,
      "봐": 4562,
      "부": 4563,
      "불": 4564,
      "붉": 4565,
      "빅": 4566,
      "빙": 4567,
      "빤": 4568,
      "뿐": 4569,
      "사": 4570,
      "산": 4571,
      "살": 4572,
      "삼": 4573,
      "삿": 4574,
      "상": 4575,
      "새": 4576,
      "색": 4577,
      "서": 4578,
      "성": 4579,
      "센": 4580,
      "소": 4581,
      "쇼": 4582,
      "수": 4583,
      "순": 4584,
      "술": 4585,
      "숫": 4586,
      "스": 4587,
      "시": 4588,
      "식": 4589,
      "신": 4590,
      "실": 4591,
      "쌤": 4592,
      "아": 4593,
      "안": 4594,
      "알": 4595,
      "암": 4596,
      "앙": 4597,
      "애": 4598,
      "앤": 4599,
      "야": 4600,
      "양": 4601,
      "어": 4602,
      "에": 4603,
      "엔": 4604,
      "연": 4605,
      "영": 4606,
      "예": 4607,
      "오": 4608,
      "온": 4609,
      "왜": 4610,
      "용": 4611,
      "운": 4612,
      "울": 4613,
      "원": 4614,
      "위": 4615,
      "유": 4616,
      "은": 4617,
      "을": 4618,
      "음": 4619,
      "의": 4620,
      "이": 4621,
      "인": 4622,
      "일": 4623,
      "자": 4624,
      "장": 4625,
      "재": 4626,
      "적": 4627,
      "전": 4628,
      "점": 4629,
      "정": 4630,
      "제": 4631,
      "조": 4632,
      "종": 4633,
      "좋": 4634,
      "주": 4635,
      "줄": 4636,
      "중": 4637,
      "지": 4638,
      "진": 4639,
      "집": 4640,
      "짓": 4641,
      "징": 4642,
      "차": 4643,
      "천": 4644,
      "청": 4645,
      "체": 4646,
      "쳐": 4647,
      "초": 4648,
      "춘": 4649,
      "충": 4650,
      "치": 4651,
      "커": 4652,
      "코": 4653,
      "킨": 4654,
      "타": 4655,
      "태": 4656,
      "터": 4657,
      "퇴": 4658,
      "투": 4659,
      "트": 4660,
      "특": 4661,
      "파": 4662,
      "판": 4663,
      "퍼": 4664,
      "평": 4665,
      "표": 4666,
      "풍": 4667,
      "피": 4668,
      "하": 4669,
      "학": 4670,
      "한": 4671,
      "합": 4672,
      "해": 4673,
      "행": 4674,
      "향": 4675,
      "허": 4676,
      "헬": 4677,
      "호": 4678,
      "혹": 4679,
      "홀": 4680,
      "화": 4681,
      "회": 4682,
      "후": 4683,
      "희": 4684,
      "ﬀ": 4685,
      "ﬁ": 4686,
      "ﬂ": 4687,
      "ﮭ": 4688,
      "ﮮ": 4689,
      "ﷲ": 4690,
      "ﷺ": 4691,
      "️": 4692,
      "︠": 4693,
      "︡": 4694,
      "ﺒ": 4695,
      "ﻉ": 4696,
      "ﻋ": 4697,
      "ﻔ": 4698,
      "ﻴ": 4699,
      "﻿": 4700,
      "！": 4701,
      "％": 4702,
      "＆": 4703,
      "（": 4704,
      "）": 4705,
      "，": 4706,
      "－": 4707,
      "／": 4708,
      "１": 4709,
      "２": 4710,
      "３": 4711,
      "４": 4712,
      "６": 4713,
      "：": 4714,
      "＜": 4715,
      "＝": 4716,
      "＞": 4717,
      "？": 4718,
      "［": 4719,
      "］": 4720,
      "ａ": 4721,
      "ｃ": 4722,
      "ｄ": 4723,
      "ｇ": 4724,
      "ｉ": 4725,
      "ｊ": 4726,
      "ｌ": 4727,
      "ｍ": 4728,
      "ｐ": 4729,
      "ｒ": 4730,
      "ｘ": 4731,
      "｜": 4732,
      "～": 4733,
      "｢": 4734,
      "｣": 4735,
      "･": 4736,
      "ｰ": 4737,
      "￥": 4738,
      "�": 4739,
      "𐀁": 4740,
      "𐀈": 4741,
      "𐀫": 4742,
      "𐎠": 4743,
      "𐎢": 4744,
      "𐎭": 4745,
      "𐎰": 4746,
      "𐎹": 4747,
      "𐎺": 4748,
      "𐎼": 4749,
      "𐏁": 4750,
      "𐭃": 4751,
      "𐭉": 4752,
      "𐭓": 4753,
      "𐭕": 4754,
      "𒀯": 4755,
      "𒀳": 4756,
      "𝕄": 4757,
      "𝕡": 4758,
      "🖕": 4759,
      "##r": 4760,
      "##i": 4761,
      "##g": 4762,
      "##l": 4763,
      "##n": 4764,
      "##e": 4765,
      "##m": 4766,
      "##p": 4767,
      "##t": 4768,
      "##a": 4769,
      "##d": 4770,
      "##v": 4771,
      "##c": 4772,
      "##s": 4773,
      "##y": 4774,
      "##h": 4775,
      "##u": 4776,
      "##k": 4777,
      "##b": 4778,
      "##o": 4779,
      "##f": 4780,
      "##ル": 4781,
      "##x": 4782,
      "##2": 4783,
      "##3": 4784,
      "##6": 4785,
      "##j": 4786,
      "##ś": 4787,
      "##w": 4788,
      "##ف": 4789,
      "##ر": 4790,
      "##د": 4791,
      "##1": 4792,
      "##ü": 4793,
      "##ō": 4794,
      "##á": 4795,
      "##z": 4796,
      "##ク": 4797,
      "##ギ": 4798,
      "##ß": 4799,
      "##q": 4800,
      "##े": 4801,
      "##ष": 4802,
      "##ु": 4803,
      "##ス": 4804,
      "##_": 4805,
      "##4": 4806,
      "##ā": 4807,
      "##ǐ": 4808,
      "##â": 4809,
      "##一": 4810,
      "##ö": 4811,
      "##教": 4812,
      "##制": 4813,
      "##度": 4814,
      "##調": 4815,
      "##査": 4816,
      "##会": 4817,
      "##а": 4818,
      "##к": 4819,
      "##в": 4820,
      "##з": 4821,
      "##с": 4822,
      "##я": 4823,
      "##å": 4824,
      "##.": 4825,
      "##ä": 4826,
      "##8": 4827,
      "##5": 4828,
      "##ḍ": 4829,
      "##7": 4830,
      "##0": 4831,
      "##à": 4832,
      "##ว": 4833,
      "##น": 4834,
      "##แ": 4835,
      "##ก": 4836,
      "##ー": 4837,
      "##フ": 4838,
      "##ェ": 4839,
      "##ト": 4840,
      "##エ": 4841,
      "##デ": 4842,
      "##ィ": 4843,
      "##シ": 4844,
      "##ョ": 4845,
      "##ン": 4846,
      "##ḷ": 4847,
      "##ˤ": 4848,
      "##ː": 4849,
      "##é": 4850,
      "##9": 4851,
      "##治": 4852,
      "##夫": 4853,
      "##ð": 4854,
      "##レ": 4855,
      "##ゼ": 4856,
      "##ˈ": 4857,
      "##ɪ": 4858,
      "##ŋ": 4859,
      "##ʊ": 4860,
      "##í": 4861,
      "##其": 4862,
      "##邁": 4863,
      "##ɡ": 4864,
      "##т": 4865,
      "##н": 4866,
      "##ч": 4867,
      "##о": 4868,
      "##æ": 4869,
      "##и": 4870,
      "##р": 4871,
      "##й": 4872,
      "##č": 4873,
      "##ə": 4874,
      "##š": 4875,
      "##ṣ": 4876,
      "##ū": 4877,
      "##ی": 4878,
      "##م": 4879,
      "##ا": 4880,
      "##ن": 4881,
      "##ć": 4882,
      "##ɛ": 4883,
      "##サ": 4884,
      "##カ": 4885,
      "##ド": 4886,
      "##鬼": 4887,
      "##坊": 4888,
      "##ý": 4889,
      "##ц": 4890,
      "##л": 4891,
      "##е": 4892,
      "##時": 4893,
      "##ि": 4894,
      "##ल": 4895,
      "##戸": 4896,
      "##台": 4897,
      "##風": 4898,
      "##ø": 4899,
      "##đ": 4900,
      "##ˌ": 4901,
      "##説": 4902,
      "##の": 4903,
      "##騎": 4904,
      "##士": 4905,
      "##ロ": 4906,
      "##у": 4907,
      "##ʃ": 4908,
      "##ɐ": 4909,
      "##督": 4910,
      "##府": 4911,
      "##î": 4912,
      "##è": 4913,
      "##ș": 4914,
      "##ž": 4915,
      "##パ": 4916,
      "##マ": 4917,
      "##リ": 4918,
      "##オ": 4919,
      "##ワ": 4920,
      "##ô": 4921,
      "##υ": 4922,
      "##ρ": 4923,
      "##ι": 4924,
      "##ά": 4925,
      "##ς": 4926,
      "##ų": 4927,
      "##ī": 4928,
      "##ち": 4929,
      "##ゃ": 4930,
      "##ん": 4931,
      "##的": 4932,
      "##奉": 4933,
      "##献": 4934,
      "##θ": 4935,
      "##ό": 4936,
      "##ο": 4937,
      "##ʔ": 4938,
      "##ê": 4939,
      "##タ": 4940,
      "##樂": 4941,
      "##寧": 4942,
      "##宮": 4943,
      "##ł": 4944,
      "##ṇ": 4945,
      "##ォ": 4946,
      "##ç": 4947,
      "##ッ": 4948,
      "##ɔ": 4949,
      "##ɖ": 4950,
      "##ɫ": 4951,
      "##ɑ": 4952,
      "##ó": 4953,
      "##ṛ": 4954,
      "##ʁ": 4955,
      "##ń": 4956,
      "##ˠ": 4957,
      "##ã": 4958,
      "##ʏ": 4959,
      "##ν": 4960,
      "##δ": 4961,
      "##α": 4962,
      "##λ": 4963,
      "##म": 4964,
      "##ा": 4965,
      "##ë": 4966,
      "##σ": 4967,
      "##μ": 4968,
      "##ᵻ": 4969,
      "##{": 4970,
      "##\\": 4971,
      "##$": 4972,
      "##昂": 4973,
      "##β": 4974,
      "##κ": 4975,
      "##ġ": 4976,
      "##व": 4977,
      "##バ": 4978,
      "##ل": 4979,
      "##ئ": 4980,
      "##ه": 4981,
      "##ب": 4982,
      "##つ": 4983,
      "##ぜ": 4984,
      "##х": 4985,
      "##м": 4986,
      "##ы": 4987,
      "##-": 4988,
      "##त": 4989,
      "##қ": 4990,
      "##ɒ": 4991,
      "##ḻ": 4992,
      "##ุ": 4993,
      "##ท": 4994,
      "##ธ": 4995,
      "##ศ": 4996,
      "##า": 4997,
      "##ส": 4998,
      "##ต": 4999,
      "##ร": 5000,
      "##ի": 5001,
      "##ւ": 5002,
      "##ր": 5003,
      "##ն": 5004,
      "##ὐ": 5005,
      "##ε": 5006,
      "##ύ": 5007,
      "##д": 5008,
      "##'": 5009,
      "##細": 5010,
      "##道": 5011,
      "##ē": 5012,
      "##ं": 5013,
      "##έ": 5014,
      "##ω": 5015,
      "##ي": 5016,
      "##و": 5017,
      "##ո": 5018,
      "##վ": 5019,
      "##կ": 5020,
      "##ա": 5021,
      "##ս": 5022,
      "##ב": 5023,
      "##י": 5024,
      "##ר": 5025,
      "##ラ": 5026,
      "##蓀": 5027,
      "##ğ": 5028,
      "##後": 5029,
      "##処": 5030,
      "##理": 5031,
      "##ʲ": 5032,
      "##ắ": 5033,
      "##京": 5034,
      "##\"": 5035,
      "##;": 5036,
      "##?": 5037,
      "##ǔ": 5038,
      "##御": 5039,
      "##史": 5040,
      "##ῆ": 5041,
      "##素": 5042,
      "##ア": 5043,
      "##ダ": 5044,
      "##ム": 5045,
      "##韓": 5046,
      "##邪": 5047,
      "##和": 5048,
      "##如": 5049,
      "##意": 5050,
      "##洋": 5051,
      "##国": 5052,
      "##強": 5053,
      "##兵": 5054,
      "##ו": 5055,
      "##ש": 5056,
      "##ු": 5057,
      "##න": 5058,
      "##ú": 5059,
      "##悦": 5060,
      "##明": 5061,
      "##ж": 5062,
      "##)": 5063,
      "##,": 5064,
      "##φ": 5065,
      "##π": 5066,
      "##ʰ": 5067,
      "##ʷ": 5068,
      "##界": 5069,
      "##し": 5070,
      "##よ": 5071,
      "##る": 5072,
      "##が": 5073,
      "##ί": 5074,
      "##г": 5075,
      "##화": 5076,
      "##재": 5077,
      "##보": 5078,
      "##호": 5079,
      "##법": 5080,
      "##ռ": 5081,
      "##գ": 5082,
      "##յ": 5083,
      "##饼": 5084,
      "##რ": 5085,
      "##ი": 5086,
      "##ს": 5087,
      "##ტ": 5088,
      "##ჱ": 5089,
      "##ɜ": 5090,
      "##ָ": 5091,
      "##ח": 5092,
      "##ְ": 5093,
      "##ּ": 5094,
      "##ֹ": 5095,
      "##箇": 5096,
      "##条": 5097,
      "##誓": 5098,
      "##文": 5099,
      "##ё": 5100,
      "##子": 5101,
      "##グ": 5102,
      "##פ": 5103,
      "##נ": 5104,
      "##野": 5105,
      "##荘": 5106,
      "##布": 5107,
      "##州": 5108,
      "##þ": 5109,
      "##星": 5110,
      "##ị": 5111,
      "##ę": 5112,
      "##式": 5113,
      "##コ": 5114,
      "##プ": 5115,
      "##ガ": 5116,
      "##イ": 5117,
      "##ْ": 5118,
      "##ُ": 5119,
      "##ؤ": 5120,
      "##仲": 5121,
      "##ܪ": 5122,
      "##ܡ": 5123,
      "##ܬ": 5124,
      "##ܐ": 5125,
      "##同": 5126,
      "##ζ": 5127,
      "##τ": 5128,
      "##ş": 5129,
      "##ñ": 5130,
      "##通": 5131,
      "##鉴": 5132,
      "##ح": 5133,
      "##س": 5134,
      "##我": 5135,
      "##中": 5136,
      "##华": 5137,
      "##吉": 5138,
      "##祥": 5139,
      "##か": 5140,
      "##天": 5141,
      "##空": 5142,
      "##ソ": 5143,
      "##ナ": 5144,
      "##取": 5145,
      "##り": 5146,
      "##ì": 5147,
      "##術": 5148,
      "##斬": 5149,
      "##२": 5150,
      "##化": 5151,
      "##館": 5152,
      "##χ": 5153,
      "##無": 5154,
      "##さ": 5155,
      "##だ": 5156,
      "##も": 5157,
      "##]": 5158,
      "##}": 5159,
      "##泉": 5160,
      "##方": 5161,
      "##船": 5162,
      "##年": 5163,
      "##組": 5164,
      "##銀": 5165,
      "##八": 5166,
      "##先": 5167,
      "##生": 5168,
      "##て": 5169,
      "##僕": 5170,
      "##ら": 5171,
      "##は": 5172,
      "##ぶ": 5173,
      "##き": 5174,
      "##町": 5175,
      "##玉": 5176,
      "##大": 5177,
      "##争": 5178,
      "##奪": 5179,
      "##戦": 5180,
      "##ă": 5181,
      "##向": 5182,
      "##ュ": 5183,
      "##ハ": 5184,
      "##ե": 5185,
      "##տ": 5186,
      "##薙": 5187,
      "##夜": 5188,
      "##爺": 5189,
      "##ج": 5190,
      "##ز": 5191,
      "##ء": 5192,
      "##ན": 5193,
      "##ɕ": 5194,
      "##え": 5195,
      "##っ": 5196,
      "##た": 5197,
      "##ブ": 5198,
      "##ザ": 5199,
      "##ズ": 5200,
      "##ხ": 5201,
      "##ე": 5202,
      "##დ": 5203,
      "##ა": 5204,
      "##γ": 5205,
      "##号": 5206,
      "##山": 5207,
      "##二": 5208,
      "##書": 5209,
      "##報": 5210,
      "##社": 5211,
      "##こ": 5212,
      "##ή": 5213,
      "##羽": 5214,
      "##ʻ": 5215,
      "##ò": 5216,
      "##康": 5217,
      "##양": 5218,
      "##종": 5219,
      "##합": 5220,
      "##운": 5221,
      "##동": 5222,
      "##장": 5223,
      "##:": 5224,
      "##ゴ": 5225,
      "##η": 5226,
      "##*": 5227,
      "##ĭ": 5228,
      "##ビ": 5229,
      "##ك": 5230,
      "##ِ": 5231,
      "##ّ": 5232,
      "##愁": 5233,
      "##曲": 5234,
      "##ố": 5235,
      "##協": 5236,
      "##狀": 5237,
      "##元": 5238,
      "##を": 5239,
      "##見": 5240,
      "##け": 5241,
      "##う": 5242,
      "##な": 5243,
      "##色": 5244,
      "##で": 5245,
      "##ů": 5246,
      "##坤": 5247,
      "##加": 5248,
      "##椰": 5249,
      "##面": 5250,
      "##包": 5251,
      "##田": 5252,
      "##歌": 5253,
      "##概": 5254,
      "##வ": 5255,
      "##ர": 5256,
      "##մ": 5257,
      "##թ": 5258,
      "##न": 5259,
      "##救": 5260,
      "##û": 5261,
      "##[": 5262,
      "##ț": 5263,
      "##絶": 5264,
      "##槻": 5265,
      "##爪": 5266,
      "##ो": 5267,
      "##स": 5268,
      "##香": 5269,
      "##õ": 5270,
      "##ˢ": 5271,
      "##ケ": 5272,
      "##ὖ": 5273,
      "##េ": 5274,
      "##ច": 5275,
      "##ព": 5276,
      "##ɨ": 5277,
      "##극": 5278,
      "##ص": 5279,
      "##福": 5280,
      "##ь": 5281,
      "##ţ": 5282,
      "##ʹ": 5283,
      "##ֵ": 5284,
      "##ה": 5285,
      "##杯": 5286,
      "##拳": 5287,
      "##い": 5288,
      "##ミ": 5289,
      "##汤": 5290,
      "##世": 5291,
      "##籠": 5292,
      "##б": 5293,
      "##ʌ": 5294,
      "##モ": 5295,
      "##チ": 5296,
      "##ξ": 5297,
      "##亦": 5298,
      "##婷": 5299,
      "##学": 5300,
      "##习": 5301,
      "##法": 5302,
      "##培": 5303,
      "##养": 5304,
      "##细": 5305,
      "##节": 5306,
      "##太": 5307,
      "##鼓": 5308,
      "##ư": 5309,
      "##ờ": 5310,
      "##落": 5311,
      "##翼": 5312,
      "##ย": 5313,
      "##ู": 5314,
      "##เ": 5315,
      "##ั": 5316,
      "##ṭ": 5317,
      "##თ": 5318,
      "##ლ": 5319,
      "##მ": 5320,
      "##უ": 5321,
      "##ı": 5322,
      "##南": 5323,
      "##漂": 5324,
      "##海": 5325,
      "##錄": 5326,
      "##話": 5327,
      "##!": 5328,
      "##ご": 5329,
      "##季": 5330,
      "##語": 5331,
      "##ą": 5332,
      "##眼": 5333,
      "##ャ": 5334,
      "##下": 5335,
      "##п": 5336,
      "##原": 5337,
      "##成": 5338,
      "##家": 5339,
      "##ת": 5340,
      "##卫": 5341,
      "##ា": 5342,
      "##ស": 5343,
      "##ទ": 5344,
      "##ៅ": 5345,
      "##យ": 5346,
      "##វ": 5347,
      "##ត": 5348,
      "##キ": 5349,
      "##く": 5350,
      "##გ": 5351,
      "##ვ": 5352,
      "##ო": 5353,
      "##ნ": 5354,
      "##ả": 5355,
      "##ử": 5356,
      "##ش": 5357,
      "##ع": 5358,
      "##=": 5359,
      "##ˀ": 5360,
      "##セ": 5361,
      "##ψ": 5362,
      "##ပ": 5363,
      "##ြ": 5364,
      "##င": 5365,
      "##智": 5366,
      "##祖": 5367,
      "##光": 5368,
      "##ग": 5369,
      "##ी": 5370,
      "##鳴": 5371,
      "##闘": 5372,
      "##忍": 5373,
      "##者": 5374,
      "##ù": 5375,
      "##ქ": 5376,
      "##介": 5377,
      "##難": 5378,
      "##事": 5379,
      "##件": 5380,
      "##訳": 5381,
      "##紅": 5382,
      "##桜": 5383,
      "##篇": 5384,
      "##ʼ": 5385,
      "##編": 5386,
      "##四": 5387,
      "##郎": 5388,
      "##拉": 5389,
      "##ಿ": 5390,
      "##ಮ": 5391,
      "##乱": 5392,
      "##ா": 5393,
      "##க": 5394,
      "##ண": 5395,
      "##ம": 5396,
      "##彩": 5397,
      "##百": 5398,
      "##首": 5399,
      "##龍": 5400,
      "##少": 5401,
      "##芙": 5402,
      "##ậ": 5403,
      "##テ": 5404,
      "##ニ": 5405,
      "##真": 5406,
      "##と": 5407,
      "##印": 5408,
      "##刷": 5409,
      "##表": 5410,
      "##現": 5411,
      "##ὲ": 5412,
      "##晴": 5413,
      "##れ": 5414,
      "##ᠣ": 5415,
      "##ᠯ": 5416,
      "##ᡳ": 5417,
      "##ě": 5418,
      "##ṅ": 5419,
      "##ל": 5420,
      "##數": 5421,
      "##ʒ": 5422,
      "##ữ": 5423,
      "##ώ": 5424,
      "##わ": 5425,
      "##姫": 5426,
      "##君": 5427,
      "##鵬": 5428,
      "##飛": 5429,
      "##日": 5430,
      "##报": 5431,
      "##դ": 5432,
      "##ァ": 5433,
      "##三": 5434,
      "##次": 5435,
      "##ἴ": 5436,
      "##ớ": 5437,
      "##休": 5438,
      "##द": 5439,
      "##ǎ": 5440,
      "##衝": 5441,
      "##鬥": 5442,
      "##艦": 5443,
      "##ة": 5444,
      "##仇": 5445,
      "##ิ": 5446,
      "##ล": 5447,
      "##ด": 5448,
      "##ż": 5449,
      "##閒": 5450,
      "##瑠": 5451,
      "##ľ": 5452,
      "##ց": 5453,
      "##լ": 5454,
      "##ф": 5455,
      "##ृ": 5456,
      "##խ": 5457,
      "##閨": 5458,
      "##夢": 5459,
      "##ẽ": 5460,
      "##骨": 5461,
      "##雞": 5462,
      "##諭": 5463,
      "##毛": 5464,
      "##ペ": 5465,
      "##谷": 5466,
      "##蘭": 5467,
      "##墓": 5468,
      "##也": 5469,
      "##ⵎ": 5470,
      "##ⵓ": 5471,
      "##ⵔ": 5472,
      "##ⴰ": 5473,
      "##ⴽ": 5474,
      "##ⵛ": 5475,
      "##振": 5476,
      "##鐸": 5477,
      "##ш": 5478,
      "##삿": 5479,
      "##줄": 5480,
      "##다": 5481,
      "##리": 5482,
      "##기": 5483,
      "##ץ": 5484,
      "##ï": 5485,
      "##ן": 5486,
      "##ǽ": 5487,
      "##剧": 5488,
      "##ļ": 5489,
      "##ɾ": 5490,
      "##і": 5491,
      "##ɣ": 5492,
      "##似": 5493,
      "##ј": 5494,
      "##ћ": 5495,
      "##ɲ": 5496,
      "##庆": 5497,
      "##河": 5498,
      "##神": 5499,
      "##प": 5500,
      "##転": 5501,
      "##依": 5502,
      "##去": 5503,
      "##非": 5504,
      "##א": 5505,
      "##מ": 5506,
      "##স": 5507,
      "##া": 5508,
      "##দ": 5509,
      "##ะ": 5510,
      "##支": 5511,
      "##隊": 5512,
      "##ت": 5513,
      "##ˑ": 5514,
      "##秋": 5515,
      "##左": 5516,
      "##氏": 5517,
      "##伝": 5518,
      "##车": 5519,
      "##ǫ": 5520,
      "##צ": 5521,
      "##ע": 5522,
      "##ऽ": 5523,
      "##路": 5524,
      "##ř": 5525,
      "##間": 5526,
      "##型": 5527,
      "##装": 5528,
      "##甲": 5529,
      "##巡": 5530,
      "##ḥ": 5531,
      "##美": 5532,
      "##ơ": 5533,
      "##ᾶ": 5534,
      "##ը": 5535,
      "##َ": 5536,
      "##添": 5537,
      "##財": 5538,
      "##猿": 5539,
      "##ő": 5540,
      "##ツ": 5541,
      "##に": 5542,
      "##人": 5543,
      "##譚": 5544,
      "##산": 5545,
      "##신": 5546,
      "##태": 5547,
      "##광": 5548,
      "##川": 5549,
      "##地": 5550,
      "##震": 5551,
      "##灾": 5552,
      "##后": 5553,
      "##恢": 5554,
      "##复": 5555,
      "##重": 5556,
      "##建": 5557,
      "##对": 5558,
      "##口": 5559,
      "##援": 5560,
      "##案": 5561,
      "##(": 5562,
      "##魂": 5563,
      "##公": 5564,
      "##ʕ": 5565,
      "##ŏ": 5566,
      "##ม": 5567,
      "##ḱ": 5568,
      "##音": 5569,
      "##غ": 5570,
      "##鳥": 5571,
      "##院": 5572,
      "##初": 5573,
      "##ʿ": 5574,
      "##ὶ": 5575,
      "##衛": 5576,
      "##處": 5577,
      "##ठ": 5578,
      "##応": 5579,
      "##上": 5580,
      "##鍵": 5581,
      "##板": 5582,
      "##メ": 5583,
      "##ジ": 5584,
      "##爾": 5585,
      "##辯": 5586,
      "##圓": 5587,
      "##ट": 5588,
      "##र": 5589,
      "##ղ": 5590,
      "##雳": 5591,
      "##火": 5592,
      "##球": 5593,
      "##ិ": 5594,
      "##弱": 5595,
      "##莉": 5596,
      "##秀": 5597,
      "##ʳ": 5598,
      "##ʋ": 5599,
      "##כ": 5600,
      "##刊": 5601,
      "##ङ": 5602,
      "##/": 5603,
      "##宗": 5604,
      "##政": 5605,
      "##ᵿ": 5606,
      "##芒": 5607,
      "##ῦ": 5608,
      "##ʀ": 5609,
      "##内": 5610,
      "##映": 5611,
      "##画": 5612,
      "##村": 5613,
      "##丑": 5614,
      "##襟": 5615,
      "##屯": 5616,
      "##団": 5617,
      "##ǝ": 5618,
      "##ħ": 5619,
      "##ⵉ": 5620,
      "##ⵍ": 5621,
      "##禺": 5622,
      "##縣": 5623,
      "##軍": 5624,
      "##나": 5625,
      "##œ": 5626,
      "##盆": 5627,
      "##而": 5628,
      "##給": 5629,
      "##潜": 5630,
      "##水": 5631,
      "##碍": 5632,
      "##ạ": 5633,
      "##य": 5634,
      "##ɻ": 5635,
      "##楽": 5636,
      "##殿": 5637,
      "##ٰ": 5638,
      "##ق": 5639,
      "##+": 5640,
      "##藤": 5641,
      "##ज": 5642,
      "##永": 5643,
      "##ヴ": 5644,
      "##五": 5645,
      "##十": 5646,
      "##ื": 5647,
      "##อ": 5648,
      "##们": 5649,
      "##ช": 5650,
      "##ฤ": 5651,
      "##ี": 5652,
      "##巻": 5653,
      "##螺": 5654,
      "##旋": 5655,
      "##丸": 5656,
      "##幻": 5657,
      "##隠": 5658,
      "##騒": 5659,
      "##動": 5660,
      "##門": 5661,
      "##ʂ": 5662,
      "##秘": 5663,
      "##密": 5664,
      "##ɳ": 5665,
      "##舞": 5666,
      "##羅": 5667,
      "##馬": 5668,
      "##字": 5669,
      "##宋": 5670,
      "##ى": 5671,
      "##雲": 5672,
      "##ŵ": 5673,
      "##西": 5674,
      "##ệ": 5675,
      "##召": 5676,
      "##鴻": 5677,
      "##щ": 5678,
      "##ὸ": 5679,
      "##万": 5680,
      "##秒": 5681,
      "##问": 5682,
      "##答": 5683,
      "##ै": 5684,
      "##周": 5685,
      "##蝶": 5686,
      "##ܕ": 5687,
      "##ܝ": 5688,
      "##ܢ": 5689,
      "##可": 5690,
      "##名": 5691,
      "##常": 5692,
      "##پ": 5693,
      "##수": 5694,
      "##목": 5695,
      "##적": 5696,
      "##인": 5697,
      "##ہ": 5698,
      "##儀": 5699,
      "##敏": 5700,
      "##全": 5701,
      "##仕": 5702,
      "##選": 5703,
      "##ɹ": 5704,
      "##ネ": 5705,
      "##久": 5706,
      "##前": 5707,
      "##怪": 5708,
      "##物": 5709,
      "##髀": 5710,
      "##算": 5711,
      "##經": 5712,
      "##今": 5713,
      "##記": 5714,
      "##念": 5715,
      "##司": 5716,
      "##農": 5717,
      "##µ": 5718,
      "##城": 5719,
      "##議": 5720,
      "##授": 5721,
      "##魔": 5722,
      "##笛": 5723,
      "##罪": 5724,
      "##係": 5725,
      "##数": 5726,
      "##芳": 5727,
      "##ベ": 5728,
      "##ῑ": 5729,
      "##鹽": 5730,
      "##池": 5731,
      "##ኢ": 5732,
      "##ት": 5733,
      "##ዮ": 5734,
      "##ጵ": 5735,
      "##ያ": 5736,
      "##ܲ": 5737,
      "##ܠ": 5738,
      "##ܵ": 5739,
      "##ܗ": 5740,
      "##ῖ": 5741,
      "##湖": 5742,
      "##风": 5743,
      "##边": 5744,
      "##在": 5745,
      "##流": 5746,
      "##み": 5747,
      "##め": 5748,
      "##や": 5749,
      "##月": 5750,
      "##ে": 5751,
      "##ত": 5752,
      "##भ": 5753,
      "##ź": 5754,
      "##衣": 5755,
      "##６": 5756,
      "##ཛ": 5757,
      "##ི": 5758,
      "##器": 5759,
      "##葉": 5760,
      "##庭": 5761,
      "##է": 5762,
      "##長": 5763,
      "##円": 5764,
      "##寺": 5765,
      "##果": 5766,
      "##賦": 5767,
      "##崎": 5768,
      "##歲": 5769,
      "##嫁": 5770,
      "##ま": 5771,
      "##ʙ": 5772,
      "##घ": 5773,
      "##क": 5774,
      "##覺": 5775,
      "##禰": 5776,
      "##岐": 5777,
      "##ג": 5778,
      "##ម": 5779,
      "##រ": 5780,
      "##̇": 5781,
      "##ण": 5782,
      "##茶": 5783,
      "##斯": 5784,
      "##望": 5785,
      "##知": 5786,
      "##ू": 5787,
      "##蓝": 5788,
      "##达": 5789,
      "##持": 5790,
      "##気": 5791,
      "##笑": 5792,
      "##顔": 5793,
      "##只": 5794,
      "##是": 5795,
      "##想": 5796,
      "##要": 5797,
      "##ざ": 5798,
      "##ば": 5799,
      "##雪": 5800,
      "##ろ": 5801,
      "##所": 5802,
      "##迄": 5803,
      "##质": 5804,
      "##纪": 5805,
      "##实": 5806,
      "##叫": 5807,
      "##ђ": 5808,
      "##ホ": 5809,
      "##ѣ": 5810,
      "##ብ": 5811,
      "##修": 5812,
      "##平": 5813,
      "##ĕ": 5814,
      "##倫": 5815,
      "##橋": 5816,
      "##ė": 5817,
      "##ṝ": 5818,
      "##ह": 5819,
      "##亨": 5820,
      "##利": 5821,
      "##貞": 5822,
      "##揺": 5823,
      "##小": 5824,
      "##径": 5825,
      "##罠": 5826,
      "##^": 5827,
      "##本": 5828,
      "##材": 5829,
      "##阳": 5830,
      "##伴": 5831,
      "##词": 5832,
      "##暴": 5833,
      "##ÿ": 5834,
      "##ջ": 5835,
      "##ड": 5836,
      "##椒": 5837,
      "##أ": 5838,
      "##忘": 5839,
      "##ḫ": 5840,
      "##ず": 5841,
      "##颗": 5842,
      "##弹": 5843,
      "##ط": 5844,
      "##形": 5845,
      "##ヒ": 5846,
      "##約": 5847,
      "##ɽ": 5848,
      "##ɯ": 5849,
      "##ိ": 5850,
      "##ု": 5851,
      "##ض": 5852,
      "##ピ": 5853,
      "##ぎ": 5854,
      "##ぼ": 5855,
      "##წ": 5856,
      "##ფ": 5857,
      "##じ": 5858,
      "##ウ": 5859,
      "##羊": 5860,
      "##雕": 5861,
      "##像": 5862,
      "##ợ": 5863,
      "##ẫ": 5864,
      "##ჲ": 5865,
      "##夕": 5866,
      "##犬": 5867,
      "##異": 5868,
      "##聞": 5869,
      "##録": 5870,
      "##英": 5871,
      "##ᛠ": 5872,
      "##塚": 5873,
      "##座": 5874,
      "##ਿ": 5875,
      "##ੰ": 5876,
      "##ਘ": 5877,
      "##ន": 5878,
      "##ˁ": 5879,
      "##白": 5880,
      "##礁": 5881,
      "##岛": 5882,
      "##主": 5883,
      "##权": 5884,
      "##端": 5885,
      "##及": 5886,
      "##新": 5887,
      "##马": 5888,
      "##关": 5889,
      "##系": 5890,
      "##东": 5891,
      "##盟": 5892,
      "##发": 5893,
      "##展": 5894,
      "##影": 5895,
      "##响": 5896,
      "##仙": 5897,
      "##ծ": 5898,
      "##为": 5899,
      "##民": 5900,
      "##咙": 5901,
      "##胡": 5902,
      "##ボ": 5903,
      "##빤": 5904,
      "##ி": 5905,
      "##竜": 5906,
      "##斎": 5907,
      "##ף": 5908,
      "##覚": 5909,
      "##朝": 5910,
      "##隣": 5911,
      "##島": 5912,
      "##沖": 5913,
      "##せ": 5914,
      "##力": 5915,
      "##思": 5916,
      "##帥": 5917,
      "##ɵ": 5918,
      "##չ": 5919,
      "##ɮ": 5920,
      "##丽": 5921,
      "##萍": 5922,
      "##為": 5923,
      "##ầ": 5924,
      "##ť": 5925,
      "##鳳": 5926,
      "##ἰ": 5927,
      "##պ": 5928,
      "##ס": 5929,
      "##ם": 5930,
      "##ौ": 5931,
      "##ไ": 5932,
      "##宅": 5933,
      "##键": 5934,
      "##զ": 5935,
      "##ſ": 5936,
      "##尾": 5937,
      "##園": 5938,
      "##ゲ": 5939,
      "##石": 5940,
      "##楼": 5941,
      "##邑": 5942,
      "##之": 5943,
      "##戰": 5944,
      "##課": 5945,
      "##九": 5946,
      "##章": 5947,
      "##克": 5948,
      "##炯": 5949,
      "##@": 5950,
      "##来": 5951,
      "##研": 5952,
      "##究": 5953,
      "##실": 5954,
      "##이": 5955,
      "##야": 5956,
      "##樉": 5957,
      "##ノ": 5958,
      "##ў": 5959,
      "##華": 5960,
      "##共": 5961,
      "##國": 5962,
      "##旗": 5963,
      "##继": 5964,
      "##奈": 5965,
      "##緒": 5966,
      "##徒": 5967,
      "##活": 5968,
      "##誌": 5969,
      "##精": 5970,
      "##標": 5971,
      "##ি": 5972,
      "##ল": 5973,
      "##ক": 5974,
      "##ɬ": 5975,
      "##บ": 5976,
      "##ญ": 5977,
      "##ษ": 5978,
      "##著": 5979,
      "##蔵": 5980,
      "##咲": 5981,
      "##ী": 5982,
      "##体": 5983,
      "##ܘ": 5984,
      "##助": 5985,
      "##ذ": 5986,
      "##倉": 5987,
      "##集": 5988,
      "##女": 5989,
      "##叔": 5990,
      "##父": 5991,
      "##攝": 5992,
      "##王": 5993,
      "##米": 5994,
      "##翱": 5995,
      "##ូ": 5996,
      "##竹": 5997,
      "##齋": 5998,
      "##突": 5999,
      "##描": 6000,
      "##ヨ": 6001,
      "##切": 6002,
      "##符": 6003,
      "##ظ": 6004,
      "##ภ": 6005,
      "##龙": 6006,
      "##恩": 6007,
      "##ぐ": 6008,
      "##様": 6009,
      "##ょ": 6010,
      "##昭": 6011,
      "##お": 6012,
      "##顯": 6013,
      "##ះ": 6014,
      "##東": 6015,
      "##堆": 6016,
      "##填": 6017,
      "##區": 6018,
      "##스": 6019,
      "##람": 6020,
      "##났": 6021,
      "##어": 6022,
      "##金": 6023,
      "##吾": 6024,
      "##剣": 6025,
      "##丞": 6026,
      "##ю": 6027,
      "##ھ": 6028,
      "##詞": 6029,
      "##च": 6030,
      "##使": 6031,
      "##探": 6032,
      "##ׁ": 6033,
      "##ַ": 6034,
      "##ִ": 6035,
      "##代": 6036,
      "##輪": 6037,
      "##里": 6038,
      "##陸": 6039,
      "##漸": 6040,
      "##棲": 6041,
      "##霞": 6042,
      "##采": 6043,
      "##耳": 6044,
      "##宫": 6045,
      "##ܔ": 6046,
      "##ἱ": 6047,
      "##ෝ": 6048,
      "##ව": 6049,
      "##ි": 6050,
      "##ල": 6051,
      "##ʾ": 6052,
      "##熱": 6053,
      "##結": 6054,
      "##婚": 6055,
      "##論": 6056,
      "##ث": 6057,
      "##期": 6058,
      "##奐": 6059,
      "##ぽ": 6060,
      "##す": 6061,
      "##հ": 6062,
      "##溪": 6063,
      "##ब": 6064,
      "##欠": 6065,
      "##片": 6066,
      "##獻": 6067,
      "##遊": 6068,
      "##戎": 6069,
      "##宿": 6070,
      "##拟": 6071,
      "##汉": 6072,
      "##语": 6073,
      "##统": 6074,
      "##ד": 6075,
      "##武": 6076,
      "##綺": 6077,
      "##晶": 6078,
      "##囁": 6079,
      "##将": 6080,
      "##岩": 6081,
      "##井": 6082,
      "##พ": 6083,
      "##ง": 6084,
      "##沢": 6085,
      "##未": 6086,
      "##유": 6087,
      "##ः": 6088,
      "##梁": 6089,
      "##部": 6090,
      "##尚": 6091,
      "##э": 6092,
      "##ֲ": 6093,
      "##ז": 6094,
      "##র": 6095,
      "##ই": 6096,
      "##ন": 6097,
      "##օ": 6098,
      "##ふ": 6099,
      "##雄": 6100,
      "##宝": 6101,
      "##ⵙ": 6102,
      "##ⴻ": 6103,
      "##ⵏ": 6104,
      "##ณ": 6105,
      "##ฑ": 6106,
      "##爱": 6107,
      "##无": 6108,
      "##有": 6109,
      "##ї": 6110,
      "##曜": 6111,
      "##檻": 6112,
      "##熊": 6113,
      "##貓": 6114,
      "##補": 6115,
      "##ộ": 6116,
      "##ņ": 6117,
      "##巫": 6118,
      "##總": 6119,
      "##商": 6120,
      "##會": 6121,
      "##ⁿ": 6122,
      "##木": 6123,
      "##门": 6124,
      "##裁": 6125,
      "##判": 6126,
      "##ለ": 6127,
      "##ḑ": 6128,
      "##閣": 6129,
      "##総": 6130,
      "##臣": 6131,
      "##ǒ": 6132,
      "##ŭ": 6133,
      "##ک": 6134,
      "##ɥ": 6135,
      "##１": 6136,
      "##ň": 6137,
      "##札": 6138,
      "##颊": 6139,
      "##ဟ": 6140,
      "##ာ": 6141,
      "##မ": 6142,
      "##န": 6143,
      "##ဘ": 6144,
      "##ရ": 6145,
      "##း": 6146,
      "##က": 6147,
      "##ီ": 6148,
      "##屠": 6149,
      "##杀": 6150,
      "##ק": 6151,
      "##德": 6152,
      "##始": 6153,
      "##刻": 6154,
      "##む": 6155,
      "##唄": 6156,
      "##放": 6157,
      "##送": 6158,
      "##嚣": 6159,
      "##ু": 6160,
      "##ণ": 6161,
      "##牙": 6162,
      "##劇": 6163,
      "##場": 6164,
      "##定": 6165,
      "##科": 6166,
      "##ீ": 6167,
      "##住": 6168,
      "##硝": 6169,
      "##言": 6170,
      "##º": 6171,
      "##苗": 6172,
      "##溢": 6173,
      "##嘉": 6174,
      "##雷": 6175,
      "##老": 6176,
      "##確": 6177,
      "##ป": 6178,
      "##手": 6179,
      "##連": 6180,
      "##ʑ": 6181,
      "##食": 6182,
      "##品": 6183,
      "##ভ": 6184,
      "##য": 6185,
      "##移": 6186,
      "##顏": 6187,
      "##襄": 6188,
      "##ṓ": 6189,
      "##母": 6190,
      "##堂": 6191,
      "##願": 6192,
      "##津": 6193,
      "##币": 6194,
      "##分": 6195,
      "##裂": 6196,
      "##病": 6197,
      "##禎": 6198,
      "##暦": 6199,
      "##풍": 6200,
      "##ể": 6201,
      "##谦": 6202,
      "##芮": 6203,
      "##ẓ": 6204,
      "##ῷ": 6205,
      "##不": 6206,
      "##ぱ": 6207,
      "##진": 6208,
      "##將": 6209,
      "##走": 6210,
      "##ề": 6211,
      "##ֻ": 6212,
      "##怀": 6213,
      "##敬": 6214,
      "##景": 6215,
      "##樹": 6216,
      "##ḣ": 6217,
      "##फ": 6218,
      "##ฏ": 6219,
      "##ฟ": 6220,
      "##除": 6221,
      "##祭": 6222,
      "##版": 6223,
      "##砲": 6224,
      "##ǂ": 6225,
      "##ヤ": 6226,
      "##ʈ": 6227,
      "##氣": 6228,
      "##象": 6229,
      "##雜": 6230,
      "##占": 6231,
      "##創": 6232,
      "##造": 6233,
      "##彼": 6234,
      "##七": 6235,
      "##ひ": 6236,
      "##六": 6237,
      "##右": 6238,
      "##โ": 6239,
      "##ฬ": 6240,
      "##ɟ": 6241,
      "##%": 6242,
      "##写": 6243,
      "##多": 6244,
      "##灵": 6245,
      "##悲": 6246,
      "##逆": 6247,
      "##ჯ": 6248,
      "##ấ": 6249,
      "##ⴷ": 6250,
      "##ũ": 6251,
      "##脚": 6252,
      "##ぃ": 6253,
      "##ゅ": 6254,
      "##ヂ": 6255,
      "##祈": 6256,
      "##ꜜ": 6257,
      "##扇": 6258,
      "##肖": 6259,
      "##資": 6260,
      "##料": 6261,
      "##ȯ": 6262,
      "##刀": 6263,
      "##魚": 6264,
      "##黨": 6265,
      "##គ": 6266,
      "##詩": 6267,
      "##课": 6268,
      "##鷹": 6269,
      "##迪": 6270,
      "##ﬁ": 6271,
      "##験": 6272,
      "##工": 6273,
      "##房": 6274,
      "##衢": 6275,
      "##登": 6276,
      "##び": 6277,
      "##佐": 6278,
      "##渡": 6279,
      "##達": 6280,
      "##遁": 6281,
      "##迷": 6282,
      "##ὴ": 6283,
      "##ễ": 6284,
      "##げ": 6285,
      "##ṯ": 6286,
      "##繼": 6287,
      "##紀": 6288,
      "##喜": 6289,
      "##ẩ": 6290,
      "##议": 6291,
      "##帝": 6292,
      "##ោ": 6293,
      "##ធ": 6294,
      "##ប": 6295,
      "##ុ": 6296,
      "##ៈ": 6297,
      "##ా": 6298,
      "##వ": 6299,
      "##ు": 6300,
      "##ల": 6301,
      "##ర": 6302,
      "##ి": 6303,
      "##ʎ": 6304,
      "##傭": 6305,
      "##埔": 6306,
      "##ἶ": 6307,
      "##ல": 6308,
      "##合": 6309,
      "##鼻": 6310,
      "##運": 6311,
      "##命": 6312,
      "##乙": 6313,
      "##特": 6314,
      "##別": 6315,
      "##春": 6316,
      "##ⵣ": 6317,
      "##ⵖ": 6318,
      "##ⵜ": 6319,
      "##~": 6320,
      "##梏": 6321,
      "##勝": 6322,
      "##市": 6323,
      "##林": 6324,
      "##群": 6325,
      "##ө": 6326,
      "##撃": 6327,
      "##技": 6328,
      "##ằ": 6329,
      "##旭": 6330,
      "##挑": 6331,
      "##恋": 6332,
      "##終": 6333,
      "##တ": 6334,
      "##ゆ": 6335,
      "##あ": 6336,
      "##計": 6337,
      "##旅": 6338,
      "##劍": 6339,
      "##翹": 6340,
      "##攻": 6341,
      "##略": 6342,
      "##儿": 6343,
      "##吹": 6344,
      "##徽": 6345,
      "##安": 6346,
      "##籃": 6347,
      "##翠": 6348,
      "##ỹ": 6349,
      "##牌": 6350,
      "##营": 6351,
      "##炎": 6352,
      "##ँ": 6353,
      "##業": 6354,
      "##３": 6355,
      "##正": 6356,
      "##渠": 6357,
      "##畫": 6358,
      "##譜": 6359,
      "##ど": 6360,
      "##勢": 6361,
      "##沉": 6362,
      "##ĉ": 6363,
      "##心": 6364,
      "##起": 6365,
      "##ῶ": 6366,
      "##ʱ": 6367,
      "##خ": 6368,
      "##ự": 6369,
      "##ถ": 6370,
      "##行": 6371,
      "##ध": 6372,
      "##昌": 6373,
      "##郡": 6374,
      "##靼": 6375,
      "##菜": 6376,
      "##ใ": 6377,
      "##ദ": 6378,
      "##స": 6379,
      "##த": 6380,
      "##ு": 6381,
      "##友": 6382,
      "##闇": 6383,
      "##雉": 6384,
      "##厦": 6385,
      "##ἵ": 6386,
      "##盗": 6387,
      "##藏": 6388,
      "##指": 6389,
      "##圧": 6390,
      "##師": 6391,
      "##慶": 6392,
      "##没": 6393,
      "##追": 6394,
      "##悼": 6395,
      "##副": 6396,
      "##爲": 6397,
      "##節": 6398,
      "##曆": 6399,
      "##亚": 6400,
      "##喝": 6401,
      "##街": 6402,
      "##해": 6403,
      "##话": 6404,
      "##श": 6405,
      "##陣": 6406,
      "##块": 6407,
      "##比": 6408,
      "##萨": 6409,
      "##ք": 6410,
      "##碗": 6411,
      "##粥": 6412,
      "##壽": 6413,
      "##祺": 6414,
      "##복": 6415,
      "##噛": 6416,
      "##љ": 6417,
      "##ъ": 6418,
      "##ং": 6419,
      "##湯": 6420,
      "##ʝ": 6421,
      "##थ": 6422,
      "##栗": 6423,
      "##忠": 6424,
      "##ṃ": 6425,
      "##江": 6426,
      "##桃": 6427,
      "##ผ": 6428,
      "##好": 6429,
      "##塊": 6430,
      "##獵": 6431,
      "##榔": 6432,
      "##嶼": 6433,
      "##斗": 6434,
      "##ֽ": 6435,
      "##돌": 6436,
      "##ᶦ": 6437,
      "##旦": 6438,
      "##感": 6439,
      "##謝": 6440,
      "##လ": 6441,
      "##ဇ": 6442,
      "##ủ": 6443,
      "##黄": 6444,
      "##ĵ": 6445,
      "##ข": 6446,
      "##个": 6447,
      "##都": 6448,
      "##能": 6449,
      "##罗": 6450,
      "##吞": 6451,
      "##ฐ": 6452,
      "##砂": 6453,
      "##族": 6454,
      "##云": 6455,
      "##鸡": 6456,
      "##ཡ": 6457,
      "##ུ": 6458,
      "##ង": 6459,
      "##紋": 6460,
      "##息": 6461,
      "##妹": 6462,
      "##자": 6463,
      "##官": 6464,
      "##更": 6465,
      "##近": 6466,
      "##自": 6467,
      "##然": 6468,
      "##鎮": 6469,
      "##彭": 6470,
      "###": 6471,
      "##受": 6472,
      "##斉": 6473,
      "##信": 6474,
      "##渊": 6475,
      "##阁": 6476,
      "##إ": 6477,
      "##棺": 6478,
      "##ম": 6479,
      "##摩": 6480,
      "##گ": 6481,
      "##예": 6482,
      "##술": 6483,
      "##론": 6484,
      "##夏": 6485,
      "##段": 6486,
      "##跡": 6487,
      "##復": 6488,
      "##ゾ": 6489,
      "##何": 6490,
      "##乃": 6491,
      "##花": 6492,
      "##庚": 6493,
      "##醫": 6494,
      "##航": 6495,
      "##ས": 6496,
      "##欽": 6497,
      "##ὔ": 6498,
      "##封": 6499,
      "##ᶴ": 6500,
      "##孛": 6501,
      "##股": 6502,
      "##份": 6503,
      "##限": 6504,
      "##协": 6505,
      "##筹": 6506,
      "##备": 6507,
      "##窓": 6508,
      "##森": 6509,
      "##ϊ": 6510,
      "##鉄": 6511,
      "##经": 6512,
      "##掲": 6513,
      "##示": 6514,
      "##淇": 6515,
      "##陽": 6516,
      "##방": 6517,
      "##울": 6518,
      "##净": 6519,
      "##લ": 6520,
      "##સ": 6521,
      "##ા": 6522,
      "##ર": 6523,
      "##ὰ": 6524,
      "##半": 6525,
      "##鱀": 6526,
      "##豚": 6527,
      "##保": 6528,
      "##护": 6529,
      "##区": 6530,
      "##薇": 6531,
      "##良": 6532,
      "##ɸ": 6533,
      "##叡": 6534,
      "##再": 6535,
      "##遇": 6536,
      "##藩": 6537,
      "##ẹ": 6538,
      "##迦": 6539,
      "##情": 6540,
      "##設": 6541,
      "##郷": 6542,
      "##變": 6543,
      "##角": 6544,
      "##清": 6545,
      "##ᚷ": 6546,
      "##ᚾ": 6547,
      "##ᚩ": 6548,
      "##ᚦ": 6549,
      "##楚": 6550,
      "##霸": 6551,
      "##ဝ": 6552,
      "##ယ": 6553,
      "##奥": 6554,
      "##義": 6555,
      "##危": 6556,
      "##機": 6557,
      "##育": 6558,
      "##孩": 6559,
      "##需": 6560,
      "##慧": 6561,
      "##ụ": 6562,
      "##陵": 6563,
      "##へ": 6564,
      "##そ": 6565,
      "##آ": 6566,
      "##จ": 6567,
      "##軽": 6568,
      "##荒": 6569,
      "##豪": 6570,
      "##բ": 6571,
      "##늬": 6572,
      "##오": 6573,
      "##징": 6574,
      "##暖": 6575,
      "##尉": 6576,
      "##ச": 6577,
      "##њ": 6578,
      "##省": 6579,
      "##壷": 6580,
      "##ำ": 6581,
      "##ห": 6582,
      "##ѡ": 6583,
      "##ᛇ": 6584,
      "##ᛋ": 6585,
      "##ᛚ": 6586,
      "##ᚻ": 6587,
      "##ᚱ": 6588,
      "##ᛞ": 6589,
      "##服": 6590,
      "##務": 6591,
      "##賞": 6592,
      "##均": 6593,
      "##犖": 6594,
      "##租": 6595,
      "##变": 6596,
      "##了": 6597,
      "##棵": 6598,
      "##树": 6599,
      "##善": 6600,
      "##军": 6601,
      "##ʐ": 6602,
      "##護": 6603,
      "##愛": 6604,
      "##打": 6605,
      "##妮": 6606,
      "##厥": 6607,
      "##屬": 6608,
      "##ई": 6609,
      "##漁": 6610,
      "##第": 6611,
      "##萬": 6612,
      "##ⵡ": 6613,
      "##拏": 6614,
      "##実": 6615,
      "##ฆ": 6616,
      "##賊": 6617,
      "##興": 6618,
      "##ူ": 6619,
      "##စ": 6620,
      "##ค": 6621,
      "##甫": 6622,
      "##ం": 6623,
      "##జ": 6624,
      "##ሐ": 6625,
      "##ዘ": 6626,
      "##በ": 6627,
      "##ט": 6628,
      "##荷": 6629,
      "##領": 6630,
      "##域": 6631,
      "##ʉ": 6632,
      "##譌": 6633,
      "##聃": 6634,
      "##闍": 6635,
      "##梨": 6636,
      "##ྥ": 6637,
      "##種": 6638,
      "##束": 6639,
      "##ẖ": 6640,
      "##剛": 6641,
      "##彦": 6642,
      "##ூ": 6643,
      "##踢": 6644,
      "##ŷ": 6645,
      "##獄": 6646,
      "##ű": 6647,
      "##談": 6648,
      "##膺": 6649,
      "##作": 6650,
      "##身": 6651,
      "##投": 6652,
      "##宙": 6653,
      "##ƿ": 6654,
      "##玲": 6655,
      "##双": 6656,
      "##ҷ": 6657,
      "##ӣ": 6658,
      "##贝": 6659,
      "##计": 6660,
      "##划": 6661,
      "##高": 6662,
      "##远": 6663,
      "##坑": 6664,
      "##深": 6665,
      "##간": 6666,
      "##極": 6667,
      "##长": 6668,
      "##ⴼ": 6669,
      "##早": 6670,
      "##灣": 6671,
      "##那": 6672,
      "##棋": 6673,
      "##థ": 6674,
      "##ང": 6675,
      "##題": 6676,
      "##노": 6677,
      "##삼": 6678,
      "##성": 6679,
      "##ណ": 6680,
      "##ឫ": 6681,
      "##出": 6682,
      "##舟": 6683,
      "##皇": 6684,
      "##ỏ": 6685,
      "##叉": 6686,
      "##降": 6687,
      "##誕": 6688,
      "##ὕ": 6689,
      "##泰": 6690,
      "##港": 6691,
      "##匹": 6692,
      "##ǹ": 6693,
      "##ǚ": 6694,
      "##椅": 6695,
      "##ổ": 6696,
      "##宣": 6697,
      "##肃": 6698,
      "##标": 6699,
      "##夷": 6700,
      "##志": 6701,
      "##琪": 6702,
      "##纵": 6703,
      "##横": 6704,
      "##驰": 6705,
      "##奔": 6706,
      "##線": 6707,
      "##側": 6708,
      "##権": 6709,
      "##战": 6710,
      "##椿": 6711,
      "##曾": 6712,
      "##내": 6713,
      "##葵": 6714,
      "##薔": 6715,
      "##歴": 6716,
      "##ặ": 6717,
      "##豬": 6718,
      "##ៀ": 6719,
      "##ភ": 6720,
      "##ថ": 6721,
      "##ほ": 6722,
      "##直": 6723,
      "##滑": 6724,
      "##阪": 6725,
      "##鐘": 6726,
      "##炬": 6727,
      "##垣": 6728,
      "##筍": 6729,
      "##ங": 6730,
      "##蔭": 6731,
      "##穂": 6732,
      "##厚": 6733,
      "##澤": 6734,
      "##ﬀ": 6735,
      "##狐": 6736,
      "##喇": 6737,
      "##时": 6738,
      "##跟": 6739,
      "##経": 6740,
      "##ാ": 6741,
      "##ര": 6742,
      "##ങ": 6743,
      "##歡": 6744,
      "##你": 6745,
      "##灯": 6746,
      "##吧": 6747,
      "##狗": 6748,
      "##頭": 6749,
      "##閃": 6750,
      "##璽": 6751,
      "##ǧ": 6752,
      "##념": 6753,
      "##満": 6754,
      "##足": 6755,
      "##開": 6756,
      "##栖": 6757,
      "##虔": 6758,
      "##守": 6759,
      "##ञ": 6760,
      "##葆": 6761,
      "##榮": 6762,
      "##ರ": 6763,
      "##ದ": 6764,
      "##ಾ": 6765,
      "##ಸ": 6766,
      "##土": 6767,
      "##産": 6768,
      "##職": 6769,
      "##堤": 6770,
      "##ΐ": 6771,
      "##ǣ": 6772,
      "##增": 6773,
      "##霆": 6774,
      "##鰐": 6775,
      "##遠": 6776,
      "##客": 6777,
      "##須": 6778,
      "##屋": 6779,
      "##破": 6780,
      "##ぬ": 6781,
      "##ユ": 6782,
      "##爆": 6783,
      "##番": 6784,
      "##目": 6785,
      "##ĩ": 6786,
      "##岳": 6787,
      "##傳": 6788,
      "##硕": 6789,
      "##柔": 6790,
      "##陶": 6791,
      "##ｃ": 6792,
      "##ｄ": 6793,
      "##భ": 6794,
      "##ై": 6795,
      "##皮": 6796,
      "##具": 6797,
      "##ﬂ": 6798,
      "##令": 6799,
      "##ポ": 6800,
      "##希": 6801,
      "##悟": 6802,
      "##蓑": 6803,
      "##醒": 6804,
      "##姿": 6805,
      "##澄": 6806,
      "##𐀁": 6807,
      "##𐀫": 6808,
      "##瀬": 6809,
      "##々": 6810,
      "##건": 6811,
      "##ứ": 6812,
      "##紙": 6813,
      "##濃": 6814,
      "##ึ": 6815,
      "##动": 6816,
      "##仪": 6817,
      "##蒲": 6818,
      "##传": 6819,
      "##岸": 6820,
      "##翻": 6821,
      "##坝": 6822,
      "##铁": 6823,
      "##ὑ": 6824,
      "##べ": 6825,
      "##抜": 6826,
      "##模": 6827,
      "##ŗ": 6828,
      "##吟": 6829,
      "##ṉ": 6830,
      "##賀": 6831,
      "##巳": 6832,
      "##乘": 6833,
      "##們": 6834,
      "##敢": 6835,
      "##立": 6836,
      "##締": 6837,
      "##沙": 6838,
      "##相": 6839,
      "##妃": 6840,
      "##瑞": 6841,
      "##燕": 6842,
      "##尺": 6843,
      "##策": 6844,
      "##店": 6845,
      "##役": 6846,
      "##視": 6847,
      "##奇": 6848,
      "##腐": 6849,
      "##渣": 6850,
      "##程": 6851,
      "##师": 6852,
      "##穎": 6853,
      "##恆": 6854,
      "##坪": 6855,
      "##鋪": 6856,
      "##庫": 6857,
      "##北": 6858,
      "##ᵝ": 6859,
      "##鹿": 6860,
      "##姑": 6861,
      "##読": 6862,
      "##瓦": 6863,
      "##週": 6864,
      "##`": 6865,
      "##邊": 6866,
      "##圖": 6867,
      "##霖": 6868,
      "##外": 6869,
      "##冒": 6870,
      "##険": 6871,
      "##ヌ": 6872,
      "##ை": 6873,
      "##ွ": 6874,
      "##ੱ": 6875,
      "##ਲ": 6876,
      "##ਾ": 6877,
      "##ਹ": 6878,
      "##殻": 6879,
      "##灼": 6880,
      "##帰": 6881,
      "##烙": 6882,
      "##淑": 6883,
      "##남": 6884,
      "##寄": 6885,
      "##瀛": 6886,
      "##梭": 6887,
      "##統": 6888,
      "##浮": 6889,
      "##弦": 6890,
      "##牛": 6891,
      "##潤": 6892,
      "##綯": 6893,
      "##両": 6894,
      "##聖": 6895,
      "##杖": 6896,
      "##涙": 6897,
      "##侯": 6898,
      "##穌": 6899,
      "##ெ": 6900,
      "##ட": 6901,
      "##堡": 6902,
      "##润": 6903,
      "##ឯ": 6904,
      "##ក": 6905,
      "##ជ": 6906,
      "##ខ": 6907,
      "##問": 6908,
      "##検": 6909,
      "##証": 6910,
      "##告": 6911,
      "##郁": 6912,
      "##防": 6913,
      "##侍": 6914,
      "##堯": 6915,
      "##є": 6916,
      "##ֶ": 6917,
      "##ゥ": 6918,
      "##架": 6919,
      "##ੇ": 6920,
      "##ਵ": 6921,
      "##負": 6922,
      "##铎": 6923,
      "##靖": 6924,
      "##상": 6925,
      "##용": 6926,
      "##차": 6927,
      "##凯": 6928,
      "##ﮭ": 6929,
      "##ﻔ": 6930,
      "##ồ": 6931,
      "##衡": 6932,
      "##丁": 6933,
      "##解": 6934,
      "##侨": 6935,
      "##植": 6936,
      "##ゑ": 6937,
      "##づ": 6938,
      "##憎": 6939,
      "##荻": 6940,
      "##哉": 6941,
      "##书": 6942,
      "##ன": 6943,
      "##ɭ": 6944,
      "##辨": 6945,
      "##李": 6946,
      "##桐": 6947,
      "##絵": 6948,
      "##ƀ": 6949,
      "##站": 6950,
      "##局": 6951,
      "##養": 6952,
      "##枝": 6953,
      "##留": 6954,
      "##佳": 6955,
      "##簿": 6956,
      "##ぞ": 6957,
      "##宴": 6958,
      "##ර": 6959,
      "##ා": 6960,
      "##ධ": 6961,
      "##ප": 6962,
      "##應": 6963,
      "##笨": 6964,
      "##식": 6965,
      "##회": 6966,
      "##사": 6967,
      "##ȟ": 6968,
      "##誠": 6969,
      "##學": 6970,
      "##ደ": 6971,
      "##ሰ": 6972,
      "##融": 6973,
      "##兩": 6974,
      "##央": 6975,
      "##卸": 6976,
      "##売": 6977,
      "##麼": 6978,
      "##ừ": 6979,
      "##傅": 6980,
      "##ế": 6981,
      "##引": 6982,
      "##ƒ": 6983,
      "##温": 6984,
      "##採": 6985,
      "##購": 6986,
      "##镗": 6987,
      "##ヅ": 6988,
      "##བ": 6989,
      "##ྲ": 6990,
      "##ག": 6991,
      "##根": 6992,
      "##ぷ": 6993,
      "##僑": 6994,
      "##襲": 6995,
      "##荼": 6996,
      "##私": 6997,
      "##菱": 6998,
      "##շ": 6999,
      "##伯": 7000,
      "##爵": 7001,
      "##博": 7002,
      "##洲": 7003,
      "##跳": 7004,
      "##還": 7005,
      "##典": 7006,
      "##例": 7007,
      "##ヶ": 7008,
      "##문": 7009,
      "##員": 7010,
      "##珍": 7011,
      "##药": 7012,
      "##壓": 7013,
      "##境": 7014,
      "##ǵ": 7015,
      "##脈": 7016,
      "##曦": 7017,
      "##泣": 7018,
      "##蘄": 7019,
      "##尽": 7020,
      "##頃": 7021,
      "##宸": 7022,
      "##格": 7023,
      "##头": 7024,
      "##豊": 7025,
      "##居": 7026,
      "##隸": 7027,
      "##校": 7028,
      "##錬": 7029,
      "##ـ": 7030,
      "##莊": 7031,
      "##루": 7032,
      "##하": 7033,
      "##塔": 7034,
      "##倪": 7035,
      "##姉": 7036,
      "##ɦ": 7037,
      "##侠": 7038,
      "##ỗ": 7039,
      "##镜": 7040,
      "##坡": 7041,
      "##义": 7042,
      "##咆": 7043,
      "##哮": 7044,
      "##প": 7045,
      "##쳐": 7046,
      "##서": 7047,
      "##糸": 7048,
      "##雀": 7049,
      "##ѹ": 7050,
      "##렬": 7051,
      "##越": 7052,
      "##邦": 7053,
      "##ដ": 7054,
      "##瑋": 7055,
      "##吳": 7056,
      "##ɤ": 7057,
      "##図": 7058,
      "##散": 7059,
      "##歩": 7060,
      "##卖": 7061,
      "##礼": 7062,
      "##蛇": 7063,
      "##憶": 7064,
      "##棘": 7065,
      "##ሥ": 7066,
      "##ሓ": 7067,
      "##镇": 7068,
      "##歓": 7069,
      "##점": 7070,
      "##ٍ": 7071,
      "##ཁ": 7072,
      "##འ": 7073,
      "##頌": 7074,
      "##维": 7075,
      "##若": 7076,
      "##詔": 7077,
      "##殺": 7078,
      "##ট": 7079,
      "##투": 7080,
      "##ྣ": 7081,
      "##猫": 7082,
      "##鶴": 7083,
      "##廟": 7084,
      "##騭": 7085,
      "##胞": 7086,
      "##柱": 7087,
      "##觀": 7088,
      "##漢": 7089,
      "##鷓": 7090,
      "##鴣": 7091,
      "##ᛗ": 7092,
      "##銃": 7093,
      "##輿": 7094,
      "##焼": 7095,
      "##փ": 7096,
      "##소": 7097,
      "##행": 7098,
      "##惑": 7099,
      "##ಟ": 7100,
      "##ಕ": 7101,
      "##ձ": 7102,
      "##電": 7103,
      "##跖": 7104,
      "##草": 7105,
      "##礎": 7106,
      "##識": 7107,
      "##짓": 7108,
      "##말": 7109,
      "##点": 7110,
      "##라": 7111,
      "##進": 7112,
      "##謡": 7113,
      "##宏": 7114,
      "##声": 7115,
      "##ྡ": 7116,
      "##ོ": 7117,
      "##མ": 7118,
      "##财": 7119,
      "##緩": 7120,
      "##ስ": 7121,
      "##ታ": 7122,
      "##ን": 7123,
      "##ቲ": 7124,
      "##ኖ": 7125,
      "##ძ": 7126,
      "##貝": 7127,
      "##劃": 7128,
      "##圏": 7129,
      "##处": 7130,
      "##症": 7131,
      "##候": 7132,
      "##急": 7133,
      "##迈": 7134,
      "##導": 7135,
      "##暁": 7136,
      "##斤": 7137,
      "##虐": 7138,
      "##ɰ": 7139,
      "##ぺ": 7140,
      "##苣": 7141,
      "##祚": 7142,
      "##籍": 7143,
      "##游": 7144,
      "##広": 7145,
      "##櫓": 7146,
      "##亡": 7147,
      "##霊": 7148,
      "##莱": 7149,
      "##ख": 7150,
      "##規": 7151,
      "##幽": 7152,
      "##沫": 7153,
      "##管": 7154,
      "##源": 7155,
      "##惟": 7156,
      "##ỳ": 7157,
      "##泥": 7158,
      "##梅": 7159,
      "##罰": 7160,
      "##瑣": 7161,
      "##黒": 7162,
      "##閏": 7163,
      "##舎": 7164,
      "##句": 7165,
      "##鈴": 7166,
      "##鬪": 7167,
      "##踊": 7168,
      "##失": 7169,
      "##鎖": 7170,
      "##鐵": 7171,
      "##允": 7172,
      "##血": 7173,
      "##ზ": 7174,
      "##瑪": 7175,
      "##竇": 7176,
      "##矩": 7177,
      "##廻": 7178,
      "##ڠ": 7179,
      "##ṽ": 7180,
      "##ｒ": 7181,
      "##ｐ": 7182,
      "##ｇ": 7183,
      "##ល": 7184,
      "##ヘ": 7185,
      "##舍": 7186,
      "##ֳ": 7187,
      "##허": 7188,
      "##그": 7189,
      "##명": 7190,
      "##浦": 7191,
      "##億": 7192,
      "##ಂ": 7193,
      "##ತ": 7194,
      "##胴": 7195,
      "##濞": 7196,
      "##၂": 7197,
      "##၈": 7198,
      "##၇": 7199,
      "##誡": 7200,
      "##騰": 7201,
      "##শ": 7202,
      "##苑": 7203,
      "##派": 7204,
      "##천": 7205,
      "##권": 7206,
      "##도": 7207,
      "##ً": 7208,
      "##圻": 7209,
      "##波": 7210,
      "##與": 7211,
      "##豹": 7212,
      "##習": 7213,
      "##松": 7214,
      "##酸": 7215,
      "##焦": 7216,
      "##弥": 7217,
      "##紹": 7218,
      "##維": 7219,
      "##軒": 7220,
      "##古": 7221,
      "##箋": 7222,
      "##狼": 7223,
      "##煙": 7224,
      "##聚": 7225,
      "##等": 7226,
      "##照": 7227,
      "##ֱ": 7228,
      "##廣": 7229,
      "##碼": 7230,
      "##泊": 7231,
      "##革": 7232,
      "##组": 7233,
      "##这": 7234,
      "##就": 7235,
      "##坚": 7236,
      "##እ": 7237,
      "##የ": 7238,
      "##尸": 7239,
      "##収": 7240,
      "##載": 7241,
      "##ܼ": 7242,
      "##悪": 7243,
      "##戯": 7244,
      "##質": 7245,
      "##ែ": 7246,
      "##შ": 7247,
      "##ａ": 7248,
      "##ｌ": 7249,
      "##儡": 7250,
      "##拘": 7251,
      "##營": 7252,
      "##虹": 7253,
      "##暮": 7254,
      "##笠": 7255,
      "##鞋": 7256,
      "##偵": 7257,
      "##ọ": 7258,
      "##竺": 7259,
      "##鼠": 7260,
      "##奏": 7261,
      "##鲤": 7262,
      "##ো": 7263,
      "##徹": 7264,
      "##底": 7265,
      "##析": 7266,
      "##恒": 7267,
      "##盏": 7268,
      "##泡": 7269,
      "##연": 7270,
      "##妙": 7271,
      "##ব": 7272,
      "##联": 7273,
      "##ៃ": 7274,
      "##罸": 7275,
      "##ċ": 7276,
      "##剑": 7277,
      "##杜": 7278,
      "##残": 7279,
      "##酷": 7280,
      "##ள": 7281,
      "##ய": 7282,
      "##ோ": 7283,
      "##婆": 7284,
      "##寶": 7285,
      "##用": 7286,
      "##酒": 7287,
      "##己": 7288,
      "##看": 7289,
      "##着": 7290,
      "##办": 7291,
      "##懷": 7292,
      "##択": 7293,
      "##琮": 7294,
      "##够": 7295,
      "##ួ": 7296,
      "##ぇ": 7297,
      "##匠": 7298,
      "##ῇ": 7299,
      "##孫": 7300,
      "##ḩ": 7301,
      "##ỵ": 7302,
      "##苺": 7303,
      "##歳": 7304,
      "##辆": 7305,
      "##弘": 7306,
      "##桓": 7307,
      "##誦": 7308,
      "##전": 7309,
      "##蒿": 7310,
      "##ὺ": 7311,
      "##პ": 7312,
      "##ბ": 7313,
      "##怒": 7314,
      "##髪": 7315,
      "##狛": 7316,
      "##阿": 7317,
      "##坂": 7318,
      "##ḏ": 7319,
      "##喚": 7320,
      "##獣": 7321,
      "##경": 7322,
      "##려": 7323,
      "##관": 7324,
      "##範": 7325,
      "##考": 7326,
      "##挥": 7327,
      "##丙": 7328,
      "##朋": 7329,
      "##滿": 7330,
      "##ḗ": 7331,
      "##辰": 7332,
      "##毘": 7333,
      "##ᡝ": 7334,
      "##ᠰ": 7335,
      "##抱": 7336,
      "##ᠴ": 7337,
      "##ᡵ": 7338,
      "##霰": 7339,
      "##弾": 7340,
      "##አ": 7341,
      "##판": 7342,
      "##凰": 7343,
      "##狩": 7344,
      "##ﮮ": 7345,
      "##ॉ": 7346,
      "##届": 7347,
      "##타": 7348,
      "##일": 7349,
      "##咫": 7350,
      "##烏": 7351,
      "##韶": 7352,
      "##粟": 7353,
      "##內": 7354,
      "##注": 7355,
      "##卒": 7356,
      "##ⵇ": 7357,
      "##侬": 7358,
      "##ី": 7359,
      "##亞": 7360,
      "##臚": 7361,
      "##県": 7362,
      "##浜": 7363,
      "##ȳ": 7364,
      "##環": 7365,
      "##贵": 7366,
      "##執": 7367,
      "##涼": 7368,
      "##朱": 7369,
      "##誘": 7370,
      "##拐": 7371,
      "##綸": 7372,
      "##冉": 7373,
      "##製": 7374,
      "##ｘ": 7375,
      "##帮": 7376,
      "##沛": 7377,
      "##宁": 7378,
      "##個": 7379,
      "##健": 7380,
      "##壯": 7381,
      "##腎": 7382,
      "##혹": 7383,
      "##의": 7384,
      "##గ": 7385,
      "##మ": 7386,
      "##裏": 7387,
      "##青": 7388,
      "##痘": 7389,
      "##琦": 7390,
      "##孔": 7391,
      "##魯": 7392,
      "##ც": 7393,
      "##际": 7394,
      "##지": 7395,
      "##막": 7396,
      "##輝": 7397,
      "##鷺": 7398,
      "##耶": 7399,
      "##彬": 7400,
      "##槐": 7401,
      "##撒": 7402,
      "##糖": 7403,
      "##升": 7404,
      "##銓": 7405,
      "##変": 7406,
      "##微": 7407,
      "##威": 7408,
      "##怖": 7409,
      "##ں": 7410,
      "##ಲ": 7411,
      "##ು": 7412,
      "##ở": 7413,
      "##脂": 7414,
      "##男": 7415,
      "##岬": 7416,
      "##囃": 7417,
      "##ར": 7418,
      "##藥": 7419,
      "##ਸ": 7420,
      "##嶋": 7421,
      "##ׂ": 7422,
      "##蛙": 7423,
      "##敵": 7424,
      "##鱼": 7425,
      "##ｰ": 7426,
      "##銳": 7427,
      "##熙": 7428,
      "##釈": 7429,
      "##卓": 7430,
      "##妍": 7431,
      "##ಡ": 7432,
      "##ೇ": 7433,
      "##ಶ": 7434,
      "##述": 7435,
      "##差": 7436,
      "##珂": 7437,
      "##酥": 7438,
      "##코": 7439,
      "##물": 7440,
      "##뿐": 7441,
      "##𐎠": 7442,
      "##𐎼": 7443,
      "##𐎹": 7444,
      "##𐎺": 7445,
      "##𐎢": 7446,
      "##𐏁": 7447,
      "##한": 7448,
      "##민": 7449,
      "##국": 7450,
      "##퇴": 7451,
      "##零": 7452,
      "##ᾰ": 7453,
      "##ǜ": 7454,
      "##鹼": 7455,
      "##吸": 7456,
      "##荪": 7457,
      "##屿": 7458,
      "##决": 7459,
      "##医": 7460,
      "##ķ": 7461,
      "##ѝ": 7462,
      "##宵": 7463,
      "##로": 7464,
      "##파": 7465,
      "##뱅": 7466,
      "##返": 7467,
      "##篋": 7468,
      "##止": 7469,
      "##關": 7470,
      "##ʽ": 7471,
      "##ᠠ": 7472,
      "##ᠨ": 7473,
      "##ᠵ": 7474,
      "##ᡠ": 7475,
      "##补": 7476,
      "##菉": 7477,
      "##ḳ": 7478,
      "##և": 7479,
      "##蒭": 7480,
      "##性": 7481,
      "##鏡": 7482,
      "##٧": 7483,
      "##盘": 7484,
      "##祀": 7485,
      "##朗": 7486,
      "##ហ": 7487,
      "##鼎": 7488,
      "##ḕ": 7489,
      "##魄": 7490,
      "##ር": 7491,
      "##千": 7492,
      "##尋": 7493,
      "##ֿ": 7494,
      "##ῳ": 7495,
      "##ሕ": 7496,
      "##ዛ": 7497,
      "##俊": 7498,
      "##承": 7499,
      "##虎": 7500,
      "##劣": 7501,
      "##優": 7502,
      "##隱": 7503,
      "##寬": 7504,
      "##株": 7505,
      "##柳": 7506,
      "##黙": 7507,
      "##岚": 7508,
      "##监": 7509,
      "##狱": 7510,
      "##抄": 7511,
      "##艺": 7512,
      "##蘅": 7513,
      "##ɚ": 7514,
      "##決": 7515,
      "##ឹ": 7516,
      "##锡": 7517,
      "##嵐": 7518,
      "##雎": 7519,
      "##鳩": 7520,
      "##킨": 7521,
      "##芝": 7522,
      "##ே": 7523,
      "##焉": 7524,
      "##寞": 7525,
      "##咖": 7526,
      "##啡": 7527,
      "##因": 7528,
      "##２": 7529,
      "##桥": 7530,
      "##些": 7531,
      "##騷": 7532,
      "##ẻ": 7533,
      "##楯": 7534,
      "##幸": 7535,
      "##钊": 7536,
      "##伟": 7537,
      "##牧": 7538,
      "##ජ": 7539,
      "##ය": 7540,
      "##ね": 7541,
      "##唱": 7542,
      "##계": 7543,
      "##仮": 7544,
      "##最": 7545,
      "##ⵃ": 7546,
      "##ⵕ": 7547,
      "##运": 7548,
      "##勇": 7549,
      "##হ": 7550,
      "##乩": 7551,
      "##ժ": 7552,
      "##奴": 7553,
      "##ම": 7554,
      "##辭": 7555,
      "##ེ": 7556,
      "##ஸ": 7557,
      "##冶": 7558,
      "##姚": 7559,
      "##ぅ": 7560,
      "##寔": 7561,
      "##由": 7562,
      "##說": 7563,
      "##對": 7564,
      "##改": 7565,
      "##丘": 7566,
      "##抵": 7567,
      "##墙": 7568,
      "##ཙ": 7569,
      "##聯": 7570,
      "##瞬": 7571,
      "##诺": 7572,
      "##位": 7573,
      "##래": 7574,
      "##納": 7575,
      "##磨": 7576,
      "##消": 7577,
      "##瓷": 7578,
      "##į": 7579,
      "##总": 7580,
      "##杏": 7581,
      "##瓜": 7582,
      "##叶": 7583,
      "##枯": 7584,
      "##裔": 7585,
      "##巨": 7586,
      "##独": 7587,
      "##関": 7588,
      "##ᚢ": 7589,
      "##ᛏ": 7590,
      "##ᚨ": 7591,
      "##ᛁ": 7592,
      "##ᛟ": 7593,
      "##ᚹ": 7594,
      "##琴": 7595,
      "##绮": 7596,
      "##仔": 7597,
      "##驁": 7598,
      "##幡": 7599,
      "##ឪ": 7600,
      "##輔": 7601,
      "##寿": 7602,
      "##چ": 7603,
      "##玄": 7604,
      "##ჳ": 7605,
      "##ḹ": 7606,
      "##燈": 7607,
      "##彙": 7608,
      "##臂": 7609,
      "##膀": 7610,
      "##给": 7611,
      "##进": 7612,
      "##絡": 7613,
      "##兔": 7614,
      "##ے": 7615,
      "##辉": 7616,
      "##冬": 7617,
      "##柆": 7618,
      "##任": 7619,
      "##控": 7620,
      "##绍": 7621,
      "##供": 7622,
      "##晋": 7623,
      "##駒": 7624,
      "##駿": 7625,
      "##甘": 7626,
      "##岭": 7627,
      "##継": 7628,
      "##幣": 7629,
      "##以": 7630,
      "##洁": 7631,
      "##凤": 7632,
      "##焔": 7633,
      "##巂": 7634,
      "##警": 7635,
      "##察": 7636,
      "##杲": 7637,
      "##ಭ": 7638,
      "##机": 7639,
      "##독": 7640,
      "##립": 7641,
      "##병": 7642,
      "##대": 7643,
      "##從": 7644,
      "##历": 7645,
      "##侗": 7646,
      "##ከ": 7647,
      "##ነ": 7648,
      "##ള": 7649,
      "##录": 7650,
      "##回": 7651,
      "##死": 7652,
      "##读": 7653,
      "##汇": 7654,
      "##与": 7655,
      "##级": 7656,
      "##纲": 7657,
      "##瑙": 7658,
      "##勒": 7659,
      "##才": 7660,
      "##线": 7661,
      "##१": 7662,
      "##ᾳ": 7663,
      "##ぴ": 7664,
      "##铺": 7665,
      "##库": 7666,
      "##ဲ": 7667,
      "##ᵊ": 7668,
      "##ṙ": 7669,
      "##鵡": 7670,
      "##고": 7671,
      "##ీ": 7672,
      "##న": 7673,
      "##綱": 7674,
      "##晉": 7675,
      "##ይ": 7676,
      "##ኲ": 7677,
      "##孝": 7678,
      "##淹": 7679,
      "##樸": 7680,
      "##ῐ": 7681,
      "##沒": 7682,
      "##到": 7683,
      "##產": 7684,
      "##柏": 7685,
      "##伊": 7686,
      "##표": 7687,
      "##록": 7688,
      "##ገ": 7689,
      "##ድ": 7690,
      "##翘": 7691,
      "##穗": 7692,
      "##拖": 7693,
      "##庇": 7694,
      "##赭": 7695,
      "##茸": 7696,
      "##ළ": 7697,
      "##尼": 7698,
      "##ষ": 7699,
      "##凱": 7700,
      "##钦": 7701,
      "##掛": 7702,
      "##ٔ": 7703,
      "##평": 7704,
      "##傘": 7705,
      "##ϕ": 7706,
      "##妻": 7707,
      "##雇": 7708,
      "##ನ": 7709,
      "##백": 7710,
      "##鉢": 7711,
      "##ܣ": 7712,
      "##卦": 7713,
      "##午": 7714,
      "##ṟ": 7715,
      "##謎": 7716,
      "##祐": 7717,
      "##緬": 7718,
      "##找": 7719,
      "##广": 7720,
      "##음": 7721,
      "##盒": 7722,
      "##涵": 7723,
      "##箱": 7724,
      "##珠": 7725,
      "##矢": 7726,
      "##泗": 7727,
      "##臺": 7728,
      "##抓": 7729,
      "##살": 7730,
      "##ڬ": 7731,
      "##蕃": 7732,
      "##霹": 7733,
      "##炮": 7734,
      "##ճ": 7735,
      "##蓮": 7736,
      "##発": 7737,
      "##味": 7738,
      "##娜": 7739,
      "##ṳ": 7740,
      "##ď": 7741,
      "##肉": 7742,
      "##悠": 7743,
      "##延": 7744,
      "##沌": 7745,
      "##煌": 7746,
      "##张": 7747,
      "##煩": 7748,
      "##壁": 7749,
      "##律": 7750,
      "##ｉ": 7751,
      "##ฝ": 7752,
      "##托": 7753,
      "##വ": 7754,
      "##ി": 7755,
      "##ശ": 7756,
      "##堀": 7757,
      "##勅": 7758,
      "##必": 7759,
      "##稽": 7760,
      "##欣": 7761,
      "##ಗ": 7762,
      "##體": 7763,
      "##岡": 7764,
      "##弟": 7765,
      "##过": 7766,
      "##亮": 7767,
      "##釗": 7768,
      "##樓": 7769,
      "##瓢": 7770,
      "##箪": 7771,
      "##層": 7772,
      "##崖": 7773,
      "##丹": 7774,
      "##容": 7775,
      "##權": 7776,
      "##狸": 7777,
      "##勘": 7778,
      "##丈": 7779,
      "##棚": 7780,
      "##ǰ": 7781,
      "##狂": 7782,
      "##ॆ": 7783,
      "##ٌ": 7784,
      "##屑": 7785,
      "##稚": 7786,
      "##桀": 7787,
      "##근": 7788,
      "##禄": 7789,
      "##湾": 7790,
      "##莎": 7791,
      "##臘": 7792,
      "##票": 7793,
      "##促": 7794,
      "##嬢": 7795,
      "##시": 7796,
      "##아": 7797,
      "##積": 7798,
      "##ὗ": 7799,
      "##征": 7800,
      "##賓": 7801,
      "##翁": 7802,
      "##稔": 7803,
      "##稷": 7804,
      "##은": 7805,
      "##을": 7806,
      "##초": 7807,
      "##에": 7808,
      "##ལ": 7809,
      "##步": 7810,
      "##賢": 7811,
      "##颂": 7812,
      "##肩": 7813,
      "##雅": 7814,
      "##則": 7815,
      "##庙": 7816,
      "##ぉ": 7817,
      "##勃": 7818,
      "##സ": 7819,
      "##开": 7820,
      "##浚": 7821,
      "##逢": 7822,
      "##淘": 7823,
      "##汰": 7824,
      "##ማ": 7825,
      "##ረ": 7826,
      "##昏": 7827,
      "##交": 7828,
      "##ழ": 7829,
      "##据": 7830,
      "##启": 7831,
      "##ү": 7832,
      "##秦": 7833,
      "##號": 7834,
      "##附": 7835,
      "##棟": 7836,
      "##ᡨ": 7837,
      "##ᡥ": 7838,
      "##త": 7839,
      "##磅": 7840,
      "##塘": 7841,
      "##极": 7842,
      "##图": 7843,
      "##蝉": 7844,
      "##脱": 7845,
      "##壳": 7846,
      "##너": 7847,
      "##피": 7848,
      "##詠": 7849,
      "##毅": 7850,
      "##ซ": 7851,
      "##ฉ": 7852,
      "##叢": 7853,
      "##列": 7854,
      "##ঙ": 7855,
      "##ˣ": 7856,
      "##燃": 7857,
      "##愚": 7858,
      "##佛": 7859,
      "##室": 7860,
      "##灰": 7861,
      "##申": 7862,
      "##陛": 7863,
      "##親": 7864,
      "##備": 7865,
      "##橚": 7866,
      "##磲": 7867,
      "##屍": 7868,
      "##併": 7869,
      "##ỉ": 7870,
      "##부": 7871,
      "##డ": 7872,
      "##ద": 7873,
      "##观": 7874,
      "##他": 7875,
      "##栄": 7876,
      "##刘": 7877,
      "##贞": 7878,
      "##讀": 7879,
      "##弐": 7880,
      "##拾": 7881,
      "##蕉": 7882,
      "##ો": 7883,
      "##ખ": 7884,
      "##敦": 7885,
      "##娘": 7886,
      "##ɺ": 7887,
      "##汗": 7888,
      "##耆": 7889,
      "##玩": 7890,
      "##厂": 7891,
      "##超": 7892,
      "##豆": 7893,
      "##颜": 7894,
      "##耕": 7895,
      "##莘": 7896,
      "##鸟": 7897,
      "##ⲩ": 7898,
      "##ⲥ": 7899,
      "##ⲧ": 7900,
      "##ⲁ": 7901,
      "##ⲱ": 7902,
      "##ⲛ": 7903,
      "##赤": 7904,
      "##券": 7905,
      "##ɓ": 7906,
      "##峰": 7907,
      "##彌": 7908,
      "##參": 7909,
      "##郛": 7910,
      "##ṁ": 7911,
      "##诉": 7912,
      "##儒": 7913,
      "##미": 7914,
      "##轩": 7915,
      "##俱": 7916,
      "##乐": 7917,
      "##날": 7918,
      "##强": 7919,
      "##ὼ": 7920,
      "##ⵢ": 7921,
      "##铜": 7922,
      "##壱": 7923,
      "##呂": 7924,
      "##尊": 7925,
      "##庵": 7926,
      "##呪": 7927,
      "##හ": 7928,
      "##ో": 7929,
      "##బ": 7930,
      "##唐": 7931,
      "##盤": 7932,
      "##喬": 7933,
      "##ំ": 7934,
      "##壌": 7935,
      "##翔": 7936,
      "##施": 7937,
      "##户": 7938,
      "##厩": 7939,
      "##ሀ": 7940,
      "##蝕": 7941,
      "##鑒": 7942,
      "##臨": 7943,
      "##麾": 7944,
      "##주": 7945,
      "##ך": 7946,
      "##籌": 7947,
      "##엔": 7948,
      "##공": 7949,
      "##원": 7950,
      "##鮮": 7951,
      "##ϟ": 7952,
      "##麗": 7953,
      "##ɢ": 7954,
      "##滋": 7955,
      "##爽": 7956,
      "##芸": 7957,
      "##姬": 7958,
      "##범": 7959,
      "##ᾷ": 7960,
      "##가": 7961,
      "##쇼": 7962,
      "##響": 7963,
      "##馆": 7964,
      "##烦": 7965,
      "##恼": 7966,
      "##悫": 7967,
      "##車": 7968,
      "##痴": 7969,
      "##县": 7970,
      "##摸": 7971,
      "##桑": 7972,
      "##ৈ": 7973,
      "##খ": 7974,
      "##蜃": 7975,
      "##頒": 7976,
      "##梯": 7977,
      "##拍": 7978,
      "##छ": 7979,
      "##烧": 7980,
      "##ἷ": 7981,
      "##即": 7982,
      "##ە": 7983,
      "##ᡴ": 7984,
      "##ᠪ": 7985,
      "##汝": 7986,
      "##适": 7987,
      "##皙": 7988,
      "##宇": 7989,
      "##冠": 7990,
      "##恵": 7991,
      "##迅": 7992,
      "##洞": 7993,
      "##무": 7994,
      "##트": 7995,
      "##홀": 7996,
      "##禾": 7997,
      "##童": 7998,
      "##ϑ": 7999,
      "##ὡ": 8000,
      "##網": 8001,
      "##虛": 8002,
      "##却": 8003,
      "##災": 8004,
      "##沼": 8005,
      "##鈍": 8006,
      "##ṵ": 8007,
      "##ḭ": 8008,
      "##徳": 8009,
      "##準": 8010,
      "##末": 8011,
      "##殊": 8012,
      "##油": 8013,
      "##巴": 8014,
      "##旺": 8015,
      "##溫": 8016,
      "##禮": 8017,
      "##渦": 8018,
      "##ฎ": 8019,
      "##珙": 8020,
      "##ೋ": 8021,
      "##ಬ": 8022,
      "##栽": 8023,
      "##綾": 8024,
      "##飾": 8025,
      "##皿": 8026,
      "##敷": 8027,
      "##ॊ": 8028,
      "##𐎰": 8029,
      "##इ": 8030,
      "##砖": 8031,
      "##沽": 8032,
      "##衙": 8033,
      "##勳": 8034,
      "##瑜": 8035,
      "##ப": 8036,
      "##疆": 8037,
      "##繹": 8038,
      "##থ": 8039,
      "##ந": 8040,
      "##背": 8041,
      "##裝": 8042,
      "##ᶷ": 8043,
      "##红": 8044,
      "##炸": 8045,
      "##桧": 8046,
      "##爭": 8047,
      "##完": 8048,
      "##刃": 8049,
      "##집": 8050,
      "##鞠": 8051,
      "##泾": 8052,
      "##階": 8053,
      "##茂": 8054,
      "##撲": 8055,
      "##縊": 8056,
      "##崇": 8057,
      "##ܚ": 8058,
      "##圣": 8059,
      "##ఠ": 8060,
      "##ৰ": 8061,
      "##讼": 8062,
      "##銖": 8063,
      "##ĺ": 8064,
      "##寨": 8065,
      "##靠": 8066,
      "##腿": 8067,
      "##ና": 8068,
      "##虫": 8069,
      "##네": 8070,
      "##朏": 8071,
      "##廷": 8072,
      "##憂": 8073,
      "##態": 8074,
      "##嘘": 8075,
      "##卡": 8076,
      "##戈": 8077,
      "##麥": 8078,
      "##艳": 8079,
      "##颖": 8080,
      "##付": 8081,
      "##雾": 8082,
      "##愍": 8083,
      "##ੁ": 8084,
      "##縄": 8085,
      "##射": 8086,
      "##糊": 8087,
      "##充": 8088,
      "##ꭶ": 8089,
      "##ꭸ": 8090,
      "##ᏹ": 8091,
      "##妇": 8092,
      "##卿": 8093,
      "##椛": 8094,
      "##遗": 8095,
      "##ැ": 8096,
      "##入": 8097,
      "##孵": 8098,
      "##宜": 8099,
      "##莞": 8100,
      "##尔": 8101,
      "##綜": 8102,
      "##憑": 8103,
      "##瑾": 8104,
      "##ܒ": 8105,
      "##帆": 8106,
      "##ꮝ": 8107,
      "##ꮿ": 8108,
      "##贤": 8109,
      "##鋒": 8110,
      "##礮": 8111,
      "##ྱ": 8112,
      "##ɘ": 8113,
      "##疾": 8114,
      "##ꦸ": 8115,
      "##ꦲ": 8116,
      "##ꦂ": 8117,
      "##ꦠ": 8118,
      "##窟": 8119,
      "##铭": 8120,
      "##选": 8121,
      "##槤": 8122,
      "##飄": 8123,
      "##𒀳": 8124,
      "##聘": 8125,
      "##亜": 8126,
      "##ۍ": 8127,
      "##廿": 8128,
      "##妖": 8129,
      "##畑": 8130,
      "##塞": 8131,
      "##齊": 8132,
      "##恭": 8133,
      "##순": 8134,
      "##ἲ": 8135,
      "##靂": 8136,
      "##貴": 8137,
      "##静": 8138,
      "##寂": 8139,
      "##浪": 8140,
      "##ἥ": 8141,
      "##ഹ": 8142,
      "##担": 8143,
      "##陈": 8144,
      "##𐭉": 8145,
      "##𐭓": 8146,
      "##𐭃": 8147,
      "##𐭕": 8148,
      "##齐": 8149,
      "##禁": 8150,
      "##驤": 8151,
      "##楠": 8152,
      "##커": 8153,
      "##버": 8154,
      "##ѯ": 8155,
      "##ⅱ": 8156,
      "##ᵀ": 8157,
      "##換": 8158,
      "##兰": 8159,
      "##蕩": 8160,
      "##漫": 8161,
      "##滨": 8162,
      "##断": 8163,
      "##烟": 8164,
      "##气": 8165,
      "##弁": 8166,
      "##当": 8167,
      "##梦": 8168,
      "##條": 8169,
      "##琬": 8170,
      "##芯": 8171,
      "##易": 8172,
      "##개": 8173,
      "##놔": 8174,
      "##ῠ": 8175,
      "##減": 8176,
      "##만": 8177,
      "##바": 8178,
      "##봐": 8179,
      "##菇": 8180,
      "##색": 8181,
      "##脉": 8182,
      "##丝": 8183,
      "##惠": 8184,
      "##兆": 8185,
      "##歷": 8186,
      "##청": 8187,
      "##ୁ": 8188,
      "##ର": 8189,
      "##ୀ": 8190,
      "##弓": 8191,
      "##학": 8192,
      "##芦": 8193,
      "##ಠ": 8194,
      "##ዕ": 8195,
      "##ቆ": 8196,
      "##篤": 8197,
      "##ฮ": 8198,
      "##综": 8199,
      "##瘡": 8200,
      "##乌": 8201,
      "##贼": 8202,
      "##牢": 8203,
      "##予": 8204,
      "##唯": 8205,
      "##牡": 8206,
      "##梓": 8207,
      "##晒": 8208,
      "##ꮃ": 8209,
      "##ꮀ": 8210,
      "##ꮉ": 8211,
      "##缽": 8212,
      "##淵": 8213,
      "##ྟ": 8214,
      "##ⴳ": 8215,
      "##위": 8216,
      "##단": 8217,
      "##ျ": 8218,
      "##漏": 8219,
      "##括": 8220,
      "##희": 8221,
      "##庁": 8222,
      "##發": 8223,
      "##姦": 8224,
      "##ὣ": 8225,
      "##倭": 8226,
      "##雙": 8227,
      "##操": 8228,
      "##准": 8229,
      "##伐": 8230,
      "##鍋": 8231,
      "##囂": 8232,
      "##置": 8233,
      "##踏": 8234,
      "##沂": 8235,
      "##체": 8236,
      "##불": 8237,
      "##聲": 8238,
      "##ȝ": 8239,
      "##伏": 8240,
      "##過": 8241,
      "##კ": 8242,
      "##ূ": 8243,
      "##靈": 8244,
      "##辿": 8245,
      "##獅": 8246,
      "##앙": 8247,
      "##구": 8248,
      "##憲": 8249,
      "##続": 8250,
      "##跆": 8251,
      "##ѥ": 8252,
      "##碩": 8253,
      "##額": 8254,
      "##駙": 8255,
      "##彪": 8256,
      "##祠": 8257,
      "##গ": 8258,
      "##ྤ": 8259,
      "##滅": 8260,
      "##漠": 8261,
      "##앤": 8262,
      "##ှ": 8263,
      "##筐": 8264,
      "##斜": 8265,
      "##貫": 8266,
      "##緯": 8267,
      "##芬": 8268,
      "##驗": 8269,
      "##孟": 8270,
      "##堅": 8271,
      "##ɴ": 8272,
      "##壮": 8273,
      "##炼": 8274,
      "##械": 8275,
      "##鎧": 8276,
      "##祿": 8277,
      "##袈": 8278,
      "##裟": 8279,
      "##豐": 8280,
      "##蠻": 8281,
      "##퍼": 8282,
      "##런": 8283,
      "##得": 8284,
      "##를": 8285,
      "##盼": 8286,
      "##글": 8287,
      "##빙": 8288,
      "##裕": 8289,
      "##闕": 8290,
      "##讐": 8291,
      "##遺": 8292,
      "##ਜ": 8293,
      "##ᒡ": 8294,
      "##ᓘ": 8295,
      "##ᑲ": 8296,
      "##雁": 8297,
      "##终": 8298,
      "##哲": 8299,
      "##豫": 8300,
      "##柩": 8301,
      "##ష": 8302,
      "##紡": 8303,
      "##ẵ": 8304,
      "##ǭ": 8305,
      "##謀": 8306,
      "##乎": 8307,
      "##✗": 8308,
      "##兜": 8309,
      "##肚": 8310,
      "##甜": 8311,
      "##菊": 8312,
      "##夤": 8313,
      "##鉦": 8314,
      "##ｍ": 8315,
      "##駆": 8316,
      "##蠕": 8317,
      "##嶺": 8318,
      "##ේ": 8319,
      "##ශ": 8320,
      "##毬": 8321,
      "##恥": 8322,
      "##致": 8323,
      "##割": 8324,
      "##幕": 8325,
      "##请": 8326,
      "##筆": 8327,
      "##遼": 8328,
      "##鸿": 8329,
      "##尧": 8330,
      "##ყ": 8331,
      "##렌": 8332,
      "##序": 8333,
      "##ἳ": 8334,
      "##簡": 8335,
      "##賈": 8336,
      "##脩": 8337,
      "##箭": 8338,
      "##郑": 8339,
      "##煜": 8340,
      "##富": 8341,
      "##怎": 8342,
      "##么": 8343,
      "##蕨": 8344,
      "##裳": 8345,
      "##ਂ": 8346,
      "##ਝ": 8347,
      "##센": 8348,
      "##터": 8349,
      "##奧": 8350,
      "##정": 8351,
      "##巖": 8352,
      "##扉": 8353,
      "##ȷ": 8354,
      "##廊": 8355,
      "##溜": 8356,
      "##ḵ": 8357,
      "##対": 8358,
      "##鋼": 8359,
      "##錡": 8360,
      "##璉": 8361,
      "##艶": 8362,
      "##借": 8363,
      "##棍": 8364,
      "##帖": 8365,
      "##級": 8366,
      "##卜": 8367,
      "##ģ": 8368,
      "##ɞ": 8369,
      "##功": 8370,
      "##繋": 8371,
      "##瓊": 8372,
      "##委": 8373,
      "##観": 8374,
      "##測": 8375,
      "##향": 8376,
      "##亀": 8377,
      "##來": 8378,
      "##鮫": 8379,
      "##ѧ": 8380,
      "th": 8381,
      "the": 8382,
      "##er": 8383,
      "##in": 8384,
      "##ed": 8385,
      "##on": 8386,
      "##nd": 8387,
      "##es": 8388,
      "##or": 8389,
      "##at": 8390,
      "##en": 8391,
      "##ar": 8392,
      "in": 8393,
      "of": 8394,
      "##an": 8395,
      "##al": 8396,
      "##ing": 8397,
      "##it": 8398,
      "##as": 8399,
      "and": 8400,
      "##is": 8401,
      "to": 8402,
      "##ic": 8403,
      "##ou": 8404,
      "##ion": 8405,
      "##re": 8406,
      "##om": 8407,
      "##el": 8408,
      "##il": 8409,
      "##ec": 8410,
      "##ent": 8411,
      "##st": 8412,
      "##th": 8413,
      "##am": 8414,
      "##ro": 8415,
      "on": 8416,
      "##ac": 8417,
      "##ad": 8418,
      "##le": 8419,
      "was": 8420,
      "##ur": 8421,
      "st": 8422,
      "##et": 8423,
      "for": 8424,
      "##ly": 8425,
      "##ol": 8426,
      "##ir": 8427,
      "wh": 8428,
      "as": 8429,
      "##ter": 8430,
      "##id": 8431,
      "@-": 8432,
      "@-@": 8433,
      "##iv": 8434,
      "##ig": 8435,
      "re": 8436,
      "##ith": 8437,
      "##im": 8438,
      "##ow": 8439,
      "##ay": 8440,
      "be": 8441,
      "##ch": 8442,
      "al": 8443,
      "##ut": 8444,
      "with": 8445,
      "##ation": 8446,
      "##ers": 8447,
      "that": 8448,
      "##ot": 8449,
      "##em": 8450,
      "it": 8451,
      "con": 8452,
      "an": 8453,
      "by": 8454,
      "at": 8455,
      "fr": 8456,
      "is": 8457,
      "he": 8458,
      "##us": 8459,
      "##ce": 8460,
      "ch": 8461,
      "##ver": 8462,
      "sh": 8463,
      "##ul": 8464,
      "##est": 8465,
      "##os": 8466,
      "##and": 8467,
      "##ain": 8468,
      "19": 8469,
      "his": 8470,
      "##ag": 8471,
      "##av": 8472,
      "##um": 8473,
      "com": 8474,
      "##ere": 8475,
      "##ct": 8476,
      "se": 8477,
      "su": 8478,
      "from": 8479,
      "pro": 8480,
      "##ess": 8481,
      "##od": 8482,
      "de": 8483,
      "##ri": 8484,
      "##ap": 8485,
      "20": 8486,
      "##ist": 8487,
      "ne": 8488,
      "##ect": 8489,
      "##un": 8490,
      "##igh": 8491,
      "##op": 8492,
      "##ill": 8493,
      "##ies": 8494,
      "##ich": 8495,
      "##ber": 8496,
      "##if": 8497,
      "##ard": 8498,
      "or": 8499,
      "ar": 8500,
      "##art": 8501,
      "ex": 8502,
      "##ld": 8503,
      "pl": 8504,
      "##all": 8505,
      "##ak": 8506,
      "were": 8507,
      "##oc": 8508,
      "##ate": 8509,
      "un": 8510,
      "##ab": 8511,
      "pr": 8512,
      "##pp": 8513,
      "le": 8514,
      "##ant": 8515,
      "sp": 8516,
      "##ud": 8517,
      "##ther": 8518,
      "##gh": 8519,
      "##ort": 8520,
      "##se": 8521,
      "##ong": 8522,
      "tr": 8523,
      "##ated": 8524,
      "##ity": 8525,
      "##ie": 8526,
      "##ive": 8527,
      "en": 8528,
      "##ame": 8529,
      "had": 8530,
      "##ore": 8531,
      "##ish": 8532,
      "##ge": 8533,
      "##ack": 8534,
      "##ear": 8535,
      "##our": 8536,
      "##ip": 8537,
      "##ast": 8538,
      "which": 8539,
      "##ell": 8540,
      "##ov": 8541,
      "##ough": 8542,
      "are": 8543,
      "##ment": 8544,
      "##ian": 8545,
      "not": 8546,
      "af": 8547,
      "##ial": 8548,
      "##ound": 8549,
      "##ost": 8550,
      "##pt": 8551,
      "rec": 8552,
      "cl": 8553,
      "##ight": 8554,
      "##qu": 8555,
      "##ia": 8556,
      "##ust": 8557,
      "wor": 8558,
      "##ary": 8559,
      "br": 8560,
      "##ine": 8561,
      "##oun": 8562,
      "##cc": 8563,
      "ad": 8564,
      "##ical": 8565,
      "##ave": 8566,
      "comp": 8567,
      "fir": 8568,
      "her": 8569,
      "##te": 8570,
      "but": 8571,
      "this": 8572,
      "##ord": 8573,
      "200": 8574,
      "bo": 8575,
      "sc": 8576,
      "##ould": 8577,
      "inc": 8578,
      "tw": 8579,
      "##ous": 8580,
      "ab": 8581,
      "after": 8582,
      "cont": 8583,
      "first": 8584,
      "gr": 8585,
      "##ions": 8586,
      "##so": 8587,
      "##ach": 8588,
      "##ome": 8589,
      "res": 8590,
      "its": 8591,
      "new": 8592,
      "##ure": 8593,
      "their": 8594,
      "man": 8595,
      "am": 8596,
      "all": 8597,
      "ro": 8598,
      "one": 8599,
      "##ue": 8600,
      "##per": 8601,
      "int": 8602,
      "##ass": 8603,
      "per": 8604,
      "##ign": 8605,
      "also": 8606,
      "us": 8607,
      "mar": 8608,
      "##ub": 8609,
      "rel": 8610,
      "##out": 8611,
      "##ok": 8612,
      "##oll": 8613,
      "##ater": 8614,
      "tim": 8615,
      "##00": 8616,
      "##og": 8617,
      "##age": 8618,
      "##ide": 8619,
      "##ond": 8620,
      "they": 8621,
      "##orm": 8622,
      "ser": 8623,
      "##ath": 8624,
      "##ire": 8625,
      "##ru": 8626,
      "two": 8627,
      "part": 8628,
      "ag": 8629,
      "##ry": 8630,
      "who": 8631,
      "comm": 8632,
      "fe": 8633,
      "des": 8634,
      "##rit": 8635,
      "##ans": 8636,
      "have": 8637,
      "##du": 8638,
      "bec": 8639,
      "go": 8640,
      "##ally": 8641,
      "##ff": 8642,
      "##ence": 8643,
      "dis": 8644,
      "app": 8645,
      "##ile": 8646,
      "she": 8647,
      "##ree": 8648,
      "18": 8649,
      "##ra": 8650,
      "we": 8651,
      "##ance": 8652,
      "##pl": 8653,
      "@.": 8654,
      "@.@": 8655,
      "##ition": 8656,
      "year": 8657,
      "##own": 8658,
      "##iz": 8659,
      "off": 8660,
      "has": 8661,
      "##act": 8662,
      "play": 8663,
      "##uring": 8664,
      "been": 8665,
      "##ely": 8666,
      "im": 8667,
      "over": 8668,
      "201": 8669,
      "@,": 8670,
      "@,@": 8671,
      "car": 8672,
      "##ult": 8673,
      "co": 8674,
      "up": 8675,
      "##lud": 8676,
      "##ice": 8677,
      "##ory": 8678,
      "out": 8679,
      "##ations": 8680,
      "pre": 8681,
      "##ember": 8682,
      "##ke": 8683,
      "inter": 8684,
      "ev": 8685,
      "me": 8686,
      "##ace": 8687,
      "dec": 8688,
      "fin": 8689,
      "##ens": 8690,
      "te": 8691,
      "##wn": 8692,
      "when": 8693,
      "##land": 8694,
      "##ib": 8695,
      "##ade": 8696,
      "##pr": 8697,
      "##ail": 8698,
      "time": 8699,
      "can": 8700,
      "other": 8701,
      "##urn": 8702,
      "nor": 8703,
      "during": 8704,
      "##ount": 8705,
      "includ": 8706,
      "ind": 8707,
      "fl": 8708,
      "##ced": 8709,
      "##ric": 8710,
      "would": 8711,
      "sec": 8712,
      "##one": 8713,
      "##ks": 8714,
      "fil": 8715,
      "##man": 8716,
      "##we": 8717,
      "##ward": 8718,
      "into": 8719,
      "##ang": 8720,
      "##nder": 8721,
      "him": 8722,
      "act": 8723,
      "att": 8724,
      "bl": 8725,
      "##ite": 8726,
      "ear": 8727,
      "##ted": 8728,
      "war": 8729,
      "##ates": 8730,
      "##ph": 8731,
      "##able": 8732,
      "##ied": 8733,
      "jo": 8734,
      "##eas": 8735,
      "more": 8736,
      "char": 8737,
      "high": 8738,
      "##ited": 8739,
      "##amp": 8740,
      "cent": 8741,
      "form": 8742,
      "##ose": 8743,
      "bet": 8744,
      "film": 8745,
      "par": 8746,
      "##ents": 8747,
      "##way": 8748,
      "acc": 8749,
      "##les": 8750,
      "##ces": 8751,
      "sou": 8752,
      "el": 8753,
      "##ors": 8754,
      "##old": 8755,
      "##aw": 8756,
      "##form": 8757,
      "##ason": 8758,
      "cons": 8759,
      "##ings": 8760,
      "no": 8761,
      "while": 8762,
      "##vel": 8763,
      "mus": 8764,
      "##ild": 8765,
      "some": 8766,
      "most": 8767,
      "game": 8768,
      "there": 8769,
      "##ts": 8770,
      "po": 8771,
      "thr": 8772,
      "##port": 8773,
      "kn": 8774,
      "rem": 8775,
      "##ind": 8776,
      "##gr": 8777,
      "gen": 8778,
      "ass": 8779,
      "##fer": 8780,
      "##ick": 8781,
      "##ake": 8782,
      "##ious": 8783,
      "qu": 8784,
      "how": 8785,
      "so": 8786,
      "##aus": 8787,
      "##ction": 8788,
      "em": 8789,
      "##iss": 8790,
      "bu": 8791,
      "later": 8792,
      "only": 8793,
      "song": 8794,
      "ph": 8795,
      "produ": 8796,
      "##ft": 8797,
      "again": 8798,
      "##gan": 8799,
      "reg": 8800,
      "##rib": 8801,
      "##att": 8802,
      "pe": 8803,
      "##ved": 8804,
      "under": 8805,
      "ret": 8806,
      "##pe": 8807,
      "##eld": 8808,
      "may": 8809,
      "work": 8810,
      "sy": 8811,
      "##ood": 8812,
      "##reat": 8813,
      "##ey": 8814,
      "them": 8815,
      "than": 8816,
      "sch": 8817,
      "about": 8818,
      "##ered": 8819,
      "three": 8820,
      "##als": 8821,
      "##ubl": 8822,
      "##ix": 8823,
      "199": 8824,
      "##ween": 8825,
      "##ollow": 8826,
      "##ons": 8827,
      "between": 8828,
      "day": 8829,
      "col": 8830,
      "air": 8831,
      "bro": 8832,
      "north": 8833,
      "through": 8834,
      "mon": 8835,
      "rev": 8836,
      "record": 8837,
      "follow": 8838,
      "##hip": 8839,
      "min": 8840,
      "##ock": 8841,
      "eng": 8842,
      "bas": 8843,
      "##ational": 8844,
      "ma": 8845,
      "second": 8846,
      "li": 8847,
      "end": 8848,
      "##fore": 8849,
      "releas": 8850,
      "##eric": 8851,
      "num": 8852,
      "##ict": 8853,
      "##ters": 8854,
      "sub": 8855,
      "ac": 8856,
      "pres": 8857,
      "##hn": 8858,
      "dr": 8859,
      "##iew": 8860,
      "##orn": 8861,
      "sa": 8862,
      "def": 8863,
      "alb": 8864,
      "season": 8865,
      "##ton": 8866,
      "four": 8867,
      "au": 8868,
      "ep": 8869,
      "pos": 8870,
      "do": 8871,
      "world": 8872,
      "americ": 8873,
      "where": 8874,
      "cap": 8875,
      "before": 8876,
      "spec": 8877,
      "team": 8878,
      "mov": 8879,
      "##ral": 8880,
      "south": 8881,
      "##ular": 8882,
      "##ating": 8883,
      "##ames": 8884,
      "writ": 8885,
      "arm": 8886,
      "lar": 8887,
      "sm": 8888,
      "made": 8889,
      "will": 8890,
      "gu": 8891,
      "##ision": 8892,
      "##ived": 8893,
      "such": 8894,
      "pol": 8895,
      "sur": 8896,
      "sing": 8897,
      "000": 8898,
      "album": 8899,
      "publ": 8900,
      "##atch": 8901,
      "##io": 8902,
      "##son": 8903,
      "##ished": 8904,
      "sever": 8905,
      "##ever": 8906,
      "years": 8907,
      "##ual": 8908,
      "##ained": 8909,
      "##ode": 8910,
      "supp": 8911,
      "call": 8912,
      "##ics": 8913,
      "loc": 8914,
      "##ros": 8915,
      "##red": 8916,
      "10": 8917,
      "str": 8918,
      "##ery": 8919,
      "count": 8920,
      "back": 8921,
      "show": 8922,
      "add": 8923,
      "inv": 8924,
      "gener": 8925,
      "both": 8926,
      "##ected": 8927,
      "##ning": 8928,
      "##tern": 8929,
      "then": 8930,
      "used": 8931,
      "however": 8932,
      "##ily": 8933,
      "epis": 8934,
      "rece": 8935,
      "mill": 8936,
      "##ific": 8937,
      "being": 8938,
      "these": 8939,
      "##au": 8940,
      "##ection": 8941,
      "##ve": 8942,
      "well": 8943,
      "##ury": 8944,
      "stud": 8945,
      "set": 8946,
      "series": 8947,
      "against": 8948,
      "batt": 8949,
      "ed": 8950,
      "##air": 8951,
      "##ale": 8952,
      "##ten": 8953,
      "inst": 8954,
      "charac": 8955,
      "##ank": 8956,
      "number": 8957,
      "##oup": 8958,
      "##velop": 8959,
      "found": 8960,
      "##ement": 8961,
      "bel": 8962,
      "##ife": 8963,
      "sim": 8964,
      "many": 8965,
      "17": 8966,
      "lead": 8967,
      "##led": 8968,
      "ste": 8969,
      "music": 8970,
      "perform": 8971,
      "main": 8972,
      "long": 8973,
      "op": 8974,
      "city": 8975,
      "##int": 8976,
      "ter": 8977,
      "pop": 8978,
      "##ane": 8979,
      "##ool": 8980,
      "##ause": 8981,
      "##az": 8982,
      "##ince": 8983,
      "brit": 8984,
      "##oy": 8985,
      "develop": 8986,
      "##fl": 8987,
      "##ron": 8988,
      "became": 8989,
      "dire": 8990,
      "##other": 8991,
      "united": 8992,
      "met": 8993,
      "hist": 8994,
      "art": 8995,
      "several": 8996,
      "including": 8997,
      "##igin": 8998,
      "sl": 8999,
      "cre": 9000,
      "state": 9001,
      "mil": 9002,
      "early": 9003,
      "##ower": 9004,
      "##ise": 9005,
      "ob": 9006,
      "div": 9007,
      "origin": 9008,
      "##vern": 9009,
      "##ised": 9010,
      "##ier": 9011,
      "12": 9012,
      "15": 9013,
      "198": 9014,
      "trans": 9015,
      "did": 9016,
      "##its": 9017,
      "appear": 9018,
      "dist": 9019,
      "##ures": 9020,
      "##ather": 9021,
      "##ork": 9022,
      "##ines": 9023,
      "nov": 9024,
      "194": 9025,
      "##are": 9026,
      "ship": 9027,
      "##til": 9028,
      "##rop": 9029,
      "contin": 9030,
      "govern": 9031,
      "pers": 9032,
      "##olog": 9033,
      "win": 9034,
      "##ities": 9035,
      "conc": 9036,
      "##elf": 9037,
      "prov": 9038,
      "episode": 9039,
      "##ley": 9040,
      "states": 9041,
      "##ross": 9042,
      "est": 9043,
      "return": 9044,
      "crit": 9045,
      "following": 9046,
      "##iet": 9047,
      "said": 9048,
      "##ful": 9049,
      "##ird": 9050,
      "john": 9051,
      "prev": 9052,
      "ann": 9053,
      "##ield": 9054,
      "const": 9055,
      "##uch": 9056,
      "cr": 9057,
      "design": 9058,
      "group": 9059,
      "##eng": 9060,
      "dif": 9061,
      "could": 9062,
      "##ative": 9063,
      "16": 9064,
      "run": 9065,
      "oper": 9066,
      "med": 9067,
      "##ouse": 9068,
      "american": 9069,
      "desc": 9070,
      "any": 9071,
      "direct": 9072,
      "##der": 9073,
      "exp": 9074,
      "bar": 9075,
      "alth": 9076,
      "##tend": 9077,
      "##ann": 9078,
      "ger": 9079,
      "known": 9080,
      "comple": 9081,
      "although": 9082,
      "##ah": 9083,
      "near": 9084,
      "aust": 9085,
      "##ivers": 9086,
      "west": 9087,
      "mod": 9088,
      "##ert": 9089,
      "sign": 9090,
      "serv": 9091,
      "##ase": 9092,
      "##emb": 9093,
      "##uc": 9094,
      "pass": 9095,
      "197": 9096,
      "##sp": 9097,
      "har": 9098,
      "king": 9099,
      "jun": 9100,
      "down": 9101,
      "11": 9102,
      "##ually": 9103,
      "##anc": 9104,
      "196": 9105,
      "land": 9106,
      "##ident": 9107,
      "fam": 9108,
      "disc": 9109,
      "##ought": 9110,
      "##iver": 9111,
      "##ty": 9112,
      "##iam": 9113,
      "red": 9114,
      "##xt": 9115,
      "##ued": 9116,
      "like": 9117,
      "began": 9118,
      "lo": 9119,
      "gre": 9120,
      "##ined": 9121,
      "##ange": 9122,
      "##ern": 9123,
      "##ting": 9124,
      "##row": 9125,
      "##ject": 9126,
      "offic": 9127,
      "eff": 9128,
      "until": 9129,
      "feat": 9130,
      "##ople": 9131,
      "##ism": 9132,
      "own": 9133,
      "##0s": 9134,
      "##aking": 9135,
      "##enn": 9136,
      "because": 9137,
      "along": 9138,
      "school": 9139,
      "##ided": 9140,
      "##ele": 9141,
      "open": 9142,
      "##ccess": 9143,
      "released": 9144,
      "port": 9145,
      "you": 9146,
      "resp": 9147,
      "##ized": 9148,
      "called": 9149,
      "##gin": 9150,
      "national": 9151,
      "##els": 9152,
      "star": 9153,
      "maj": 9154,
      "##aph": 9155,
      "##ists": 9156,
      "##stem": 9157,
      "ju": 9158,
      "wee": 9159,
      "imp": 9160,
      "people": 9161,
      "##ured": 9162,
      "##ys": 9163,
      "##ially": 9164,
      "##ution": 9165,
      "class": 9166,
      "bre": 9167,
      "adv": 9168,
      "##gg": 9169,
      "if": 9170,
      "million": 9171,
      "id": 9172,
      "##osed": 9173,
      "just": 9174,
      "system": 9175,
      "##rol": 9176,
      "##ium": 9177,
      "cour": 9178,
      "dep": 9179,
      "##ull": 9180,
      "ever": 9181,
      "british": 9182,
      "##ession": 9183,
      "since": 9184,
      "head": 9185,
      "13": 9186,
      "##end": 9187,
      "six": 9188,
      "var": 9189,
      "best": 9190,
      "around": 9191,
      "cor": 9192,
      "aug": 9193,
      "major": 9194,
      "award": 9195,
      "ge": 9196,
      "life": 9197,
      "use": 9198,
      "##cept": 9199,
      "av": 9200,
      "arr": 9201,
      "##up": 9202,
      "##ash": 9203,
      "success": 9204,
      "each": 9205,
      "##ently": 9206,
      "la": 9207,
      "##ains": 9208,
      "attack": 9209,
      "sept": 9210,
      "##any": 9211,
      "##ments": 9212,
      "character": 9213,
      "coll": 9214,
      "##ets": 9215,
      "##ark": 9216,
      "##oot": 9217,
      "start": 9218,
      "describ": 9219,
      "september": 9220,
      "##amed": 9221,
      "august": 9222,
      "same": 9223,
      "##ible": 9224,
      "##ene": 9225,
      "result": 9226,
      "road": 9227,
      "##ont": 9228,
      "tri": 9229,
      "support": 9230,
      "occ": 9231,
      "east": 9232,
      "##aced": 9233,
      "final": 9234,
      "oct": 9235,
      "another": 9236,
      "ty": 9237,
      "dem": 9238,
      "##aining": 9239,
      "five": 9240,
      "hel": 9241,
      "public": 9242,
      "14": 9243,
      "sw": 9244,
      "km": 9245,
      "##ired": 9246,
      "build": 9247,
      "ext": 9248,
      "great": 9249,
      "##ik": 9250,
      "##eter": 9251,
      "lit": 9252,
      "my": 9253,
      "prom": 9254,
      "old": 9255,
      "##cl": 9256,
      "austral": 9257,
      "##ues": 9258,
      "##aving": 9259,
      "camp": 9260,
      "195": 9261,
      "gl": 9262,
      "took": 9263,
      "##ruct": 9264,
      "band": 9265,
      "line": 9266,
      "german": 9267,
      "sk": 9268,
      "book": 9269,
      "##ob": 9270,
      "rep": 9271,
      "area": 9272,
      "mid": 9273,
      "home": 9274,
      "house": 9275,
      "small": 9276,
      "##ep": 9277,
      "ra": 9278,
      "march": 9279,
      "##ner": 9280,
      "report": 9281,
      "193": 9282,
      "consid": 9283,
      "##ove": 9284,
      "century": 9285,
      "##ober": 9286,
      "turn": 9287,
      "##urch": 9288,
      "received": 9289,
      "##und": 9290,
      "october": 9291,
      "##ants": 9292,
      "chr": 9293,
      "stre": 9294,
      "##uss": 9295,
      "##ble": 9296,
      "##ger": 9297,
      "##ically": 9298,
      "univers": 9299,
      "##ives": 9300,
      "191": 9301,
      "##ead": 9302,
      "what": 9303,
      "last": 9304,
      "##thern": 9305,
      "short": 9306,
      "partic": 9307,
      "games": 9308,
      "due": 9309,
      "##ison": 9310,
      "vers": 9311,
      "##app": 9312,
      "government": 9313,
      "hal": 9314,
      "##ins": 9315,
      "rest": 9316,
      "ent": 9317,
      "##ately": 9318,
      "##ility": 9319,
      "command": 9320,
      "##ink": 9321,
      "match": 9322,
      "ke": 9323,
      "##ored": 9324,
      "##ina": 9325,
      "person": 9326,
      "eu": 9327,
      "way": 9328,
      "##ians": 9329,
      "june": 9330,
      "##oss": 9331,
      "mag": 9332,
      "jan": 9333,
      "##tle": 9334,
      "next": 9335,
      "leg": 9336,
      "del": 9337,
      "prot": 9338,
      "single": 9339,
      "mark": 9340,
      "third": 9341,
      "general": 9342,
      "conv": 9343,
      "squ": 9344,
      "##ission": 9345,
      "july": 9346,
      "child": 9347,
      "tit": 9348,
      "capt": 9349,
      "##iving": 9350,
      "november": 9351,
      "men": 9352,
      "##inc": 9353,
      "track": 9354,
      "apr": 9355,
      "death": 9356,
      "care": 9357,
      "##ute": 9358,
      "review": 9359,
      "much": 9360,
      "event": 9361,
      "island": 9362,
      "york": 9363,
      "##lish": 9364,
      "differ": 9365,
      "reach": 9366,
      "##res": 9367,
      "april": 9368,
      "fur": 9369,
      "##ogr": 9370,
      "##raft": 9371,
      "large": 9372,
      "dam": 9373,
      "top": 9374,
      "##uary": 9375,
      "power": 9376,
      "even": 9377,
      "accord": 9378,
      "left": 9379,
      "town": 9380,
      "soc": 9381,
      "intern": 9382,
      "##ural": 9383,
      "cast": 9384,
      "##sc": 9385,
      "allow": 9386,
      "cur": 9387,
      "vide": 9388,
      "##ling": 9389,
      "##ench": 9390,
      "##ively": 9391,
      "##bo": 9392,
      "30": 9393,
      "gun": 9394,
      "month": 9395,
      "##aim": 9396,
      "##ilt": 9397,
      "##idge": 9398,
      "progr": 9399,
      "kill": 9400,
      "story": 9401,
      "appro": 9402,
      "##ats": 9403,
      "based": 9404,
      "vis": 9405,
      "family": 9406,
      "place": 9407,
      "##ified": 9408,
      "##ague": 9409,
      "now": 9410,
      "cal": 9411,
      "incre": 9412,
      "vict": 9413,
      "name": 9414,
      "##ms": 9415,
      "expl": 9416,
      "##ales": 9417,
      "conf": 9418,
      "spe": 9419,
      "park": 9420,
      "black": 9421,
      "right": 9422,
      "ele": 9423,
      "##over": 9424,
      "law": 9425,
      "company": 9426,
      "army": 9427,
      "##empt": 9428,
      "enter": 9429,
      "##avy": 9430,
      "december": 9431,
      "25": 9432,
      "history": 9433,
      "##enc": 9434,
      "club": 9435,
      "addition": 9436,
      "post": 9437,
      "played": 9438,
      "##..": 9439,
      "included": 9440,
      "##by": 9441,
      "according": 9442,
      "storm": 9443,
      "far": 9444,
      "river": 9445,
      "##ps": 9446,
      "##ient": 9447,
      "battle": 9448,
      "january": 9449,
      "led": 9450,
      "##rote": 9451,
      "water": 9452,
      "hand": 9453,
      "##ention": 9454,
      "##ime": 9455,
      "192": 9456,
      "##erg": 9457,
      "val": 9458,
      "##bert": 9459,
      "wind": 9460,
      "##ograph": 9461,
      "##ll": 9462,
      "##aged": 9463,
      "##apan": 9464,
      "##ball": 9465,
      "##side": 9466,
      "wom": 9467,
      "ii": 9468,
      "wrote": 9469,
      "won": 9470,
      "ang": 9471,
      "##ared": 9472,
      "##min": 9473,
      "##ages": 9474,
      "##ony": 9475,
      "hum": 9476,
      "ant": 9477,
      "##ven": 9478,
      "times": 9479,
      "japan": 9480,
      "requ": 9481,
      "organ": 9482,
      "...": 9483,
      "opp": 9484,
      "pat": 9485,
      "##ience": 9486,
      "previous": 9487,
      "##eal": 9488,
      "rou": 9489,
      "within": 9490,
      "##ract": 9491,
      "make": 9492,
      "##ody": 9493,
      "##sh": 9494,
      "rad": 9495,
      "init": 9496,
      "described": 9497,
      "##med": 9498,
      "##ital": 9499,
      "those": 9500,
      "##br": 9501,
      "##ption": 9502,
      "euro": 9503,
      "control": 9504,
      "still": 9505,
      "champ": 9506,
      "video": 9507,
      "bill": 9508,
      "##ott": 9509,
      "release": 9510,
      "stand": 9511,
      "##erv": 9512,
      "##ides": 9513,
      "named": 9514,
      "memb": 9515,
      "late": 9516,
      "##omin": 9517,
      "list": 9518,
      "belie": 9519,
      "bus": 9520,
      "original": 9521,
      "among": 9522,
      "##na": 9523,
      "further": 9524,
      "##iven": 9525,
      "attempt": 9526,
      "##ister": 9527,
      "##por": 9528,
      "repl": 9529,
      "##aff": 9530,
      "##ne": 9531,
      "##ilar": 9532,
      "##ech": 9533,
      "league": 9534,
      "very": 9535,
      "force": 9536,
      "effect": 9537,
      "dest": 9538,
      "exper": 9539,
      "poss": 9540,
      "##ature": 9541,
      "though": 9542,
      "view": 9543,
      "iss": 9544,
      "foot": 9545,
      "route": 9546,
      "100": 9547,
      "##ested": 9548,
      "##iod": 9549,
      "##ior": 9550,
      "real": 9551,
      "##bru": 9552,
      "cy": 9553,
      "##itions": 9554,
      "commun": 9555,
      "fun": 9556,
      "production": 9557,
      "species": 9558,
      "##mer": 9559,
      "members": 9560,
      "deb": 9561,
      "##ret": 9562,
      "inf": 9563,
      "sound": 9564,
      "##ival": 9565,
      "polit": 9566,
      "##ren": 9567,
      "infl": 9568,
      "auth": 9569,
      "milit": 9570,
      "former": 9571,
      "ref": 9572,
      "christ": 9573,
      "tour": 9574,
      "##pend": 9575,
      "tak": 9576,
      "##atter": 9577,
      "similar": 9578,
      "febru": 9579,
      "february": 9580,
      "mich": 9581,
      "white": 9582,
      "elect": 9583,
      "##ances": 9584,
      "fle": 9585,
      "##ented": 9586,
      "sold": 9587,
      "period": 9588,
      "tele": 9589,
      "repr": 9590,
      "division": 9591,
      "built": 9592,
      "days": 9593,
      "sol": 9594,
      "##ences": 9595,
      "##thing": 9596,
      "tem": 9597,
      "beh": 9598,
      "roy": 9599,
      "side": 9600,
      "super": 9601,
      "arch": 9602,
      "plan": 9603,
      "held": 9604,
      "##ler": 9605,
      "##augh": 9606,
      "europe": 9607,
      "youn": 9608,
      "##ness": 9609,
      "university": 9610,
      "rock": 9611,
      "point": 9612,
      "good": 9613,
      "french": 9614,
      "cle": 9615,
      "light": 9616,
      "pa": 9617,
      "local": 9618,
      "say": 9619,
      "church": 9620,
      "service": 9621,
      "president": 9622,
      "estab": 9623,
      "role": 9624,
      "desp": 9625,
      "help": 9626,
      "equ": 9627,
      "##ney": 9628,
      "##wards": 9629,
      "2010": 9630,
      "order": 9631,
      "21": 9632,
      "##tended": 9633,
      "eas": 9634,
      "##itch": 9635,
      "see": 9636,
      "fre": 9637,
      "every": 9638,
      "coun": 9639,
      "det": 9640,
      "came": 9641,
      "##ropical": 9642,
      "##oci": 9643,
      "tot": 9644,
      "caus": 9645,
      "##ense": 9646,
      "having": 9647,
      "cross": 9648,
      "never": 9649,
      "week": 9650,
      "william": 9651,
      "##ipp": 9652,
      "begin": 9653,
      "few": 9654,
      "sum": 9655,
      "##ford": 9656,
      "##uted": 9657,
      "##ulation": 9658,
      "##line": 9659,
      "associ": 9660,
      "##ax": 9661,
      "mor": 9662,
      "mount": 9663,
      "prop": 9664,
      "player": 9665,
      "chart": 9666,
      "##par": 9667,
      "prof": 9668,
      "common": 9669,
      "often": 9670,
      "2008": 9671,
      "take": 9672,
      "24": 9673,
      "##ices": 9674,
      "mo": 9675,
      "##atic": 9676,
      "half": 9677,
      "##ards": 9678,
      "hur": 9679,
      "2009": 9680,
      "career": 9681,
      "##ew": 9682,
      "geor": 9683,
      "continued": 9684,
      "##ened": 9685,
      "without": 9686,
      "low": 9687,
      "##ength": 9688,
      "##ese": 9689,
      "pri": 9690,
      "sty": 9691,
      "claim": 9692,
      "##ator": 9693,
      "histor": 9694,
      "level": 9695,
      "sent": 9696,
      "2011": 9697,
      "different": 9698,
      "press": 9699,
      "fire": 9700,
      "##ruction": 9701,
      "##thers": 9702,
      "##omb": 9703,
      "##ck": 9704,
      "##estern": 9705,
      "despite": 9706,
      "##ars": 9707,
      "cover": 9708,
      "##ots": 9709,
      "stat": 9710,
      "england": 9711,
      "rom": 9712,
      "less": 9713,
      "##ology": 9714,
      "##read": 9715,
      "22": 9716,
      "court": 9717,
      "field": 9718,
      "##af": 9719,
      "party": 9720,
      "comb": 9721,
      "##ests": 9722,
      "##erc": 9723,
      "considered": 9724,
      "##ops": 9725,
      "##omet": 9726,
      "ten": 9727,
      "##ried": 9728,
      "dav": 9729,
      "##ring": 9730,
      "development": 9731,
      "##con": 9732,
      "fact": 9733,
      "##ves": 9734,
      "repres": 9735,
      "2007": 9736,
      "##iend": 9737,
      "don": 9738,
      "##ying": 9739,
      "increas": 9740,
      "night": 9741,
      "country": 9742,
      "tre": 9743,
      "county": 9744,
      "##ush": 9745,
      "influ": 9746,
      "tro": 9747,
      "champions": 9748,
      "version": 9749,
      "##amm": 9750,
      "royal": 9751,
      "songs": 9752,
      "friend": 9753,
      "hy": 9754,
      "##ones": 9755,
      "english": 9756,
      "##aster": 9757,
      "want": 9758,
      "colle": 9759,
      "military": 9760,
      "moved": 9761,
      "highway": 9762,
      "written": 9763,
      "##essed": 9764,
      "position": 9765,
      "trad": 9766,
      "strong": 9767,
      "##rodu": 9768,
      "lim": 9769,
      "mi": 9770,
      "##vision": 9771,
      "vol": 9772,
      "2012": 9773,
      "become": 9774,
      "forces": 9775,
      "chang": 9776,
      "##ize": 9777,
      "anim": 9778,
      "little": 9779,
      "##alk": 9780,
      "ve": 9781,
      "23": 9782,
      "lost": 9783,
      "given": 9784,
      "defe": 9785,
      "bur": 9786,
      "international": 9787,
      "lond": 9788,
      "##ches": 9789,
      "building": 9790,
      "son": 9791,
      "miss": 9792,
      "tropical": 9793,
      "london": 9794,
      "refer": 9795,
      "total": 9796,
      "sugg": 9797,
      "invol": 9798,
      "author": 9799,
      "##elt": 9800,
      "##let": 9801,
      "ord": 9802,
      "##craft": 9803,
      "vir": 9804,
      "read": 9805,
      "phil": 9806,
      "announ": 9807,
      "190": 9808,
      "pur": 9809,
      "ru": 9810,
      "lab": 9811,
      "hour": 9812,
      "free": 9813,
      "sel": 9814,
      "import": 9815,
      "project": 9816,
      "street": 9817,
      "get": 9818,
      "##eder": 9819,
      "##ald": 9820,
      "young": 9821,
      "##ising": 9822,
      "##iety": 9823,
      "aff": 9824,
      "canad": 9825,
      "eight": 9826,
      "using": 9827,
      "##ai": 9828,
      "##sequ": 9829,
      "vi": 9830,
      "##bs": 9831,
      "surv": 9832,
      "performance": 9833,
      "rail": 9834,
      "returned": 9835,
      "arg": 9836,
      "conn": 9837,
      "gold": 9838,
      "sal": 9839,
      "##que": 9840,
      "ly": 9841,
      "sit": 9842,
      "##irc": 9843,
      "station": 9844,
      "earl": 9845,
      "gave": 9846,
      "find": 9847,
      "need": 9848,
      "cop": 9849,
      "went": 9850,
      "##ailed": 9851,
      "##ae": 9852,
      "broad": 9853,
      "jack": 9854,
      "published": 9855,
      "coast": 9856,
      "produced": 9857,
      "hit": 9858,
      "##ham": 9859,
      "western": 9860,
      "compet": 9861,
      "##ef": 9862,
      "##xim": 9863,
      "du": 9864,
      "reported": 9865,
      "let": 9866,
      "trav": 9867,
      "mass": 9868,
      "popular": 9869,
      "hun": 9870,
      "particular": 9871,
      "##ably": 9872,
      "recorded": 9873,
      "ins": 9874,
      "children": 9875,
      "cult": 9876,
      "television": 9877,
      "larg": 9878,
      "##ories": 9879,
      "2006": 9880,
      "##self": 9881,
      "special": 9882,
      "should": 9883,
      "stated": 9884,
      "aircraft": 9885,
      "##aign": 9886,
      "##oph": 9887,
      "include": 9888,
      "##ensive": 9889,
      "ships": 9890,
      "##ency": 9891,
      "dev": 9892,
      "father": 9893,
      "ground": 9894,
      "campaign": 9895,
      "##ama": 9896,
      "##ged": 9897,
      "##echn": 9898,
      "circ": 9899,
      "live": 9900,
      "too": 9901,
      "##yl": 9902,
      "##ple": 9903,
      "making": 9904,
      "##iment": 9905,
      "rich": 9906,
      "critic": 9907,
      "##ington": 9908,
      "27": 9909,
      "love": 9910,
      "hom": 9911,
      "age": 9912,
      "front": 9913,
      "dou": 9914,
      "vo": 9915,
      "##ief": 9916,
      "women": 9917,
      "28": 9918,
      "##day": 9919,
      "destro": 9920,
      "hurric": 9921,
      "central": 9922,
      "##ints": 9923,
      "throughout": 9924,
      "##ett": 9925,
      "50": 9926,
      "##co": 9927,
      "prim": 9928,
      "##used": 9929,
      "upon": 9930,
      "test": 9931,
      "once": 9932,
      "region": 9933,
      "##ploy": 9934,
      "##iness": 9935,
      "suff": 9936,
      "cas": 9937,
      "inde": 9938,
      "himself": 9939,
      "##mit": 9940,
      "official": 9941,
      "##cess": 9942,
      "australia": 9943,
      "sen": 9944,
      "2013": 9945,
      "championship": 9946,
      "##ky": 9947,
      "techn": 9948,
      "characters": 9949,
      "aud": 9950,
      "depart": 9951,
      "mot": 9952,
      "wall": 9953,
      "wr": 9954,
      "##ned": 9955,
      "vill": 9956,
      "ball": 9957,
      "##play": 9958,
      "fav": 9959,
      "26": 9960,
      "present": 9961,
      "sea": 9962,
      "ft": 9963,
      "##itive": 9964,
      "##rew": 9965,
      "instead": 9966,
      "40": 9967,
      "##ument": 9968,
      "##alth": 9969,
      "players": 9970,
      "mad": 9971,
      "##vers": 9972,
      "squad": 9973,
      "relations": 9974,
      "##ges": 9975,
      "##raw": 9976,
      "tur": 9977,
      "commit": 9978,
      "base": 9979,
      "fall": 9980,
      "title": 9981,
      "obs": 9982,
      "southern": 9983,
      "writing": 9984,
      "##akes": 9985,
      "james": 9986,
      "produc": 9987,
      "seven": 9988,
      "away": 9989,
      "cost": 9990,
      "189": 9991,
      "hor": 9992,
      "##acy": 9993,
      "introdu": 9994,
      "across": 9995,
      "hall": 9996,
      "center": 9997,
      "fem": 9998,
      "enc": 9999,
      "died": 10000,
      "remained": 10001,
      "months": 10002,
      "##ape": 10003,
      "ir": 10004,
      "##ams": 10005,
      "signific": 10006,
      "full": 10007,
      "fort": 10008,
      "##lo": 10009,
      "developed": 10010,
      "cam": 10011,
      "cond": 10012,
      "look": 10013,
      "grand": 10014,
      "promot": 10015,
      "political": 10016,
      "ap": 10017,
      "##get": 10018,
      "occur": 10019,
      "various": 10020,
      "manag": 10021,
      "modern": 10022,
      "##wh": 10023,
      "fif": 10024,
      "##ither": 10025,
      "fac": 10026,
      "##unch": 10027,
      "pal": 10028,
      "##utes": 10029,
      "hurricane": 10030,
      "wood": 10031,
      "##ration": 10032,
      "hill": 10033,
      "put": 10034,
      "##field": 10035,
      "hot": 10036,
      "hon": 10037,
      "##gether": 10038,
      "##fic": 10039,
      "pra": 10040,
      "aver": 10041,
      "##ille": 10042,
      "race": 10043,
      "fight": 10044,
      "decl": 10045,
      "##ering": 10046,
      "ill": 10047,
      "##ries": 10048,
      "office": 10049,
      "big": 10050,
      "##isted": 10051,
      "##inted": 10052,
      "bow": 10053,
      "hard": 10054,
      "works": 10055,
      "##ael": 10056,
      "##ked": 10057,
      "san": 10058,
      "mal": 10059,
      "felt": 10060,
      "sil": 10061,
      "areas": 10062,
      "noted": 10063,
      "indust": 10064,
      "america": 10065,
      "eventually": 10066,
      "style": 10067,
      "russ": 10068,
      "created": 10069,
      "mer": 10070,
      "born": 10071,
      "announced": 10072,
      "miles": 10073,
      "reached": 10074,
      "cro": 10075,
      "college": 10076,
      "hop": 10077,
      "##dom": 10078,
      "destroy": 10079,
      "non": 10080,
      "stri": 10081,
      "engine": 10082,
      "curr": 10083,
      "construction": 10084,
      "japanese": 10085,
      "successful": 10086,
      "bri": 10087,
      "sun": 10088,
      "hold": 10089,
      "northern": 10090,
      "2005": 10091,
      "sym": 10092,
      "##most": 10093,
      "nat": 10094,
      "29": 10095,
      "body": 10096,
      "struct": 10097,
      "seen": 10098,
      "pain": 10099,
      "heavy": 10100,
      "mc": 10101,
      "##ee": 10102,
      "mem": 10103,
      "range": 10104,
      "##ows": 10105,
      "followed": 10106,
      "##ements": 10107,
      "agre": 10108,
      "##ress": 10109,
      "together": 10110,
      "meet": 10111,
      "performed": 10112,
      "##ization": 10113,
      "civ": 10114,
      "brown": 10115,
      "##iting": 10116,
      "served": 10117,
      "##ality": 10118,
      "rh": 10119,
      "member": 10120,
      "##orts": 10121,
      "activ": 10122,
      "##elling": 10123,
      "##work": 10124,
      "2014": 10125,
      "bridge": 10126,
      "george": 10127,
      "cut": 10128,
      "##ug": 10129,
      "ho": 10130,
      "hen": 10131,
      "mix": 10132,
      "cert": 10133,
      "##iction": 10134,
      "ident": 10135,
      "football": 10136,
      "mur": 10137,
      "##enth": 10138,
      "##ample": 10139,
      "tor": 10140,
      "killed": 10141,
      "##ana": 10142,
      "god": 10143,
      "significant": 10144,
      "hol": 10145,
      "round": 10146,
      "mm": 10147,
      "esc": 10148,
      "able": 10149,
      "##idence": 10150,
      "taken": 10151,
      "saw": 10152,
      "##olution": 10153,
      "bomb": 10154,
      "##ids": 10155,
      "impro": 10156,
      "##cent": 10157,
      "does": 10158,
      "pi": 10159,
      "becom": 10160,
      "action": 10161,
      "##lished": 10162,
      "reb": 10163,
      "##me": 10164,
      "points": 10165,
      "sat": 10166,
      "que": 10167,
      "human": 10168,
      "los": 10169,
      "mean": 10170,
      "##ecut": 10171,
      "wash": 10172,
      "sn": 10173,
      "thought": 10174,
      "established": 10175,
      "originally": 10176,
      "gar": 10177,
      "thom": 10178,
      "australian": 10179,
      "##tain": 10180,
      "subsequ": 10181,
      "grow": 10182,
      "others": 10183,
      "##aval": 10184,
      "##enced": 10185,
      "entire": 10186,
      "insp": 10187,
      "##irl": 10188,
      "appeared": 10189,
      "##ript": 10190,
      "process": 10191,
      "##rict": 10192,
      "features": 10193,
      "david": 10194,
      "located": 10195,
      "##anch": 10196,
      "director": 10197,
      "voc": 10198,
      "expr": 10199,
      "##ray": 10200,
      "##be": 10201,
      "##ox": 10202,
      "crew": 10203,
      "##oon": 10204,
      "stage": 10205,
      "commission": 10206,
      "##ground": 10207,
      "business": 10208,
      "##bur": 10209,
      "inform": 10210,
      "started": 10211,
      "word": 10212,
      "##odes": 10213,
      "##ius": 10214,
      "pot": 10215,
      "afric": 10216,
      "playing": 10217,
      "##aves": 10218,
      "den": 10219,
      "caused": 10220,
      "##ects": 10221,
      "decided": 10222,
      "civil": 10223,
      "critics": 10224,
      "##gar": 10225,
      "##arch": 10226,
      "ur": 10227,
      "kingdom": 10228,
      "##ators": 10229,
      "feet": 10230,
      "rather": 10231,
      "whe": 10232,
      "rank": 10233,
      "fourth": 10234,
      "##ament": 10235,
      "##aur": 10236,
      "mater": 10237,
      "##ells": 10238,
      "econ": 10239,
      "edu": 10240,
      "##ara": 10241,
      "added": 10242,
      "fell": 10243,
      "econom": 10244,
      "##yn": 10245,
      "##ata": 10246,
      "behind": 10247,
      "independ": 10248,
      "site": 10249,
      "represent": 10250,
      "formed": 10251,
      "discover": 10252,
      "##cil": 10253,
      "ital": 10254,
      "magaz": 10255,
      "resear": 10256,
      "fleet": 10257,
      "##ogn": 10258,
      "##ani": 10259,
      "important": 10260,
      "31": 10261,
      "research": 10262,
      "invest": 10263,
      "188": 10264,
      "pred": 10265,
      "soon": 10266,
      "ham": 10267,
      "##den": 10268,
      "comment": 10269,
      "##ateg": 10270,
      "##reek": 10271,
      "##ivid": 10272,
      "know": 10273,
      "##emy": 10274,
      "key": 10275,
      "jud": 10276,
      "##esh": 10277,
      "mart": 10278,
      "mult": 10279,
      "##iers": 10280,
      "guns": 10281,
      "eastern": 10282,
      "##wood": 10283,
      "damage": 10284,
      "bi": 10285,
      "educ": 10286,
      "completed": 10287,
      "population": 10288,
      "green": 10289,
      "almost": 10290,
      "tom": 10291,
      "sex": 10292,
      "##dle": 10293,
      "##aces": 10294,
      "peak": 10295,
      "lang": 10296,
      "##oth": 10297,
      "inj": 10298,
      "neg": 10299,
      "close": 10300,
      "##less": 10301,
      "##ination": 10302,
      "##ki": 10303,
      "##aps": 10304,
      "interv": 10305,
      "case": 10306,
      "indian": 10307,
      "cup": 10308,
      "jour": 10309,
      "pen": 10310,
      "##ways": 10311,
      "initially": 10312,
      "awards": 10313,
      "example": 10314,
      "di": 10315,
      "mother": 10316,
      "opened": 10317,
      "loss": 10318,
      "host": 10319,
      "treat": 10320,
      "##itar": 10321,
      "##oney": 10322,
      "typ": 10323,
      "2004": 10324,
      "princ": 10325,
      "creat": 10326,
      "scre": 10327,
      "lack": 10328,
      "social": 10329,
      "proble": 10330,
      "pract": 10331,
      "##ino": 10332,
      "aut": 10333,
      "michael": 10334,
      "er": 10335,
      "##omm": 10336,
      "girl": 10337,
      "186": 10338,
      "relationship": 10339,
      "##to": 10340,
      "individ": 10341,
      "##ceed": 10342,
      "##lin": 10343,
      "sour": 10344,
      "ul": 10345,
      "nar": 10346,
      "radio": 10347,
      "fund": 10348,
      "##rick": 10349,
      "net": 10350,
      "##su": 10351,
      "leading": 10352,
      "weeks": 10353,
      "clos": 10354,
      "##go": 10355,
      "tradition": 10356,
      "separ": 10357,
      "working": 10358,
      "2015": 10359,
      "bay": 10360,
      "sus": 10361,
      "worked": 10362,
      "##cast": 10363,
      "prem": 10364,
      "france": 10365,
      "sam": 10366,
      "diffic": 10367,
      "difficult": 10368,
      "secret": 10369,
      "recording": 10370,
      "##ped": 10371,
      "lou": 10372,
      "towards": 10373,
      "##ship": 10374,
      "##medi": 10375,
      "##ula": 10376,
      "appo": 10377,
      "bal": 10378,
      "approach": 10379,
      "union": 10380,
      "council": 10381,
      "##umb": 10382,
      "avail": 10383,
      "##istic": 10384,
      "scene": 10385,
      "rain": 10386,
      "##ster": 10387,
      "##imes": 10388,
      "wid": 10389,
      "goal": 10390,
      "##asion": 10391,
      "##igned": 10392,
      "must": 10393,
      "mac": 10394,
      "quick": 10395,
      "norm": 10396,
      "##ena": 10397,
      "republ": 10398,
      "room": 10399,
      "henry": 10400,
      "break": 10401,
      "##head": 10402,
      "fut": 10403,
      "records": 10404,
      "je": 10405,
      "robert": 10406,
      "accept": 10407,
      "mel": 10408,
      "material": 10409,
      "navy": 10410,
      "vot": 10411,
      "##ica": 10412,
      "grad": 10413,
      "earth": 10414,
      "training": 10415,
      "provided": 10416,
      "least": 10417,
      "scored": 10418,
      "exc": 10419,
      "angel": 10420,
      "wanted": 10421,
      "ey": 10422,
      "rob": 10423,
      "fig": 10424,
      "either": 10425,
      "500": 10426,
      "troops": 10427,
      "##oring": 10428,
      "brought": 10429,
      "ach": 10430,
      "average": 10431,
      "recogn": 10432,
      "brig": 10433,
      "dut": 10434,
      "##board": 10435,
      "featured": 10436,
      "##iding": 10437,
      "cru": 10438,
      "proper": 10439,
      "##ological": 10440,
      "##osition": 10441,
      "colon": 10442,
      "fa": 10443,
      "quar": 10444,
      "nomin": 10445,
      "redu": 10446,
      "allowed": 10447,
      "interest": 10448,
      "187": 10449,
      "tar": 10450,
      "foc": 10451,
      "##uck": 10452,
      "ale": 10453,
      "launch": 10454,
      "past": 10455,
      "estim": 10456,
      "respect": 10457,
      "##ential": 10458,
      "feder": 10459,
      "wife": 10460,
      "contract": 10461,
      "##li": 10462,
      "victory": 10463,
      "rap": 10464,
      "studio": 10465,
      "placed": 10466,
      "generally": 10467,
      "watch": 10468,
      "priv": 10469,
      "unc": 10470,
      "washington": 10471,
      "rul": 10472,
      "inn": 10473,
      "##ma": 10474,
      "cho": 10475,
      "phys": 10476,
      "runs": 10477,
      "##ico": 10478,
      "dark": 10479,
      "events": 10480,
      "pet": 10481,
      "magazine": 10482,
      "##osp": 10483,
      "der": 10484,
      "chief": 10485,
      "battal": 10486,
      "republic": 10487,
      "mat": 10488,
      "board": 10489,
      "summer": 10490,
      "##antic": 10491,
      "ver": 10492,
      "##duct": 10493,
      "paul": 10494,
      "##uel": 10495,
      "staff": 10496,
      "2003": 10497,
      "cred": 10498,
      "##ka": 10499,
      "##ze": 10500,
      "particip": 10501,
      "wil": 10502,
      "stru": 10503,
      "designed": 10504,
      "joined": 10505,
      "squadron": 10506,
      "##ea": 10507,
      "##ville": 10508,
      "##mp": 10509,
      "##aper": 10510,
      "dro": 10511,
      "regular": 10512,
      "surf": 10513,
      "pan": 10514,
      "##ming": 10515,
      "hours": 10516,
      "employ": 10517,
      "middle": 10518,
      "35": 10519,
      "operation": 10520,
      "speed": 10521,
      "nine": 10522,
      "shot": 10523,
      "length": 10524,
      "esp": 10525,
      "opening": 10526,
      "##iff": 10527,
      "threat": 10528,
      "##gn": 10529,
      "media": 10530,
      "relig": 10531,
      "believed": 10532,
      "##tim": 10533,
      "regard": 10534,
      "come": 10535,
      "##anks": 10536,
      "available": 10537,
      "change": 10538,
      "cycl": 10539,
      "##erous": 10540,
      "##ving": 10541,
      "ox": 10542,
      "mary": 10543,
      "bir": 10544,
      "flight": 10545,
      "transport": 10546,
      "prior": 10547,
      "replaced": 10548,
      "ber": 10549,
      "mph": 10550,
      "winds": 10551,
      "##aut": 10552,
      "scen": 10553,
      "pay": 10554,
      "deter": 10555,
      "langu": 10556,
      "sequ": 10557,
      "infant": 10558,
      "quest": 10559,
      "stone": 10560,
      "stop": 10561,
      "##imin": 10562,
      "##ification": 10563,
      "captain": 10564,
      "involved": 10565,
      "police": 10566,
      "fish": 10567,
      "mcc": 10568,
      "european": 10569,
      "minutes": 10570,
      "earlier": 10571,
      "##west": 10572,
      "lu": 10573,
      "##fall": 10574,
      "finished": 10575,
      "possible": 10576,
      "conduct": 10577,
      "##her": 10578,
      "news": 10579,
      "##off": 10580,
      "society": 10581,
      "##ades": 10582,
      "indic": 10583,
      "contrib": 10584,
      "immedi": 10585,
      "saying": 10586,
      "##ago": 10587,
      "##ening": 10588,
      "##etic": 10589,
      "pil": 10590,
      "commerc": 10591,
      "depr": 10592,
      "doc": 10593,
      "##erson": 10594,
      "ny": 10595,
      "space": 10596,
      "association": 10597,
      "keep": 10598,
      "trib": 10599,
      "remov": 10600,
      "2000": 10601,
      "exist": 10602,
      "admin": 10603,
      "beginning": 10604,
      "largest": 10605,
      "highest": 10606,
      "scott": 10607,
      "particularly": 10608,
      "lower": 10609,
      "##for": 10610,
      "##omp": 10611,
      "plat": 10612,
      "boy": 10613,
      "bad": 10614,
      "films": 10615,
      "fly": 10616,
      "##ems": 10617,
      "atl": 10618,
      "##men": 10619,
      "section": 10620,
      "adm": 10621,
      "virgin": 10622,
      "es": 10623,
      "##ecutive": 10624,
      "##anish": 10625,
      "respons": 10626,
      "uk": 10627,
      "piec": 10628,
      "percent": 10629,
      "2001": 10630,
      "forced": 10631,
      "better": 10632,
      "assist": 10633,
      "##icle": 10634,
      "##sel": 10635,
      "flor": 10636,
      "##reg": 10637,
      "future": 10638,
      "roman": 10639,
      "##east": 10640,
      "deal": 10641,
      "weak": 10642,
      "##ev": 10643,
      "achie": 10644,
      "program": 10645,
      "disp": 10646,
      "outside": 10647,
      "##anned": 10648,
      "taking": 10649,
      "lear": 10650,
      "meas": 10651,
      "##eth": 10652,
      "anti": 10653,
      "novel": 10654,
      "charles": 10655,
      "committe": 10656,
      "grant": 10657,
      "heart": 10658,
      "##ography": 10659,
      "thomas": 10660,
      "turned": 10661,
      "increased": 10662,
      "reason": 10663,
      "ended": 10664,
      "##hib": 10665,
      "clear": 10666,
      "units": 10667,
      "##itz": 10668,
      "passed": 10669,
      "##bor": 10670,
      "##tr": 10671,
      "feel": 10672,
      "community": 10673,
      "smith": 10674,
      "##ises": 10675,
      "##key": 10676,
      "reviews": 10677,
      "calif": 10678,
      "acad": 10679,
      "nin": 10680,
      "type": 10681,
      "above": 10682,
      "somet": 10683,
      "praised": 10684,
      "hous": 10685,
      "californ": 10686,
      "move": 10687,
      "product": 10688,
      "##wer": 10689,
      "emp": 10690,
      "additional": 10691,
      "going": 10692,
      "2002": 10693,
      "beat": 10694,
      "##aded": 10695,
      "##iation": 10696,
      "appearance": 10697,
      "##gen": 10698,
      "ath": 10699,
      "thus": 10700,
      "tex": 10701,
      "##ios": 10702,
      "phot": 10703,
      "bird": 10704,
      "guitar": 10705,
      "##of": 10706,
      "##ocr": 10707,
      "##itor": 10708,
      "canada": 10709,
      "lik": 10710,
      "daugh": 10711,
      "enough": 10712,
      "liter": 10713,
      "##ude": 10714,
      "##oke": 10715,
      "coach": 10716,
      "infantry": 10717,
      "castle": 10718,
      "##ership": 10719,
      "ordered": 10720,
      "lake": 10721,
      "plot": 10722,
      "previously": 10723,
      "brother": 10724,
      "##gress": 10725,
      "personal": 10726,
      "signed": 10727,
      "elements": 10728,
      "##arily": 10729,
      "minor": 10730,
      "musical": 10731,
      "account": 10732,
      "ren": 10733,
      "territ": 10734,
      "##rison": 10735,
      "richard": 10736,
      "market": 10737,
      "shar": 10738,
      "alex": 10739,
      "dig": 10740,
      "instit": 10741,
      "lat": 10742,
      "##ections": 10743,
      "rights": 10744,
      "##pped": 10745,
      "positive": 10746,
      "##agon": 10747,
      "viol": 10748,
      "theat": 10749,
      "california": 10750,
      "##elled": 10751,
      "corn": 10752,
      "##nes": 10753,
      "nec": 10754,
      "##nal": 10755,
      "prob": 10756,
      "##ida": 10757,
      "our": 10758,
      "abs": 10759,
      "##ension": 10760,
      "##ference": 10761,
      "critical": 10762,
      "##pper": 10763,
      "dead": 10764,
      "parts": 10765,
      "lines": 10766,
      "food": 10767,
      "give": 10768,
      "pac": 10769,
      "background": 10770,
      "profession": 10771,
      "lord": 10772,
      "money": 10773,
      "travel": 10774,
      "female": 10775,
      "##rated": 10776,
      "reveal": 10777,
      "fer": 10778,
[...]
