{
  "version": "1.0",
  "truncation": null,
  "padding": null,
  "added_tokens": [
    {
      "id": 0,
      "special": true,
      "content": "[UNK]",
      "single_word": false,
      "lstrip": false,
      "rstrip": false,
      "normalized": false
    }
  ],
  "normalizer": {
    "type": "Sequence",
    "normalizers": [
      {
        "type": "Lowercase"
      }
    ]
  },
  "pre_tokenizer": {
    "type": "Whitespace"
  },
  "post_processor": null,
  "decoder": null,
  "model": {
    "type": "WordPiece",
    "unk_token": "[UNK]",
    "continuing_subword_prefix": "##",
    "max_input_chars_per_word": 100,
    "vocab": {
      "[UNK]": 0,
      "!": 1,
      "\"": 2,
      "#": 3,
      "$": 4,
      "%": 5,
      "'": 6,
      "(": 7,
      ")": 8,
      "*": 9,
      "+": 10,
      ",": 11,
      "-": 12,
      ".": 13,
      "/": 14,
      "0": 15,
      "1": 16,
      "2": 17,
      "3": 18,
      "4": 19,
      "5": 20,
      "6": 21,
      "7": 22,
      "8": 23,
      "9": 24,
      ":": 25,
      ";": 26,
      "=": 27,
      "?": 28,
      "@": 29,
      "[": 30,
      "\\": 31,
      "]": 32,
      "^": 33,
      "_": 34,
      "`": 35,
      "a": 36,
      "b": 37,
      "c": 38,
      "d": 39,
      "e": 40,
      "f": 41,
      "g": 42,
      "h": 43,
      "i": 44,
      "j": 45,
      "k": 46,
      "l": 47,
      "m": 48,
      "n": 49,
      "o": 50,
      "p": 51,
      "q": 52,
      "r": 53,
      "s": 54,
      "t": 55,
      "u": 56,
      "v": 57,
      "w": 58,
      "x": 59,
      "y": 60,
      "z": 61,
      "{": 62,
      "}": 63,
      "~": 64,
      "©": 65,
      "´": 66,
      "¶": 67,
      "¸": 68,
      "¼": 69,
      "ß": 70,
      "ã": 71,
      "ä": 72,
      "æ": 73,
      "é": 74,
      "í": 75,
      "ö": 76,
      "ü": 77,
      "ý": 78,
      "œ": 79,
      "##x": 80,
      "##i": 81,
      "##s": 82,
      "##t": 83,
      "##e": 84,
      "##r": 85,
      "##n": 86,
      "##d": 87,
      "##_": 88,
      "##p": 89,
      "##k": 90,
      "##o": 91,
      "##h": 92,
      "##a": 93,
      "##7": 94,
      "##g": 95,
      "##c": 96,
      "##u": 97,
      "##f": 98,
      "##l": 99,
      "##m": 100,
      "##q": 101,
      "##z": 102,
      "##y": 103,
      "##)": 104,
      "##\\": 105,
      "##v": 106,
      "##=": 107,
      "##b": 108,
      "##;": 109,
      "##?": 110,
      "##ü": 111,
      "##ä": 112,
      "##1": 113,
      "##!": 114,
      "##(": 115,
      "##$": 116,
      "##w": 117,
      "##,": 118,
      "##\"": 119,
      "###": 120,
      "##4": 121,
      "##8": 122,
      "##3": 123,
      "##6": 124,
      "##2": 125,
      "##5": 126,
      "##ö": 127,
      "##0": 128,
      "##9": 129,
      "##'": 130,
      "##:": 131,
      "##j": 132,
      "##.": 133,
      "##ß": 134,
      "##-": 135,
      "##%": 136,
      "##]": 137,
      "##}": 138,
      "##[": 139,
      "##+": 140,
      "##¶": 141,
      "##@": 142,
      "##*": 143,
      "##^": 144,
      "##í": 145,
      "##{": 146,
      "##~": 147,
      "##/": 148,
      "##ý": 149,
      "##ã": 150,
      "##´": 151,
      "##œ": 152,
      "##é": 153,
      "##æ": 154,
      "##en": 155,
      "##er": 156,
      "##ch": 157,
      "##ie": 158,
      "zu": 159,
      "##nd": 160,
      "##ng": 161,
      "##ei": 162,
      "##ach": 163,
      "##ne": 164,
      "##on": 165,
      "##or": 166,
      "nach": 167,
      "##st": 168,
      "##ck": 169,
      "##ti": 170,
      "die": 171,
      "zur": 172,
      "##ück": 173,
      "zurück": 174,
      "##es": 175,
      "vor": 176,
      "vorne": 177,
      "ei": 178,
      "##te": 179,
      "##ung": 180,
      "##hp": 181,
      "php": 182,
      "an": 183,
      "##tion": 184,
      "##ll": 185,
      "##ar": 186,
      "##ben": 187,
      "da": 188,
      "au": 189,
      "()": 190,
      "##se": 191,
      "der": 192,
      "ver": 193,
      "##nk": 194,
      "##ge": 195,
      "in": 196,
      "##and": 197,
      "##ten": 198,
      "sie": 199,
      "##al": 200,
      "##fa": 201,
      "##uch": 202,
      "##et": 203,
      "fu": 204,
      "und": 205,
      "zum": 206,
      "##ich": 207,
      "##nktion": 208,
      "hand": 209,
      "funktion": 210,
      "##am": 211,
      "##buch": 212,
      "##fang": 213,
      "handbuch": 214,
      "oben": 215,
      "anfang": 216,
      "ein": 217,
      "##ert": 218,
      "##den": 219,
      "##nt": 220,
      "ist": 221,
      "##ur": 222,
      "##it": 223,
      "##men": 224,
      "##le": 225,
      "er": 226,
      "das": 227,
      "##ir": 228,
      "##ra": 229,
      "##si": 230,
      "##gen": 231,
      "bei": 232,
      "##sp": 233,
      "##de": 234,
      "##ri": 235,
      "##an": 236,
      "diese": 237,
      "auf": 238,
      "eine": 239,
      "wir": 240,
      "ar": 241,
      "##eich": 242,
      "##ste": 243,
      "wird": 244,
      "##der": 245,
      "##at": 246,
      "ge": 247,
      "##ind": 248,
      "##sch": 249,
      "mit": 250,
      "##ab": 251,
      "den": 252,
      "wer": 253,
      "von": 254,
      "##re": 255,
      "##iel": 256,
      "##om": 257,
      "st": 258,
      "##as": 259,
      "de": 260,
      "##tz": 261,
      "##nder": 262,
      "##in": 263,
      "be": 264,
      "aus": 265,
      "##enn": 266,
      "##el": 267,
      "##ol": 268,
      "##hl": 269,
      "werden": 270,
      "##icht": 271,
      "##eit": 272,
      "##ier": 273,
      "##ql": 274,
      "##ro": 275,
      "##ig": 276,
      "##he": 277,
      "##ib": 278,
      "beisp": 279,
      "##ame": 280,
      "##fü": 281,
      "##umen": 282,
      "so": 283,
      "($": 284,
      "##hr": 285,
      "beispiel": 286,
      "##sion": 287,
      "auch": 288,
      "im": 289,
      "fü": 290,
      "##ray": 291,
      "##ls": 292,
      "##geben": 293,
      "##ber": 294,
      "##is": 295,
      "##wen": 296,
      "##hal": 297,
      "des": 298,
      "##ann": 299,
      "##ru": 300,
      "ex": 301,
      "dat": 302,
      "verwen": 303,
      "nicht": 304,
      "##sql": 305,
      "für": 306,
      "oder": 307,
      "wenn": 308,
      "es": 309,
      "array": 310,
      "##lo": 311,
      "##li": 312,
      "war": 313,
      "kann": 314,
      "##mer": 315,
      "##nen": 316,
      "##ok": 317,
      "##ell": 318,
      "##ser": 319,
      "##nung": 320,
      "(),": 321,
      "als": 322,
      "sei": 323,
      "##nge": 324,
      "##kü": 325,
      "warnung": 326,
      "##ation": 327,
      "sich": 328,
      "##ibt": 329,
      "datei": 330,
      "##lich": 331,
      "##df": 332,
      "##lt": 333,
      "##sql_": 334,
      "daten": 335,
      "all": 336,
      "ben": 337,
      "##ba": 338,
      "##sen": 339,
      "##ff": 340,
      "sch": 341,
      "##name": 342,
      "um": 343,
      "gibt": 344,
      "siehe": 345,
      "##utz": 346,
      "().": 347,
      "ent": 348,
      "nur": 349,
      "ander": 350,
      "##ver": 351,
      "fe": 352,
      "li": 353,
      "##nter": 354,
      "##ap": 355,
      "##orm": 356,
      "re": 357,
      "##ct": 358,
      "dem": 359,
      ");": 360,
      "##iert": 361,
      "##au": 362,
      "##halten": 363,
      "##füg": 364,
      "##kt": 365,
      "##per": 366,
      "##bind": 367,
      "über": 368,
      "##_c": 369,
      "##nis": 370,
      "version": 371,
      "ab": 372,
      "unter": 373,
      "benutz": 374,
      "ste": 375,
      "my": 376,
      "sp": 377,
      "verwenden": 378,
      "##all": 379,
      "##len": 380,
      "verfüg": 381,
      "fehl": 382,
      "##ht": 383,
      "##ön": 384,
      "##gt": 385,
      "##);": 386,
      "par": 387,
      "kön": 388,
      "##od": 389,
      "var": 390,
      "##wei": 391,
      "##okumen": 392,
      "verbind": 393,
      "dokumen": 394,
      "##etz": 395,
      "##um": 396,
      "kon": 397,
      "##eichen": 398,
      "##stell": 399,
      "##yp": 400,
      "##eter": 401,
      "verbindung": 402,
      "##fi": 403,
      "##tiert": 404,
      "##ameter": 405,
      "##us": 406,
      "fehler": 407,
      "##eiter": 408,
      "wur": 409,
      "können": 410,
      "##op": 411,
      "einer": 412,
      "parameter": 413,
      "##rei": 414,
      "arg": 415,
      "\";": 416,
      "\",": 417,
      "##merk": 418,
      "ange": 419,
      "hier": 420,
      "ob": 421,
      "(\"": 422,
      "##ut": 423,
      "##tigen": 424,
      "kei": 425,
      "##hne": 426,
      "##merkung": 427,
      "ech": 428,
      "was": 429,
      "andere": 430,
      "fal": 431,
      "ohne": 432,
      "anmerkung": 433,
      "funktionen": 434,
      "argumen": 435,
      "##isi": 436,
      "##iab": 437,
      "wie": 438,
      "##im": 439,
      "##ndern": 440,
      "eigen": 441,
      "echo": 442,
      "##ring": 443,
      "ges": 444,
      "ses": 445,
      "##war": 446,
      "##mente": 447,
      "funktions": 448,
      "einen": 449,
      "##geb": 450,
      "mysql_": 451,
      "verfügung": 452,
      "versionen": 453,
      "wert": 454,
      "verhalten": 455,
      "dass": 456,
      "##nf": 457,
      "##ex": 458,
      "op": 459,
      "false": 460,
      "liste": 461,
      "##il": 462,
      "##res": 463,
      "##ode": 464,
      "dies": 465,
      "##t_": 466,
      "##df_": 467,
      "##urch": 468,
      "wurde": 469,
      "##zu": 470,
      "##ter": 471,
      "##ate": 472,
      "ändern": 473,
      "variab": 474,
      "sind": 475,
      "##hen": 476,
      "alles": 477,
      "##la": 478,
      "##ndig": 479,
      "##pt": 480,
      "##üs": 481,
      "steht": 482,
      "se": 483,
      "##eu": 484,
      "durch": 485,
      "ser": 486,
      "##ort": 487,
      "ht": 488,
      "dokumentiert": 489,
      "##ost": 490,
      "##abe": 491,
      "soll": 492,
      "##nftigen": 493,
      "##ko": 494,
      "zukü": 495,
      "zukünftigen": 496,
      "pro": 497,
      "##ndigung": 498,
      "ankü": 499,
      "ankündigung": 500,
      "seien": 501,
      "##tiv": 502,
      "exper": 503,
      "experi": 504,
      "##ungen": 505,
      "##mentell": 506,
      "experimentell": 507,
      "argumente": 508,
      "eigenes": 509,
      "risi": 510,
      "risiko": 511,
      "gewar": 512,
      "gewarnt": 513,
      "##det": 514,
      "##ger": 515,
      "einem": 516,
      "##ad": 517,
      "##bank": 518,
      "funktionsname": 519,
      "\");": 520,
      "datenbank": 521,
      "##gebnis": 522,
      "##ult": 523,
      "string": 524,
      "kom": 525,
      "##amen": 526,
      "##_f": 527,
      "##ahl": 528,
      "##fen": 529,
      "keine": 530,
      "##sten": 531,
      "fol": 532,
      "zei": 533,
      "zeichen": 534,
      "##fig": 535,
      "##ul": 536,
      "##ce": 537,
      "##isch": 538,
      "##tp": 539,
      "##oc": 540,
      "##fol": 541,
      "##führ": 542,
      "##gegeben": 543,
      "##etzt": 544,
      "##ief": 545,
      "server": 546,
      "##form": 547,
      "##eld": 548,
      "##ow": 549,
      "angegeben": 550,
      "pri": 551,
      "##zeich": 552,
      "##je": 553,
      "##id": 554,
      "##qu": 555,
      "##ot": 556,
      "##ript": 557,
      "ergebnis": 558,
      "res": 559,
      "##hä": 560,
      "##_p": 561,
      "##ache": 562,
      "un": 563,
      "##uell": 564,
      "option": 565,
      "typ": 566,
      "##ed": 567,
      "if": 568,
      "##las": 569,
      "dieser": 570,
      "##ieren": 571,
      "sy": 572,
      "##gabe": 573,
      "pg": 574,
      "schl": 575,
      "folgen": 576,
      "mod": 577,
      "##ein": 578,
      "##onne": 579,
      "ap": 580,
      ").": 581,
      "tru": 582,
      "##tet": 583,
      "true": 584,
      "##ction": 585,
      "##ist": 586,
      "##ci": 587,
      "##iefert": 588,
      "##fin": 589,
      "eines": 590,
      "##ütz": 591,
      "##spell": 592,
      "##eren": 593,
      "##etch": 594,
      "session": 595,
      "##ft": 596,
      "erw": 597,
      "fall": 598,
      "akt": 599,
      "##fra": 600,
      "##zi": 601,
      "print": 602,
      "##aben": 603,
      "##bar": 604,
      "##_d": 605,
      "variablen": 606,
      "##ple": 607,
      "##ationen": 608,
      "##open": 609,
      "##ent": 610,
      "##cket": 611,
      "##ale": 612,
      "##mt": 613,
      "##ment": 614,
      "me": 615,
      "ma": 616,
      "aktuell": 617,
      "tab": 618,
      "sk": 619,
      "##rü": 620,
      "inform": 621,
      "##age": 622,
      "##och": 623,
      "form": 624,
      "##ing": 625,
      "##sel": 626,
      "sein": 627,
      "erweiter": 628,
      "erfol": 629,
      "obje": 630,
      "##zahl": 631,
      "unterst": 632,
      "weiter": 633,
      "##fall": 634,
      "socket": 635,
      "liefert": 636,
      "##und": 637,
      "we": 638,
      "##ög": 639,
      "zurückgegeben": 640,
      "##figur": 641,
      "##row": 642,
      "defin": 643,
      "##onnect": 644,
      "##mp": 645,
      "##zeichnis": 646,
      "ih": 647,
      "cp": 648,
      "##me": 649,
      "##ror": 650,
      "http": 651,
      "unterstütz": 652,
      "##ord": 653,
      "##mit": 654,
      "con": 655,
      "##net": 656,
      "##ml": 657,
      "##be": 658,
      "##oll": 659,
      "##ati": 660,
      "benutzer": 661,
      "##ss": 662,
      "str": 663,
      "##ile": 664,
      "##stem": 665,
      "mehr": 666,
      "name": 667,
      "##end": 668,
      "inst": 669,
      "##00": 670,
      "verwendet": 671,
      "##set": 672,
      "##ke": 673,
      "##esch": 674,
      "##ield": 675,
      "erweiterung": 676,
      "erfolg": 677,
      "##öglich": 678,
      "ld": 679,
      "##tig": 680,
      "gen": 681,
      "pdf_": 682,
      "wel": 683,
      "##lob": 684,
      "alle": 685,
      "anzahl": 686,
      "neu": 687,
      "##fe": 688,
      "##leich": 689,
      "dir": 690,
      "##hält": 691,
      "pspell": 692,
      "is": 693,
      "nu": 694,
      "##etch_": 695,
      "feld": 696,
      "haben": 697,
      "inter": 698,
      "aufru": 699,
      "ind": 700,
      "benutzen": 701,
      "ldap": 702,
      "result": 703,
      "##elle": 704,
      "je": 705,
      "##uss": 706,
      "##üssel": 707,
      "falls": 708,
      "skript": 709,
      "post": 710,
      "dieses": 711,
      "verzeichnis": 712,
      "man": 713,
      "konfigur": 714,
      "com": 715,
      "werte": 716,
      "ihr": 717,
      "##ennung": 718,
      "db": 719,
      "co": 720,
      "##ungs": 721,
      "pdf": 722,
      "##che": 723,
      "aut": 724,
      "##ere": 725,
      "informationen": 726,
      "muss": 727,
      "oci": 728,
      "##bei": 729,
      "möglich": 730,
      "##api": 731,
      "komp": 732,
      "##num": 733,
      "##ag": 734,
      "##ery": 735,
      "konst": 736,
      "müs": 737,
      "##stim": 738,
      "##tel": 739,
      "##ard": 740,
      "##weis": 741,
      "definiert": 742,
      "install": 743,
      "##lose": 744,
      "##ischen": 745,
      "br": 746,
      "##ktiv": 747,
      "stand": 748,
      "##ext": 749,
      "per": 750,
      "##ern": 751,
      "##riff": 752,
      "müssen": 753,
      "##_re": 754,
      "enthält": 755,
      "##sw": 756,
      "##tra": 757,
      "##bc": 758,
      "te": 759,
      "ausgabe": 760,
      "entsp": 761,
      "##ess": 762,
      "##ample": 763,
      "dateien": 764,
      "##reib": 765,
      "##ner": 766,
      "##ma": 767,
      "apache": 768,
      "fun": 769,
      "##schie": 770,
      "tabelle": 771,
      "##e_": 772,
      "##halb": 773,
      "example": 774,
      "speich": 775,
      "hat": 776,
      "namen": 777,
      "##oo": 778,
      "standard": 779,
      "\".": 780,
      "le": 781,
      "ora": 782,
      "##okie": 783,
      "abfra": 784,
      "##hand": 785,
      "schlüssel": 786,
      "konfiguration": 787,
      "##ec": 788,
      "##error": 789,
      "text": 790,
      "sesam": 791,
      "id": 792,
      "sql": 793,
      "##stellen": 794,
      "##rä": 795,
      "zug": 796,
      "##esen": 797,
      "##typ": 798,
      "##ang": 799,
      "##gin": 800,
      "##alen": 801,
      "benutzt": 802,
      "##unden": 803,
      "cpdf_": 804,
      "##zei": 805,
      "##query": 806,
      "##lect": 807,
      "arrays": 808,
      "po": 809,
      "##atz": 810,
      "user": 811,
      "aktuellen": 812,
      "get": 813,
      "ele": 814,
      "##her": 815,
      "ing": 816,
      "##rie": 817,
      "##wert": 818,
      "##auf": 819,
      "##weise": 820,
      "##zeu": 821,
      "##inden": 822,
      "html": 823,
      "ingres": 824,
      "gleich": 825,
      "zw": 826,
      "##ket": 827,
      "##gr": 828,
      "##är": 829,
      "##att": 830,
      "gesch": 831,
      "ba": 832,
      "##un": 833,
      "##ub": 834,
      "ini": 835,
      "##iz": 836,
      "##richt": 837,
      "##sä": 838,
      "##ativ": 839,
      "##fach": 840,
      "##reate": 841,
      "bestim": 842,
      "ber": 843,
      "he": 844,
      "link": 845,
      "##führt": 846,
      "##var": 847,
      "imap": 848,
      "aber": 849,
      "zwei": 850,
      "fb": 851,
      "##ns": 852,
      "##str": 853,
      "erzeu": 854,
      "ausge": 855,
      "spe": 856,
      "##namen": 857,
      "##art": 858,
      "konstan": 859,
      "##put": 860,
      "entw": 861,
      "system": 862,
      "ihre": 863,
      "her": 864,
      "##base": 865,
      "pg_": 866,
      "function": 867,
      "pas": 868,
      "##x_": 869,
      "dan": 870,
      "##xt": 871,
      "verbindungs": 872,
      "##lu": 873,
      "web": 874,
      "kapi": 875,
      "##get": 876,
      "##ath": 877,
      "\")": 878,
      "end": 879,
      "fr": 880,
      "sel": 881,
      "bis": 882,
      "##ader": 883,
      "##ül": 884,
      "##setz": 885,
      "##rech": 886,
      "##file": 887,
      "gesetzt": 888,
      "dar": 889,
      "sollten": 890,
      "kapitel": 891,
      "##og": 892,
      "##atisch": 893,
      "),": 894,
      "th": 895,
      "##ige": 896,
      "##dung": 897,
      "##connect": 898,
      "anweis": 899,
      "\";}": 900,
      "objekt": 901,
      "foo": 902,
      "ne": 903,
      "the": 904,
      "##code": 905,
      "##lau": 906,
      "hin": 907,
      "vom": 908,
      "anderen": 909,
      "##stellt": 910,
      "##falls": 911,
      "ad": 912,
      "##des": 913,
      "##bu": 914,
      "##alu": 915,
      "fbsql_": 916,
      "##lie": 917,
      "verfügbar": 918,
      "##fiz": 919,
      "##zeichen": 920,
      "##itt": 921,
      "dokument": 922,
      "aufruf": 923,
      "bit": 924,
      "for": 925,
      "lä": 926,
      "sh": 927,
      "tra": 928,
      "##ator": 929,
      "gel": 930,
      "ur": 931,
      "übergeben": 932,
      "oper": 933,
      "##ix": 934,
      "##gs": 935,
      "##achten": 936,
      "einge": 937,
      "##array": 938,
      "variable": 939,
      "posi": 940,
      "kl": 941,
      "sc": 942,
      "weitere": 943,
      "konfigurations": 944,
      "by": 945,
      "finden": 946,
      "klas": 947,
      "##_s": 948,
      "##av": 949,
      "##server": 950,
      "##_con": 951,
      "zeichenket": 952,
      "bz": 953,
      "##set_": 954,
      "spal": 955,
      "noch": 956,
      "such": 957,
      "benö": 958,
      "besch": 959,
      "##satz": 960,
      "##time": 961,
      "--": 962,
      "ang": 963,
      "loc": 964,
      "##ktion": 965,
      "##eil": 966,
      "##ont": 967,
      "##hek": 968,
      "##ick": 969,
      "##kom": 970,
      "zeile": 971,
      "folgende": 972,
      "gr": 973,
      "##ob": 974,
      "##vor": 975,
      "##sätz": 976,
      "dann": 977,
      "##fo": 978,
      "##wer": 979,
      "##endet": 980,
      "beachten": 981,
      "##ibli": 982,
      "##othek": 983,
      "zugriff": 984,
      "##ibliothek": 985,
      "od": 986,
      "##feren": 987,
      "##..": 988,
      "modul": 989,
      "zwischen": 990,
      "##ösch": 991,
      "odbc": 992,
      ".\"": 993,
      "ms": 994,
      "sicher": 995,
      "header": 996,
      "bibliothek": 997,
      "or": 998,
      "ud": 999,
      "image": 1000,
      "code": 1001,
      "file": 1002,
      "gül": 1003,
      "##fad": 1004,
      "sollte": 1005,
      "folgenden": 1006,
      "dom": 1007,
      "##up": 1008,
      "##_fetch_": 1009,
      "##häng": 1010,
      "grö": 1011,
      "ret": 1012,
      "wh": 1013,
      "##our": 1014,
      "##gist": 1015,
      "inc": 1016,
      "##rieben": 1017,
      "setzt": 1018,
      "##öff": 1019,
      "##tels": 1020,
      "##get_": 1021,
      "welche": 1022,
      "aktiv": 1023,
      "set": 1024,
      "##ör": 1025,
      "inte": 1026,
      "##ows": 1027,
      "##bo": 1028,
      "inhal": 1029,
      "select": 1030,
      "jed": 1031,
      "##_st": 1032,
      "diesem": 1033,
      "mittels": 1034,
      "dire": 1035,
      "speicher": 1036,
      "bet": 1037,
      "##em": 1038,
      "##heit": 1039,
      "##reiben": 1040,
      "zeilen": 1041,
      "',": 1042,
      "lib": 1043,
      "##able": 1044,
      "##stellung": 1045,
      "udm": 1046,
      "##gi": 1047,
      "geöff": 1048,
      "open": 1049,
      "cookie": 1050,
      "\"]": 1051,
      "))": 1052,
      "ir": 1053,
      "##ufen": 1054,
      "ausd": 1055,
      "socket_": 1056,
      "gru": 1057,
      "letz": 1058,
      "##ith": 1059,
      "verwendung": 1060,
      "##liche": 1061,
      "konstanten": 1062,
      "zeichenkette": 1063,
      "retur": 1064,
      "##dem": 1065,
      "immer": 1066,
      "abfrage": 1067,
      "##ses": 1068,
      "##eder": 1069,
      "##prü": 1070,
      "##iele": 1071,
      "entweder": 1072,
      "pfad": 1073,
      "zeit": 1074,
      "##unk": 1075,
      "num": 1076,
      "off": 1077,
      "##ip": 1078,
      "##_m": 1079,
      "einfach": 1080,
      "begin": 1081,
      "##_close": 1082,
      "conn": 1083,
      "entsprech": 1084,
      "##lude": 1085,
      "msql_": 1086,
      "##lib": 1087,
      "angegebenen": 1088,
      "##_id": 1089,
      "ausführ": 1090,
      "##roll": 1091,
      "10": 1092,
      "fi": 1093,
      "inner": 1094,
      "##alue": 1095,
      "wind": 1096,
      "##dat": 1097,
      "##keit": 1098,
      "##ür": 1099,
      "erhalten": 1100,
      "seite": 1101,
      "proz": 1102,
      "##ferenz": 1103,
      "innerhalb": 1104,
      "windows": 1105,
      "rück": 1106,
      "##ase": 1107,
      "##text": 1108,
      "##box": 1109,
      "beim": 1110,
      "format": 1111,
      "test": 1112,
      "kennung": 1113,
      "met": 1114,
      "öff": 1115,
      "##ey": 1116,
      "##aten": 1117,
      "##mal": 1118,
      "verschie": 1119,
      "gegeben": 1120,
      "##_config": 1121,
      "tag": 1122,
      "zahl": 1123,
      "##kennung": 1124,
      "unterstützung": 1125,
      "include": 1126,
      "integer": 1127,
      "##elt": 1128,
      "stell": 1129,
      "trans": 1130,
      "pa": 1131,
      "##_li": 1132,
      "null": 1133,
      "##type": 1134,
      "##gram": 1135,
      "ass": 1136,
      "();": 1137,
      "##gerufen": 1138,
      "optionale": 1139,
      "##ic": 1140,
      "##fetch_": 1141,
      "##aus": 1142,
      "unterstützt": 1143,
      "autom": 1144,
      "spezi": 1145,
      "passw": 1146,
      "hinzu": 1147,
      "col": 1148,
      "row": 1149,
      "##sam": 1150,
      "##peich": 1151,
      "##log": 1152,
      "bin": 1153,
      "host": 1154,
      "wä": 1155,
      "##such": 1156,
      "##d_": 1157,
      "##ges": 1158,
      "##tige": 1159,
      "##tigt": 1160,
      "enthalten": 1161,
      "spalten": 1162,
      "inhalt": 1163,
      "key": 1164,
      "##igen": 1165,
      "##unt": 1166,
      "##rukt": 1167,
      "##_field": 1168,
      "operator": 1169,
      "größ": 1170,
      "return": 1171,
      "cli": 1172,
      "to": 1173,
      "gem": 1174,
      "##ierung": 1175,
      "modus": 1176,
      "automatisch": 1177,
      "[\"": 1178,
      "as": 1179,
      "##to": 1180,
      "##wie": 1181,
      "input": 1182,
      "aufgerufen": 1183,
      "##ierte": 1184,
      "exist": 1185,
      "fest": 1186,
      "fehlerfall": 1187,
      "##key": 1188,
      "##hängig": 1189,
      "##hn": 1190,
      "##eiten": 1191,
      "##_connect": 1192,
      "##result": 1193,
      "local": 1194,
      "dba": 1195,
      "##kte": 1196,
      "##co": 1197,
      "##mand": 1198,
      "##ät": 1199,
      "##ary": 1200,
      "##rauch": 1201,
      "kein": 1202,
      "##ulti": 1203,
      "('": 1204,
      "lesen": 1205,
      "##reich": 1206,
      "##ozi": 1207,
      "##ze": 1208,
      "##äch": 1209,
      "##iell": 1210,
      "##ierten": 1211,
      "schreiben": 1212,
      "referenz": 1213,
      "##ild": 1214,
      "##laden": 1215,
      "index": 1216,
      "anweisung": 1217,
      "ch": 1218,
      "##_ex": 1219,
      "##_error": 1220,
      "##for": 1221,
      "eintra": 1222,
      "program": 1223,
      "erzeugt": 1224,
      "verschieden": 1225,
      "fla": 1226,
      "gro": 1227,
      "##ili": 1228,
      "##pli": 1229,
      "##gres": 1230,
      "##enden": 1231,
      "##atus": 1232,
      "gef": 1233,
      "wurden": 1234,
      "##rows": 1235,
      "postgres": 1236,
      "bestimmt": 1237,
      "far": 1238,
      "ko": 1239,
      "##cap": 1240,
      "argument": 1241,
      "neue": 1242,
      "ftp": 1243,
      "##son": 1244,
      "##zeit": 1245,
      "eing": 1246,
      "erste": 1247,
      "rech": 1248,
      "mysql": 1249,
      "client": 1250,
      ";}": 1251,
      "lösch": 1252,
      "norm": 1253,
      "qu": 1254,
      "sub": 1255,
      "##zel": 1256,
      "erlau": 1257,
      "überprü": 1258,
      "et": 1259,
      "with": 1260,
      "##eg": 1261,
      "##les": 1262,
      "##meld": 1263,
      "##bst": 1264,
      "##wo": 1265,
      "##**": 1266,
      "führ": 1267,
      "aktuelle": 1268,
      "glob": 1269,
      "nutz": 1270,
      "##nitt": 1271,
      "##_in": 1272,
      "##col": 1273,
      "##bt": 1274,
      "##änd": 1275,
      "##elder": 1276,
      "wieder": 1277,
      "url": 1278,
      "##peichert": 1279,
      "##par": 1280,
      "stmt": 1281,
      "also": 1282,
      "##ime": 1283,
      "installation": 1284,
      "selbst": 1285,
      "while": 1286,
      "postgresql": 1287,
      "di": 1288,
      "setz": 1289,
      "up": 1290,
      "##erung": 1291,
      "##nta": 1292,
      "##lename": 1293,
      "bitte": 1294,
      "rückgabe": 1295,
      "assozi": 1296,
      "##host": 1297,
      "handle": 1298,
      "##sisten": 1299,
      "##_create": 1300,
      "stehen": 1301,
      "welch": 1302,
      "pspell_config": 1303,
      "imap_": 1304,
      "12": 1305,
      "sor": 1306,
      "{$": 1307,
      "##no": 1308,
      "##ystem": 1309,
      "ausgeführt": 1310,
      "klasse": 1311,
      "\"\\": 1312,
      "net": 1313,
      "oc": 1314,
      "##fik": 1315,
      "typen": 1316,
      "##ende": 1317,
      "##gel": 1318,
      "##rip": 1319,
      "##schl": 1320,
      "##reten": 1321,
      "##lock": 1322,
      "##lichen": 1323,
      "schlie": 1324,
      "ende": 1325,
      "from": 1326,
      "grund": 1327,
      "spezifiz": 1328,
      "bar": 1329,
      "felder": 1330,
      "##ssen": 1331,
      "##ww": 1332,
      "##wand": 1333,
      "versuch": 1334,
      "beste": 1335,
      "regist": 1336,
      "##reibung": 1337,
      "benötigt": 1338,
      "setzen": 1339,
      "emp": 1340,
      "us": 1341,
      "wo": 1342,
      "www": 1343,
      "##pro": 1344,
      "##ahr": 1345,
      "##ßt": 1346,
      "##alisi": 1347,
      "##ash": 1348,
      "##ollen": 1349,
      "meth": 1350,
      "en": 1351,
      "el": 1352,
      "fopen": 1353,
      "pre": 1354,
      "##mo": 1355,
      "##achen": 1356,
      "unterschie": 1357,
      "unix": 1358,
      "ldap_": 1359,
      "basi": 1360,
      "##_name": 1361,
      "##aktion": 1362,
      "##user": 1363,
      "##ble": 1364,
      "##ität": 1365,
      "ersetz": 1366,
      "fehlermeld": 1367,
      "klein": 1368,
      "prozess": 1369,
      "else": 1370,
      "']": 1371,
      "and": 1372,
      "cur": 1373,
      "sol": 1374,
      "zip": 1375,
      "##ory": 1376,
      "nachricht": 1377,
      "##fault": 1378,
      "einzel": 1379,
      "schreib": 1380,
      "type": 1381,
      "elemente": 1382,
      "script": 1383,
      "mssql_": 1384,
      "aktiviert": 1385,
      "al": 1386,
      "field": 1387,
      "##ade": 1388,
      "##ute": 1389,
      "##erweise": 1390,
      "err": 1391,
      "statt": 1392,
      "ausgegeben": 1393,
      "synta": 1394,
      "##_db": 1395,
      "##rowser": 1396,
      "ihrer": 1397,
      "entspricht": 1398,
      "add": 1399,
      "lie": 1400,
      "teil": 1401,
      "anfra": 1402,
      "##lete": 1403,
      "bezeich": 1404,
      "data": 1405,
      "array_": 1406,
      "datensatz": 1407,
      "##stellungen": 1408,
      "verbindungen": 1409,
      "##ject": 1410,
      "##fehl": 1411,
      "gefunden": 1412,
      "wollen": 1413,
      "##ts": 1414,
      "##rück": 1415,
      "##nte": 1416,
      "##_num": 1417,
      "##ire": 1418,
      "##load": 1419,
      "ihnen": 1420,
      "persisten": 1421,
      "bereit": 1422,
      "##so": 1423,
      "gew": 1424,
      "leer": 1425,
      "new": 1426,
      "##unkt": 1427,
      "syntax": 1428,
      "(!": 1429,
      "am": 1430,
      "seit": 1431,
      "##sert": 1432,
      "spr": 1433,
      "numer": 1434,
      "groß": 1435,
      "assoziativ": 1436,
      ",\"": 1437,
      "cgi": 1438,
      "eben": 1439,
      "ich": 1440,
      "prü": 1441,
      "##enz": 1442,
      "##char": 1443,
      "##ese": 1444,
      "ersten": 1445,
      "beendet": 1446,
      "transaktion": 1447,
      "programm": 1448,
      "==": 1449,
      "fdf": 1450,
      "rei": 1451,
      "##close": 1452,
      ");?": 1453,
      "##handen": 1454,
      "##ize": 1455,
      "this": 1456,
      "';": 1457,
      "##tr": 1458,
      "##list": 1459,
      "umgeb": 1460,
      "##ular": 1461,
      "pspell_": 1462,
      "##örter": 1463,
      "##hnlich": 1464,
      "eintrag": 1465,
      "browser": 1466,
      "la": 1467,
      "multi": 1468,
      "port": 1469,
      "sw": 1470,
      "##_se": 1471,
      "##eine": 1472,
      "diesen": 1473,
      "bevor": 1474,
      "datum": 1475,
      "##nummer": 1476,
      "jedoch": 1477,
      "=\"": 1478,
      "time": 1479,
      "##nu": 1480,
      "##pla": 1481,
      "##fu": 1482,
      "requ": 1483,
      "##fügt": 1484,
      "offset": 1485,
      "##sor": 1486,
      "##rich": 1487,
      "##di": 1488,
      "##gor": 1489,
      "##erk": 1490,
      "date": 1491,
      "##denti": 1492,
      "strings": 1493,
      "##ssl": 1494,
      "is_": 1495,
      "element": 1496,
      "geöffnet": 1497,
      "bes": 1498,
      "out": 1499,
      "path": 1500,
      "##hmen": 1501,
      "##fer": 1502,
      "##ler": 1503,
      "##öch": 1504,
      "zuge": 1505,
      "geb": 1506,
      "default": 1507,
      "##ruck": 1508,
      "##lass": 1509,
      "##onnection": 1510,
      "count": 1511,
      "abfragen": 1512,
      "byte": 1513,
      "##sätze": 1514,
      "fp": 1515,
      "pl": 1516,
      "##gend": 1517,
      "##ribu": 1518,
      "bede": 1519,
      "##line": 1520,
      "##option": 1521,
      "##ocumen": 1522,
      "genau": 1523,
      "unterschied": 1524,
      "anfrage": 1525,
      "tr": 1526,
      "##nam": 1527,
      "zusam": 1528,
      "geh": 1529,
      "angegebene": 1530,
      "indiz": 1531,
      "filename": 1532,
      "##wohl": 1533,
      "##funktion": 1534,
      "zusammen": 1535,
      "blob": 1536,
      "fa": 1537,
      "merk": 1538,
      "##hang": 1539,
      "vorhanden": 1540,
      "##arch": 1541,
      "einige": 1542,
      "##read": 1543,
      "kont": 1544,
      "##last": 1545,
      "geschrieben": 1546,
      "##ließ": 1547,
      "openssl": 1548,
      "rückgabewert": 1549,
      "frei": 1550,
      "ink": 1551,
      "##system": 1552,
      "##_query": 1553,
      "##cod": 1554,
      "##).": 1555,
      "##was": 1556,
      "error": 1557,
      "##gth": 1558,
      "gespeichert": 1559,
      "prot": 1560,
      "##ische": 1561,
      "##folge": 1562,
      "erfolgreich": 1563,
      "gener": 1564,
      "webserver": 1565,
      "länge": 1566,
      "position": 1567,
      "bzw": 1568,
      "##object": 1569,
      "##ource": 1570,
      "##iliert": 1571,
      "##place": 1572,
      "at": 1573,
      "lo": 1574,
      "log": 1575,
      "näch": 1576,
      "on": 1577,
      "##_var": 1578,
      "##gesch": 1579,
      "datensätze": 1580,
      "abhängig": 1581,
      "object": 1582,
      "usr": 1583,
      "++": 1584,
      "##sort": 1585,
      "##db": 1586,
      "##af": 1587,
      "##mod": 1588,
      "##tem": 1589,
      "funktioniert": 1590,
      "##anz": 1591,
      "list": 1592,
      "read": 1593,
      "bestimm": 1594,
      "fdf_": 1595,
      "##tes": 1596,
      "##os": 1597,
      "##\",": 1598,
      "##new": 1599,
      "##ster": 1600,
      "beispiele": 1601,
      "exp": 1602,
      "absch": 1603,
      "max": 1604,
      "letzten": 1605,
      "nutzen": 1606,
      "bind": 1607,
      "identi": 1608,
      "mode": 1609,
      "änder": 1610,
      "##date": 1611,
      "##_open": 1612,
      "##ay": 1613,
      "##lung": 1614,
      "konver": 1615,
      "##ordin": 1616,
      "##beitet": 1617,
      "ausführung": 1618,
      "##ruktur": 1619,
      "normal": 1620,
      "##ändert": 1621,
      "kontroll": 1622,
      "\"/": 1623,
      "len": 1624,
      "lauf": 1625,
      "val": 1626,
      "##th": 1627,
      "##ek": 1628,
      "##pp": 1629,
      "##äß": 1630,
      "##\";": 1631,
      "##rite": 1632,
      "geladen": 1633,
      "mehrere": 1634,
      "aufrufen": 1635,
      "ihren": 1636,
      "dokumentation": 1637,
      "nummer": 1638,
      "##forder": 1639,
      "mo": 1640,
      "value": 1641,
      "wei": 1642,
      "zer": 1643,
      "##if": 1644,
      "##_r": 1645,
      "##aff": 1646,
      "##ziell": 1647,
      "status": 1648,
      "mysql_fetch_": 1649,
      "proble": 1650,
      "##_dat": 1651,
      "indem": 1652,
      "irc": 1653,
      "##datei": 1654,
      "\"$": 1655,
      "11": 1656,
      "jav": 1657,
      "kop": 1658,
      "sa": 1659,
      "wort": 1660,
      "##sc": 1661,
      "##rit": 1662,
      "##ähl": 1663,
      "##gehen": 1664,
      "##ichtig": 1665,
      "befehl": 1666,
      "##ffer": 1667,
      "##stelle": 1668,
      "servers": 1669,
      "optionalen": 1670,
      "ifx_": 1671,
      "mail": 1672,
      "formular": 1673,
      "##zeiger": 1674,
      "##variab": 1675,
      "existiert": 1676,
      "\"=": 1677,
      "19": 1678,
      "hil": 1679,
      "kor": 1680,
      "nie": 1681,
      "wür": 1682,
      "wörter": 1683,
      "ähnlich": 1684,
      "##nfalls": 1685,
      "##_b": 1686,
      "zusätz": 1687,
      "##onst": 1688,
      "##string": 1689,
      "verg": 1690,
      "erstellt": 1691,
      "##ream": 1692,
      "ausgeben": 1693,
      "##imal": 1694,
      "zeiger": 1695,
      "##lassen": 1696,
      "gleiche": 1697,
      "bereits": 1698,
      "32": 1699,
      "connection": 1700,
      "uid": 1701,
      "##_t": 1702,
      "##_de": 1703,
      "##field": 1704,
      "##value": 1705,
      "##ßer": 1706,
      "##err": 1707,
      "##legt": 1708,
      "erstellen": 1709,
      "art": 1710,
      "exten": 1711,
      "andernfalls": 1712,
      "sollen": 1713,
      "verbindungskennung": 1714,
      "klassen": 1715,
      "jedes": 1716,
      "löschen": 1717,
      "##_data": 1718,
      "ro": 1719,
      "viel": 1720,
      "##out": 1721,
      "##ange": 1722,
      "##cle": 1723,
      "##ommit": 1724,
      "##back": 1725,
      "##ilieren": 1726,
      "kommand": 1727,
      "folgendes": 1728,
      "skripts": 1729,
      "übergebenen": 1730,
      "geöffne": 1731,
      "währ": 1732,
      "farbe": 1733,
      "methode": 1734,
      "bl": 1735,
      "sr": 1736,
      "##ial": 1737,
      "##ry": 1738,
      "##ding": 1739,
      "##ule": 1740,
      "##\".": 1741,
      "##erte": 1742,
      "verb": 1743,
      "##ommen": 1744,
      "##eitung": 1745,
      "aller": 1746,
      "##lash": 1747,
      "weg": 1748,
      "##räge": 1749,
      "ausdrück": 1750,
      "ausdruck": 1751,
      "spezifiziert": 1752,
      "reihen": 1753,
      "während": 1754,
      "...": 1755,
      "hei": 1756,
      "wor": 1757,
      "##_type": 1758,
      "##ack": 1759,
      "##uten": 1760,
      "##let": 1761,
      "##32": 1762,
      "##erten": 1763,
      "##acht": 1764,
      "anhang": 1765,
      "dazu": 1766,
      "##select": 1767,
      "##schen": 1768,
      "##ign": 1769,
      "##okoll": 1770,
      "angeben": 1771,
      "sehr": 1772,
      "ifx": 1773,
      "table": 1774,
      "objekte": 1775,
      "neuen": 1776,
      "nun": 1777,
      "kompiliert": 1778,
      "back": 1779,
      "speziell": 1780,
      "anweisungen": 1781,
      "##kommen": 1782,
      "sicherheit": 1783,
      "stellen": 1784,
      "##cookie": 1785,
      "');": 1786,
      "lau": 1787,
      "möch": 1788,
      "of": 1789,
      "viele": 1790,
      "xml": 1791,
      "##est": 1792,
      "##uft": 1793,
      "außer": 1794,
      "einheit": 1795,
      "##annt": 1796,
      "##sche": 1797,
      "##schei": 1798,
      "behand": 1799,
      "##lossen": 1800,
      "datenbanken": 1801,
      "##own": 1802,
      "jeder": 1803,
      "##ränk": 1804,
      "bereich": 1805,
      "links": 1806,
      "eingeführt": 1807,
      "gültige": 1808,
      "##_fetch_row": 1809,
      "irgend": 1810,
      "koordin": 1811,
      "erlaubt": 1812,
      "persistente": 1813,
      "ebenfalls": 1814,
      "laufzeit": 1815,
      "java": 1816,
      "fru": 1817,
      "ger": 1818,
      "hö": 1819,
      "meld": 1820,
      "som": 1821,
      "##inter": 1822,
      "##ain": 1823,
      "##leichen": 1824,
      "##llt": 1825,
      "##are": 1826,
      "##search": 1827,
      "insert": 1828,
      "eint": 1829,
      "##rim": 1830,
      ");}": 1831,
      "cpdf": 1832,
      "##000": 1833,
      "feldes": 1834,
      "dbx": 1835,
      "##ave": 1836,
      "beschreibung": 1837,
      "hinzuge": 1838,
      "flags": 1839,
      "fehlermeldung": 1840,
      "##richten": 1841,
      "protokoll": 1842,
      "fruit": 1843,
      "20": 1844,
      "bu": 1845,
      "sn": 1846,
      "##gn": 1847,
      "##c_": 1848,
      "##ynam": 1849,
      "dabei": 1850,
      "erst": 1851,
      "##rap": 1852,
      "##size": 1853,
      "##ree_": 1854,
      "auszu": 1855,
      "dateizeiger": 1856,
      "##_par": 1857,
      "##_path": 1858,
      "##mail": 1859,
      "##bug": 1860,
      "öffnen": 1861,
      "global": 1862,
      "ersetzt": 1863,
      "length": 1864,
      "##sst": 1865,
      "##ken": 1866,
      "##ant": 1867,
      "##nell": 1868,
      "##legen": 1869,
      "sondern": 1870,
      "##auen": 1871,
      "##fill": 1872,
      "mysql_query": 1873,
      "optional": 1874,
      "##einstellung": 1875,
      "configur": 1876,
      "oracle": 1877,
      "username": 1878,
      "suche": 1879,
      "registri": 1880,
      "cursor": 1881,
      "hinzugefügt": 1882,
      "\"-": 1883,
      "bie": 1884,
      "bild": 1885,
      "dynam": 1886,
      "jahr": 1887,
      "no": 1888,
      "##dir": 1889,
      "##port": 1890,
      "##mäß": 1891,
      "##ve": 1892,
      "##bil": 1893,
      "anzu": 1894,
      "());": 1895,
      "erm": 1896,
      "star": 1897,
      "sour": 1898,
      "übersch": 1899,
      "skrip": 1900,
      "postfach": 1901,
      "comp": 1902,
      "operatoren": 1903,
      "##wiesen": 1904,
      "verschiedene": 1905,
      "##_vars": 1906,
      "ibase": 1907,
      "##documen": 1908,
      "##_file": 1909,
      "##kl": 1910,
      "##griff": 1911,
      "##create": 1912,
      "##äng": 1913,
      "nachrichten": 1914,
      "damit": 1915,
      "einsch": 1916,
      "start": 1917,
      "##ass": 1918,
      "debug": 1919,
      "sowie": 1920,
      "remo": 1921,
      "##files": 1922,
      "resource": 1923,
      "jede": 1924,
      "##beiten": 1925,
      "##_replace": 1926,
      "konstante": 1927,
      "ihrem": 1928,
      "selben": 1929,
      "##gister": 1930,
      "cookies": 1931,
      "beginnt": 1932,
      "passwort": 1933,
      "localhost": 1934,
      "do": 1935,
      "gleichen": 1936,
      "lin": 1937,
      "##ak": 1938,
      "##11": 1939,
      "##ure": 1940,
      "gegen": 1941,
      "imple": 1942,
      "dessen": 1943,
      "##loat": 1944,
      "##link": 1945,
      "##ffen": 1946,
      "##verzeichnis": 1947,
      "reg": 1948,
      "eigensch": 1949,
      "appli": 1950,
      "##zip": 1951,
      "pdf_set_": 1952,
      "interp": 1953,
      "##aufru": 1954,
      "pg_lo": 1955,
      "gelesen": 1956,
      "##werte": 1957,
      "bibliotheken": 1958,
      "beginnen": 1959,
      "substr": 1960,
      "versucht": 1961,
      "besteht": 1962,
      "korre": 1963,
      "würde": 1964,
      "reihenfolge": 1965,
      "([": 1966,
      "['": 1967,
      "doc": 1968,
      "font": 1969,
      "lok": 1970,
      "üb": 1971,
      "##int": 1972,
      "##hö": 1973,
      "##vs": 1974,
      "anführ": 1975,
      "##spe": 1976,
      "##eicht": 1977,
      "dateisystem": 1978,
      "schnell": 1979,
      "##umn": 1980,
      "zeigt": 1981,
      "##bar_": 1982,
      "kompilieren": 1983,
      "##_read": 1984,
      "temp": 1985,
      "speichern": 1986,
      "erzeugen": 1987,
      "benötigen": 1988,
      "domdocumen": 1989,
      "binär": 1990,
      "führt": 1991,
      "normalerweise": 1992,
      "einträge": 1993,
      "configure": 1994,
      "source": 1995,
      "ali": 1996,
      "aspell": 1997,
      "hall": 1998,
      "mon": 1999,
      "not": 2000,
      "ung": 2001,
      "win": 2002,
      "##_i": 2003,
      "##cess": 2004,
      "##utet": 2005,
      "##fetch": 2006,
      "##word": 2007,
      "nachdem": 2008,
      "##ted_": 2009,
      "aufget": 2010,
      "##olor": 2011,
      "img": 2012,
      "dateinamen": 2013,
      "sem": 2014,
      "shm": 2015,
      "bytes": 2016,
      "angabe": 2017,
      "##_link": 2018,
      "swf": 2019,
      "##funktionen": 2020,
      "vergleich": 2021,
      "anführungs": 2022,
      "hallo": 2023,
      "aufgetreten": 2024,
      "mc": 2025,
      "mei": 2026,
      "min": 2027,
      "sonst": 2028,
      "td": 2029,
      "##_g": 2030,
      "##pl": 2031,
      "##con": 2032,
      "##ual": 2033,
      "##fung": 2034,
      "##lus": 2035,
      "##über": 2036,
      "##ies": 2037,
      "##cke": 2038,
      "##tieren": 2039,
      "php4": 2040,
      "##altet": 2041,
      "ermit": 2042,
      "auft": 2043,
      "##stehen": 2044,
      "stream": 2045,
      "##roke": 2046,
      "deshalb": 2047,
      "##ctory": 2048,
      "könnte": 2049,
      "##reifen": 2050,
      "##_pconnect": 2051,
      "entwick": 2052,
      "gelösch": 2053,
      ".\";": 2054,
      "##_exec": 2055,
      "##****": 2056,
      "basis": 2057,
      "prüfen": 2058,
      "gebrauch": 2059,
      "##coding": 2060,
      "_bar_": 2061,
      "bo": 2062,
      "bil": 2063,
      "eng": 2064,
      "gra": 2065,
      "mn": 2066,
      "nat": 2067,
      "##rand": 2068,
      "##_im": 2069,
      "##gibt": 2070,
      "##??": 2071,
      "##ergebnis": 2072,
      "##eig": 2073,
      "##ore": 2074,
      "int": 2075,
      "ereg": 2076,
      "statisch": 2077,
      "##bereich": 2078,
      "##opp": 2079,
      "##atement": 2080,
      "print_r": 2081,
      "standardmäß": 2082,
      "cpdf_set": 2083,
      "gültig": 2084,
      "direkt": 2085,
      "directory": 2086,
      "letzte": 2087,
      "flag": 2088,
      "etwas": 2089,
      "führen": 2090,
      "welches": 2091,
      "bedeutet": 2092,
      "abschnitt": 2093,
      "snmp": 2094,
      "gelöscht": 2095,
      "));": 2096,
      "block": 2097,
      "dll": 2098,
      "grü": 2099,
      "##ien": 2100,
      "##sh": 2101,
      "##dd": 2102,
      "##pas": 2103,
      "##by": 2104,
      "##wort": 2105,
      "##write": 2106,
      "##chen": 2107,
      "zul": 2108,
      "vorher": 2109,
      "deren": 2110,
      "aufge": 2111,
      "werten": 2112,
      "struktur": 2113,
      "##roffen": 2114,
      "##fügen": 2115,
      "sowohl": 2116,
      "schauen": 2117,
      "abge": 2118,
      "##ress": 2119,
      "##ected_": 2120,
      "##grenz": 2121,
      "##setzen": 2122,
      "betroffen": 2123,
      "öffnet": 2124,
      "tags": 2125,
      "##icro": 2126,
      "gemein": 2127,
      "referenzen": 2128,
      "überprüft": 2129,
      "safe": 2130,
      "anführungszeichen": 2131,
      "##ected_rows": 2132,
      "brauch": 2133,
      "lar": 2134,
      "sign": 2135,
      "##ik": 2136,
      "##heiten": 2137,
      "##br": 2138,
      "##wär": 2139,
      "##stam": 2140,
      "##telt": 2141,
      "##arb": 2142,
      "##gestellt": 2143,
      "einstellungen": 2144,
      "delete": 2145,
      "##info": 2146,
      "##hlen": 2147,
      "##für": 2148,
      "seiten": 2149,
      "##reite": 2150,
      "funktionsaufru": 2151,
      "##cii": 2152,
      "session_": 2153,
      "jedem": 2154,
      "##dessen": 2155,
      "spalte": 2156,
      "##_string": 2157,
      "verschiedenen": 2158,
      "stattdessen": 2159,
      "assoziatives": 2160,
      "umgebungs": 2161,
      "indizes": 2162,
      "merkmal": 2163,
      "##last_error": 2164,
      "möchten": 2165,
      "dynamisch": 2166,
      "remote": 2167,
      "zuletzt": 2168,
      "')": 2169,
      "..": 2170,
      "_ses": 2171,
      "cy": 2172,
      "create": 2173,
      "mar": 2174,
      "mbox": 2175,
      "voll": 2176,
      "##ine": 2177,
      "##peg": 2178,
      "##osearch": 2179,
      "##ane": 2180,
      "##tifik": 2181,
      "verm": 2182,
      "##stemen": 2183,
      "geben": 2184,
      "schnitt": 2185,
      "umge": 2186,
      "##tive": 2187,
      "ergebniskennung": 2188,
      "genutz": 2189,
      "komplet": 2190,
      "zweite": 2191,
      "##ogosearch": 2192,
      "password": 2193,
      "##sonal": 2194,
      "update": 2195,
      "wobei": 2196,
      "att": 2197,
      "##affected_rows": 2198,
      "##variablen": 2199,
      "extension": 2200,
      "mnogosearch": 2201,
      "large": 2202,
      "_session": 2203,
      "100": 2204,
      "class": 2205,
      "dist": 2206,
      "hoch": 2207,
      "lang": 2208,
      "machen": 2209,
      "micro": 2210,
      "punkt": 2211,
      "##each": 2212,
      "##ren": 2213,
      "##du": 2214,
      "##kunden": 2215,
      "##ah": 2216,
      "##aktiv": 2217,
      "##lenn": 2218,
      "##oren": 2219,
      "##staben": 2220,
      "##arbeitet": 2221,
      "())": 2222,
      "verschl": 2223,
      "##ald": 2224,
      "##eta": 2225,
      "einstellung": 2226,
      "##gent": 2227,
      "##rib": 2228,
      "##rement": 2229,
      "extra": 2230,
      "escap": 2231,
      "##bau": 2232,
      "keinen": 2233,
      "##henti": 2234,
      "priv": 2235,
      "module": 2236,
      "information": 2237,
      "möglichkeit": 2238,
      "herstellen": 2239,
      "##data": 2240,
      "##logon": 2241,
      "größe": 2242,
      "größer": 2243,
      "etc": 2244,
      "kleiner": 2245,
      "ircg": 2246,
      "regul": 2247,
      "buch": 2248,
      "ds": 2249,
      "float": 2250,
      "gi": 2251,
      "wdd": 2252,
      "##rg": 2253,
      "##_rows": 2254,
      "##keiten": 2255,
      "##fache": 2256,
      "##zimal": 2257,
      "##ün": 2258,
      "anson": 2259,
      "##ity": 2260,
      "##menge": 2261,
      "##defin": 2262,
      "arr": 2263,
      "##abhängig": 2264,
      "##aupt": 2265,
      "fehlers": 2266,
      "##lagen": 2267,
      "schlei": 2268,
      "##einstellungen": 2269,
      "##entry": 2270,
      "dbx_": 2271,
      "##ages": 2272,
      "##bcolor": 2273,
      "##uble": 2274,
      "##ative": 2275,
      "foreach": 2276,
      "##ört": 2277,
      "welcher": 2278,
      "schreibweise": 2279,
      "##_seek": 2280,
      "bestimmten": 2281,
      "zertifik": 2282,
      "fruits": 2283,
      "##assoc": 2284,
      "monat": 2285,
      "##rgbcolor": 2286,
      "ansonsten": 2287,
      ",'": 2288,
      "33": 2289,
      "alt": 2290,
      "deta": 2291,
      "each": 2292,
      "hom": 2293,
      "tmp": 2294,
      "{/": 2295,
      "##sicht": 2296,
      "##_array": 2297,
      "##ac": 2298,
      "##fern": 2299,
      "##von": 2300,
      "##äre": 2301,
      "anwen": 2302,
      "##irst": 2303,
      "bez": 2304,
      "ausw": 2305,
      "##version": 2306,
      "eigent": 2307,
      "gesam": 2308,
      "gesendet": 2309,
      "##resse": 2310,
      "see": 2311,
      "ergebnisse": 2312,
      "optionen": 2313,
      "internen": 2314,
      "authenti": 2315,
      "##zeigt": 2316,
      "initi": 2317,
      "front": 2318,
      "##alues": 2319,
      "grupp": 2320,
      "eingabe": 2321,
      "##alisiert": 2322,
      "leerzeichen": 2323,
      "pspell_new": 2324,
      "laufen": 2325,
      "##rapper": 2326,
      "##ree_result": 2327,
      "domdocument": 2328,
      "##oppel": 2329,
      "frontbase": 2330,
      "'.": 2331,
      ",$": 2332,
      "00": 2333,
      "case": 2334,
      "drei": 2335,
      "ev": 2336,
      "nö": 2337,
      "png": 2338,
      "weil": 2339,
      "wrapper": 2340,
      "##slash": 2341,
      "##node": 2342,
      "##_user": 2343,
      "##pend": 2344,
      "##gang": 2345,
      "##licht": 2346,
      "##mus": 2347,
      "##\");": 2348,
      "##--": 2349,
      "##nehmen": 2350,
      "##once": 2351,
      "davon": 2352,
      "##alität": 2353,
      "beding": 2354,
      "fehlercode": 2355,
      "falsch": 2356,
      "mysql_error": 2357,
      "mysql_connect": 2358,
      "make": 2359,
      "pdf_open": 2360,
      "pdf_set": 2361,
      "internet": 2362,
      "##_register": 2363,
      "legt": 2364,
      "geschlossen": 2365,
      "base": 2366,
      "neg": 2367,
      "konfigurationsdatei": 2368,
      "##komp": 2369,
      "existieren": 2370,
      "##color": 2371,
      "register": 2372,
      "geöffnete": 2373,
      "##select_db": 2374,
      ".)": 2375,
      "31": 2376,
      "ban": 2377,
      "hash": 2378,
      "jetzt": 2379,
      "kur": 2380,
      "msql": 2381,
      "##ition": 2382,
      "##ryp": 2383,
      "##ph": 2384,
      "##punkt": 2385,
      "##lä": 2386,
      "##bald": 2387,
      "##eint": 2388,
      "##onen": 2389,
      "##ting": 2390,
      "verä": 2391,
      "bein": 2392,
      "deaktiv": 2393,
      "sobald": 2394,
      "überein": 2395,
      "parameters": 2396,
      "sequ": 2397,
      "sekunden": 2398,
      "##_fun": 2399,
      "printf": 2400,
      "erfolgt": 2401,
      "httpd": 2402,
      "pdflib": 2403,
      "konstrukt": 2404,
      "##sword": 2405,
      "##ären": 2406,
      "##säch": 2407,
      "##lieb": 2408,
      "läuft": 2409,
      "eingeb": 2410,
      "##_fetch_array": 2411,
      "enable": 2412,
      "einzelheiten": 2413,
      "zugewiesen": 2414,
      "##aften": 2415,
      "koordinaten": 2416,
      "##_param": 2417,
      "skripte": 2418,
      "##_image": 2419,
      "funktionsaufruf": 2420,
      "genutzt": 2421,
      "[]": 2422,
      "ac": 2423,
      "cart": 2424,
      "fra": 2425,
      "rot": 2426,
      "##ill": 2427,
      "##nü": 2428,
      "##_per": 2429,
      "##_key": 2430,
      "##gung": 2431,
      "##ux": 2432,
      "##uli": 2433,
      "##mun": 2434,
      "##einf": 2435,
      "##tierung": 2436,
      "##sehen": 2437,
      "info": 2438,
      "##tent": 2439,
      "bek": 2440,
      "##iger": 2441,
      "##igkeit": 2442,
      "exit": 2443,
      "allen": 2444,
      "line": 2445,
      "funktionsnamen": 2446,
      "tabell": 2447,
      "informix": 2448,
      "weiteren": 2449,
      "result_id": 2450,
      "jewei": 2451,
      "##ecute": 2452,
      "cpdf_set_": 2453,
      "konfigurationsoption": 2454,
      "beschrieben": 2455,
      "zugriffs": 2456,
      "zahlen": 2457,
      "stellt": 2458,
      "##chars": 2459,
      "konvertiert": 2460,
      "kommando": 2461,
      "blei": 2462,
      "heißt": 2463,
      "behandelt": 2464,
      "bietet": 2465,
      "implemen": 2466,
      "standardmäßig": 2467,
      "##stamp": 2468,
      "banane": 2469,
      "übereinstim": 2470,
      ".\\": 2471,
      "01": 2472,
      "16": 2473,
      "25": 2474,
      "30": 2475,
      "hol": 2476,
      "ip": 2477,
      "nütz": 2478,
      "tit": 2479,
      "wahr": 2480,
      "##tung": 2481,
      "##_get_": 2482,
      "##kten": 2483,
      "##hash": 2484,
      "##aft": 2485,
      "##gru": 2486,
      "##lesen": 2487,
      "##stat": 2488,
      "##ted": 2489,
      "handelt": 2490,
      "einfache": 2491,
      "erhö": 2492,
      "beiden": 2493,
      "arbeiten": 2494,
      "denn": 2495,
      "belieb": 2496,
      "datentyp": 2497,
      "umwand": 2498,
      "entfer": 2499,
      "konnte": 2500,
      "datenbankserver": 2501,
      "installiert": 2502,
      "leere": 2503,
      "##alender": 2504,
      "posix": 2505,
      "konfigurationseinstellungen": 2506,
      "##wertet": 2507,
      "entsprechenden": 2508,
      "##_fields": 2509,
      "schließt": 2510,
      "##_number": 2511,
      "##ribution": 2512,
      "maxim": 2513,
      "hilfe": 2514,
      "ausdrücke": 2515,
      "schnittstelle": 2516,
      ":\\": 2517,
      "bc": 2518,
      "cache": 2519,
      "dn": 2520,
      "gnu": 2521,
      "kod": 2522,
      "kalender": 2523,
      "##_en": 2524,
      "##_ch": 2525,
      "##_entry": 2526,
      "##ho": 2527,
      "##ug": 2528,
      "##fc": 2529,
      "##bin": 2530,
      "##stand": 2531,
      "##tiger": 2532,
      "zurückgel": 2533,
      "verk": 2534,
      "##menten": 2535,
      "##rint": 2536,
      "##ategor": 2537,
      "##üsse": 2538,
      "folgt": 2539,
      "##iefern": 2540,
      "sym": 2541,
      "modi": 2542,
      "pspell_link": 2543,
      "namens": 2544,
      "suchen": 2545,
      "##...": 2546,
      "imagecolor": 2547,
      "char": 2548,
      "koor": 2549,
      "bestehen": 2550,
      "##soft": 2551,
      "(!$": 2552,
      "require": 2553,
      "nächsten": 2554,
      "identisch": 2555,
      "problem": 2556,
      "##ribut": 2557,
      "##sächlich": 2558,
      "title": 2559,
      "[$": 2560,
      "cod": 2561,
      "doppel": 2562,
      "fclose": 2563,
      "gre": 2564,
      "haupt": 2565,
      "item": 2566,
      "mess": 2567,
      "your": 2568,
      "##ils": 2569,
      "##ele": 2570,
      "##pdf": 2571,
      "##cvs": 2572,
      "php3": 2573,
      "daher": 2574,
      "einmal": 2575,
      "##indet": 2576,
      "##schreibung": 2577,
      "##abase": 2578,
      "##omp": 2579,
      "fügt": 2580,
      "##ruct": 2581,
      "exter": 2582,
      "nichts": 2583,
      "##_co": 2584,
      "##alloc": 2585,
      "##adi": 2586,
      "komment": 2587,
      "ergebnismenge": 2588,
      "unten": 2589,
      "##cial": 2590,
      "##öglicht": 2591,
      "##lobal": 2592,
      "interne": 2593,
      "##num_rows": 2594,
      "heraus": 2595,
      "##komma": 2596,
      "domain": 2597,
      "setcookie": 2598,
      "##cape": 2599,
      "rechte": 2600,
      "löscht": 2601,
      "erlauben": 2602,
      "fehlermeldungen": 2603,
      "##esehen": 2604,
      "##tritt": 2605,
      "timestamp": 2606,
      "nächste": 2607,
      "root": 2608,
      "ermöglicht": 2609,
      "auftreten": 2610,
      "domdocument_create": 2611,
      "bre": 2612,
      "breite": 2613,
      "cra": 2614,
      "ccvs": 2615,
      "eff": 2616,
      "gd": 2617,
      "ganz": 2618,
      "les": 2619,
      "rel": 2620,
      "tat": 2621,
      "##xt_": 2622,
      "##pconnect": 2623,
      "##ust": 2624,
      "##tit": 2625,
      "##ask": 2626,
      "##füllt": 2627,
      "##fine": 2628,
      "\";?": 2629,
      "kommt": 2630,
      "##ow_": 2631,
      "##quot": 2632,
      "##_pre": 2633,
      "feldnamen": 2634,
      "dbm": 2635,
      "##check": 2636,
      "ocicol": 2637,
      "mögliche": 2638,
      "installieren": 2639,
      "##ktive": 2640,
      "ora_error": 2641,
      "##strerror": 2642,
      "\"))": 2643,
      "angesehen": 2644,
      "grös": 2645,
      "socket_strerror": 2646,
      "offen": 2647,
      "überprüfen": 2648,
      "installations": 2649,
      "schließ": 2650,
      "platt": 2651,
      "fdf_set_": 2652,
      "199": 2653,
      "korrekt": 2654,
      "tempor": 2655,
      "mcal": 2656,
      "##password": 2657,
      "brauchen": 2658,
      "cyber": 2659,
      "home": 2660,
      "##nüp": 2661,
      "verknüp": 2662,
      "break": 2663,
      ":\".": 2664,
      "ach": 2665,
      "che": 2666,
      "pf": 2667,
      "##scape": 2668,
      "##tab": 2669,
      "##rary": 2670,
      "##_text": 2671,
      "##_size": 2672,
      "##cs": 2673,
      "##finden": 2674,
      "##mut": 2675,
      "##erst": 2676,
      "zuerst": 2677,
      "##eiden": 2678,
      "##order": 2679,
      "##statt": 2680,
      "##ständ": 2681,
      "funktionalität": 2682,
      "##ammer": 2683,
      "erwar": 2684,
      "##spr": 2685,
      "##anis": 2686,
      "denen": 2687,
      "dezimal": 2688,
      "##hell": 2689,
      "##liste": 2690,
      "##aut": 2691,
      "##ody": 2692,
      "##reiber": 2693,
      "unser": 2694,
      "const": 2695,
      "##kehr": 2696,
      "userfile": 2697,
      "##rieb": 2698,
      "head": 2699,
      "ausgewertet": 2700,
      "need": 2701,
      "##_start": 2702,
      "\"];": 2703,
      "entsprechende": 2704,
      "wäre": 2705,
      "ascii": 2706,
      "##pliz": 2707,
      "##pare": 2708,
      "upload": 2709,
      "sortiert": 2710,
      "fields": 2711,
      "sprachen": 2712,
      "assoziativen": 2713,
      "umgebung": 2714,
      "weise": 2715,
      "registriert": 2716,
      "einschließ": 2717,
      "##special": 2718,
      "alias": 2719,
      "meisten": 2720,
      "grün": 2721,
      "##bruch": 2722,
      "##ünsch": 2723,
      "beinhal": 2724,
      "##_personal": 2725,
      "nützlich": 2726,
      "crack": 2727,
      "check": 2728,
      "##specialchars": 2729,
      "15": 2730,
      "_files": 2731,
      "c1": 2732,
      "dbase": 2733,
      "kenn": 2734,
      "kategor": 2735,
      "lese": 2736,
      "mk": 2737,
      "ori": 2738,
      "punk": 2739,
      "rfc": 2740,
      "radi": 2741,
      "values": 2742,
      "##xecute": 2743,
      "##sweise": 2744,
      "##path": 2745,
      "##cmp": 2746,
      "##unter": 2747,
      "##fel": 2748,
      "##val": 2749,
      "##vet": 2750,
      "##we": 2751,
      "##ieht": 2752,
      "##iexecute": 2753,
      "##ony": 2754,
      "##test": 2755,
      "anstatt": 2756,
      "##geladen": 2757,
      "##alten": 2758,
      "einzu": 2759,
      "##mension": 2760,
      "##lear": 2761,
      "beide": 2762,
      "auftritt": 2763,
      "geändert": 2764,
      "beeinf": 2765,
      "##eitert": 2766,
      "##ight": 2767,
      "##listen": 2768,
      "##fix": 2769,
      "##riptor": 2770,
      "systemen": 2771,
      "api": 2772,
      "mac": 2773,
      "htmlspecialchars": 2774,
      "betrieb": 2775,
      "##_mode": 2776,
      "paar": 2777,
      "##_exist": 2778,
      "query": 2779,
      "##_info": 2780,
      "##parse": 2781,
      "ociexecute": 2782,
      "liegt": 2783,
      "sprache": 2784,
      "multiple": 2785,
      "output": 2786,
      "##ribute": 2787,
      "änderung": 2788,
      "moment": 2789,
      "##script": 2790,
      "vielen": 2791,
      "src": 2792,
      "##ialize": 2793,
      "höher": 2794,
      "meldung": 2795,
      "eigenschaften": 2796,
      "applik": 2797,
      "microsoft": 2798,
      "altern": 2799,
      "umwandlung": 2800,
      "##lobals": 2801,
      "beinhaltet": 2802,
      "radius": 2803,
      "##veto": 2804,
      "2000": 2805,
      "][": 2806,
      "call": 2807,
      "drit": 2808,
      "ign": 2809,
      "mhash": 2810,
      "sup": 2811,
      "zend": 2812,
      "##sd": 2813,
      "##_get": 2814,
      "##of": 2815,
      "##cation": 2816,
      "##uid": 2817,
      "##ly": 2818,
      "##lit": 2819,
      "##bol": 2820,
      "##äter": 2821,
      "##stä": 2822,
      "zurückgeben": 2823,
      "dafür": 2824,
      "verändert": 2825,
      "eins": 2826,
      "erforder": 2827,
      "##siert": 2828,
      "wirk": 2829,
      "##ref": 2830,
      "begrenz": 2831,
      "##lode": 2832,
      "##loade": 2833,
      "##verbind": 2834,
      "rest": 2835,
      "abc": 2836,
      "später": 2837,
      "##ump": 2838,
      "parametern": 2839,
      "##immt": 2840,
      "sess": 2841,
      "mysql_list": 2842,
      "##führen": 2843,
      "unabhängig": 2844,
      "apfel": 2845,
      "##atibil": 2846,
      "\".$": 2847,
      "passen": 2848,
      "msg": 2849,
      "org": 2850,
      "imagecreate": 2851,
      "##upload": 2852,
      "ausführen": 2853,
      "##_limit": 2854,
      "##gespeichert": 2855,
      "kleinschreibung": 2856,
      "'][": 2857,
      "##sock": 2858,
      "##geschlagen": 2859,
      "zusätzlich": 2860,
      "##errno": 2861,
      "worden": 2862,
      "##mailbox": 2863,
      "interpre": 2864,
      "ermittelt": 2865,
      "strukturen": 2866,
      "distribution": 2867,
      "buchstaben": 2868,
      "nötig": 2869,
      "kurz": 2870,
      "##_function": 2871,
      "einschließlich": 2872,
      "ignor": 2873,
      "blau": 2874,
      "cat": 2875,
      "ecke": 2876,
      "fget": 2877,
      "hig": 2878,
      "hex": 2879,
      "juli": 2880,
      "lob": 2881,
      "mt_": 2882,
      "oft": 2883,
      "popen": 2884,
      "sin": 2885,
      "sendet": 2886,
      "tei": 2887,
      "txt": 2888,
      "wes": 2889,
      "##ian": 2890,
      "##sol": 2891,
      "##_fill": 2892,
      "##act": 2893,
      "##fä": 2894,
      "##fre": 2895,
      "##block": 2896,
      "##wal": 2897,
      "##ös": 2898,
      "##ent_": 2899,
      "##ers": 2900,
      "##tik": 2901,
      "php_": 2902,
      "##alog": 2903,
      "##lean": 2904,
      "bekommen": 2905,
      "##bere": 2906,
      "desc": 2907,
      "database": 2908,
      "rec": 2909,
      "unterschei": 2910,
      "fehlgeschlagen": 2911,
      "##weisen": 2912,
      "dokumente": 2913,
      "obige": 2914,
      "obigen": 2915,
      "obwohl": 2916,
      "variablenn": 2917,
      "##lang": 2918,
      "serv": 2919,
      "##ocommit": 2920,
      "reset": 2921,
      "pg_c": 2922,
      "erweiterungen": 2923,
      "unterstützen": 2924,
      "komprim": 2925,
      "zugreifen": 2926,
      "##type_": 2927,
      "##zeigen": 2928,
      "elementen": 2929,
      "\"));": 2930,
      "\";}}": 2931,
      "adresse": 2932,
      "läng": 2933,
      "klammer": 2934,
      "scroll": 2935,
      "##ave_": 2936,
      "##ickt": 2937,
      "headers": 2938,
      "libp": 2939,
      "library": 2940,
      "udm_": 2941,
      "abfrageergebnis": 2942,
      "##gesetzt": 2943,
      "##alisieren": 2944,
      "ersetzen": 2945,
      "zip_entry": 2946,
      "alph": 2947,
      "numerisch": 2948,
      "laden": 2949,
      "inklu": 2950,
      "gerade": 2951,
      "double": 2952,
      "##_globals": 2953,
      "natür": 2954,
      "gemeins": 2955,
      "##arbeitung": 2956,
      "verschlüssel": 2957,
      "gilt": 2958,
      "zertifikat": 2959,
      "details": 2960,
      "authentifiz": 2961,
      "register_globals": 2962,
      "eingebunden": 2963,
      "##_child": 2964,
      "##quotes": 2965,
      "needle": 2966,
      "origin": 2967,
      "##atibilität": 2968,
      "):": 2969,
      "af": 2970,
      "bü": 2971,
      "can": 2972,
      "frü": 2973,
      "gt": 2974,
      "hp": 2975,
      "md": 2976,
      "treiber": 2977,
      "wichtig": 2978,
      "##sich": 2979,
      "##ear": 2980,
      "##daten": 2981,
      "##77": 2982,
      "##33": 2983,
      "##64": 2984,
      "##}?": 2985,
      "##ared": 2986,
      "into": 2987,
      "##ander": 2988,
      "dec": 2989,
      "##annte": 2990,
      "exec": 2991,
      "##kür": 2992,
      "##lter": 2993,
      "anderes": 2994,
      "feat": 2995,
      "fehlern": 2996,
      "mysql_user": 2997,
      "mysql_password": 2998,
      "sehen": 2999,
      "durchge": 3000,
      "##_do": 3001,
      "ihn": 3002,
      "instanz": 3003,
      "postscript": 3004,
      "ociparse": 3005,
      "darf": 3006,
      "darauf": 3007,
      "locale": 3008,
      "##_fetch_object": 3009,
      "inhalte": 3010,
      "udm_param": 3011,
      "number": 3012,
      "gegebenen": 3013,
      "binary": 3014,
      "netscape": 3015,
      "##schlä": 3016,
      "solche": 3017,
      "long": 3018,
      "probleme": 3019,
      "kopieren": 3020,
      "zusätzliche": 3021,
      "bool": 3022,
      "##byname": 3023,
      "##wärts": 3024,
      "attribut": 3025,
      "wddx": 3026,
      "##pend_child": 3027,
      "255": 3028,
      "betriebss": 3029,
      "interpretiert": 3030,
      "36": 3031,
      "asp": 3032,
      "jpeg": 3033,
      "mein": 3034,
      "sim": 3035,
      "use": 3036,
      "viell": 3037,
      "xs": 3038,
      "##tf": 3039,
      "##nah": 3040,
      "##dit": 3041,
      "##durch": 3042,
      "##_value": 3043,
      "##ou": 3044,
      "##hin": 3045,
      "##gten": 3046,
      "##cp": 3047,
      "##fr": 3048,
      "##ms": 3049,
      "##stroke": 3050,
      "##tim": 3051,
      "##tier": 3052,
      "##ession": 3053,
      "##hp4": 3054,
      "()).": 3055,
      "veraltet": 3056,
      "##ertra": 3057,
      "##sig": 3058,
      "##sive": 3059,
      "gest": 3060,
      "##rop": 3061,
      "schon": 3062,
      "verbinden": 3063,
      "##lags": 3064,
      "produ": 3065,
      "##folgen": 3066,
      "sessions": 3067,
      "maili": 3068,
      "##selben": 3069,
      "intern": 3070,
      "aufrufe": 3071,
      "verzeichnisse": 3072,
      "commit": 3073,
      "ihres": 3074,
      "speichert": 3075,
      "linke": 3076,
      "danach": 3077,
      "anderenfalls": 3078,
      "zeichenketten": 3079,
      "msql_fetch_": 3080,
      "##ultieren": 3081,
      "farb": 3082,
      "liest": 3083,
      "gewünsch": 3084,
      "last": 3085,
      "gehört": 3086,
      "änderungen": 3087,
      "mysql_fetch_array": 3088,
      "wörterbuch": 3089,
      "betroffenen": 3090,
      "vermeiden": 3091,
      "gruppen": 3092,
      "pdf_open_": 3093,
      "negativ": 3094,
      "bleibt": 3095,
      "maximale": 3096,
      "zurückgeliefert": 3097,
      "symbol": 3098,
      "pfpro": 3099,
      "##plizit": 3100,
      "mktime": 3101,
      "beeinflus": 3102,
      "##sockopen": 3103,
      "vielleicht": 3104,
      "##nahme": 3105,
      "mailing": 3106,
      "'$": 3107,
      "13": 3108,
      "];": 3109,
      "aktion": 3110,
      "clib": 3111,
      "clear": 3112,
      "down": 3113,
      "fä": 3114,
      "hinter": 3115,
      "quell": 3116,
      "su": 3117,
      "sal": 3118,
      "sort": 3119,
      "size": 3120,
      "tun": 3121,
      "word": 3122,
      "##sei": 3123,
      "##_end": 3124,
      "##oper": 3125,
      "##cache": 3126,
      "##male": 3127,
      "##vel": 3128,
      "##?)": 3129,
      "##äu": 3130,
      "##encoding": 3131,
      "##cher": 3132,
      "zuweis": 3133,
      "##tice": 3134,
      "##llen": 3135,
      "erstellung": 3136,
      "##anne": 3137,
      "aufzu": 3138,
      "auftra": 3139,
      "arbeitet": 3140,
      "dek": 3141,
      "seine": 3142,
      "red": 3143,
      "##_cart": 3144,
      "##odbc": 3145,
      "##ype": 3146,
      "gesetz": 3147,
      "mysql_field": 3148,
      "sec": 3149,
      "seri": 3150,
      "##plex": 3151,
      "max_": 3152,
      "formati": 3153,
      "content": 3154,
      "interbase": 3155,
      "verzeichniseint": 3156,
      "auto": 3157,
      "##erech": 3158,
      "orange": 3159,
      "##handler": 3160,
      "ingres_query": 3161,
      "zweiten": 3162,
      "pg_query": 3163,
      "darüber": 3164,
      "##fiziert": 3165,
      "shared": 3166,
      "##_session": 3167,
      "##ference": 3168,
      "zwischengespeichert": 3169,
      "zeitpunkt": 3170,
      "einfachen": 3171,
      "grundeinstellung": 3172,
      "empfo": 3173,
      "##moveto": 3174,
      "solange": 3175,
      "einzelne": 3176,
      "bezeichner": 3177,
      "##null": 3178,
      "inkrement": 3179,
      "mailbox": 3180,
      "niemand": 3181,
      "verbunden": 3182,
      "meldungen": 3183,
      "starten": 3184,
      "##zip2": 3185,
      "win32": 3186,
      "umgebungsvariablen": 3187,
      "pspell_new_config": 3188,
      "deaktiviert": 3189,
      "##_exists": 3190,
      "erforderlich": 3191,
      "durchgeführt": 3192,
      "clibpdf": 3193,
      "auftrat": 3194,
      "\":": 3195,
      ")-": 3196,
      "berech": 3197,
      "bzip2": 3198,
      "dis": 3199,
      "fsockopen": 3200,
      "icon": 3201,
      "las": 3202,
      "liefern": 3203,
      "meine": 3204,
      "nt": 3205,
      "ti": 3206,
      "vier": 3207,
      "woch": 3208,
      "##tei": 3209,
      "##ep": 3210,
      "##_a": 3211,
      "##hol": 3212,
      "##aw": 3213,
      "##uffer": 3214,
      "##ld": 3215,
      "##ven": 3216,
      "##eigen": 3217,
      "vorzeichen": 3218,
      "##bene": 3219,
      "einzi": 3220,
      "##itch": 3221,
      "erkl": 3222,
      "##site": 3223,
      "##sprü": 3224,
      "##anu": 3225,
      "statement": 3226,
      "##eln": 3227,
      "##ierungs": 3228,
      "dateiname": 3229,
      "absol": 3230,
      "##opy": 3231,
      "angezeigt": 3232,
      "##add_": 3233,
      "komplex": 3234,
      "printer": 3235,
      "unset": 3236,
      "##lasse": 3237,
      "pgsql_": 3238,
      "pg_connect": 3239,
      "##bare": 3240,
      "##_dir": 3241,
      "##ordert": 3242,
      "##0000": 3243,
      "genaus": 3244,
      "welt": 3245,
      "skriptes": 3246,
      "ocic": 3247,
      "beschränk": 3248,
      "direktive": 3249,
      "zeilenum": 3250,
      "socket_last_error": 3251,
      "entsprechen": 3252,
      "entsprechend": 3253,
      "column": 3254,
      "hostname": 3255,
      "channe": 3256,
      "eintrags": 3257,
      "eingesch": 3258,
      "normale": 3259,
      "globale": 3260,
      "##wandelt": 3261,
      "versuchen": 3262,
      "schreibt": 3263,
      "numerischen": 3264,
      "numerische": 3265,
      "prüft": 3266,
      "transaktionen": 3267,
      "freigegeben": 3268,
      "bestimmte": 3269,
      "##_delete": 3270,
      "kommandos": 3271,
      "spezielle": 3272,
      "übertra": 3273,
      "mark": 3274,
      "bedingung": 3275,
      "veränder": 3276,
      "datentypen": 3277,
      "momentan": 3278,
      "gemeinsamen": 3279,
      "empfohlen": 3280,
      "erklär": 3281,
      "genauso": 3282,
      "14": 3283,
      "\\\"": 3284,
      "cr": 3285,
      "hel": 3286,
      "häng": 3287,
      "jo": 3288,
      "os": 3289,
      "senden": 3290,
      "tar": 3291,
      "you": 3292,
      "##tation": 3293,
      "##_sp": 3294,
      "##_lo": 3295,
      "##_time": 3296,
      "##klasse": 3297,
      "##off": 3298,
      "##ftime": 3299,
      "##free_result": 3300,
      "##leitung": 3301,
      "##min": 3302,
      "##22": 3303,
      "##next": 3304,
      "##sthr": 3305,
      "##esse": 3306,
      "eind": 3307,
      "ansch": 3308,
      "anstelle": 3309,
      "anzeigen": 3310,
      "##itz": 3311,
      "##sing": 3312,
      "##rift": 3313,
      "arb": 3314,
      "##lsei": 3315,
      "##lick": 3316,
      "##lient_": 3317,
      "##baut": 3318,
      "##ktor": 3319,
      "##_cur": 3320,
      "abst": 3321,
      "mysql_select_db": 3322,
      "##exec": 3323,
      "##zug": 3324,
      "##zugriff": 3325,
      "##add": 3326,
      "kombin": 3327,
      "##ott": 3328,
      "##_pro": 3329,
      "pg_field": 3330,
      "definieren": 3331,
      "unterstützten": 3332,
      "pspell_s": 3333,
      "iso": 3334,
      "ocifre": 3335,
      "standardwert": 3336,
      "positive": 3337,
      "kleine": 3338,
      "scott": 3339,
      "beschreib": 3340,
      "angen": 3341,
      "##werk": 3342,
      ".\"\\": 3343,
      "gültiger": 3344,
      "where": 3345,
      "##ourc": 3346,
      "paket": 3347,
      "überprüfung": 3348,
      "diction": 3349,
      "einzelnen": 3350,
      "request": 3351,
      "##dimension": 3352,
      "besser": 3353,
      "++)": 3354,
      "mysql_fetch_row": 3355,
      "##ählt": 3356,
      "##griffen": 3357,
      "debugger": 3358,
      "schneller": 3359,
      "ungül": 3360,
      "bildes": 3361,
      "engine": 3362,
      "schleife": 3363,
      "##slashes": 3364,
      "sequenz": 3365,
      "konstruktor": 3366,
      "##statcache": 3367,
      "entfernt": 3368,
      "items": 3369,
      "externen": 3370,
      "##allocate": 3371,
      "cybermut": 3372,
      "verknüpft": 3373,
      "support": 3374,
      "natürlich": 3375,
      "xslt": 3376,
      "clearstatcache": 3377,
      "##sthru": 3378,
      "0x": 3379,
      "body": 3380,
      "connect": 3381,
      "elsei": 3382,
      "fetch": 3383,
      "ii": 3384,
      "mime": 3385,
      "macht": 3386,
      "oid": 3387,
      "pw": 3388,
      "pra": 3389,
      "pop": 3390,
      "page": 3391,
      "roll": 3392,
      "ss": 3393,
      "vt_": 3394,
      "wen": 3395,
      "##nten": 3396,
      "##ning": 3397,
      "##_w": 3398,
      "##_set": 3399,
      "##por": 3400,
      "##page": 3401,
      "##pack": 3402,
      "##kti": 3403,
      "##ght": 3404,
      "##font": 3405,
      "##mory": 3406,
      "##\\\"": 3407,
      "zuvor": 3408,
      "##nden": 3409,
      "##essen": 3410,
      "##tete": 3411,
      "##teten": 3412,
      "annehmen": 3413,
      "##gem": 3414,
      "##led": 3415,
      "geeig": 3416,
      "##root": 3417,
      "beispielsweise": 3418,
      "##low": 3419,
      "dateiupload": 3420,
      "allgem": 3421,
      "rep": 3422,
      "real": 3423,
      "##_commit": 3424,
      "obj": 3425,
      "##utt": 3426,
      "##_fetch": 3427,
      "folge": 3428,
      "zeichensatz": 3429,
      "ergebnisses": 3430,
      "uni": 3431,
      "erweitert": 3432,
      "cp_": 3433,
      "strstr": 3434,
      "erfolgs": 3435,
      "möglichkeiten": 3436,
      "perl": 3437,
      "##attribute": 3438,
      "berück": 3439,
      "##strich": 3440,
      "##buffer": 3441,
      "dokumentes": 3442,
      "operand": 3443,
      "domnode": 3444,
      "select_data": 3445,
      "##_status": 3446,
      "##_stroke": 3447,
      "##_closepath": 3448,
      "##rollback": 3449,
      "##_exp": 3450,
      "globalen": 3451,
      "##ription": 3452,
      "prozesses": 3453,
      "mssql_fetch_": 3454,
      "address": 3455,
      "switch": 3456,
      "##gorith": 3457,
      "genauigkeit": 3458,
      "fast": 3459,
      "lokalen": 3460,
      "##_ispell": 3461,
      "##********": 3462,
      "grafik": 3463,
      "relativ": 3464,
      "highl": 3465,
      "variablennamen": 3466,
      "klammern": 3467,
      "##kürz": 3468,
      "angenommen": 3469,
      "elseif": 3470,
      "43": 3471,
      "c2": 3472,
      "dort": 3473,
      "email": 3474,
      "gz": 3475,
      "gif": 3476,
      "it": 3477,
      "lt": 3478,
      "mat": 3479,
      "nimmt": 3480,
      "obere": 3481,
      "put": 3482,
      "pub": 3483,
      "rich": 3484,
      "sapi": 3485,
      "shell": 3486,
      "usw": 3487,
      "zeich": 3488,
      "##save": 3489,
      "##_assoc": 3490,
      "##pon": 3491,
      "##oden": 3492,
      "##adf": 3493,
      "##ace": 3494,
      "##gment": 3495,
      "##fordert": 3496,
      "##md": 3497,
      "##12": 3498,
      "##45": 3499,
      "##99": 3500,
      "##',": 3501,
      "##chsel": 3502,
      "##neten": 3503,
      "##struktur": 3504,
      "##tick": 3505,
      "vorkommen": 3506,
      "anony": 3507,
      "dadurch": 3508,
      "verlassen": 3509,
      "handler": 3510,
      "funktionieren": 3511,
      "##genommen": 3512,
      "##spar": 3513,
      "arten": 3514,
      "dest": 3515,
      "define": 3516,
      "bearbeitet": 3517,
      "ausg": 3518,
      "##header": 3519,
      "##wend": 3520,
      "entfern": 3521,
      "listen": 3522,
      "regel": 3523,
      "##auth": 3524,
      "übersetz": 3525,
      "##_cre": 3526,
      "##http": 3527,
      "könnten": 3528,
      "##utung": 3529,
      "##ware": 3530,
      "##zustellen": 3531,
      "##lag": 3532,
      "\");}": 3533,
      "datenbankverbind": 3534,
      "kommun": 3535,
      "##stens": 3536,
      "zeichens": 3537,
      "##einander": 3538,
      "##fragt": 3539,
      "##_dump": 3540,
      "sockets": 3541,
      "definition": 3542,
      "##bezeich": 3543,
      "benutzerin": 3544,
      "benutzername": 3545,
      "strlen": 3546,
      "neuer": 3547,
      "isset": 3548,
      "jeden": 3549,
      "verzeichnisses": 3550,
      "manual": 3551,
      "ocifetch": 3552,
      "komponen": 3553,
      "##trans": 3554,
      "herunter": 3555,
      "website": 3556,
      "frame": 3557,
      "objektes": 3558,
      "##laufen": 3559,
      "gültigen": 3560,
      "##gif": 3561,
      "einfaches": 3562,
      "meta": 3563,
      "stelle": 3564,
      "##_list": 3565,
      "festge": 3566,
      "dba_open": 3567,
      "rechts": 3568,
      "methoden": 3569,
      "ldap_get_": 3570,
      "bezeichnung": 3571,
      "gewö": 3572,
      "große": 3573,
      "requir": 3574,
      "bedeutung": 3575,
      "indiziert": 3576,
      "kontrolle": 3577,
      "##variable": 3578,
      "höhe": 3579,
      "linux": 3580,
      "eigenschaft": 3581,
      "application": 3582,
      "interpr": 3583,
      "beginnend": 3584,
      "##into": 3585,
      "ereg_replace": 3586,
      "cpdf_setrgbcolor": 3587,
      "hochgeladen": 3588,
      "event": 3589,
      "pdf_setrgbcolor": 3590,
      "funktionsaufrufes": 3591,
      "tabellen": 3592,
      "##grund": 3593,
      "imagecolorallocate": 3594,
      "message": 3595,
      "##element": 3596,
      "kommentar": 3597,
      "effe": 3598,
      "tatsächlich": 3599,
      "kategorie": 3600,
      "']['": 3601,
      "julian": 3602,
      "md5": 3603,
      "verzeichniseintra": 3604,
      "lassen": 3605,
      "##_agent": 3606,
      "arbeit": 3607,
      "geeignet": 3608,
      "erfolgsfall": 3609,
      "##ponse": 3610,
      "##httpd": 3611,
      "\"(": 3612,
      "=\\\"": 3613,
      "\\\\": 3614,
      "close": 3615,
      "häu": 3616,
      "iis": 3617,
      "men": 3618,
      "nis": 3619,
      "ok": 3620,
      "prä": 3621,
      "sd": 3622,
      "sid": 3623,
      "tut": 3624,
      "vir": 3625,
      "za": 3626,
      "##ia": 3627,
      "##teil": 3628,
      "##ds": 3629,
      "##_to": 3630,
      "##_once": 3631,
      "##hor": 3632,
      "##gray": 3633,
      "##cale": 3634,
      "##uerung": 3635,
      "##uster": 3636,
      "##lauf": 3637,
      "##mlich": 3638,
      "##wir": 3639,
      "##20": 3640,
      "##ned": 3641,
      "##status": 3642,
      "##til": 3643,
      "zurückgibt": 3644,
      "vorei": 3645,
      "vorgabe": 3646,
      "##arbe": 3647,
      "##url": 3648,
      "ergibt": 3649,
      "ereig": 3650,
      "##raw": 3651,
      "artik": 3652,
      "gehen": 3653,
      "##asvar": 3654,
      "beenden": 3655,
      "soft": 3656,
      "sofern": 3657,
      "array_p": 3658,
      "anders": 3659,
      "übermit": 3660,
      "abwärts": 3661,
      "parser": 3662,
      "angelegt": 3663,
      "##führung": 3664,
      "##idth": 3665,
      "##oth": 3666,
      "ress": 3667,
      "session_register": 3668,
      "session_start": 3669,
      "socket_create": 3670,
      "benutzers": 3671,
      "benutzernamen": 3672,
      "strftime": 3673,
      "dbname": 3674,
      "func": 3675,
      "sesam_seek": 3676,
      "##aufbau": 3677,
      "ingres_fetch_row": 3678,
      "hergestellt": 3679,
      "verbindungsaufbau": 3680,
      "fbsql_query": 3681,
      "ursprü": 3682,
      "##icken": 3683,
      "modules": 3684,
      "order": 3685,
      "integ": 3686,
      "betr": 3687,
      "\"].": 3688,
      "returns": 3689,
      "beginn": 3690,
      "##count": 3691,
      "wiederhol": 3692,
      "prefix": 3693,
      "bezeichnet": 3694,
      "sprach": 3695,
      "zugegriffen": 3696,
      "platz": 3697,
      "merkmale": 3698,
      "++;": 3699,
      "geöffneten": 3700,
      "##dings": 3701,
      "allerdings": 3702,
      "irgendeine": 3703,
      "dbx_c": 3704,
      "postfachs": 3705,
      "##klar": 3706,
      "lokale": 3707,
      "##fetch_field": 3708,
      "##words": 3709,
      "##???)": 3710,
      "umgewandelt": 3711,
      "jeweili": 3712,
      "implementiert": 3713,
      "holen": 3714,
      "##ructor": 3715,
      "##_cookie": 3716,
      "achtung": 3717,
      "constructor": 3718,
      "punkten": 3719,
      "applikationen": 3720,
      "niemandem": 3721,
      "iconv": 3722,
      "channel": 3723,
      "##utton": 3724,
      "ereignis": 3725,
      "##asvarchar": 3726,
      "!\";": 3727,
      "-,": 3728,
      "/.": 3729,
      "17": 3730,
      "23": 3731,
      "200": 3732,
      "::": 3733,
      "=$": 3734,
      "agen": 3735,
      "agent": 3736,
      "boo": 3737,
      "cust": 3738,
      "documen": 3739,
      "fil": 3740,
      "fread": 3741,
      "gar": 3742,
      "mach": 3743,
      "mal": 3744,
      "map": 3745,
      "nä": 3746,
      "pem": 3747,
      "rand": 3748,
      "richtig": 3749,
      "´$": 3750,
      "##ice": 3751,
      "##sichtig": 3752,
      "##rent": 3753,
      "##_set_": 3754,
      "##_no": 3755,
      "##_rollback": 3756,
      "##po": 3757,
      "##kur": 3758,
      "##kenn": 3759,
      "##kcs": 3760,
      "##onder": 3761,
      "##hung": 3762,
      "##hind": 3763,
      "##fort": 3764,
      "##findet": 3765,
      "##farbe": 3766,
      "##ümer": 3767,
      "##10": 3768,
      "##wor": 3769,
      "##')": 3770,
      "##einen": 3771,
      "##achtet": 3772,
      "##stab": 3773,
      "vordefin": 3774,
      "vertra": 3775,
      "##gegen": 3776,
      "##gelassen": 3777,
      "##anf": 3778,
      "arch": 3779,
      "stri": 3780,
      "##ols": 3781,
      "sound": 3782,
      "##issen": 3783,
      "##run": 3784,
      "verwende": 3785,
      "##ormat": 3786,
      "recode": 3787,
      "##binden": 3788,
      "abbil": 3789,
      "##lencode": 3790,
      "##reifer": 3791,
      "mysql_get_": 3792,
      "wertes": 3793,
      "##ression": 3794,
      "proje": 3795,
      "##folgt": 3796,
      "##format": 3797,
      "##uelle": 3798,
      "sys": 3799,
      "unterstrich": 3800,
      "definierten": 3801,
      "conf": 3802,
      "genannt": 3803,
      "pdf_stroke": 3804,
      "manch": 3805,
      "konfiguriert": 3806,
      "ocilogon": 3807,
      "##teln": 3808,
      "testen": 3809,
      "##e_once": 3810,
      "sesam_query": 3811,
      "##räsen": 3812,
      "##zeile": 3813,
      "getm": 3814,
      "ingres_fetch_array": 3815,
      "gleichzei": 3816,
      "##_sy": 3817,
      "angreifer": 3818,
      "##kommt": 3819,
      "##upper": 3820,
      "aktivieren": 3821,
      "##ören": 3822,
      "include_once": 3823,
      "pay": 3824,
      "hinzufügen": 3825,
      "##formen": 3826,
      "pspell_config_create": 3827,
      "current": 3828,
      "liegen": 3829,
      "lange": 3830,
      "is_array": 3831,
      "readline": 3832,
      "##scanf": 3833,
      "hilf": 3834,
      "weggelassen": 3835,
      "##ave_path": 3836,
      "##c_get_": 3837,
      "überschreiben": 3838,
      "einschränk": 3839,
      "##lush": 3840,
      "engli": 3841,
      "abgefragt": 3842,
      "schleifen": 3843,
      "eigentümer": 3844,
      "gesamte": 3845,
      "existierende": 3846,
      "##rypt": 3847,
      "bekannt": 3848,
      "konfigurationsoptionen": 3849,
      "erhöht": 3850,
      "ocicolumn": 3851,
      "schließen": 3852,
      "plattform": 3853,
      "dritte": 3854,
      "##ständig": 3855,
      "wirklich": 3856,
      "abcde": 3857,
      "authentifizierung": 3858,
      "original": 3859,
      "gtk": 3860,
      "betriebssystem": 3861,
      "gesetzten": 3862,
      "repräsen": 3863,
      "##headers": 3864,
      "require_once": 3865,
      "virt": 3866,
      "voreinge": 3867,
      "abwärtskomp": 3868,
      "ursprüng": 3869,
      "agenten": 3870,
      "boolean": 3871,
      "custom": 3872,
      "##kcs7": 3873,
      "\"\",": 3874,
      "18": 3875,
      "50": 3876,
      "].": 3877,
      "cau": 3878,
      "ctype_": 3879,
      "dl": 3880,
      "fwrite": 3881,
      "first": 3882,
      "h3": 3883,
      "mb": 3884,
      "next": 3885,
      "okt": 3886,
      "unge": 3887,
      "wi": 3888,
      "zie": 3889,
      "ält": 3890,
      "##iff": 3891,
      "##dn": 3892,
      "##dri": 3893,
      "##drück": 3894,
      "##_n": 3895,
      "##one": 3896,
      "##aden": 3897,
      "##glich": 3898,
      "##cate": 3899,
      "##ui": 3900,
      "##feld": 3901,
      "##flags": 3902,
      "##öcke": 3903,
      "##';": 3904,
      "##jpeg": 3905,
      "##chanis": 3906,
      "##iew": 3907,
      "##cken": 3908,
      "vorlie": 3909,
      "##text_": 3910,
      "##args": 3911,
      "verhind": 3912,
      "##nkel": 3913,
      "##gest": 3914,
      "##fahr": 3915,
      "erhält": 3916,
      "erschei": 3917,
      "##rat": 3918,
      "##delete": 3919,
      "##ance": 3920,
      "gefüllt": 3921,
      "befindet": 3922,
      "##rone": 3923,
      "sock": 3924,
      "füll": 3925,
      "##halt": 3926,
      "desk": 3927,
      "array_s": 3928,
      "##long": 3929,
      "##ling": 3930,
      "##linet": 3931,
      "abgesch": 3932,
      "##ummer": 3933,
      "##stellten": 3934,
      "angewen": 3935,
      "(\"%": 3936,
      "##ieferten": 3937,
      "unlink": 3938,
      "schlüsse": 3939,
      "modu": 3940,
      "##baren": 3941,
      "skal": 3942,
      "##unde": 3943,
      "zurückgegebene": 3944,
      "##öglichen": 3945,
      "feldname": 3946,
      "möglicherweise": 3947,
      "standardeinstellung": 3948,
      "ids": 3949,
      "thread": 3950,
      "objekts": 3951,
      "fbsql_connect": 3952,
      "verfügbaren": 3953,
      "track": 3954,
      "eingefügt": 3955,
      "posix_": 3956,
      "ausdr": 3957,
      "socket_bind": 3958,
      "gegebene": 3959,
      "wählen": 3960,
      "return_value": 3961,
      "sort_": 3962,
      "ocin": 3963,
      "##fikation": 3964,
      "schliesst": 3965,
      "scripts": 3966,
      "programmier": 3967,
      "===": 3968,
      "reihe": 3969,
      "timeout": 3970,
      "##dium": 3971,
      "besitz": 3972,
      "generiert": 3973,
      "ausdrücken": 3974,
      "bug": 3975,
      "auszugeben": 3976,
      "anzugeben": 3977,
      "überschrieben": 3978,
      "notwend": 3979,
      "semap": 3980,
      "aufgebaut": 3981,
      "umgekehr": 3982,
      "komplette": 3983,
      "##bauen": 3984,
      "anwendung": 3985,
      "wrappers": 3986,
      "jeweils": 3987,
      "übereinstimmen": 3988,
      "##üsselt": 3989,
      "codes": 3990,
      "ora_errorcode": 3991,
      "grösse": 3992,
      "##tabelle": 3993,
      "feature": 3994,
      "beeinflussen": 3995,
      "hängt": 3996,
      "eindeu": 3997,
      "dateiuploads": 3998,
      "zeichnet": 3999,
      "##bezeichner": 4000,
      "festgelegt": 4001,
      "software": 4002,
      "archi": 4003,
      "abwärtskompatibilität": 4004,
      "caudium": 4005,
      "##lineto": 4006,
      ".:": 4007,
      "bund": 4008,
      "ctype": 4009,
      "fre": 4010,
      "fließ": 4011,
      "höch": 4012,
      "ispell": 4013,
      "lei": 4014,
      "mind": 4015,
      "puffer": 4016,
      "rg": 4017,
      "tro": 4018,
      "tip": 4019,
      "tcp": 4020,
      "uc": 4021,
      "wahl": 4022,
      "yp": 4023,
      "zlib": 4024,
      "##sg": 4025,
      "##ehen": 4026,
      "##_all": 4027,
      "##_check": 4028,
      "##_aut": 4029,
      "##_element": 4030,
      "##agen": 4031,
      "##gte": 4032,
      "##gar": 4033,
      "##uti": 4034,
      "##uff": 4035,
      "##fier": 4036,
      "##man": 4037,
      "##mas": 4038,
      "##voll": 4039,
      "##wind": 4040,
      "##01": 4041,
      "##state": 4042,
      "##escap": 4043,
      "anhand": 4044,
      "##arg": 4045,
      "##arbeiten": 4046,
      "##aries": 4047,
      "einsatz": 4048,
      "##leep": 4049,
      "##rigen": 4050,
      "##atch": 4051,
      "geprü": 4052,
      "gefolgt": 4053,
      "##index": 4054,
      "stack": 4055,
      "deklar": 4056,
      "ausser": 4057,
      "aussehen": 4058,
      "##iges": 4059,
      "sofort": 4060,
      "explizit": 4061,
      "array1": 4062,
      "##los": 4063,
      "##locale": 4064,
      "##lice": 4065,
      "umgehen": 4066,
      "rele": 4067,
      "regs": 4068,
      "übersetzen": 4069,
      "##_class": 4070,
      "sprint": 4071,
      "split": 4072,
      "fehlt": 4073,
      "mysql_num_rows": 4074,
      "##eute": 4075,
      "\");?": 4076,
      "##_first": 4077,
      "##_free_result": 4078,
      "##ower": 4079,
      "##_print": 4080,
      "sybase": 4081,
      "pgsql": 4082,
      "aktu": 4083,
      "##_des": 4084,
      "##entlich": 4085,
      "mechanis": 4086,
      "mag": 4087,
      "weder": 4088,
      "http_session": 4089,
      "strto": 4090,
      "mehreren": 4091,
      "##tigten": 4092,
      "manche": 4093,
      "konfigurieren": 4094,
      "pers": 4095,
      "##max": 4096,
      "##maß": 4097,
      "ora_": 4098,
      "##rägt": 4099,
      "##zeilen": 4100,
      "ingres_fetch_object": 4101,
      "bestimmen": 4102,
      "##vars": 4103,
      "erzeugung": 4104,
      "systems": 4105,
      "functions": 4106,
      "\"),": 4107,
      "urls": 4108,
      "bz2": 4109,
      "sicherstellen": 4110,
      "filepro": 4111,
      "setlocale": 4112,
      "speicherung": 4113,
      "socket_select": 4114,
      "einfacher": 4115,
      "##samer": 4116,
      "##d_file": 4117,
      "enthaltenen": 4118,
      "gemessen": 4119,
      "quo": 4120,
      "##cols": 4121,
      "imap_open": 4122,
      "\"\\\\": 4123,
      "ocir": 4124,
      "spezifizierten": 4125,
      "usort": 4126,
      "ldap_op": 4127,
      "basiert": 4128,
      "persistenten": 4129,
      "datums": 4130,
      "unterschiedliche": 4131,
      "gehol": 4132,
      "##ify": 4133,
      "kopiert": 4134,
      "##ählen": 4135,
      "##_bin": 4136,
      "##_tab": 4137,
      "backslash": 4138,
      "koordinate": 4139,
      "bieten": 4140,
      "ermöglichen": 4141,
      "compil": 4142,
      "##1111": 4143,
      "gegenwär": 4144,
      "entwickler": 4145,
      "prüfende": 4146,
      "##ikation": 4147,
      "vollständ": 4148,
      "monats": 4149,
      "bezieht": 4150,
      "##rypt_": 4151,
      "übereinstimm": 4152,
      "##uggest": 4153,
      "gregor": 4154,
      "##_prepare": 4155,
      "alternative": 4156,
      "ignoriert": 4157,
      "fgets": 4158,
      "hexade": 4159,
      "##acter": 4160,
      "zeilenumbruch": 4161,
      "##ourcen": 4162,
      "pws": 4163,
      "ssl": 4164,
      "operanden": 4165,
      "##gorithmus": 4166,
      "kommunikation": 4167,
      "gewöhnlich": 4168,
      "artikel": 4169,
      "jeweiligen": 4170,
      "soundex": 4171,
      "abbildung": 4172,
      "manchmal": 4173,
      "hilfreich": 4174,
      "englisch": 4175,
      "abcdef": 4176,
      "schlüssels": 4177,
      "bundled": 4178,
      "fließkomma": 4179,
      "tipp": 4180,
      "sprintf": 4181,
      "http_session_vars": 4182,
      "!=": 4183,
      "bob": 4184,
      "eg": 4185,
      "findet": 4186,
      "hät": 4187,
      "href": 4188,
      "mont": 4189,
      "nnt": 4190,
      "netz": 4191,
      "ph": 4192,
      "ruft": 4193,
      "raw": 4194,
      "weit": 4195,
      "when": 4196,
      "will": 4197,
      "zit": 4198,
      "ähn": 4199,
      "##item": 4200,
      "##ritt": 4201,
      "##do": 4202,
      "##doc": 4203,
      "##day": 4204,
      "##_si": 4205,
      "##_ap": 4206,
      "##_files": 4207,
      "##_next": 4208,
      "##auch": 4209,
      "##akt": 4210,
      "##ces": 4211,
      "##cal": 4212,
      "##flow": 4213,
      "##mode": 4214,
      "##med": 4215,
      "##möglich": 4216,
      "##ziert": 4217,
      "##ve_": 4218,
      "##bed": 4219,
      "##50": 4220,
      "##ennt": 4221,
      "##next_": 4222,
      "nachkomma": 4223,
      "##stack": 4224,
      "zurückl": 4225,
      "voraus": 4226,
      "##ures": 4227,
      "##ites": 4228,
      "##spro": 4229,
      "##dec": 4230,
      "gestellt": 4231,
      "##schein": 4232,
      "##assthru": 4233,
      "beg": 4234,
      "##iere": 4235,
      "##ros": 4236,
      "##ibind": 4237,
      "##annten": 4238,
      "extr": 4239,
      "##ellen": 4240,
      "umzu": 4241,
      "entpack": 4242,
      "rekur": 4243,
      "abzu": 4244,
      "var_dump": 4245,
      "dokumenten": 4246,
      "##fische": 4247,
      "fehlernummer": 4248,
      "anmerkungen": 4249,
      "mysql_affected_rows": 4250,
      "mysql_free_result": 4251,
      "durchzu": 4252,
      "##_free_": 4253,
      "##_format": 4254,
      "zeige": 4255,
      "##_post": 4256,
      "##_page": 4257,
      "uns": 4258,
      "typs": 4259,
      "##edir": 4260,
      "pg_pconnect": 4261,
      "##ingt": 4262,
      "##zahlen": 4263,
      "http_post": 4264,
      "##begin": 4265,
      "strt": 4266,
      "strn": 4267,
      "neues": 4268,
      "feldnummer": 4269,
      "möglichen": 4270,
      "##ags": 4271,
      "perform": 4272,
      "person": 4273,
      "func_get_": 4274,
      "##e_string": 4275,
      "##handle": 4276,
      "gettext": 4277,
      "ingres_num": 4278,
      "geschickt": 4279,
      "##rechte": 4280,
      "gelten": 4281,
      "geliefert": 4282,
      "positiv": 4283,
      "benötigten": 4284,
      "##ick_print": 4285,
      "##hängt": 4286,
      "##get_value": 4287,
      "##_line": 4288,
      "color": 4289,
      "##gesehen": 4290,
      "gemacht": 4291,
      "recht": 4292,
      "rechten": 4293,
      "##_inc": 4294,
      "##parameter": 4295,
      "pspell_config_personal": 4296,
      "ocibind": 4297,
      "alten": 4298,
      "news": 4299,
      "besonder": 4300,
      "trenn": 4301,
      "##ließend": 4302,
      "generieren": 4303,
      "##modus": 4304,
      "##forderungen": 4305,
      "wortliste": 4306,
      "niedri": 4307,
      "some": 4308,
      "skripten": 4309,
      "gegensatz": 4310,
      "üblich": 4311,
      "shmop": 4312,
      "##conn": 4313,
      "safe_mode": 4314,
      "extract": 4315,
      "regulären": 4316,
      "auswir": 4317,
      "initialisiert": 4318,
      "##grupp": 4319,
      "doppelten": 4320,
      "grösser": 4321,
      "erwartet": 4322,
      "sinn": 4323,
      "##ösung": 4324,
      "description": 4325,
      "recent": 4326,
      "scrollable": 4327,
      "libphp4": 4328,
      "hpux": 4329,
      "decl": 4330,
      "##schläge": 4331,
      "gewünschten": 4332,
      "zuweisung": 4333,
      "titel": 4334,
      "helfen": 4335,
      "anschließend": 4336,
      "##_process": 4337,
      "rollback": 4338,
      "highlight": 4339,
      "interpreter": 4340,
      "häufig": 4341,
      "sdk": 4342,
      "files": 4343,
      "payflow": 4344,
      "repräsentation": 4345,
      "erscheinen": 4346,
      "deskriptor": 4347,
      "minde": 4348,
      "trotz": 4349,
      "##_autocommit": 4350,
      "geprüft": 4351,
      "persön": 4352,
      "ldap_opt_": 4353,
      "nntp": 4354,
      "##scheinlich": 4355,
      "'/": 4356,
      "(/": 4357,
      "='": 4358,
      "_cookie": 4359,
      "ak": 4360,
      "action": 4361,
      "button": 4362,
      "fir": 4363,
      "gut": 4364,
      "gute": 4365,
      "gui": 4366,
      "hay": 4367,
      "janu": 4368,
      "leicht": 4369,
      "mir": 4370,
      "over": 4371,
      "tod": 4372,
      "tick": 4373,
      "utf": 4374,
      "wissen": 4375,
      "zwar": 4376,
      "##xx": 4377,
      "##xy": 4378,
      "##iate": 4379,
      "##sie": 4380,
      "##table": 4381,
      "##ni": 4382,
      "##down": 4383,
      "##_ab": 4384,
      "##_result": 4385,
      "##plode": 4386,
      "##kannt": 4387,
      "##oid": 4388,
      "##action": 4389,
      "##ahmen": 4390,
      "##ca": 4391,
      "##cert": 4392,
      "##cur": 4393,
      "##fäng": 4394,
      "##lor": 4395,
      "##))": 4396,
      "##bl": 4397,
      "##14": 4398,
      "##ösen": 4399,
      "##ename": 4400,
      "##chr": 4401,
      "zuzug": 4402,
      "nachstehen": 4403,
      "nachfolgen": 4404,
      "##steigen": 4405,
      "##esser": 4406,
      "vorber": 4407,
      "phpinfo": 4408,
      "inbox": 4409,
      "##aly": 4410,
      "##fassen": 4411,
      "##fasst": 4412,
      "##ames": 4413,
      "##denken": 4414,
      "erreich": 4415,
      "##sition": 4416,
      "##anisch": 4417,
      "gezeigt": 4418,
      "aussch": 4419,
      "auslesen": 4420,
      "##hler": 4421,
      "sogar": 4422,
      "implode": 4423,
      "##annot": 4424,
      "allow_": 4425,
      "schw": 4426,
      "untere": 4427,
      "benutzung": 4428,
      "##length": 4429,
      "hierbei": 4430,
      "ob_end": 4431,
      "eigenen": 4432,
      "durchlaufen": 4433,
      "serialize": 4434,
      "##_fopen": 4435,
      "zeigen": 4436,
      "##ocol": 4437,
      "##formation": 4438,
      "prim": 4439,
      "##quest": 4440,
      "resultieren": 4441,
      "##_pkcs7": 4442,
      "uner": 4443,
      "unsig": 4444,
      "append_child": 4445,
      "formate": 4446,
      "objekten": 4447,
      "wechsel": 4448,
      "##begrenz": 4449,
      "isapi": 4450,
      "commun": 4451,
      "dbh": 4452,
      "db2": 4453,
      "ocinew": 4454,
      "kompati": 4455,
      "##rifft": 4456,
      "leeren": 4457,
      "ora_exec": 4458,
      "sesam_fetch_row": 4459,
      "zwe": 4460,
      "##grö": 4461,
      "linken": 4462,
      "that": 4463,
      "hinweis": 4464,
      "dokuments": 4465,
      "bitmas": 4466,
      "show": 4467,
      "operation": 4468,
      "ord": 4469,
      "##uploade": 4470,
      "udm_field": 4471,
      "udm_ispell": 4472,
      "socket_listen": 4473,
      "letzter": 4474,
      "##_mess": 4475,
      "filter": 4476,
      "##mals": 4477,
      "packet": 4478,
      "assert": 4479,
      "passwd": 4480,
      "spaltennamen": 4481,
      "##keys": 4482,
      "##cond": 4483,
      "chmod": 4484,
      "gefä": 4485,
      "rechner": 4486,
      "##_insert": 4487,
      "dio": 4488,
      "imap_last_error": 4489,
      "empno": 4490,
      "empfehl": 4491,
      "fpassthru": 4492,
      "gehören": 4493,
      "zusammenhang": 4494,
      "openssl_pkcs7": 4495,
      "explode": 4496,
      "explor": 4497,
      "maximal": 4498,
      "197": 4499,
      "##_blob": 4500,
      "##_table": 4501,
      "blöcke": 4502,
      "backtick": 4503,
      "##estatement": 4504,
      "##_parse": 4505,
      "linie": 4506,
      "##spezi": 4507,
      "aliase": 4508,
      "##wordlist": 4509,
      "vergleichs": 4510,
      "ermitteln": 4511,
      "grad": 4512,
      "session_un": 4513,
      "verschlüsselt": 4514,
      "private": 4515,
      "privaten": 4516,
      "##data_seek": 4517,
      "wddx_": 4518,
      "gesamten": 4519,
      "verändern": 4520,
      "tabellenn": 4521,
      "wahrscheinlich": 4522,
      "character": 4523,
      "hauptsächlich": 4524,
      "##_count": 4525,
      "##tities": 4526,
      "ocicolum": 4527,
      "installationsverzeichnis": 4528,
      "plattformen": 4529,
      "1998": 4530,
      "temporäre": 4531,
      "temporären": 4532,
      "mt_rand": 4533,
      "unterscheidet": 4534,
      "##ave_wordlist": 4535,
      "inklud": 4536,
      "inklusive": 4537,
      "bücher": 4538,
      "download": 4539,
      "salt": 4540,
      "joe": 4541,
      "kombination": 4542,
      "pspell_save_wordlist": 4543,
      "ocifreestatement": 4544,
      "beschreibt": 4545,
      "verzeichniseintrag": 4546,
      "##url_fopen": 4547,
      "virtual": 4548,
      "winkel": 4549,
      "älteren": 4550,
      "##fahren": 4551,
      "angewendet": 4552,
      "notwendig": 4553,
      "##escape_string": 4554,
      "zitrone": 4555,
      "performance": 4556,
      "ocibindbyname": 4557,
      "mindestens": 4558,
      "haystack": 4559,
      "today": 4560,
      "zuzugreifen": 4561,
      "allow_url_fopen": 4562,
      "unsigned": 4563,
      "##uploaded_file": 4564,
      "empfehlen": 4565,
      "explorer": 4566,
      "+=": 4567,
      "24": 4568,
      "_p": 4569,
      "_server": 4570,
      "cert": 4571,
      "dür": 4572,
      "em": 4573,
      "edit": 4574,
      "gan": 4575,
      "gmt": 4576,
      "h1": 4577,
      "ot": 4578,
      "rid": 4579,
      "rsort": 4580,
      "sen": 4581,
      "tex": 4582,
      "uk": 4583,
      "write": 4584,
      "ziel": 4585,
      "##ion": 4586,
      "##ift": 4587,
      "##s2": 4588,
      "##ssi": 4589,
      "##twort": 4590,
      "##ee": 4591,
      "##ehler": 4592,
      "##reichen": 4593,
      "##dt": 4594,
      "##_ver": 4595,
      "##_str": 4596,
      "##_quotes": 4597,
      "##_buffer": 4598,
      "##here": 4599,
      "##com": 4600,
      "##uen": 4601,
      "##uer": 4602,
      "##lei": 4603,
      "##met": 4604,
      "##zähl": 4605,
      "##ystemen": 4606,
      "##vert": 4607,
      "##view": 4608,
      "##both": 4609,
      "##ätz": 4610,
      "##änder": 4611,
      "##48": 4612,
      "##24": 4613,
      "##ße": 4614,
      "##enter": 4615,
      "##cht": 4616,
      "##ied": 4617,
      "zufalls": 4618,
      "##stmt": 4619,
      "vornehmen": 4620,
      "analy": 4621,
      "antwort": 4622,
      "verste": 4623,
      "versch": 4624,
      "verges": 4625,
      "verstehen": 4626,
      "##tents": 4627,
      "##buchstaben": 4628,
      "erster": 4629,
      "##rase": 4630,
      "##raum": 4631,
      "##steme": 4632,
      "##ree": 4633,
      "##referenz": 4634,
      "##register": 4635,
      "##ompare": 4636,
      "std": 4637,
      "stop": 4638,
      "stunden": 4639,
      "struct": 4640,
      "##asc": 4641,
      "##insert": 4642,
      "bedenken": 4643,
      "##ierungen": 4644,
      "##rochen": 4645,
      "##hem": 4646,
      "##heben": 4647,
      "immed": 4648,
      "ext": 4649,
      "array2": 4650,
      "schicken": 4651,
      "umgesetzt": 4652,
      "entry": 4653,
      "limit": 4654,
      "reference": 4655,
      "##_cache": 4656,
      "mydb": 4657,
      "##ypen": 4658,
      "##utdown": 4659,
      "##imm": 4660,
      "##tern": 4661,
      "sektion": 4662,
      "kommen": 4663,
      "zeilenn": 4664,
      "##cept": 4665,
      "##isches": 4666,
      "response": 4667,
      "##_put": 4668,
      "options": 4669,
      "pg_fetch_array": 4670,
      "memory": 4671,
      "masch": 4672,
      "magi": 4673,
      "weiterhin": 4674,
      "wegen": 4675,
      "zurückgegebenen": 4676,
      "str1": 4677,
      "pdf_moveto": 4678,
      "author": 4679,
      "sqlstate": 4680,
      "##räuch": 4681,
      "ingres_connect": 4682,
      "zweiter": 4683,
      "##ärer": 4684,
      "fbsql": 4685,
      "passiert": 4686,
      "endet": 4687,
      "selbe": 4688,
      "##rechen": 4689,
      "aufrufs": 4690,
      "operationen": 4691,
      "suchm": 4692,
      "direkte": 4693,
      "speicherse": 4694,
      "rowid": 4695,
      "rowcount": 4696,
      "##logoff": 4697,
      "größte": 4698,
      "gemäß": 4699,
      "festzu": 4700,
      "programme": 4701,
      "ftp_": 4702,
      "quad": 4703,
      "imap_delete": 4704,
      "sortier": 4705,
      "zip_read": 4706,
      "##irect": 4707,
      "pspell_check": 4708,
      "is_object": 4709,
      "gebräuch": 4710,
      "##lined": 4711,
      "blobs": 4712,
      "faktor": 4713,
      "##codes": 4714,
      "befehls": 4715,
      "verbesser": 4716,
      "speziellen": 4717,
      "sicherheits": 4718,
      "möchte": 4719,
      "außerhalb": 4720,
      "irgendw": 4721,
      "##create_db": 4722,
      "implement": 4723,
      "auftauch": 4724,
      ".\";}": 4725,
      "basisklasse": 4726,
      "##randmax": 4727,
      "umgebungsvariable": 4728,
      "create_function": 4729,
      "vollständig": 4730,
      "escapen": 4731,
      "reguläre": 4732,
      "anwend": 4733,
      "##gangen": 4734,
      "kodierung": 4735,
      "##hoben": 4736,
      "doppelte": 4737,
      "messages": 4738,
      "kommentare": 4739,
      "herauszu": 4740,
      "offene": 4741,
      "##tablename": 4742,
      "unserialize": 4743,
      "][\"": 4744,
      "weshalb": 4745,
      "##fäll": 4746,
      "##walk": 4747,
      "länger": 4748,
      "##sichtigt": 4749,
      "gestar": 4750,
      "farbwert": 4751,
      "aufzubauen": 4752,
      "ocicoll": 4753,
      "übertragen": 4754,
      "kleines": 4755,
      "dictionaries": 4756,
      "ungültig": 4757,
      "weniger": 4758,
      "domnode_ap": 4759,
      "mathem": 4760,
      "julianischen": 4761,
      "zaehler": 4762,
      "integri": 4763,
      "syslog": 4764,
      "gleichzeitig": 4765,
      "voreingestellt": 4766,
      "ziemlich": 4767,
      "semaph": 4768,
      "mechanismus": 4769,
      "##_tables": 4770,
      "gregorian": 4771,
      "egal": 4772,
      "netzwerk": 4773,
      "whence": 4774,
      "nachkommastellen": 4775,
      "declare": 4776,
      "trotzdem": 4777,
      "firma": 4778,
      "_post": 4779,
      "dürfen": 4780,
      "ganze": 4781,
      "sensi": 4782,
      "vergessen": 4783,
      "immediate": 4784,
      "zeilennummer": 4785,
      "domnode_append_child": 4786,
      "\"?": 4787,
      "').": 4788,
      "(???)": 4789,
      "98": 4790,
      "bs2": 4791,
      "cannot": 4792,
      "ft_": 4793,
      "gc": 4794,
      "iodbc": 4795,
      "jp": 4796,
      "ksort": 4797,
      "lc_": 4798,
      "mache": 4799,
      "old": 4800,
      "pse": 4801,
      "pad": 4802,
      "pid": 4803,
      "pix": 4804,
      "richt": 4805,
      "rows": 4806,
      "sam": 4807,
      "sicht": 4808,
      "slash": 4809,
      "stil": 4810,
      "sscanf": 4811,
      "tri": 4812,
      "unk": 4813,
      "uhr": 4814,
      "wich": 4815,
      "year": 4816,
      "##sultieren": 4817,
      "##näch": 4818,
      "##nspar": 4819,
      "##drop": 4820,
      "##_object": 4821,
      "##hnt": 4822,
      "##hab": 4823,
      "##atiert": 4824,
      "##gid": 4825,
      "##case": 4826,
      "##class": 4827,
      "##ution": 4828,
      "##use": 4829,
      "##math": 4830,
      "##zess": 4831,
      "##yy": 4832,
      "##=-": 4833,
      "##bte": 4834,
      "##wa": 4835,
      "##52": 4836,
      "##öst": 4837,
      "zunäch": 4838,
      "##nete": 4839,
      "##orial": 4840,
      "##store": 4841,
      "##esult": 4842,
      "voran": 4843,
      "vorange": 4844,
      "anlegen": 4845,
      "verl": 4846,
      "verisi": 4847,
      "verwand": 4848,
      "versie": 4849,
      "##gex": 4850,
      "in_array": 4851,
      "##ichtet": 4852,
      "einbinden": 4853,
      "erne": 4854,
      "erlä": 4855,
      "##gendet": 4856,
      "aufgrund": 4857,
      "arsort": 4858,
      "gelt": 4859,
      "geht": 4860,
      "stat": 4861,
      "stati": 4862,
      "stunde": 4863,
      "deut": 4864,
      "##inen": 4865,
      "##igung": 4866,
      "array_m": 4867,
      "##basi": 4868,
      "##baum": 4869,
      "schrift": 4870,
      "entschl": 4871,
      "entnehmen": 4872,
      "anderer": 4873,
      "readf": 4874,
      "regex": 4875,
      "##ctl": 4876,
      "##ctor": 4877,
      "abgeb": 4878,
      "abarbeitung": 4879,
      "untersch": 4880,
      "##html": 4881,
      "##weight": 4882,
      "konsultieren": 4883,
      "##filename": 4884,
      "fehlertext": 4885,
      "(\"{": 4886,
      "##utf": 4887,
      "argumenten": 4888,
      "##warning": 4889,
      "mysql_close": 4890,
      "mysql_pconnect": 4891,
      "mysql_insert": 4892,
      "##pty": 4893,
      "seek": 4894,
      "durchsuch": 4895,
      "htm": 4896,
      "##_flush": 4897,
      "##ced": 4898,
      "ergebnissen": 4899,
      "##_pad": 4900,
      "unver": 4901,
      "##istory": 4902,
      "##ützt": 4903,
      "session_name": 4904,
      "##_date": 4905,
      "##entlichen": 4906,
      "formatiert": 4907,
      "##behand": 4908,
      "str2": 4909,
      "str_pad": 4910,
      "##iled": 4911,
      "mehrer": 4912,
      "named": 4913,
      "genug": 4914,
      "pdf_sh": 4915,
      "pdf_lineto": 4916,
      "is_string": 4917,
      "is_do": 4918,
      "interfa": 4919,
      "jemand": 4920,
      "manuell": 4921,
      "##ungsbereich": 4922,
      "autocommit": 4923,
      "##num_fields": 4924,
      "personal": 4925,
      "##_repl": 4926,
      "level": 4927,
      "ora_fetch": 4928,
      "##angaben": 4929,
      "cpdf_open": 4930,
      "point": 4931,
      "gethost": 4932,
      "get_class": 4933,
      "##ries": 4934,
      "erzeugten": 4935,
      "daran": 4936,
      "darstellt": 4937,
      "darstellung": 4938,
      "\";}?": 4939,
      "short": 4940,
      "gelb": 4941,
      "##_save_path": 4942,
      "sucht": 4943,
      "location": 4944,
      "zugriffe": 4945,
      "imagep": 4946,
      "irgendet": 4947,
      "conn_id": 4948,
      "msql_connect": 4949,
      "pack": 4950,
      "();?": 4951,
      "asort": 4952,
      "('$": 4953,
      "##zep": 4954,
      "##fore": 4955,
      "##plizi": 4956,
      "farben": 4957,
      "clients": 4958,
      "clientsei": 4959,
      "quick_print": 4960,
      "submit": 4961,
      "etwa": 4962,
      "disp": 4963,
      "##alisierung": 4964,
      "preg": 4965,
      "erreichen": 4966,
      "errno": 4967,
      "addtype": 4968,
      "bezeichneten": 4969,
      "array_un": 4970,
      "gefundenen": 4971,
      "is_int": 4972,
      "zugehö": 4973,
      "unterschiedlich": 4974,
      "failed": 4975,
      "webservers": 4976,
      "online": 4977,
      "objects": 4978,
      "##afy": 4979,
      "expression": 4980,
      "bindet": 4981,
      "##_ret": 4982,
      "##affen": 4983,
      "würden": 4984,
      "extends": 4985,
      "##output": 4986,
      "...}": 4987,
      "ifx_connect": 4988,
      "dbx_connect": 4989,
      "protokolle": 4990,
      "##c_quotes": 4991,
      "erstes": 4992,
      "globals": 4993,
      "globalref": 4994,
      "cursors": 4995,
      "notice": 4996,
      "##_inet": 4997,
      "aufgetretenen": 4998,
      "natsort": 4999,
      "blocks": 5000,
      "##byte": 5001,
      "vorhergehen": 5002,
      "abgelegt": 5003,
      "merkmals": 5004,
      "escapes": 5005,
      "given": 5006,
      "entfernen": 5007,
      "##ompress": 5008,
      "lesbar": 5009,
      "constant": 5010,
      "kennwort": 5011,
      "lesezugriff": 5012,
      "rfc20": 5013,
      "alternativ": 5014,
      "callback": 5015,
      "begrenzt": 5016,
      "##_limiter": 5017,
      "##waltung": 5018,
      "unterscheiden": 5019,
      "pg_connection": 5020,
      "af_inet": 5021,
      "udm_param_": 5022,
      "msql_fetch_row": 5023,
      "symboltabelle": 5024,
      "##operator": 5025,
      "dekod": 5026,
      "redirect": 5027,
      "woche": 5028,
      "einzige": 5029,
      "einzigen": 5030,
      "abstra": 5031,
      "prakti": 5032,
      "berücksichtigt": 5033,
      "entfernten": 5034,
      "datenbankverbindung": 5035,
      "komponente": 5036,
      "menge": 5037,
      "tutorial": 5038,
      "füllfarbe": 5039,
      "##_desc": 5040,
      "strtoupper": 5041,
      "hätte": 5042,
      "trennzeichen": 5043,
      "##147": 5044,
      "erreicht": 5045,
      "##begrenzung": 5046,
      "##größe": 5047,
      "session_unregister": 5048,
      "magic_quotes": 5049,
      "festzulegen": 5050,
      "irgendwel": 5051,
      "implementation": 5052,
      "auftauchen": 5053,
      "herauszufinden": 5054,
      "bs2000": 5055,
      "pseu": 5056,
      "zunächst": 5057,
      "verisign": 5058,
      "erläut": 5059,
      "geltungsbereich": 5060,
      "readfile": 5061,
      "abgebrochen": 5062,
      "mysql_insert_id": 5063,
      "is_double": 5064,
      "irgendetwas": 5065,
      "'=": 5066,
      ",...": 5067,
      "2147": 5068,
      ";?": 5069,
      "cvs": 5070,
      "copy": 5071,
      "dre": 5072,
      "drop": 5073,
      "ename": 5074,
      "fhttpd": 5075,
      "kennt": 5076,
      "lösung": 5077,
      "mm": 5078,
      "mask": 5079,
      "pc": 5080,
      "sper": 5081,
      "tt": 5082,
      "tim": 5083,
      "tiger": 5084,
      "änd": 5085,
      "##izi": 5086,
      "##sb": 5087,
      "##save_": 5088,
      "##nr": 5089,
      "##nz": 5090,
      "##_1": 5091,
      "##_un": 5092,
      "##_vor": 5093,
      "##_log": 5094,
      "##_new": 5095,
      "##_write": 5096,
      "##_attribute": 5097,
      "##_run": 5098,
      "##pos": 5099,
      "##ku": 5100,
      "##kon": 5101,
      "##hle": 5102,
      "##haf": 5103,
      "##haft": 5104,
      "##ging": 5105,
      "##cat": 5106,
      "##cord": 5107,
      "##fs": 5108,
      "##lungen": 5109,
      "##zw": 5110,
      "##yle": 5111,
      "##vi": 5112,
      "##brü": 5113,
      "##blob": 5114,
      "##($": 5115,
      "##wis": 5116,
      "##wick": 5117,
      "##width": 5118,
      "##\")": 5119,
      "##364": 5120,
      "##92": 5121,
      "##jd": 5122,
      "##enti": 5123,
      "##erungen": 5124,
      "##change": 5125,
      "##eing": 5126,
      "##ney": 5127,
      "##oname": 5128,
      "##tinu": 5129,
      "vorge": 5130,
      "vorgesehen": 5131,
      "vorschläge": 5132,
      "##teger": 5133,
      "##unge": 5134,
      "anot": 5135,
      "##aris": 5136,
      "veran": 5137,
      "verhält": 5138,
      "verarbeitet": 5139,
      "verweisen": 5140,
      "inode": 5141,
      "##ichte": 5142,
      "##buchstab": 5143,
      "einz": 5144,
      "einigen": 5145,
      "##lex": 5146,
      "##leger": 5147,
      "erfordert": 5148,
      "##siv": 5149,
      "##span": 5150,
      "##define": 5151,
      "##riti": 5152,
      "##ribe": 5153,
      "##anweis": 5154,
      "are": 5155,
      "ged": 5156,
      "##scher": 5157,
      "mittel": 5158,
      "denselben": 5159,
      "##omain": 5160,
      "dep": 5161,
      "dept": 5162,
      "dekomp": 5163,
      "befe": 5164,
      "auswert": 5165,
      "ausgesch": 5166,
      "##olon": 5167,
      "##eits": 5168,
      "##is_register": 5169,
      "##lic": 5170,
      "##limit": 5171,
      "schwer": 5172,
      "schaltet": 5173,
      "umask": 5174,
      "##verwaltung": 5175,
      "replace": 5176,
      "##ausch": 5177,
      "##ausen": 5178,
      "übern": 5179,
      "##_client_": 5180,
      "abkürz": 5181,
      "mytable": 5182,
      "##lentities": 5183,
      "fehlschlä": 5184,
      "parse": 5185,
      "parsen": 5186,
      "varchar": 5187,
      "##stellte": 5188,
      "wurzel": 5189,
      "hierfür": 5190,
      "keiner": 5191,
      "echoname": 5192,
      "gespeich": 5193,
      "mysql_errno": 5194,
      "seen": 5195,
      "segment": 5196,
      "second": 5197,
      "##ading": 5198,
      "datenbankhandle": 5199,
      "##führten": 5200,
      "##ieferte": 5201,
      "servern": 5202,
      "##que": 5203,
      "unbe": 5204,
      "##edur": 5205,
      "##cision": 5206,
      "##_dis": 5207,
      "##agement": 5208,
      "##ings": 5209,
      "##ingen": 5210,
      "erweiterte": 5211,
      "wege": 5212,
      "http_": 5213,
      "##behalten": 5214,
      "##bestand": 5215,
      "benutzerdefin": 5216,
      "strr": 5217,
      "##tigung": 5218,
      "dirname": 5219,
      "is_in": 5220,
      "feldtyp": 5221,
      "comm": 5222,
      "comput": 5223,
      "command": 5224,
      "pdf_closepath": 5225,
      "autog": 5226,
      "oci_b": 5227,
      "oci_de": 5228,
      "ocilogoff": 5229,
      "kompatibilität": 5230,
      "##ktiven": 5231,
      "##mac": 5232,
      "leafy": 5233,
      "ora_parse": 5234,
      "sesam_exec": 5235,
      "users": 5236,
      "ingres_close": 5237,
      "gleichwer": 5238,
      "geschieht": 5239,
      "geschichte": 5240,
      "verbindungsan": 5241,
      "webs": 5242,
      "\").": 5243,
      "dargestellt": 5244,
      "admin": 5245,
      "fbsql_field": 5246,
      "##zeichenket": 5247,
      "transpar": 5248,
      "gelieferten": 5249,
      "urlencode": 5250,
      "übergebene": 5251,
      "eingeba": 5252,
      "##ktions": 5253,
      "odbc_exec": 5254,
      "setup": 5255,
      "betre": 5256,
      "\"],": 5257,
      "\"][": 5258,
      "##_mod": 5259,
      "prozesse": 5260,
      "include_path": 5261,
      "##ices": 5262,
      "##ausführung": 5263,
      "colspan": 5264,
      "feststellen": 5265,
      "referenziert": 5266,
      "eingel": 5267,
      ";}}": 5268,
      "nutzt": 5269,
      "##_init": 5270,
      "wiederher": 5271,
      "pspell_config_repl": 5272,
      "sortierung": 5273,
      "grundbestand": 5274,
      "spezifizierte": 5275,
      "method": 5276,
      "ldap_next_": 5277,
      "basic": 5278,
      "curs": 5279,
      "solaris": 5280,
      "fieldname": 5281,
      "errstmt": 5282,
      "teilzeichenket": 5283,
      "anfragen": 5284,
      "array_walk": 5285,
      "leeres": 5286,
      "is_long": 5287,
      "##options": 5288,
      "tritt": 5289,
      "freigeben": 5290,
      "error_log": 5291,
      "protocol": 5292,
      "only": 5293,
      "object_id": 5294,
      "++$": 5295,
      "##module": 5296,
      "fdf_open": 5297,
      "konvertierung": 5298,
      "valid": 5299,
      "##thread": 5300,
      "zero": 5301,
      "kopie": 5302,
      "##ritten": 5303,
      "ifx_text": 5304,
      "artnr": 5305,
      "work": 5306,
      "worten": 5307,
      "außerdem": 5308,
      "irgendwo": 5309,
      "cpdf_closepath": 5310,
      "build": 5311,
      "jahres": 5312,
      "not_": 5313,
      "pdf_set_info": 5314,
      "gelesenen": 5315,
      "korrekte": 5316,
      "binärdaten": 5317,
      "ungleich": 5318,
      "winnt": 5319,
      "semik": 5320,
      "mcrypt_": 5321,
      "dlls": 5322,
      "braucht": 5323,
      "signat": 5324,
      "##arbeiter": 5325,
      "session_is_register": 5326,
      "komplett": 5327,
      "langsamer": 5328,
      "##ahre": 5329,
      "regulärer": 5330,
      "##sichtlich": 5331,
      "auswahl": 5332,
      "auswählen": 5333,
      "##----": 5334,
      "base64": 5335,
      "negative": 5336,
      "##_params": 5337,
      "access": 5338,
      "fragen": 5339,
      "bleiben": 5340,
      "bcmath": 5341,
      "cacheverwaltung": 5342,
      "##hone": 5343,
      "##alloc_agent": 5344,
      "effizi": 5345,
      "##sprache": 5346,
      "##testet": 5347,
      "macros": 5348,
      "applikation": 5349,
      "##loaded": 5350,
      "imagecreatefr": 5351,
      "catalog": 5352,
      "php_auth": 5353,
      "komprimierte": 5354,
      "udm_alloc_agent": 5355,
      "abfrageergebnisses": 5356,
      "attributes": 5357,
      "msql_fetch_array": 5358,
      "dekrement": 5359,
      "berechnet": 5360,
      "disable": 5361,
      "absoluten": 5362,
      "allgemeinen": 5363,
      "ausgab": 5364,
      "dbx_cmp": 5365,
      "##_cookie_params": 5366,
      "vordefinierte": 5367,
      "verwendete": 5368,
      "einschränkung": 5369,
      "##drückt": 5370,
      "leist": 5371,
      "gegenwärtig": 5372,
      "zurückliefern": 5373,
      "ingres_num_fields": 5374,
      "community": 5375,
      "kompatib": 5376,
      "zweck": 5377,
      "bitmaske": 5378,
      "##_messages": 5379,
      "inkludiert": 5380,
      "##48364": 5381,
      "suchmuster": 5382,
      "quadrat": 5383,
      "gestartet": 5384,
      "mathematisch": 5385,
      "semaphore": 5386,
      "pixel": 5387,
      "uhrzeit": 5388,
      "##drop_db": 5389,
      "htmlentities": 5390,
      "interface": 5391,
      "escapeshell": 5392,
      "pseudo": 5393,
      "214748364": 5394,
      "ändert": 5395,
      "##brüche": 5396,
      "another": 5397,
      "dekomprim": 5398,
      "befehle": 5399,
      "fehlschlägt": 5400,
      "is_integer": 5401,
      "oci_default": 5402,
      "sesam_execimm": 5403,
      "semikolon": 5404,
      "session_is_registered": 5405,
      "\"'": 5406,
      "-$": 5407,
      ".=": 5408,
      ".'": 5409,
      "02": 5410,
      "26": 5411,
      "54": 5412,
      "],": 5413,
      "_get": 5414,
      "atime": 5415,
      "border": 5416,
      "cn": 5417,
      "ca": 5418,
      "cal": 5419,
      "dri": 5420,
      "fam": 5421,
      "flex": 5422,
      "go": 5423,
      "habe": 5424,
      "jd": 5425,
      "jen": 5426,
      "kü": 5427,
      "kind": 5428,
      "pi": 5429,
      "pk": 5430,
      "pal": 5431,
      "pfa": 5432,
      "pear": 5433,
      "rang": 5434,
      "range": 5435,
      "sum": 5436,
      "sing": 5437,
      "tm": 5438,
      "ten": 5439,
      "via": 5440,
      "void": 5441,
      "##ef": 5442,
      "##egi": 5443,
      "##ret": 5444,
      "##_e": 5445,
      "##_row": 5446,
      "##_ma": 5447,
      "##_version": 5448,
      "##_type_": 5449,
      "##konst": 5450,
      "##ock": 5451,
      "##ogen": 5452,
      "##ound": 5453,
      "##hrase": 5454,
      "##criptor": 5455,
      "##cmd": 5456,
      "##ufe": 5457,
      "##fte": 5458,
      "##ften": 5459,
      "##fäch": 5460,
      "##yn": 5461,
      "##yper": 5462,
      "##v_": 5463,
      "##values": 5464,
      "##bung": 5465,
      "##border": 5466,
      "##weiter": 5467,
      "##wörter": 5468,
      "##66": 5469,
      "##60": 5470,
      "##.$": 5471,
      "##ente": 5472,
      "##ered": 5473,
      "##chte": 5474,
      "##iehen": 5475,
      "##ndel": 5476,
      "##onnen": 5477,
      "##ort_": 5478,
      "zurückzu": 5479,
      "##esatz": 5480,
      "vorgenommen": 5481,
      "eink": 5482,
      "##ungsp": 5483,
      "##arten": 5484,
      "verlang": 5485,
      "verarbeitung": 5486,
      "##getp": 5487,
      "##geord": 5488,
      "##ali": 5489,
      "##etra": 5490,
      "handling": 5491,
      "einfügen": 5492,
      "##ntype": 5493,
      "##urt": 5494,
      "erkannt": 5495,
      "erzw": 5496,
      "eregi": 5497,
      "##irm": 5498,
      "##ration": 5499,
      "##sin": 5500,
      "##sieren": 5501,
      "##speich": 5502,
      "##steuerung": 5503,
      "##ater": 5504,
      "##atei": 5505,
      "##schlag": 5506,
      "##schirm": 5507,
      "##abil": 5508,
      "##redit": 5509,
      "##restore": 5510,
      "stro": 5511,
      "##ascii": 5512,
      "dev": 5513,
      "##inhalt": 5514,
      "beend": 5515,
      "bestä": 5516,
      "bearbeiten": 5517,
      "ausnahme": 5518,
      "implizit": 5519,
      "fügen": 5520,
      "fünf": 5521,
      "exe": 5522,
      "exakt": 5523,
      "warum": 5524,
      "##meric": 5525,
      "sichere": 5526,
      "schritt": 5527,
      "umsetz": 5528,
      "entschei": 5529,
      "##_clean": 5530,
      "step": 5531,
      "steuerung": 5532,
      "parall": 5533,
      "##fix_": 5534,
      "##filter": 5535,
      "angeforder": 5536,
      "angewiesen": 5537,
      "gesuch": 5538,
      "mysql_c": 5539,
      "mysql_db": 5540,
      "optim": 5541,
      "##lay": 5542,
      "profile": 5543,
      "##_float": 5544,
      "##zeichnen": 5545,
      "ergebnisbezeichner": 5546,
      "##_port": 5547,
      "session_cache": 5548,
      "erwä": 5549,
      "##fragen": 5550,
      "##entiell": 5551,
      "seiner": 5552,
      "socket_connect": 5553,
      "socket_read": 5554,
      "##beere": 5555,
      "benutzern": 5556,
      "strcmp": 5557,
      "mehrdimension": 5558,
      "instru": 5559,
      "##tigungen": 5560,
      "is_re": 5561,
      "is_float": 5562,
      "interess": 5563,
      "ldap_connect": 5564,
      "postfäch": 5565,
      "autor": 5566,
      "installationen": 5567,
      "##swert": 5568,
      "textuelle": 5569,
      "##angabe": 5570,
      "cpdf_text": 5571,
      "ingres_field": 5572,
      "imap_close": 5573,
      "ausgew": 5574,
      "speci": 5575,
      "system32": 5576,
      "##gether": 5577,
      "darin": 5578,
      "hinweise": 5579,
      "##build": 5580,
      "fbsql_error": 5581,
      "bits": 5582,
      "lädt": 5583,
      "short_": 5584,
      "klar": 5585,
      "##_convert": 5586,
      "bzopen": 5587,
      "##werten": 5588,
      "odbc_connect": 5589,
      "##_fetch_result": 5590,
      "welchem": 5591,
      "aktiven": 5592,
      "speicherblock": 5593,
      "libc": 5594,
      "udm_c": 5595,
      "openlog": 5596,
      "\"]);": 5597,
      "##prüfung": 5598,
      "msql_list": 5599,
      "msql_field": 5600,
      "1024": 5601,
      "prozedur": 5602,
      "paare": 5603,
      "##ausgabe": 5604,
      "spaltenname": 5605,
      "tools": 5606,
      "automatische": 5607,
      "##keyid": 5608,
      "eingetra": 5609,
      "normalen": 5610,
      "rückgabewerte": 5611,
      "welchen": 5612,
      "127": 5613,
      "empfäng": 5614,
      "enc": 5615,
      "encoding": 5616,
      "zip_open": 5617,
      "mssql_connect": 5618,
      "alte": 5619,
      "algorithmus": 5620,
      "##_dbs": 5621,
      "addslashes": 5622,
      "ebenso": 5623,
      "pspell_add_": 5624,
      "portnummer": 5625,
      "##dentifier": 5626,
      "plus": 5627,
      "anfrageergebnis": 5628,
      "faq": 5629,
      "openssl_get_": 5630,
      "freigabe": 5631,
      "logische": 5632,
      "fdf_get_value": 5633,
      "bindung": 5634,
      "move_": 5635,
      "weist": 5636,
      "##riter": 5637,
      "formulars": 5638,
      "##errorm": 5639,
      "routi": 5640,
      "srand": 5641,
      "ifx_pconnect": 5642,
      "behandlung": 5643,
      "dbx_close": 5644,
      "auszuführen": 5645,
      "bildschirm": 5646,
      "stark": 5647,
      "debuggen": 5648,
      "pdf_set_border": 5649,
      "substr_replace": 5650,
      "domdocument_": 5651,
      "##_identifier": 5652,
      "imgname": 5653,
      "vergleiche": 5654,
      "##platz": 5655,
      "entwicklung": 5656,
      "bogen": 5657,
      "cpdf_setgray": 5658,
      "gründen": 5659,
      "signi": 5660,
      "deleted": 5661,
      "create_element": 5662,
      "margin": 5663,
      "kompletten": 5664,
      "##rennt": 5665,
      "pdf_setgray": 5666,
      "deaktivieren": 5667,
      "sequentiell": 5668,
      "konstruktoren": 5669,
      "eingebet": 5670,
      "activ": 5671,
      "frage": 5672,
      "bekannte": 5673,
      "funktionsnamens": 5674,
      "beschriebenen": 5675,
      "zugriffsrechte": 5676,
      "kommandozeilen": 5677,
      "beliebig": 5678,
      "beliebigen": 5679,
      "modifiz": 5680,
      "modifiziert": 5681,
      "bestehenden": 5682,
      "externe": 5683,
      "ganzen": 5684,
      "lesend": 5685,
      "##tity": 5686,
      "##ow_xy": 5687,
      "##_prefix_": 5688,
      "##anisation": 5689,
      "kategorien": 5690,
      "mysql_list_tables": 5691,
      "passend": 5692,
      "kurzform": 5693,
      "teile": 5694,
      "servlet": 5695,
      "libpq": 5696,
      "alpha": 5697,
      "alphanu": 5698,
      "features": 5699,
      "fäh": 5700,
      "super": 5701,
      "##seite": 5702,
      "seinem": 5703,
      "serialisieren": 5704,
      "formatierung": 5705,
      "##teile": 5706,
      "eingeschlossen": 5707,
      "markiert": 5708,
      "erklärt": 5709,
      "erklärung": 5710,
      "crc": 5711,
      "dictionary": 5712,
      "cybermut_cre": 5713,
      "##_expunge": 5714,
      "mssql_fetch_row": 5715,
      "anonymen": 5716,
      "ausgaben": 5717,
      "übersetzung": 5718,
      "eventuell": 5719,
      "effekt": 5720,
      "übermittelt": 5721,
      "betrachtet": 5722,
      "2001": 5723,
      "machine": 5724,
      "##_notice": 5725,
      "vertrauen": 5726,
      "stristr": 5727,
      "projekten": 5728,
      "oktal": 5729,
      "vorliegen": 5730,
      "moduls": 5731,
      "rgb": 5732,
      "##windigkeit": 5733,
      "release": 5734,
      "geholt": 5735,
      "compiler": 5736,
      "hexadezimal": 5737,
      "ähnliche": 5738,
      "##_sign": 5739,
      "##cessing": 5740,
      "extr_prefix_": 5741,
      "entpacken": 5742,
      "durchzuführen": 5743,
      "http_post_files": 5744,
      "strnat": 5745,
      "sinnvoll": 5746,
      "januar": 5747,
      "ob_end_flush": 5748,
      "wechseln": 5749,
      "1970": 5750,
      "tabellenname": 5751,
      "maschinen": 5752,
      "richtung": 5753,
      "##casecmp": 5754,
      "##=-=-": 5755,
      "versiegel": 5756,
      "array_map": 5757,
      "##behandlung": 5758,
      "mehrerer": 5759,
      "zugehörigen": 5760,
      "abkürzung": 5761,
      "ifx_textasvarchar": 5762,
      "not_null": 5763,
      "ausgabesatz": 5764,
      "escapeshellcmd": 5765,
      "single": 5766,
      "beendigung": 5767,
      "is_real": 5768,
      "eingetragen": 5769,
      "pspell_add_to": 5770,
      "move_uploaded_file": 5771,
      "alphanumer": 5772,
      "cybermut_creer": 5773,
      "\"\".": 5774,
      "${": 5775,
      "''": 5776,
      "(\\": 5777,
      ")?": 5778,
      "-\"": 5779,
      "03": 5780,
      "27": 5781,
      "22": 5782,
      "bas": 5783,
      "big": 5784,
      "baut": 5785,
      "chr": 5786,
      "center": 5787,
      "dns": 5788,
      "eof": 5789,
      "fri": 5790,
      "fort": 5791,
      "fput": 5792,
      "flash": 5793,
      "gm": 5794,
      "hal": 5795,
      "has": 5796,
      "heute": 5797,
      "history": 5798,
      "jahre": 5799,
      "mis": 5800,
      "mäch": 5801,
      "muster": 5802,
      "nob": 5803,
      "one": 5804,
      "rv": 5805,
      "trägt": 5806,
      "ux": 5807,
      "vis": 5808,
      "zt": 5809,
      "zield": 5810,
      "}\",": 5811,
      "##xs": 5812,
      "##isten": 5813,
      "##sache": 5814,
      "##sub": 5815,
      "##rt": 5816,
      "##renn": 5817,
      "##nn": 5818,
      "##nal": 5819,
      "##nit": 5820,
      "##_h": 5821,
      "##_y": 5822,
      "##_ar": 5823,
      "##_len": 5824,
      "##_be": 5825,
      "##_ac": 5826,
      "##_node": 5827,
      "##_order": 5828,
      "##_root": 5829,
      "##_headers": 5830,
      "##_warning": 5831,
      "##pe": 5832,
      "##pa": 5833,
      "##pc": 5834,
      "##pert": 5835,
      "##heren": 5836,
      "##hurt": 5837,
      "##aster": 5838,
      "##cash": 5839,
      "##uc": 5840,
      "##uß": 5841,
      "##uage": 5842,
      "##uese": 5843,
      "##fl": 5844,
      "##lern": 5845,
      "##lösen": 5846,
      "##mung": 5847,
      "##mann": 5848,
      "##zer": 5849,
      "##zim": 5850,
      "##besch": 5851,
      "##breite": 5852,
      "##blick": 5853,
      "##üglich": 5854,
      "##ägt": 5855,
      "##()": 5856,
      "##wi": 5857,
      "##weit": 5858,
      "##wave": 5859,
      "##89": 5860,
      "##822": 5861,
      "##59": 5862,
      "##jj": 5863,
      "##jen": 5864,
      "##}}": 5865,
      "##+$": 5866,
      "##chse": 5867,
      "zudem": 5868,
      "zufäll": 5869,
      "##nde": 5870,
      "##ore_": 5871,
      "##stausch": 5872,
      "##esetzt": 5873,
      "vorgehen": 5874,
      "voreinstellung": 5875,
      "vorkommt": 5876,
      "annahme": 5877,
      "day": 5878,
      "verwir": 5879,
      "verleger": 5880,
      "##ged": 5881,
      "inlined": 5882,
      "##factor": 5883,
      "##fangen": 5884,
      "##urn": 5885,
      "##ley": 5886,
      "##leading": 5887,
      "erken": 5888,
      "beibehalten": 5889,
      "wirkt": 5890,
      "stor": 5891,
      "decod": 5892,
      "devel": 5893,
      "##inat": 5894,
      "beab": 5895,
      "bewir": 5896,
      "##ennen": 5897,
      "##ennamen": 5898,
      "##olower": 5899,
      "##hlt": 5900,
      "array_d": 5901,
      "##loadf": 5902,
      "waren": 5903,
      "##merge": 5904,
      "seinen": 5905,
      "warnungen": 5906,
      "##ltern": 5907,
      "sche": 5908,
      "schrei": 5909,
      "umgang": 5910,
      "##cts": 5911,
      "##ierter": 5912,
      "##auer": 5913,
      "übergabe": 5914,
      "##_col": 5915,
      "##_clob": 5916,
      "unterhalb": 5917,
      "untergeord": 5918,
      "spanisch": 5919,
      "spinat": 5920,
      "##allheaders": 5921,
      "param": 5922,
      "vari": 5923,
      "verbindet": 5924,
      "##umcols": 5925,
      "##fischen": 5926,
      "fehlercodes": 5927,
      "\",\"": 5928,
      "angehängt": 5929,
      "anderem": 5930,
      "echovalue": 5931,
      "mysql_tablename": 5932,
      "##respo": 5933,
      "sele": 5934,
      "serial": 5935,
      "proced": 5936,
      "komma": 5937,
      "##uld": 5938,
      "##führende": 5939,
      "##formationen": 5940,
      "##_php": 5941,
      "unbed": 5942,
      "##edoc": 5943,
      "syn": 5944,
      "pg_fetch_row": 5945,
      "schlägt": 5946,
      "falle": 5947,
      "##_draw": 5948,
      "##entries": 5949,
      "forms": 5950,
      "weitergegeben": 5951,
      "##mem": 5952,
      "##memory": 5953,
      "http_user": 5954,
      "##ordnet": 5955,
      "##olle": 5956,
      "##endar": 5957,
      "genommen": 5958,
      "pdf_get_": 5959,
      "indire": 5960,
      "ldap_first": 5961,
      "ldapconn": 5962,
      "result_type": 5963,
      "management": 5964,
      "kompil": 5965,
      "##agic": 5966,
      "##swered": 5967,
      "tech": 5968,
      "apache_1": 5969,
      "hatte": 5970,
      "\".\"": 5971,
      "schlüsselwort": 5972,
      "sesam_": 5973,
      "##angen": 5974,
      "cpdf_begin": 5975,
      "cpdf_output": 5976,
      "pos": 5977,
      "getpro": 5978,
      "getlast": 5979,
      "getrennt": 5980,
      "getallheaders": 5981,
      "ingres_rollback": 5982,
      "ingres_autocommit": 5983,
      "zweit": 5984,
      "zweibuchstab": 5985,
      "ausgeführten": 5986,
      "heredoc": 5987,
      "pg_result": 5988,
      "verbindungsab": 5989,
      "frames": 5990,
      "##oghurt": 5991,
      "nehmen": 5992,
      "thema": 5993,
      "##descriptor": 5994,
      "fbsql_st": 5995,
      "fbsql_errno": 5996,
      "shown": 5997,
      "urspr": 5998,
      "##_sh": 5999,
      "##_contents": 6000,
      "bzread": 6001,
      "angriff": 6002,
      "##obj": 6003,
      "##vorsch": 6004,
      "odbc_fetch_row": 6005,
      "odbc_pconnect": 6006,
      "odbc_bin": 6007,
      "udp": 6008,
      "##hängen": 6009,
      "settype": 6010,
      "setting": 6011,
      "##_stream": 6012,
      "speicherbereich": 6013,
      "speicherplatz": 6014,
      "beta": 6015,
      "socket_ac": 6016,
      "##_match": 6017,
      "##_magic": 6018,
      "einfachste": 6019,
      "msql_query": 6020,
      "ausführungs": 6021,
      "ausführbare": 6022,
      "##ürd": 6023,
      "integerwert": 6024,
      "transfer": 6025,
      "##icon": 6026,
      "tool": 6027,
      "gemuese": 6028,
      "dba_delete": 6029,
      "subject": 6030,
      "erlaubte": 6031,
      "nutzung": 6032,
      "dinge": 6033,
      "pspell_config_": 6034,
      "grundsätz": 6035,
      "bar1": 6036,
      "bar2": 6037,
      "versuche": 6038,
      "unterschieden": 6039,
      "ldap_search": 6040,
      "'];": 6041,
      "solchen": 6042,
      "field_number": 6043,
      "errcol": 6044,
      "array_keys": 6045,
      "array_merge": 6046,
      "datensatzes": 6047,
      "gewicht": 6048,
      "newname": 6049,
      "ebene": 6050,
      "prüfung": 6051,
      "programmierung": 6052,
      "fdf_create": 6053,
      "browsers": 6054,
      "multidimension": 6055,
      "##_sec": 6056,
      "offsets": 6057,
      "besuch": 6058,
      "gehei": 6059,
      "erfolgreicher": 6060,
      "general": 6061,
      "abhängigkeit": 6062,
      "##dbm": 6063,
      "##osh": 6064,
      "laufwerk": 6065,
      "nummern": 6066,
      "##forderung": 6067,
      "money": 6068,
      "connection_id": 6069,
      "ausdrucks": 6070,
      "heisst": 6071,
      "gering": 6072,
      "sommer": 6073,
      "buffer": 6074,
      "auszulesen": 6075,
      "registrieren": 6076,
      "registrierung": 6077,
      "note": 6078,
      "());?": 6079,
      "compiliert": 6080,
      "compilieren": 6081,
      "linien": 6082,
      "pg_lo_open": 6083,
      "doc_root": 6084,
      "fonts": 6085,
      "aspell_check": 6086,
      "shm_id": 6087,
      "minuten": 6088,
      "streams": 6089,
      "entwickelt": 6090,
      "gebraucht": 6091,
      "bilden": 6092,
      "bilder": 6093,
      "gemeinsam": 6094,
      "'),": 6095,
      "attribute": 6096,
      "language": 6097,
      "##rent_": 6098,
      "dbx_result": 6099,
      "detaill": 6100,
      "anwenden": 6101,
      "eval": 6102,
      "kommandozeile": 6103,
      "implementierung": 6104,
      "beliebige": 6105,
      "##_encode": 6106,
      "##binary": 6107,
      "ganzzahl": 6108,
      "1999": 6109,
      "cybercash": 6110,
      "erwarten": 6111,
      "150": 6112,
      "kennen": 6113,
      "punkte": 6114,
      "##valid": 6115,
      "dritten": 6116,
      "##_get_contents": 6117,
      "begrenzungsp": 6118,
      "sess_save_path": 6119,
      "organisation": 6120,
      "wesentlich": 6121,
      "record": 6122,
      "service": 6123,
      "services": 6124,
      "komprimierungs": 6125,
      "authentifizierungs": 6126,
      "früchte": 6127,
      "##7777": 6128,
      "boolschen": 6129,
      "boolsche": 6130,
      "##frame": 6131,
      "gewünschte": 6132,
      "pdf_open_memory": 6133,
      "pfpro_process": 6134,
      "beeinflusst": 6135,
      "fällen": 6136,
      "zuweisungs": 6137,
      "komplexe": 6138,
      "printer_draw": 6139,
      "veränderung": 6140,
      "##_split": 6141,
      "##_current_": 6142,
      "pspell_suggest": 6143,
      "pop3": 6144,
      "berücksichtig": 6145,
      "##****************": 6146,
      "richtige": 6147,
      "entfernte": 6148,
      "regeln": 6149,
      "datenbankverbindungen": 6150,
      "definitionen": 6151,
      "ocifetchinto": 6152,
      "komponenten": 6153,
      "##transl": 6154,
      "heruntergeladen": 6155,
      "cpdf_setrgbcolor_fill": 6156,
      "hochgeladenen": 6157,
      "pdf_setrgbcolor_fill": 6158,
      "ressourcen": 6159,
      "##'),": 6160,
      "vertraut": 6161,
      "getmy": 6162,
      "ocicolumnsize": 6163,
      "ursprüngliche": 6164,
      "verhindern": 6165,
      "erhältlich": 6166,
      "array_slice": 6167,
      "abgeschlossen": 6168,
      "skalare": 6169,
      "track_vars": 6170,
      "ocinumcols": 6171,
      "umgekehrter": 6172,
      "ucd": 6173,
      "ora_bind": 6174,
      "vollständige": 6175,
      "übereinstimmungen": 6176,
      "month": 6177,
      "##_format_messages": 6178,
      "func_get_arg": 6179,
      "##_include": 6180,
      "niedriger": 6181,
      "somefile": 6182,
      "auswirk": 6183,
      "##gruppe": 6184,
      "akzep": 6185,
      "guide": 6186,
      "primary": 6187,
      "ocinewdescriptor": 6188,
      "udm_ispell_type_": 6189,
      "gefähr": 6190,
      "##spezifische": 6191,
      "empty": 6192,
      "##_verify": 6193,
      "jpg": 6194,
      "verwandten": 6195,
      "entschlüssel": 6196,
      "unterschrift": 6197,
      "##utf7": 6198,
      "##_vorhanden": 6199,
      "auswertung": 6200,
      "benutzerdefinierten": 6201,
      "strrchr": 6202,
      "autoglob": 6203,
      "gleichwertig": 6204,
      "verbindungsanforderungen": 6205,
      "eingelesen": 6206,
      "php_auth_user": 6207,
      "leistungs": 6208,
      "calendar": 6209,
      "good": 6210,
      "entscheiden": 6211,
      "postfächer": 6212,
      "openssl_get_p": 6213,
      "bogenmaß": 6214,
      "pspell_add_to_personal": 6215,
      "basename": 6216,
      "fputs": 6217,
      "nobody": 6218,
      "zieldatei": 6219,
      "##_arr": 6220,
      "erkennt": 6221,
      "array_diff": 6222,
      "##loadfont": 6223,
      "schreibe": 6224,
      "##respond": 6225,
      "unbedingt": 6226,
      "http_user_agent": 6227,
      "indirekt": 6228,
      "cpdf_begin_text": 6229,
      "cpdf_output_buffer": 6230,
      "getlastmod": 6231,
      "zweibuchstabigen": 6232,
      "odbc_binmode": 6233,
      "socket_accept": 6234,
      "##_magic_quotes": 6235,
      "begrenzungspfad": 6236,
      "pdf_open_memory_image": 6237,
      "berücksichtigung": 6238,
      "!\",": 6239,
      "\"\"": 6240,
      "\"\";": 6241,
      "'%": 6242,
      "(-": 6243,
      "(--": 6244,
      "*.": 6245,
      ".?": 6246,
      "/)": 6247,
      "/*": 6248,
      "1000": 6249,
      "35": 6250,
      "42": 6251,
      "40": 6252,
      "401": 6253,
      "9x": 6254,
      "95": 6255,
      ";\");": 6256,
      "__s": 6257,
      "__w": 6258,
      "av": 6259,
      "bg": 6260,
      "band": 6261,
      "bring": 6262,
      "bid": 6263,
      "cd": 6264,
      "dd": 6265,
      "du": 6266,
      "dos": 6267,
      "enk": 6268,
      "e_warning": 6269,
      "eltern": 6270,
      "fat": 6271,
      "flock": 6272,
      "gun": 6273,
      "hi": 6274,
      "hr": 6275,
      "ho": 6276,
      "hor": 6277,
      "him": 6278,
      "hyper": 6279,
      "ipt": 6280,
      "kür": 6281,
      "led": 6282,
      "leute": 6283,
      "mich": 6284,
      "mut": 6285,
      "mär": 6286,
      "nick": 6287,
      "ow": 6288,
      "oct": 6289,
      "pat": 6290,
      "puten": 6291,
      "power": 6292,
      "tu": 6293,
      "tok": 6294,
      "tau": 6295,
      "two": 6296,
      "using": 6297,
      "vierte": 6298,
      "w3": 6299,
      "wand": 6300,
      "wört": 6301,
      "width": 6302,
      "xxx": 6303,
      "zy": 6304,
      "zzip": 6305,
      "##xml": 6306,
      "##ite": 6307,
      "##sk": 6308,
      "##srand": 6309,
      "##tate": 6310,
      "##ttf": 6311,
      "##nown": 6312,
      "##nahmen": 6313,
      "##_x": 6314,
      "##_j": 6315,
      "##_lib": 6316,
      "##_upload": 6317,
      "##_lang": 6318,
      "##_args": 6319,
      "##_mem": 6320,
      "##ping": 6321,
      "##plogon": 6322,
      "##obe": 6323,
      "##ojd": 6324,
      "##hat": 6325,
      "##haupt": 6326,
      "##ail": 6327,
      "##glie": 6328,
      "##gliche": 6329,
      "##cnt": 6330,
      "##cel": 6331,
      "##felder": 6332,
      "##lin": 6333,
      "##lis": 6334,
      "##mä": 6335,
      "##mes": 6336,
      "##mar": 6337,
      "##mat": 6338,
      "##zur": 6339,
      "##zählt": 6340,
      "##\\$": 6341,
      "##bie": 6342,
      "##bsd": 6343,
      "##wrap": 6344,
      "##38": 6345,
      "##ername": 6346,
      "##iegen": 6347,
      "##ness": 6348,
      "##only": 6349,
      "##stück": 6350,
      "diesp": 6351,
      "zurückgesetzt": 6352,
      "php_m": 6353,
      "any": 6354,
      "ansehen": 6355,
      "anleitung": 6356,
      "##arm": 6357,
      "##seen": 6358,
      "##sect": 6359,
      "verweis": 6360,
      "inn": 6361,
      "sieht": 6362,
      "##ales": 6363,
      "##alize": 6364,
      "##etype": 6365,
      "funk": 6366,
      "handbuchs": 6367,
      "einsetzen": 6368,
      "einführung": 6369,
      "##ntosh": 6370,
      "##urity": 6371,
      "##urlencode": 6372,
      "##legten": 6373,
      "##gener": 6374,
      "##spiel": 6375,
      "##splice": 6376,
      "##sprechen": 6377,
      "##decode": 6378,
      "##decken": 6379,
      "aufheben": 6380,
      "##atte": 6381,
      "getestet": 6382,
      "gezählt": 6383,
      "##schreib": 6384,
      "##ablo": 6385,
      "##abhäng": 6386,
      "##remen": 6387,
      "##rect": 6388,
      "##oman": 6389,
      "stufe": 6390,
      "##ases": 6391,
      "##inne": 6392,
      "##inst": 6393,
      "##ination": 6394,
      "##infile": 6395,
      "besten": 6396,
      "##rotate": 6397,
      "##iglich": 6398,
      "##hrt": 6399,
      "impor": 6400,
      "füllt": 6401,
      "##rukte": 6402,
      "exif": 6403,
      "existen": 6404,
      "array_re": 6405,
      "arrayele": 6406,
      "##loaden": 6407,
      "##sertion": 6408,
      "dateis": 6409,
      "schal": 6410,
      "schwar": 6411,
      "umfang": 6412,
      "umlau": 6413,
      "umrand": 6414,
      "umsteigen": 6415,
      "umfassen": 6416,
      "##persisten": 6417,
      "überhaupt": 6418,
      "##_case": 6419,
      "##_color": 6420,
      "ablauf": 6421,
      "spell": 6422,
      "space": 6423,
      "parenti": 6424,
      "##weist": 6425,
      "fehlerbehandlung": 6426,
      "angefordert": 6427,
      "ob_start": 6428,
      "(\"/": 6429,
      "##isiert": 6430,
      "gesende": 6431,
      "mysql_un": 6432,
      "mysql_result": 6433,
      "mysql_fetch_field": 6434,
      "mysql_data_seek": 6435,
      "##nft": 6436,
      "op_": 6437,
      "##eup": 6438,
      "durchführen": 6439,
      "process": 6440,
      "##ulator": 6441,
      "##ischerweise": 6442,
      "##quire": 6443,
      "##_png": 6444,
      "typischerweise": 6445,
      "##ed_query": 6446,
      "systeme": 6447,
      "pg_fetch_object": 6448,
      "modif": 6449,
      "app": 6450,
      ").\"": 6451,
      "##cing": 6452,
      "##cintosh": 6453,
      "##finalize": 6454,
      "session_data": 6455,
      "##_dn": 6456,
      "variableninhalt": 6457,
      "macintosh": 6458,
      "tabulator": 6459,
      "formaten": 6460,
      "erfolgen": 6461,
      "##mittel": 6462,
      "strtr": 6463,
      "##end_text": 6464,
      "pdf_fill": 6465,
      "pdf_save": 6466,
      "interes": 6467,
      "resultat": 6468,
      "verzeichnissen": 6469,
      "manip": 6470,
      "manchen": 6471,
      "coordin": 6472,
      "pdf_close": 6473,
      "ocidefine": 6474,
      "ociplogon": 6475,
      "##_request": 6476,
      "##swürd": 6477,
      "tele": 6478,
      "##mack": 6479,
      "##master": 6480,
      "apachectl": 6481,
      "apache_request": 6482,
      "standardwerte": 6483,
      "ora_do": 6484,
      "ora_commit": 6485,
      "schlüsseln": 6486,
      "schlüsselwörter": 6487,
      "textes": 6488,
      "sesam_connect": 6489,
      "sqlerr": 6490,
      "##räg": 6491,
      "##types": 6492,
      "cpdf_r": 6493,
      "cpdf_sh": 6494,
      "cpdf_stroke": 6495,
      "cpdf_finalize": 6496,
      "cpdf_end_text": 6497,
      "user_dir": 6498,
      "getrenn": 6499,
      "ingres_commit": 6500,
      "##grös": 6501,
      "##attr": 6502,
      "##attribut": 6503,
      "geschmack": 6504,
      "##richtung": 6505,
      "imap_status": 6506,
      "ausgelesen": 6507,
      "hervor": 6508,
      "pg_affected_rows": 6509,
      "bison": 6510,
      "bisher": 6511,
      "darum": 6512,
      "add_": 6513,
      "adobe": 6514,
      "fbsql_close": 6515,
      "fbsql_affected_rows": 6516,
      "fbsql_select_db": 6517,
      "lässt": 6518,
      "shutdown": 6519,
      "##_sc": 6520,
      "##_source": 6521,
      "suchergebnis": 6522,
      "##ktionen": 6523,
      "##vorgang": 6524,
      ".\":": 6525,
      "sicherzustellen": 6526,
      "imagegif": 6527,
      "imagettf": 6528,
      "imagetypes": 6529,
      "file_to": 6530,
      "##_fetch_into": 6531,
      "which": 6532,
      "##riebener": 6533,
      "aktive": 6534,
      "direktiven": 6535,
      "zeilenende": 6536,
      "openbsd": 6537,
      "\"]=": 6538,
      ")))": 6539,
      "socket_write": 6540,
      "pfads": 6541,
      "pfadangabe": 6542,
      "entsprechung": 6543,
      "msql_pconnect": 6544,
      "##datum": 6545,
      "prozent": 6546,
      "testcookie": 6547,
      "öffentlichen": 6548,
      "##gramm": 6549,
      "passwörter": 6550,
      "cols": 6551,
      "colattr": 6552,
      "##gesetz": 6553,
      "assertion": 6554,
      "festpl": 6555,
      "dba_replace": 6556,
      "dba_exists": 6557,
      "dba_fetch": 6558,
      "##cos": 6559,
      "chunk": 6560,
      "##plik": 6561,
      "eingesetzt": 6562,
      "##meldung": 6563,
      "dien": 6564,
      "123": 6565,
      "sortieren": 6566,
      "##gelei": 6567,
      "##gelöst": 6568,
      "grundlagen": 6569,
      "env": 6570,
      "precision": 6571,
      "unterschiede": 6572,
      "ldap_bind": 6573,
      "mssql_pconnect": 6574,
      "errlin": 6575,
      "addition": 6576,
      "array_inter": 6577,
      "array_filter": 6578,
      "array_splice": 6579,
      "##_num_args": 6580,
      "persistent": 6581,
      "großen": 6582,
      "transaktions": 6583,
      "programmieren": 6584,
      "fdf_close": 6585,
      "##listet": 6586,
      "##_section": 6587,
      "vorhandene": 6588,
      "attr": 6589,
      "lock": 6590,
      "load": 6591,
      "lists": 6592,
      "readme": 6593,
      "identifiziert": 6594,
      "konvertieren": 6595,
      "konvertier": 6596,
      "kontrollstruktur": 6597,
      "aufrufenden": 6598,
      "mysql_fetch_assoc": 6599,
      "##dateien": 6600,
      "##scribe": 6601,
      "##ritte": 6602,
      "ifx_query": 6603,
      "uids": 6604,
      "##_tag": 6605,
      "##utend": 6606,
      "##schema": 6607,
      "bereichs": 6608,
      "somedir": 6609,
      "##internal": 6610,
      "insert_data": 6611,
      "cpdf_close": 6612,
      "##raph": 6613,
      "dateizeigers": 6614,
      "öffnenden": 6615,
      "anzulegen": 6616,
      "startet": 6617,
      "ibase_connect": 6618,
      "##ängig": 6619,
      "startwert": 6620,
      "##akeup": 6621,
      "korrekten": 6622,
      "lokal": 6623,
      "tempnam": 6624,
      "aspell_link": 6625,
      "unger": 6626,
      "meist": 6627,
      "##_gpc": 6628,
      "##stehenden": 6629,
      "##stehende": 6630,
      "standardmäßige": 6631,
      "gültiges": 6632,
      "##stammung": 6633,
      "escaped": 6634,
      "##definition": 6635,
      "zertifikate": 6636,
      "homedir": 6637,
      "bezüglich": 6638,
      "eigentlich": 6639,
      "authenticate": 6640,
      "gruppennamen": 6641,
      "pspell_new_personal": 6642,
      "nötigen": 6643,
      "bedingte": 6644,
      "kurze": 6645,
      "acro": 6646,
      "holt": 6647,
      "erhöhung": 6648,
      "##_encoding": 6649,
      "##_entity": 6650,
      "herausfinden": 6651,
      "##title": 6652,
      "fdf_set_file": 6653,
      "1997": 6654,
      "achten": 6655,
      "cracklib": 6656,
      "call_user": 6657,
      "mhash_get_": 6658,
      "sess_file": 6659,
      "passenden": 6660,
      "msg_number": 6661,
      "mt_srand": 6662,
      "teils": 6663,
      "verschlüsseln": 6664,
      "verschlüsselung": 6665,
      "zertifikats": 6666,
      "af_un": 6667,
      "3600": 6668,
      "meinarray": 6669,
      "downloaden": 6670,
      "wordwrap": 6671,
      "mysql_field_name": 6672,
      "secret": 6673,
      "security": 6674,
      "win32build": 6675,
      "disk": 6676,
      "wochent": 6677,
      "absolut": 6678,
      "ocicommit": 6679,
      "beschränkt": 6680,
      "beschränkung": 6681,
      "zeilenumbrüche": 6682,
      "eingeschränk": 6683,
      "##_login": 6684,
      "requests": 6685,
      "iiapi": 6686,
      "popul": 6687,
      "##porting": 6688,
      "##buffered_query": 6689,
      "##_expire": 6690,
      "public": 6691,
      "##sparameter": 6692,
      "destination": 6693,
      "manuals": 6694,
      "ldap_get_entries": 6695,
      "\"(???)": 6696,
      "func_num_args": 6697,
      "++;}": 6698,
      "dbx_compare": 6699,
      "einschränkungen": 6700,
      "ocicolumnname": 6701,
      "ctype_al": 6702,
      "firstname": 6703,
      "##cated": 6704,
      "verhindert": 6705,
      "ocinlogon": 6706,
      "eindeutige": 6707,
      "archiv": 6708,
      "höchsten": 6709,
      "aktualisiert": 6710,
      "magischen": 6711,
      "quoted": 6712,
      "ociresult": 6713,
      "##_binary": 6714,
      "rawurlencode": 6715,
      "##möglichkeiten": 6716,
      "begonnen": 6717,
      "strtolower": 6718,
      "rechtschreib": 6719,
      "üblicherweise": 6720,
      "highlight_file": 6721,
      "overview": 6722,
      "ticks": 6723,
      "##certs": 6724,
      "nachfolgende": 6725,
      "other": 6726,
      "texte": 6727,
      "uksort": 6728,
      "versteck": 6729,
      "structure": 6730,
      "speichersegment": 6731,
      "anwendungen": 6732,
      "verloren": 6733,
      "durchsucht": 6734,
      "unverändert": 6735,
      "named_cart": 6736,
      "points": 6737,
      "dispo": 6738,
      "alternativen": 6739,
      "dekodiert": 6740,
      "maskiert": 6741,
      "pcre": 6742,
      "##_runtime": 6743,
      "##kunft": 6744,
      "einziges": 6745,
      "replacement": 6746,
      "##_disconnect": 6747,
      "imagecreatefrom": 6748,
      "2147483647": 6749,
      "flexib": 6750,
      "jdto": 6751,
      "küm": 6752,
      "palet": 6753,
      "##_max_": 6754,
      "einkauf": 6755,
      "strong": 6756,
      "mysql_client_": 6757,
      "session_cache_limiter": 6758,
      "activate": 6759,
      "alphanumerische": 6760,
      "##perty": 6761,
      "bewirkt": 6762,
      "schema": 6763,
      "techn": 6764,
      "zweites": 6765,
      "grundsätzlich": 6766,
      "entschlüsseln": 6767,
      "__sleep": 6768,
      "__wakeup": 6769,
      "enkod": 6770,
      "gunzip": 6771,
      "himbeere": 6772,
      "iptc": 6773,
      "lediglich": 6774,
      "märz": 6775,
      "putenv": 6776,
      "zziplib": 6777,
      "diespinne": 6778,
      "existenz": 6779,
      "umlaute": 6780,
      "parentid": 6781,
      "mysql_unbuffered_query": 6782,
      "apache_request_headers": 6783,
      "sqlerrd": 6784,
      "##grösse": 6785,
      "file_to_delete": 6786,
      "festplatte": 6787,
      "array_intersect": 6788,
      "af_unix": 6789,
      "\"*": 6790,
      "\"{": 6791,
      "':": 6792,
      ")\"": 6793,
      "020": 6794,
      "28": 6795,
      "59": 6796,
      ":%": 6797,
      "bra": 6798,
      "brows": 6799,
      "bsd": 6800,
      "cs": 6801,
      "cu": 6802,
      "clob": 6803,
      "crypt": 6804,
      "dst": 6805,
      "dra": 6806,
      "druck": 6807,
      "eck": 6808,
      "easter": 6809,
      "fd": 6810,
      "fer": 6811,
      "fscanf": 6812,
      "flush": 6813,
      "gzip": 6814,
      "ie": 6815,
      "ide": 6816,
      "ja": 6817,
      "koll": 6818,
      "ln": 6819,
      "lc": 6820,
      "ler": 6821,
      "lief": 6822,
      "low": 6823,
      "ltime": 6824,
      "mx": 6825,
      "mary": 6826,
      "muß": 6827,
      "nl": 6828,
      "non": 6829,
      "ou": 6830,
      "om": 6831,
      "puff": 6832,
      "pkeyid": 6833,
      "ras": 6834,
      "rund": 6835,
      "rufen": 6836,
      "roman": 6837,
      "sm": 6838,
      "sä": 6839,
      "son": 6840,
      "save": 6841,
      "save_path": 6842,
      "sleep": 6843,
      "sablo": 6844,
      "tc": 6845,
      "tä": 6846,
      "tight": 6847,
      "uri": 6848,
      "ve": 6849,
      "winter": 6850,
      "wün": 6851,
      "yyy": 6852,
      "zp": 6853,
      "zähl": 6854,
      "ziff": 6855,
      "{...": 6856,
      "}\";": 6857,
      "##iv": 6858,
      "##i8": 6859,
      "##ision": 6860,
      "##ssig": 6861,
      "##seits": 6862,
      "##tesch": 6863,
      "##tup": 6864,
      "##trim": 6865,
      "##rc": 6866,
      "##nist": 6867,
      "##dokumen": 6868,
      "##dist": 6869,
      "##_is": 6870,
      "##_ad": 6871,
      "##_base": 6872,
      "##_char": 6873,
      "##_test": 6874,
      "##_of": 6875,
      "##_add": 6876,
      "##_factor": 6877,
      "##pow": 6878,
      "##puffer": 6879,
      "##kod": 6880,
      "##hode": 6881,
      "##hift": 6882,
      "##agt": 6883,
      "##acing": 6884,
      "##7f": 6885,
      "##72": 6886,
      "##gw": 6887,
      "##gie": 6888,
      "##gro": 6889,
      "##uwert": 6890,
      "##fp": 6891,
      "##fon": 6892,
      "##fdf": 6893,
      "##first": 6894,
      "##vol": 6895,
      "##bit": 6896,
      "##blow": 6897,
      "##äten": 6898,
      "##18": 6899,
      "##192": 6900,
      "##42": 6901,
      "##86": 6902,
      "##859": 6903,
      "##37": 6904,
      "##ösi": 6905,
      "##eri": 6906,
      "##erungs": 6907,
      "zukunft": 6908,
      "##eilen": 6909,
      "##eitet": 6910,
      "##styp": 6911,
      "##start": 6912,
      "##stream": 6913,
      "##tin": 6914,
      "##tierte": 6915,
      "##tierten": 6916,
      "diejen": 6917,
      "vorgegeben": 6918,
      "vorsicht": 6919,
      "anforderungen": 6920,
      "answered": 6921,
      "anforderung": 6922,
      "dank": 6923,
      "dagegen": 6924,
      "austausch": 6925,
      "##sebene": 6926,
      "veröff": 6927,
      "versehen": 6928,
      "##gestellte": 6929,
      "##algorithmus": 6930,
      "##fast": 6931,
      "##faktor": 6932,
      "##eth": 6933,
      "unde": 6934,
      "handhab": 6935,
      "##amb": 6936,
      "##ntag": 6937,
      "##itäten": 6938,
      "erin": 6939,
      "ergeb": 6940,
      "erleich": 6941,
      "errech": 6942,
      "ersatz": 6943,
      "erkenn": 6944,
      "erfahren": 6945,
      "##ircle": 6946,
      "beides": 6947,
      "##space": 6948,
      "##sphrase": 6949,
      "##ans": 6950,
      "##anzahl": 6951,
      "##anual": 6952,
      "##anleitung": 6953,
      "##ancel": 6954,
      "diesel": 6955,
      "aufgenommen": 6956,
      "aufzur": 6957,
      "aufgelöst": 6958,
      "arith": 6959,
      "gepar": 6960,
      "gelink": 6961,
      "geänder": 6962,
      "##schnitt": 6963,
      "##schalten": 6964,
      "##request": 6965,
      "##record": 6966,
      "stam": 6967,
      "strip": 6968,
      "stabil": 6969,
      "##information": 6970,
      "##informationen": 6971,
      "bed": 6972,
      "belegt": 6973,
      "befinden": 6974,
      "bekommt": 6975,
      "behoben": 6976,
      "bearbeiter": 6977,
      "ausfü": 6978,
      "ausgibt": 6979,
      "##roy": 6980,
      "##ross": 6981,
      "##igit": 6982,
      "##igkeiten": 6983,
      "##hed": 6984,
      "sonder": 6985,
      "implizi": 6986,
      "füllen": 6987,
      "deseri": 6988,
      "##lip": 6989,
      "warten": 6990,
      "wartesch": 6991,
      "##merziell": 6992,
      "##nungen": 6993,
      "dateibasi": 6994,
      "schle": 6995,
      "schaf": 6996,
      "scheitert": 6997,
      "schickt": 6998,
      "umständ": 6999,
      "entgegen": 7000,
      "##verse": 7001,
      "feb": 7002,
      "##app": 7003,
      "reci": 7004,
      "reale": 7005,
      "repl": 7006,
      "redu": 7007,
      "rewind": 7008,
      "##aum": 7009,
      "##fügten": 7010,
      "versions": 7011,
      "abgerufen": 7012,
      "benutzte": 7013,
      "steuer": 7014,
      "spiel": 7015,
      "verfügt": 7016,
      "vars": 7017,
      "varian": 7018,
      "##weite": 7019,
      "##ush": 7020,
      "fehlerhaft": 7021,
      "##reis": 7022,
      "\",$": 7023,
      "angewand": 7024,
      "hierzu": 7025,
      "(\"\\": 7026,
      "falschen": 7027,
      "##iables": 7028,
      "funktionsweise": 7029,
      "funktionsreferenz": 7030,
      "mysql_num": 7031,
      "mysql_both": 7032,
      "mysql_create_db": 7033,
      "##ilie": 7034,
      "##t_root": 7035,
      "##lange": 7036,
      "separ": 7037,
      "durchaus": 7038,
      "durchlauf": 7039,
      "profi": 7040,
      "\");}?": 7041,
      "kommerziell": 7042,
      "##_find": 7043,
      "zeichenfolge": 7044,
      "##ulard": 7045,
      "##cep": 7046,
      "##führte": 7047,
      "##otation": 7048,
      "ergebnisdaten": 7049,
      "resourcen": 7050,
      "##_popen": 7051,
      "unseen": 7052,
      "unmittel": 7053,
      "apxs": 7054,
      "##frage": 7055,
      "##_di": 7056,
      "aktuellste": 7057,
      "formulard": 7058,
      "##selbe": 7059,
      "weiters": 7060,
      "##undert": 7061,
      "definierte": 7062,
      "##meti": 7063,
      "http_cookie": 7064,
      "config": 7065,
      "##ativer": 7066,
      "benutzereing": 7067,
      "##sslich": 7068,
      "##endes": 7069,
      "##end_page": 7070,
      "instan": 7071,
      "##keley": 7072,
      "genannten": 7073,
      "pdf_put": 7074,
      "pdf_place": 7075,
      "pdf_restore": 7076,
      "pdf_rotate": 7077,
      "pdf_end_page": 7078,
      "##fetime": 7079,
      "direc": 7080,
      "is_link": 7081,
      "feldindex": 7082,
      "ldap_close": 7083,
      "ldaphost": 7084,
      "manpage": 7085,
      "oci_d": 7086,
      "##_reporting": 7087,
      "##swagen": 7088,
      "##essage": 7089,
      "##reibt": 7090,
      "##oooo": 7091,
      "leben": 7092,
      "ora_num": 7093,
      "ora_col": 7094,
      "textbereich": 7095,
      "sesam_field": 7096,
      "sesam_fetch_array": 7097,
      "sesam_rollback": 7098,
      "sesam_fetch_result": 7099,
      "sqlset": 7100,
      "sqlca": 7101,
      "zugru": 7102,
      "cpdf_moveto": 7103,
      "getrandmax": 7104,
      "elem": 7105,
      "##grgid": 7106,
      "geschwei": 7107,
      "geschätz": 7108,
      "geschwindigkeit": 7109,
      "berkeley": 7110,
      "##varbinary": 7111,
      "ausgedrückt": 7112,
      "pg_set": 7113,
      "pg_get_": 7114,
      "pg_last": 7115,
      "pg_last_error": 7116,
      "pg_exec": 7117,
      "function_exists": 7118,
      "passthru": 7119,
      "##getrandmax": 7120,
      "##getgrgid": 7121,
      "these": 7122,
      "adres": 7123,
      "fbsql_num_rows": 7124,
      "formen": 7125,
      "force": 7126,
      "share": 7127,
      "show_": 7128,
      "eingestellt": 7129,
      "scale": 7130,
      "scrip": 7131,
      "konfigurationsanweis": 7132,
      "##server_info": 7133,
      "##set_save_": 7134,
      "beschreiben": 7135,
      "##timeout": 7136,
      "angle": 7137,
      "angibt": 7138,
      "folgendem": 7139,
      "##sätzen": 7140,
      "odbc_prepare": 7141,
      ".\");": 7142,
      "mssql": 7143,
      "imagestring": 7144,
      "imageloadfont": 7145,
      "set_time": 7146,
      "betrifft": 7147,
      "##abled": 7148,
      "open_base": 7149,
      "socket_set_": 7150,
      "pfadnamen": 7151,
      "##dates": 7152,
      "testobj": 7153,
      "öffne": 7154,
      "verschieben": 7155,
      "colum": 7156,
      "row_number": 7157,
      "binäre": 7158,
      "hosts": 7159,
      "spaltennummer": 7160,
      "##to_info": 7161,
      "##iertem": 7162,
      "dba_next": 7163,
      "dba_insert": 7164,
      "##raucht": 7165,
      "indexer": 7166,
      "chop": 7167,
      "ftp_binary": 7168,
      "einger": 7169,
      "qualität": 7170,
      "subklasse": 7171,
      "##eggie": 7172,
      "updates": 7173,
      "assoziiert": 7174,
      "stehenden": 7175,
      "ocis": 7176,
      "grundlegen": 7177,
      "spezifizieren": 7178,
      "feldern": 7179,
      "##prozess": 7180,
      "##proto_info": 7181,
      "prev": 7182,
      "basieren": 7183,
      "kleinbuchstaben": 7184,
      "prozessor": 7185,
      "prozessgrupp": 7186,
      "'],": 7187,
      "solid": 7188,
      "schreibzugriff": 7189,
      "mssql_query": 7190,
      "mssql_close": 7191,
      "alarm": 7192,
      "errstr": 7193,
      "##load_ispell": 7194,
      "leerer": 7195,
      "großbuchstaben": 7196,
      "##enzen": 7197,
      "programmausführung": 7198,
      "fdffp": 7199,
      "pspell_fast": 7200,
      "ports": 7201,
      "bevorzu": 7202,
      "##numeric": 7203,
      "##disp": 7204,
      "##dict": 7205,
      "is_file": 7206,
      "pathname": 7207,
      "gebunden": 7208,
      "##ributen": 7209,
      "genaue": 7210,
      "##names": 7211,
      "vorhandenen": 7212,
      "openssl_free_": 7213,
      "inkremen": 7214,
      "error_desc": 7215,
      "error_reporting": 7216,
      "positioniert": 7217,
      "bzwrite": 7218,
      "atan": 7219,
      "##_variables": 7220,
      "##db_query": 7221,
      "readdir": 7222,
      "readlink": 7223,
      "fdf_save": 7224,
      "binde": 7225,
      "binding": 7226,
      "bindlib": 7227,
      "identifier": 7228,
      "änderbar": 7229,
      "normaler": 7230,
      "weisen": 7231,
      "mysql_fetch_object": 7232,
      "wortes": 7233,
      "##ritable": 7234,
      "serversei": 7235,
      "ifx_affected_rows": 7236,
      "ifx_byte": 7237,
      "ifx_blob": 7238,
      "hilft": 7239,
      "korrespond": 7240,
      "ähnliches": 7241,
      "zusätzlichen": 7242,
      "##_decode": 7243,
      "##fields": 7244,
      "round": 7245,
      "ifx_close": 7246,
      "objektebene": 7247,
      "lautet": 7248,
      "behandeln": 7249,
      "irgendein": 7250,
      "somit": 7251,
      "buil": 7252,
      "überschreibt": 7253,
      "compact": 7254,
      "ibase_query": 7255,
      "debugging": 7256,
      "regular": 7257,
      "pdf_set_font": 7258,
      "pdf_set_text_": 7259,
      "pg_lo_create": 7260,
      "binären": 7261,
      "sourcecode": 7262,
      "notes": 7263,
      "img1": 7264,
      "img2": 7265,
      "img12": 7266,
      "img10": 7267,
      "entwicklern": 7268,
      ".\";?": 7269,
      "grauwert": 7270,
      "gültigkeit": 7271,
      "flagged": 7272,
      "##shift": 7273,
      "##passen": 7274,
      "aufgelistet": 7275,
      "signal": 7276,
      "session_set_save_": 7277,
      "'))": 7278,
      "cygw": 7279,
      "schnittstellen": 7280,
      "attributen": 7281,
      "large_number": 7282,
      "microtime": 7283,
      "escape": 7284,
      "privile": 7285,
      "ircg_register": 7286,
      "dbx_query": 7287,
      "dbx_sort": 7288,
      "alter": 7289,
      "eigentliche": 7290,
      "eigentlichen": 7291,
      "eingabewert": 7292,
      "laufenden": 7293,
      "pdf_setline": 7294,
      "##lässi": 7295,
      "beinhalten": 7296,
      "franz": 7297,
      "bekannten": 7298,
      "cpdf_set_text_": 7299,
      "dennoch": 7300,
      "beliebiger": 7301,
      "maximalen": 7302,
      "bcpow": 7303,
      "kodiert": 7304,
      "bestehend": 7305,
      "codierung": 7306,
      "green": 7307,
      "domdocument_create_text": 7308,
      "domdocument_create_element": 7309,
      "tatsache": 7310,
      "feldnamens": 7311,
      "schließende": 7312,
      "sprachencode": 7313,
      "dbase_num": 7314,
      "##onym": 7315,
      "einzusch": 7316,
      "späteren": 7317,
      "mysql_list_dbs": 7318,
      "msglist": 7319,
      "ignorieren": 7320,
      "cat_path": 7321,
      "cat_list": 7322,
      "fgetss": 7323,
      "high": 7324,
      "lob_upload": 7325,
      "mt_getrandmax": 7326,
      "teilen": 7327,
      "##berech": 7328,
      "variablenname": 7329,
      "längen": 7330,
      "udm_load_ispell": 7331,
      "after": 7332,
      "longvarbinary": 7333,
      "simple": 7334,
      "products": 7335,
      "pdf_open_jpeg": 7336,
      "symbolischen": 7337,
      "pfpro_init": 7338,
      "hintergrund": 7339,
      "quelle": 7340,
      "quellcode": 7341,
      "suc": 7342,
      "##operationen": 7343,
      "redhat": 7344,
      "serialisiert": 7345,
      "auto_inc": 7346,
      "zweitens": 7347,
      "tiff": 7348,
      "##teilt": 7349,
      "##teilen": 7350,
      "statements": 7351,
      "beschränkungen": 7352,
      "veränderungen": 7353,
      "target": 7354,
      "##_spacing": 7355,
      "##execution": 7356,
      "ocifreec": 7357,
      "ungültige": 7358,
      "page2": 7359,
      "wenig": 7360,
      "allgemein": 7361,
      "realpath": 7362,
      "##striche": 7363,
      "domnode_insert": 7364,
      "##riptions": 7365,
      "mssql_fetch_array": 7366,
      "richtigen": 7367,
      "##author": 7368,
      "##_creator": 7369,
      "##transaction": 7370,
      "ldap_get_attribut": 7371,
      "indiziertes": 7372,
      "pdf_setrgbcolor_stroke": 7373,
      "verzeichniseintrages": 7374,
      "closelog": 7375,
      "präfix": 7376,
      "##_together": 7377,
      "array_pop": 7378,
      "array_pad": 7379,
      "array_push": 7380,
      "ressource": 7381,
      "sesam_seek_next": 7382,
      "\"].\"": 7383,
      "sprachkonst": 7384,
      "näher": 7385,
      "nämlich": 7386,
      "##work": 7387,
      "strict": 7388,
      "verwendeten": 7389,
      "mysql_get_server_info": 7390,
      "mysql_get_proto_info": 7391,
      "vorliegt": 7392,
      "array_shift": 7393,
      "posix_getgrgid": 7394,
      "sort_flags": 7395,
      "besitzt": 7396,
      "umgekehrt": 7397,
      "rgba": 7398,
      "aktualisieren": 7399,
      "basierter": 7400,
      "datumsangaben": 7401,
      "vollständigen": 7402,
      "übereinstimmung": 7403,
      "##509": 7404,
      "rekursiv": 7405,
      "strtok": 7406,
      "feldnummerierung": 7407,
      "func_get_args": 7408,
      "niedrig": 7409,
      "persönliche": 7410,
      "##nihttpd": 7411,
      "nachstehend": 7412,
      "nachstehenden": 7413,
      "vorbereiten": 7414,
      "resultierende": 7415,
      "unerwar": 7416,
      "show_source": 7417,
      "packet_id": 7418,
      "ocicolumntype": 7419,
      "joeblow": 7420,
      "editor": 7421,
      "##methode": 7422,
      "zufallsgener": 7423,
      "ftp_ascii": 7424,
      "gregorianischen": 7425,
      "sensitive": 7426,
      "ft_uid": 7427,
      "gcc": 7428,
      "lc_time": 7429,
      "wichtige": 7430,
      "vorangestellt": 7431,
      "erneut": 7432,
      "static": 7433,
      "schriftart": 7434,
      "##weight_factor": 7435,
      "imagepng": 7436,
      "array_unshift": 7437,
      "##_retour": 7438,
      "vorhergehenden": 7439,
      "rfc2060": 7440,
      "udm_param_weight_factor": 7441,
      "##operatoren": 7442,
      "erläutert": 7443,
      ",...)": 7444,
      "times": 7445,
      "deptno": 7446,
      "keinerlei": 7447,
      "common": 7448,
      "administ": 7449,
      "eingebauten": 7450,
      "odbc_execute": 7451,
      "betreff": 7452,
      "teilzeichenketten": 7453,
      "zerofill": 7454,
      "mathematische": 7455,
      "5432": 7456,
      "familie": 7457,
      "rangfolge": 7458,
      "zurückzugeben": 7459,
      "erzwingen": 7460,
      "##speicher": 7461,
      "instruktionen": 7462,
      "ausgewählt": 7463,
      "specif": 7464,
      "udm_cat": 7465,
      "##errormsg": 7466,
      "signifik": 7467,
      "superuser": 7468,
      "vertrauenswürd": 7469,
      "strnatcmp": 7470,
      "maschinenabhängig": 7471,
      "mustermann": 7472,
      "##_before": 7473,
      "##chselt": 7474,
      "stored": 7475,
      "developer": 7476,
      "##ollection": 7477,
      "sesam_affected_rows": 7478,
      "verbindungsabbruch": 7479,
      "detaillierte": 7480,
      "##validity": 7481,
      "##translate": 7482,
      "auswirkungen": 7483,
      "primary_key": 7484,
      "leistungsmerk": 7485,
      "good_login": 7486,
      "bgc": 7487,
      "bringt": 7488,
      "owner": 7489,
      "tue": 7490,
      "tauschen": 7491,
      "wörtlich": 7492,
      "##skript": 7493,
      "php_manual": 7494,
      "funkt": 7495,
      "umrandung": 7496,
      "interessiert": 7497,
      "manipul": 7498,
      "ocidefinebyname": 7499,
      "telefon": 7500,
      "hervorge": 7501,
      "add_item": 7502,
      "##gesetzte": 7503,
      "konvertierbare": 7504,
      "##_entity_re": 7505,
      "rechtschreibprüfung": 7506,
      "disposition": 7507,
      "einkaufswagen": 7508,
      "0203": 7509,
      "browscap": 7510,
      "fertig": 7511,
      "kollision": 7512,
      "omnihttpd": 7513,
      "rasmus": 7514,
      "sämt": 7515,
      "tightness": 7516,
      "wünschen": 7517,
      "ziffern": 7518,
      "##tuples": 7519,
      "##distribution": 7520,
      "handhabung": 7521,
      "aufzurufen": 7522,
      "arithmeti": 7523,
      "geparst": 7524,
      "warteschlange": 7525,
      "umständen": 7526,
      "recip": 7527,
      "unmittelbar": 7528,
      "formulardaten": 7529,
      "http_cookie_vars": 7530,
      "pdf_put_image": 7531,
      "pdf_place_image": 7532,
      "sesam_field_array": 7533,
      "pg_get_result": 7534,
      "set_time_limit": 7535,
      "open_basedir": 7536,
      "dba_nextkey": 7537,
      "prozessgruppen": 7538,
      "openssl_free_key": 7539,
      "error_descriptions": 7540,
      "ifx_byteasvarchar": 7541,
      "ifx_blobinfile": 7542,
      "session_set_save_handler": 7543,
      "cygwin": 7544,
      "französi": 7545,
      "udm_load_ispell_data": 7546,
      "auto_increment": 7547,
      "##execution_time": 7548,
      "domnode_insert_before": 7549,
      "ldap_get_attributes": 7550,
      "zufallsgenerator": 7551,
      "php_manual_lang": 7552,
      "!)": 7553,
      "$$": 7554,
      "(=": 7555,
      "(?": 7556,
      "((": 7557,
      "(%": 7558,
      "(+": 7559,
      "(@": 7560,
      "*()": 7561,
      ",-": 7562,
      "-(": 7563,
      ".$": 7564,
      "/?": 7565,
      "/,": 7566,
      "/'": 7567,
      "07": 7568,
      "0b": 7569,
      "29": 7570,
      "39": 7571,
      "60": 7572,
      "72": 7573,
      "8192": 7574,
      ";\";": 7575,
      "]}": 7576,
      "]);": 7577,
      "_request": 7578,
      "bir": 7579,
      "binden": 7580,
      "cl": 7581,
      "cin": 7582,
      "cmp": 7583,
      "cain": 7584,
      "cmd": 7585,
      "doll": 7586,
      "draw": 7587,
      "edi": 7588,
      "fin": 7589,
      "flo": 7590,
      "foll": 7591,
      "f_set": 7592,
      "found": 7593,
      "gdbm": 7594,
      "hart": 7595,
      "ib": 7596,
      "its": 7597,
      "jan": 7598,
      "kr": 7599,
      "kn": 7600,
      "kam": 7601,
      "kriter": 7602,
      "land": 7603,
      "lat": 7604,
      "lösen": 7605,
      "lyn": 7606,
      "lamb": 7607,
      "mand": 7608,
      "most": 7609,
      "more": 7610,
      "nb": 7611,
      "nul": 7612,
      "nms": 7613,
      "ober": 7614,
      "pm": 7615,
      "py": 7616,
      "phone": 7617,
      "rs": 7618,
      "rc": 7619,
      "rat": 7620,
      "reicht": 7621,
      "sv": 7622,
      "sig": 7623,
      "sitz": 7624,
      "sites": 7625,
      "tv": 7626,
      "t1": 7627,
      "top": 7628,
      "tres": 7629,
      "tup": 7630,
      "tld": 7631,
      "tree": 7632,
      "util": 7633,
      "vc": 7634,
      "vollen": 7635,
      "veggie": 7636,
      "wären": 7637,
      "zi": 7638,
      "ze": 7639,
      "zählt": 7640,
      "{?": 7641,
      "äqu": 7642,
      "##xis": 7643,
      "##ii": 7644,
      "##i_file": 7645,
      "##ique": 7646,
      "##sein": 7647,
      "##sbar": 7648,
      "##sfunktionen": 7649,
      "##sbereich": 7650,
      "##tt": 7651,
      "##tain": 7652,
      "##tags": 7653,
      "##ech": 7654,
      "##rom": 7655,
      "##nc": 7656,
      "##nach": 7657,
      "##norm": 7658,
      "##nost": 7659,
      "##notation": 7660,
      "##dic": 7661,
      "##dire": 7662,
      "##dass": 7663,
      "##doppel": 7664,
      "##_v": 7665,
      "##_sen": 7666,
      "##_uid": 7667,
      "##_null": 7668,
      "##_escape_string": 7669,
      "##_options": 7670,
      "##poch": 7671,
      "##ples": 7672,
      "##php4": 7673,
      "##kit": 7674,
      "##kont": 7675,
      "##over": 7676,
      "##ove": 7677,
      "##ould": 7678,
      "##hü": 7679,
      "##haw": 7680,
      "##anter": 7681,
      "##ager": 7682,
      "##acket": 7683,
      "##gmente": 7684,
      "##gül": 7685,
      "##gängig": 7686,
      "##cm": 7687,
      "##cslashes": 7688,
      "##crypt": 7689,
      "##compress": 7690,
      "##uel": 7691,
      "##uern": 7692,
      "##fungen": 7693,
      "##fopen": 7694,
      "##lk": 7695,
      "##liefert": 7696,
      "##lungs": 7697,
      "##mi": 7698,
      "##my": 7699,
      "##malen": 7700,
      "##melt": 7701,
      "##zt": 7702,
      "##zen": 7703,
      "##zieren": 7704,
      "##zogen": 7705,
      "##ysi": 7706,
      "##ysteme": 7707,
      "##brauch": 7708,
      "##äne": 7709,
      "##writable": 7710,
      "##\").": 7711,
      "##40": 7712,
      "##96": 7713,
      "##');": 7714,
      "##.*": 7715,
      "##enen": 7716,
      "##enten": 7717,
      "##enbegrenzung": 7718,
      "##erv": 7719,
      "zut": 7720,
      "zuzu": 7721,
      "zuord": 7722,
      "zuweisen": 7723,
      "##eilt": 7724,
      "##achte": 7725,
      "##ontent": 7726,
      "##orfen": 7727,
      "##orted": 7728,
      "nachfol": 7729,
      "##stru": 7730,
      "##stabe": 7731,
      "##stanz": 7732,
      "##tiff": 7733,
      "vorsch": 7734,
      "vorstellen": 7735,
      "vorteil": 7736,
      "vorsichtig": 7737,
      "vorteile": 7738,
      "##tect": 7739,
      "php_s": 7740,
      "anti": 7741,
      "analog": 7742,
      "anhängen": 7743,
      "##lly": 7744,
      "##ar_text": 7745,
      "##benutz": 7746,
      "dauer": 7747,
      "():": 7748,
      "()+": 7749,
      "derselben": 7750,
      "verer": 7751,
      "verge": 7752,
      "verur": 7753,
      "verzeich": 7754,
      "verweise": 7755,
      "verant": 7756,
      "verwor": 7757,
      "verweist": 7758,
      "verdoppel": 7759,
      "##anday": 7760,
      "##tension": 7761,
      "##aled": 7762,
      "##al_escape_string": 7763,
      "##ets": 7764,
      "##etter": 7765,
      "##ities": 7766,
      "##lease": 7767,
      "##legung": 7768,
      "##legte": 7769,
      "ersch": 7770,
      "erfüllt": 7771,
      "erled": 7772,
      "##side": 7773,
      "##spring": 7774,
      "##spalten": 7775,
      "##deten": 7776,
      "##deutend": 7777,
      "##riv": 7778,
      "##riften": 7779,
      "##ante": 7780,
      "##anten": 7781,
      "##ansi": 7782,
      "##antik": 7783,
      "arc": 7784,
      "##deref": 7785,
      "##atro": 7786,
      "##atalog": 7787,
      "gehalten": 7788,
      "getim": 7789,
      "gekenn": 7790,
      "##scht": 7791,
      "##schaften": 7792,
      "##abel": 7793,
      "voneinander": 7794,
      "##rev": 7795,
      "##refetch": 7796,
      "##reference": 7797,
      "##reponse": 7798,
      "##recated": 7799,
      "##real_escape_string": 7800,
      "sth": 7801,
      "stück": 7802,
      "stär": 7803,
      "##assword": 7804,
      "bedi": 7805,
      "bestand": 7806,
      "bewe": 7807,
      "bezug": 7808,
      "belegten": 7809,
      "auss": 7810,
      "ausrichtung": 7811,
      "##ierror": 7812,
      "##amemailbox": 7813,
      "soweit": 7814,
      "sodass": 7815,
      "beispielen": 7816,
      "images": 7817,
      "##isapi": 7818,
      "##ished": 7819,
      "##halfopen": 7820,
      "design": 7821,
      "explizi": 7822,
      "verwend": 7823,
      "essbar": 7824,
      "##lienten": 7825,
      "warning": 7826,
      "##okien": 7827,
      "##sern": 7828,
      "##sergebnis": 7829,
      "dateier": 7830,
      "alleine": 7831,
      "benannte": 7832,
      "benennen": 7833,
      "##bage": 7834,
      "##send_": 7835,
      "##fferen": 7836,
      "schwei": 7837,
      "scheiter": 7838,
      "schütz": 7839,
      "scheint": 7840,
      "schaden": 7841,
      "schaffen": 7842,
      "schräg": 7843,
      "schritte": 7844,
      "umben": 7845,
      "umfasst": 7846,
      "umschlag": 7847,
      "umkod": 7848,
      "entdecken": 7849,
      "enthü": 7850,
      "limi": 7851,
      "##aphone": 7852,
      "ref": 7853,
      "realisiert": 7854,
      "demos": 7855,
      "demonst": 7856,
      "demselben": 7857,
      "##ktoren": 7858,
      "##bindung": 7859,
      "überall": 7860,
      "##_cdata": 7861,
      "##_copy": 7862,
      "##_compare": 7863,
      "##_circle": 7864,
      "abb": 7865,
      "abstand": 7866,
      "abbruch": 7867,
      "unterdrück": 7868,
      "unterzeichnen": 7869,
      "fehlen": 7870,
      "fehlsch": 7871,
      "parent": 7872,
      "varname": 7873,
      "var_array": 7874,
      "##umgeb": 7875,
      "kontext": 7876,
      "##usy": 7877,
      "##opt": 7878,
      "(\"(": 7879,
      "(\"$": 7880,
      "##utlich": 7881,
      "gesich": 7882,
      "gesche": 7883,
      "mysql_get": 7884,
      "mysql_assoc": 7885,
      "mysql_thread": 7886,
      "mysql_drop_db": 7887,
      "mysql_real_escape_string": 7888,
      "##execute": 7889,
      "##ilar_text": 7890,
      "##resource": 7891,
      "##df_data": 7892,
      "##zufügen": 7893,
      "sealed": 7894,
      "htac": 7895,
      "##abeti": 7896,
      "##kocht": 7897,
      "datenbankname": 7898,
      "datenbankfunktionen": 7899,
      "##_fdf_data": 7900,
      "zeitz": 7901,
      "zeichensätze": 7902,
      "##zeichnet": 7903,
      "res_id": 7904,
      "reserv": 7905,
      "##_pi": 7906,
      "##_php4": 7907,
      "##_packet": 7908,
      "##_password": 7909,
      "uno": 7910,
      "unw": 7911,
      "##edit": 7912,
      "##ierende": 7913,
      "pg_put": 7914,
      "mod_php4": 7915,
      "append": 7916,
      "##_doc": 7917,
      "variablenfunktionen": 7918,
      "maß": 7919,
      "##inger": 7920,
      "##self": 7921,
      "weiteres": 7922,
      "http_fdf_data": 7923,
      "##mitglie": 7924,
      "continu": 7925,
      "contain": 7926,
      "##mlung": 7927,
      "##bestellen": 7928,
      "##ollback": 7929,
      "##ssu": 7930,
      "stren": 7931,
      "strcasecmp": 7932,
      "mehrfach": 7933,
      "mehrfache": 7934,
      "mehrmals": 7935,
      "name1": 7936,
      "##end_copy": 7937,
      "##set_cookie_params": 7938,
      "pdf_get_value": 7939,
      "pdf_execute": 7940,
      "isol": 7941,
      "cookien": 7942,
      "autoren": 7943,
      "oci8": 7944,
      "oci_assoc": 7945,
      "##beispiel": 7946,
      "##agnost": 7947,
      "müsste": 7948,
      "installierten": 7949,
      "bricht": 7950,
      "##swf": 7951,
      "##trace": 7952,
      "##bcdic": 7953,
      "teste": 7954,
      "ausgabesteuerung": 7955,
      "ausgabepuffer": 7956,
      "##ners": 7957,
      "##e_text": 7958,
      "standardverzeichnis": 7959,
      "standardmä": 7960,
      "\"..": 7961,
      "ora_fetch_into": 7962,
      "##handbuch": 7963,
      "##econtent": 7964,
      "sesam_set": 7965,
      "sesam_disconnect": 7966,
      "sesam_di": 7967,
      "sqlcode": 7968,
      "sqldata": 7969,
      "##ginfo": 7970,
      "##zeige": 7971,
      "pointer": 7972,
      "usern": 7973,
      "get_": 7974,
      "gettype": 7975,
      "##zeugung": 7976,
      "ingres_pconnect": 7977,
      "gleichheit": 7978,
      "##ized": 7979,
      "##ize_": 7980,
      "##iziell": 7981,
      "imap_create": 7982,
      "imap_expunge": 7983,
      "fbexec": 7984,
      "ausgegangen": 7985,
      "pg_send_": 7986,
      "pg_end_copy": 7987,
      "pass": 7988,
      "passphrase": 7989,
      "webseite": 7990,
      "##getmailbox": 7991,
      "##get_cookie_params": 7992,
      "endgül": 7993,
      "fron": 7994,
      "selber": 7995,
      "anweisungs": 7996,
      "objektbezeichner": 7997,
      "hinaus": 7998,
      "hinsicht": 7999,
      "fbsql_create": 8000,
      "fbsql_pconnect": 8001,
      "##liegt": 8002,
      "verfügbare": 8003,
      "shows": 8004,
      "should": 8005,
      "eingeben": 8006,
      "variable_key": 8007,
      "konfigurationsvariable": 8008,
      "##_continu": 8009,
      "bzstr": 8010,
      "bzclose": 8011,
      "bzcompress": 8012,
      "angaben": 8013,
      "odbc_result": 8014,
      "msie": 8015,
      "ort": 8016,
      "imagefill": 8017,
      "domattribute": 8018,
      "domäne": 8019,
      "##update": 8020,
      "retour": 8021,
      "whites": 8022,
      "sets": 8023,
      "setname": 8024,
      "selects": 8025,
      "libmod": 8026,
      "libedit": 8027,
      "libswf": 8028,
      "udm_error": 8029,
      "udm_limit": 8030,
      "udm_find": 8031,
      "\"]).": 8032,
      "zeitbegrenzung": 8033,
      "offiziell": 8034,
      "##_msg": 8035,
      "msql_close": 8036,
      "msql_fetch_field": 8037,
      "ausführliche": 8038,
      "rücksicht": 8039,
      "rückwärts": 8040,
      "formatstring": 8041,
      "metaphone": 8042,
      "tages": 8043,
      "pake": 8044,
      "();}": 8045,
      "spezifikation": 8046,
      "spezifische": 8047,
      "hinzuzufügen": 8048,
      "enthaltene": 8049,
      "keywords": 8050,
      "größenbegrenzung": 8051,
      "touch": 8052,
      "gemisch": 8053,
      "festzustellen": 8054,
      "dba_close": 8055,
      "dba_sy": 8056,
      "dba_first": 8057,
      "dba_popen": 8058,
      "##zept": 8059,
      "schreibend": 8060,
      "##_errors": 8061,
      "grossen": 8062,
      "farr": 8063,
      "koi8": 8064,
      "kossu": 8065,
      "subsystem": 8066,
      "##_ini_file": 8067,
      "##_instru": 8068,
      "wiedergabe": 8069,
      "urldecode": 8070,
      "dimension": 8071,
      "##host_info": 8072,
      "imap_ren": 8073,
      "imap_mailbox": 8074,
      "imap_utf7": 8075,
      "imap_getmailbox": 8076,
      "ocierror": 8077,
      "##fikationen": 8078,
      "##schluss": 8079,
      "schliessen": 8080,
      "empfang": 8081,
      "##programm": 8082,
      "basierte": 8083,
      "##aktionen": 8084,
      "schreibweisen": 8085,
      "field2": 8086,
      "teilweise": 8087,
      "bezeichnete": 8088,
      "array_change": 8089,
      "array_values": 8090,
      "##fehler": 8091,
      "numeric": 8092,
      "assoziative": 8093,
      ",\":": 8094,
      "##nummern": 8095,
      "=\".$": 8096,
      "is_writable": 8097,
      "outfdf": 8098,
      "outside": 8099,
      "gebil": 8100,
      "##optionen": 8101,
      "genauer": 8102,
      "unterschiedlichen": 8103,
      "inkl": 8104,
      "generell": 8105,
      "login": 8106,
      "logik": 8107,
      "objectclass": 8108,
      "++´": 8109,
      "expire": 8110,
      "abschalten": 8111,
      "identifiz": 8112,
      "identifikation": 8113,
      "zerst": 8114,
      "javasc": 8115,
      "sagt": 8116,
      "befehlen": 8117,
      "wörtern": 8118,
      "##_by": 8119,
      "##_busy": 8120,
      "vergleichen": 8121,
      "uidnext": 8122,
      "uidvalidity": 8123,
      "##_tags": 8124,
      "##_detect": 8125,
      "src_": 8126,
      "verbraucht": 8127,
      "weglassen": 8128,
      "ausdrücklich": 8129,
      "ausdruckes": 8130,
      "....": 8131,
      "heimat": 8132,
      "##_type_db": 8133,
      "##ignore_": 8134,
      "ifx_do": 8135,
      "ifx_prepare": 8136,
      "backend": 8137,
      "backlog": 8138,
      "bereiche": 8139,
      "somecontent": 8140,
      "protokollversion": 8141,
      "bugs": 8142,
      "##antwor": 8143,
      "optionaler": 8144,
      "dynamische": 8145,
      "ibase_time": 8146,
      "passwortes": 8147,
      "done": 8148,
      "dateisystems": 8149,
      "binärdatei": 8150,
      "binärdistribution": 8151,
      "aspell_new": 8152,
      "winansi": 8153,
      "sem_get": 8154,
      "sem_ac": 8155,
      "semantik": 8156,
      "shm_size": 8157,
      "swfdisp": 8158,
      "minim": 8159,
      "minute": 8160,
      "php4isapi": 8161,
      "book": 8162,
      "##eight": 8163,
      "statische": 8164,
      "cpdf_setline": 8165,
      "blockiert": 8166,
      "abgearbeitet": 8167,
      "gemeinsamer": 8168,
      "##bracht": 8169,
      "##arbeit": 8170,
      "funktionsaufrufe": 8171,
      "session_set_cookie_params": 8172,
      "session_get_cookie_params": 8173,
      "vermutlich": 8174,
      "langsam": 8175,
      "priv_key": 8176,
      "dbx_odbc": 8177,
      "##agesize": 8178,
      "zertifikaten": 8179,
      "330": 8180,
      "beziehen": 8181,
      "initialisi": 8182,
      "initialisieren": 8183,
      "pdf_open_png": 8184,
      "register_sh": 8185,
      "hashes": 8186,
      "##pha": 8187,
      "##länge": 8188,
      "funktionsaufrufs": 8189,
      "[]\"": 8190,
      "##_key_case": 8191,
      "cpdf_set_font": 8192,
      "cpdf_set_leading": 8193,
      "erhöhen": 8194,
      "kodierte": 8195,
      "kodierten": 8196,
      "##hoden": 8197,
      "zurückgelieferten": 8198,
      "modifikation": 8199,
      "codiert": 8200,
      "domdocument_create_pro": 8201,
      "domdocument_create_attribute": 8202,
      "domdocument_create_entity_re": 8203,
      "relative": 8204,
      "fdf_set_value": 8205,
      "##sprachen": 8206,
      "unsere": 8207,
      "unserer": 8208,
      "crack_check": 8209,
      "##wechsel": 8210,
      "einzubinden": 8211,
      "spätere": 8212,
      "sess_session": 8213,
      "mysql_list_fields": 8214,
      "julianday": 8215,
      "##block_size": 8216,
      "php_self": 8217,
      "headers_sen": 8218,
      "zip_entry_open": 8219,
      "alphabeti": 8220,
      "numerisches": 8221,
      "früher": 8222,
      "früheren": 8223,
      "##3333": 8224,
      "##kürlichen": 8225,
      "betriebssystemen": 8226,
      "similar_text": 8227,
      "##msginfo": 8228,
      "produktions": 8229,
      "internal": 8230,
      "pdf_open_gif": 8231,
      "pdf_open_tiff": 8232,
      "pfpro_clean": 8233,
      "mailinglisten": 8234,
      "aktionen": 8235,
      "secure": 8236,
      "serialisi": 8237,
      "max_execution_time": 8238,
      "formatierungs": 8239,
      "verbundenen": 8240,
      "berechtigungen": 8241,
      "##vention": 8242,
      "absolute": 8243,
      "pgsql_both": 8244,
      "##00000000": 8245,
      "eingeschaltet": 8246,
      "übertragung": 8247,
      "momentanen": 8248,
      "143": 8249,
      "\\\"\");": 8250,
      "hängen": 8251,
      "join": 8252,
      "##222": 8253,
      "absteigen": 8254,
      "bessere": 8255,
      "sequenzen": 8256,
      "cybermut_test": 8257,
      "rolle": 8258,
      "realm": 8259,
      "unicode": 8260,
      "##kürzt": 8261,
      "anonymes": 8262,
      "cpdf_setrgbcolor_stroke": 8263,
      "hochgeladene": 8264,
      "effektive": 8265,
      "vorgabewert": 8266,
      "vorgabewerte": 8267,
      "integration": 8268,
      "wiederholungs": 8269,
      "platziert": 8270,
      "document_root": 8271,
      "garbage": 8272,
      "##position": 8273,
      "mysql_get_host_info": 8274,
      "projekt": 8275,
      "betriebssystems": 8276,
      "ursprünglichen": 8277,
      "mb_convert": 8278,
      "##rator": 8279,
      "posix_getp": 8280,
      "besitzen": 8281,
      "übereinstimmende": 8282,
      "eindeutigen": 8283,
      "ucfirst": 8284,
      "deklariert": 8285,
      "ausserhalb": 8286,
      "ora_logon": 8287,
      "ocirollback": 8288,
      "geholten": 8289,
      "hexadezim": 8290,
      "willkürlichen": 8291,
      "ähnlichen": 8292,
      "begann": 8293,
      "umzuwand": 8294,
      "durchzugehen": 8295,
      "http_post_vars": 8296,
      "extract_type": 8297,
      "persönlichen": 8298,
      "mirror": 8299,
      "nachfolgenden": 8300,
      "ordnung": 8301,
      "udm_ispell_type_db": 8302,
      "assert_options": 8303,
      "gefällt": 8304,
      "openssl_pkcs7_sign": 8305,
      "maximalwert": 8306,
      "##spezifischen": 8307,
      "vergleichsfunktion": 8308,
      "otto": 8309,
      "##zähler": 8310,
      "analysiert": 8311,
      "stdout": 8312,
      "##utdown_function": 8313,
      "imap_deletemailbox": 8314,
      "gebräuchlich": 8315,
      "gebräuchlichen": 8316,
      "verbessern": 8317,
      "anwendungs": 8318,
      "integriert": 8319,
      "sammlung": 8320,
      "slashes": 8321,
      "trig": 8322,
      "unknown": 8323,
      "statist": 8324,
      "pdf_show_xy": 8325,
      "gethostbyname": 8326,
      "array_unique": 8327,
      "constants": 8328,
      "pg_connection_status": 8329,
      "pg_connection_busy": 8330,
      "abstraktions": 8331,
      "irgendwelche": 8332,
      "irgendwelchen": 8333,
      "drehung": 8334,
      "sperren": 8335,
      "##wissern": 8336,
      "deprecated": 8337,
      "ausgeschriebener": 8338,
      "übernimmt": 8339,
      "##_client_info": 8340,
      "##_client_encoding": 8341,
      "parse_ini_file": 8342,
      "gespeicherte": 8343,
      "gespeicherten": 8344,
      "feldtypen": 8345,
      "transparent": 8346,
      "transparente": 8347,
      "ldap_next_entry": 8348,
      "ldap_next_attribute": 8349,
      "pdf_set_info_": 8350,
      "signatur": 8351,
      "signature": 8352,
      "kompatiblen": 8353,
      "another_cart": 8354,
      "pfades": 8355,
      "summe": 8356,
      "##_rowid": 8357,
      "##ndeliegen": 8358,
      "parallel": 8359,
      "angeforderte": 8360,
      "gesucht": 8361,
      "mysql_db_name": 8362,
      "##layitem": 8363,
      "interessant": 8364,
      "short_tags": 8365,
      "\"]);}": 8366,
      "empfänger": 8367,
      "routinen": 8368,
      "eingebettet": 8369,
      "fähigkeiten": 8370,
      "##cessing_instru": 8371,
      "cybermut_creerreponse": 8372,
      "visual": 8373,
      "##nitten": 8374,
      "##wise": 8375,
      "untergeordneten": 8376,
      "procedure": 8377,
      "ldap_first_entry": 8378,
      "getproperty": 8379,
      "toolkit": 8380,
      "komprimierungsfunktionen": 8381,
      "akzeptiert": 8382,
      "udm_ispell_type_server": 8383,
      "gefährliche": 8384,
      "autoglobale": 8385,
      "eingelesene": 8386,
      "fatal": 8387,
      "kürzer": 8388,
      "octdec": 8389,
      "wandelt": 8390,
      "##lish": 8391,
      "##mark": 8392,
      "##install": 8393,
      "dateisystemen": 8394,
      "op_halfopen": 8395,
      "modified": 8396,
      "pdf_close_image": 8397,
      "cpdf_rmoveto": 8398,
      "imagettftext": 8399,
      "##raphic": 8400,
      "ungerade": 8401,
      "call_user_fun": 8402,
      "ctype_alpha": 8403,
      "palette": 8404,
      "cuatro": 8405,
      "draft": 8406,
      "easter_date": 8407,
      "lernen": 8408,
      "pufferung": 8409,
      "small": 8410,
      "sonntag": 8411,
      "yyyy": 8412,
      "undefin": 8413,
      "erinn": 8414,
      "erleichtern": 8415,
      "erkennen": 8416,
      "gelinkt": 8417,
      "geänderten": 8418,
      "dateibasierte": 8419,
      "schlecht": 8420,
      "angewandt": 8421,
      "##ception": 8422,
      "instanti": 8423,
      "zugrundeliegen": 8424,
      "pg_set_client_encoding": 8425,
      "pg_last_notice": 8426,
      "adressen": 8427,
      "columns": 8428,
      "inkrementiert": 8429,
      "ircg_register_format_messages": 8430,
      "success": 8431,
      "specified": 8432,
      "hervorgehoben": 8433,
      "bird": 8434,
      "cinco": 8435,
      "cainfo": 8436,
      "dollar": 8437,
      "editieren": 8438,
      "follow": 8439,
      "ibm": 8440,
      "kriterien": 8441,
      "lynx": 8442,
      "nbsp": 8443,
      "nmsgs": 8444,
      "sitzung": 8445,
      "t1lib": 8446,
      "tupel": 8447,
      "ziffer": 8448,
      "##tty": 8449,
      "##normal": 8450,
      "##kontroll": 8451,
      "##hawk": 8452,
      "vergewissern": 8453,
      "verurs": 8454,
      "verantwort": 8455,
      "verworfen": 8456,
      "verdoppeln": 8457,
      "getimagesize": 8458,
      "bewegt": 8459,
      "schweine": 8460,
      "scheitern": 8461,
      "schützen": 8462,
      "##_cdata_section": 8463,
      "unterdrücken": 8464,
      "geschehen": 8465,
      "mysql_get_client_info": 8466,
      "mysql_thread_id": 8467,
      "htaccess": 8468,
      "pg_put_line": 8469,
      "continue": 8470,
      "pdf_execute_image": 8471,
      "##agnostic": 8472,
      "sesam_settransaction": 8473,
      "sesam_diagnostic": 8474,
      "imap_createmailbox": 8475,
      "pg_send_query": 8476,
      "endgültig": 8477,
      "##_continue_text": 8478,
      "whitesp": 8479,
      "libmodphp4": 8480,
      "dba_sync": 8481,
      "dba_firstkey": 8482,
      "imap_renamemailbox": 8483,
      "imap_mailboxmsginfo": 8484,
      "imap_getmailboxes": 8485,
      "array_change_key_case": 8486,
      "javascript": 8487,
      "heimatverzeichnis": 8488,
      "sem_acquire": 8489,
      "swfdisplayitem": 8490,
      "register_shutdown_function": 8491,
      "domdocument_create_processing_instru": 8492,
      "domdocument_create_entity_reference": 8493,
      "sess_session_name": 8494,
      "headers_sent": 8495,
      "pfpro_cleanup": 8496,
      "cybermut_testmac": 8497,
      "posix_getpw": 8498,
      "cybermut_creerreponsecm": 8499,
      "domdocument_create_processing_instruction": 8500,
      "'\\": 8501,
      "'(": 8502,
      "'@": 8503,
      "(,": 8504,
      "(?)": 8505,
      ")\",": 8506,
      ")\";": 8507,
      "**": 8508,
      "-)": 8509,
      "-\\": 8510,
      "/\"": 8511,
      "/}": 8512,
      "/..": 8513,
      "/\";": 8514,
      "/...": 8515,
      "04": 8516,
      "08": 8517,
      "05": 8518,
      "000": 8519,
      "233": 8520,
      "37": 8521,
      "34": 8522,
      "41": 8523,
      "45": 8524,
      "740": 8525,
      "99": 8526,
      ":]": 8527,
      ":...": 8528,
      ";,": 8529,
      ";\",": 8530,
      ";'),": 8531,
      "])": 8532,
      "]-": 8533,
      "]*": 8534,
      "]\",": 8535,
      "_system": 8536,
      "_vars": 8537,
      "ag": 8538,
      "ari": 8539,
      "aff": 8540,
      "asin": 8541,
      "acos": 8542,
      "bier": 8543,
      "bash": 8544,
      "blink": 8545,
      "baum": 8546,
      "ct": 8547,
      "ck": 8548,
      "cor": 8549,
      "car": 8550,
      "ctr": 8551,
      "cia": 8552,
      "crypt_": 8553,
      "credit": 8554,
      "df": 8555,
      "dname": 8556,
      "drück": 8557,
      "dump": 8558,
      "dritt": 8559,
      "dcom": 8560,
      "dzt": 8561,
      "ed": 8562,
      "eod": 8563,
      "eher": 8564,
      "edu": 8565,
      "e_all": 8566,
      "euc": 8567,
      "epoch": 8568,
      "ebcdic": 8569,
      "fl": 8570,
      "find": 8571,
      "gib": 8572,
      "graphic": 8573,
      "hq": 8574,
      "here": 8575,
      "hour": 8576,
      "halten": 8577,
      "hans": 8578,
      "jü": 8579,
      "jjj": 8580,
      "joghurt": 8581,
      "ke": 8582,
      "kb": 8583,
      "kost": 8584,
      "klau": 8585,
      "klick": 8586,
      "kredit": 8587,
      "kreis": 8588,
      "katalog": 8589,
      "lit": 8590,
      "lage": 8591,
      "lstat": 8592,
      "letter": 8593,
      "mas": 8594,
      "mik": 8595,
      "mill": 8596,
      "must": 8597,
      "m_pi": 8598,
      "nc": 8599,
      "noc": 8600,
      "now": 8601,
      "native": 8602,
      "night": 8603,
      "ncols": 8604,
      "ncur": 8605,
      "oml": 8606,
      "o_cre": 8607,
      "p1": 8608,
      "por": 8609,
      "pau": 8610,
      "pla": 8611,
      "pclose": 8612,
      "pkcs7": 8613,
      "rm": 8614,
      "run": 8615,
      "rdn": 8616,
      "rahmen": 8617,
      "rename": 8618,
      "rtrim": 8619,
      "sur": 8620,
      "she": 8621,
      "send": 8622,
      "sample": 8623,
      "satz": 8624,
      "sgi": 8625,
      "suggest": 8626,
      "ter": 8627,
      "tan": 8628,
      "tas": 8629,
      "twas": 8630,
      "ttf": 8631,
      "tagen": 8632,
      "trifft": 8633,
      "ut": 8634,
      "usen": 8635,
      "uses": 8636,
      "v1": 8637,
      "vö": 8638,
      "vel": 8639,
      "vla": 8640,
      "wann": 8641,
      "xv": 8642,
      "x1": 8643,
      "x2": 8644,
      "xff": 8645,
      "xhtml": 8646,
      "x7f": 8647,
      "y1": 8648,
      "y2": 8649,
      "zee": 8650,
      "};": 8651,
      "ähne": 8652,
      "##xen": 8653,
      "##iant": 8654,
      "##ited": 8655,
      "##ival": 8656,
      "##sr": 8657,
      "##sa": 8658,
      "##same": 8659,
      "##slog": 8660,
      "##sstring": 8661,
      "##tl": 8662,
      "##tlich": 8663,
      "##ther": 8664,
      "##tausen": 8665,
      "##e3": 8666,
      "##ege": 8667,
      "##eername": 8668,
      "##rr": 8669,
      "##reitung": 8670,
      "##rfc": 8671,
      "##neiden": 8672,
      "##dlich": 8673,
      "##druck": 8674,
      "##domain": 8675,
      "##__": 8676,
      "##_le": 8677,
      "##_an": 8678,
      "##_ok": 8679,
      "##_op": 8680,
      "##_lob": 8681,
      "##_att": 8682,
      "##_tick": 8683,
      "##_raw": 8684,
      "##_text_": 8685,
      "##_length": 8686,
      "##_icon": 8687,
      "##ps": 8688,
      "##php": 8689,
      "##pass": 8690,
      "##puff": 8691,
      "##kategor": 8692,
      "##oben": 8693,
      "##oin": 8694,
      "##onell": 8695,
      "##hre": 8696,
      "##haben": 8697,
      "##hile": 8698,
      "##height": 8699,
      "##az": 8700,
      "##gä": 8701,
      "##gra": 8702,
      "##gungs": 8703,
      "##gierte": 8704,
      "##gory": 8705,
      "##cl": 8706,
      "##cases": 8707,
      "##uu": 8708,
      "##une": 8709,
      "##ula": 8710,
      "##fie": 8711,
      "##find": 8712,
      "##fli": 8713,
      "##foo": 8714,
      "##fun": 8715,
      "##flag": 8716,
      "##leiten": 8717,
      "##lösung": 8718,
      "##mert": 8719,
      "##map": 8720,
      "##zhandler": 8721,
      "##ziehen": 8722,
      "##yles": 8723,
      "##ves": 8724,
      "##vent": 8725,
      "##v_vars": 8726,
      "##bn": 8727,
      "##bat": 8728,
      "##bieren": 8729,
      "##browser": 8730,
      "##üb": 8731,
      "##äres": 8732,
      "##13": 8733,
      "##wö": 8734,
      "##wünsch": 8735,
      "##while": 8736,
      "##67": 8737,
      "##21": 8738,
      "##2str": 8739,
      "##2br": 8740,
      "##2long": 8741,
      "##55": 8742,
      "##.\"": 8743,
      "##ßen": 8744,
      "##*.*": 8745,
      "##chern": 8746,
      "##ieden": 8747,
      "zustand": 8748,
      "##eist": 8749,
      "##eigend": 8750,
      "##achtelt": 8751,
      "##onent": 8752,
      "##onment": 8753,
      "##orien": 8754,
      "##statement": 8755,
      "##stroy": 8756,
      "dieter": 8757,
      "zurã": 8758,
      "vorau": 8759,
      "phpversion": 8760,
      "phpdoc": 8761,
      "anfäng": 8762,
      "ansprechen": 8763,
      "anzeige": 8764,
      "##lle": 8765,
      "##lla": 8766,
      "##llname": 8767,
      "##arc": 8768,
      "##art_": 8769,
      "##artige": 8770,
      "augen": 8771,
      "##seh": 8772,
      "##sekunden": 8773,
      "derzeit": 8774,
      "deref": 8775,
      "veri": 8776,
      "verz": 8777,
      "veral": 8778,
      "verrie": 8779,
      "verlä": 8780,
      "vereinf": 8781,
      "verfä": 8782,
[...]
